#version: 0.2
à ¸
Ġ t
a n
i n
e r
à ®
Ġ .
Ġ a
Ġ s
Ġ ,
o n
Ġt h
e n
Ġ c
r e
a t
à ¹
o r
Ġ b
e s
Ġ p
Ġ m
i t
a r
Ġ w
Ġth e
a l
Ġ d
i s
o u
in g
Ġ f
à ¯
Ġ h
e d
Ġ -
Ġ o
Ġ an
á Ģ
á »
l e
i c
a s
Ġ S
Ġ in
o m
Ġ n
Ġt o
Ġ T
i on
Ġan d
Ġ l
Ġ 1
Ġ A
Ġo f
Ġ 2
Ġ C
e l
Ġ :
i l
en t
Ġ I
Ġ P
à¯ į
à¸ ²
e t
a m
r o
â Ģ
Ġ M
à¸ Ļ
Ġ g
u s
á º
Ġ y
á ŀ
Ġ B
à¸ £
c t
Ġ âĢ
Ġ re
u n
Ġ k
i d
e m
Ġ à®
a d
c h
a y
Ġ (
o t
o l
Ġ D
à¸ Ń
Ġ v
Ġ e
i m
à¯į à®
a k
s t
Ġ )
Ġ R
u r
n g
Ġ H
à¹ Ģ
i g
à¹ Ī
Ġ 0
o w
Ġ à¸
à¸² à¸
u t
Ġ F
an g
Ġf or
Ġ W
ĠT h
v e
u l
Ġ /
Ġ2 0
Ġy ou
a g
Ġ is
Ġ on
Ġ L
à¸£ à¸
i r
à¹Ģ à¸
Ġ N
ã Ģ
c e
er s
at ion
l y
à¹ ī
Ġb e
Ġ "
à¸Ļ à¸
Ġs t
a p
à¸Ń à¸
it h
Ġ G
Ġ 3
ģ à¸
Ġ Ä
Ġc h
Ġ E
Ġ '
a h
à¯ ģ
t er
Ġ r
t h
a b
Ġc om
à® ¿
u m
Ġt r
Ġ O
Ġw ith
Ġw h
ĠÄ ĳ
a c
o d
v er
i f
Ġ ï
Ġ it
Ã ł
o s
Ġth at
à®¿ à®
Ġs e
ĩ à¸
i k
Ġ20 1
Ġa l
ä ¸
Ġp ro
es t
e w
Ġ K
q u
ĠTh e
Ħ à¸
il l
Ġ å
Ġc on
es s
Ġ 5
u p
Ġ J
at e
ĠI n
Ġ 4
an d
0 0
Ġa t
i p
a in
Ġ or
Ġa s
ig h
à¸ µ
o p
Ġ ãĢ
± à¸
Ġ Â
is t
. .
o re
Ġ j
à¯ģ à®
ou r
an t
¿ ½
i v
er e
Ã ¡
Ġ U
ou t
Ġa re
e c
Æ °
o c
en g
u d
e p
ar t
Ġf r
Ġs h
o k
Ġ |
u re
i a
en d
Ġ V
ĠâĢ Ļ
á Ł
à® ¾
ou n
or t
Ġï ¼
it y
à¹Ī à¸
Ġ Ã
Ġa d
à¸ ´
m ent
Ġe x
à®¾ à®
o st
i ve
a ve
Ġ æ
Ġ ;
in e
i es
us t
Ġb y
l d
o g
igh t
i b
Ġw e
u k
ic e
¡ à¸
Ġth is
e ct
Ġ un
al l
p l
ar d
Ġ 6
u b
i á»
Ġyou r
re s
¥ à¸
Ġ le
ac k
Ġfr om
e ar
Ġ us
ä º
om e
i al
on g
ĠS t
el l
ĠC h
à¹ Ħà¸
ag e
à¹ ģà¸
r a
Ġw as
Ġa b
Ġ 7
Ġh ave
Ġd i
ãĢ Ĳ
Ġc an
ª à¸
id e
as t
Ġ 9
Ġï¼ Į
Ġ ?
Ġ 8
Ġp h
ĳ ãĢĲ
Ġ Y
n h
Ġ =
à¹ī à¸
Ġn ot
à¯įà® ķ
Ġn h
Ġ !
Æ° á»
g h
¢ à¸
Ġ qu
ï ¿½
p er
Ġd e
o ok
em b
s e
y a
Ġs p
Ġy ang
Ġp l
Ġh e
a re
§ à¸
ct ion
in d
à® °
ab le
Ġp er
áº ¡
à¹ Į
i z
ĠA n
f f
áº ¿
Ķ à¸
a v
ĠãĢ ĳãĢĲ
Ã ´
a il
k an
à¸´ à¸
Ġ. ..
à¹ ĥ
à¯ Ī
Ġw ill
Ġ1 0
i an
on e
o b
å ı
Ġw or
à® ¤
Ġ &
Ġ áŀ
ou ld
à¯įà® ¤
Ĺ à¸
Ġal l
Ã ª
Ġ ç
Ġ %
u e
Ġk h
áĢ ¹
a ch
à º
ļ à¸
it e
Ġd o
Ġ1 9
or m
Ġn g
Ġ #
t t
Ġd an
Ġa p
a i
Ġg o
ļ Ħ
d er
Ã ³
° à¸
áº £
ĠâĢ ľ
å ®
at ed
Ġ à¹Ģà¸
Ġcom p
Ġcon t
al ly
an s
un g
Ġ áĢ
Ġ up
Ġre s
c c
Ġ $
Ġn e
Ġ im
ar y
p ort
k s
à¹ Ĥ
it ion
ĠR e
o v
ic h
Ġc l
h er
ç ļĦ
ig n
Ġm e
u g
r y
Ĺ à¸µ
Ġh as
æ ľ
i e
am e
Ġp r
oun d
Ġa r
Ġs a
ak e
ar i
d u
á» Ļ
as s
2 0
t s
i re
ou s
re e
Ġs o
Ġ" :
Ġ out
ou gh
Ġb ut
Ġï ¿½
en s
ĠA l
is h
à® ©
¸ à¸
ĠâĢ ĭ
e b
im e
Ġ x
Ġm en
áº ¥
å ħ
a w
a ce
ow n
Ġm an
as e
å ¤
a ct
Ġt e
ģ à¸²
i ew
Ġm ore
Ã ¢
áĢ¹ áĢ
Ġ20 0
er v
ï¿½ ï¿½
à¸µ à¸
à® Ł
® à¯į
g e
ĠS h
i le
ar k
Ī à¸
ic k
Ġd is
am p
Ġ1 2
f er
Ĵ áŀ
on t
á» ĳ
Ġ è
Ġb er
en ce
s o
ent s
an ce
iá» ĩ
Ġm y
ä »
p t
u y
Ġ ]
/ /
ic al
áŁ Ĵáŀ
or d
Ġt er
Ġ1 1
à¹ĥ à¸
« à¸
áĢ ¬
th er
Ġà® ª
tt p
f orm
Ġ [
ĠW h
ion s
c l
å Ī
Ġon e
ĠâĢ ĵ
Ġa g
ay s
ul t
à® ³
re at
ĠT r
ĠI t
Ġ: //
Ġa m
Ġh ttp
ation s
Ġ en
a u
ŀ à¸
in t
à¸£à¸ µ
l o
Ġk e
ik e
res s
áŀ ¶
à¹Ĥ à¸
Ã ¬
Ġ \
Ãª n
ä ¹
on d
ķ à¸
oun t
f t
g r
Ġ }
Ġ ro
Ġab out
Ġin t
Ġ our
Ġthe y
u al
Ġà® ķ
in k
ĠP ro
or y
er y
Ã´ ng
ing s
or s
Ġn ew
ç ½
Æ ¡
à¯įà® ª
ĠC om
Ġthe ir
Ġ {
er t
i h
Ġg et
Ā Ā
Ġ if
Ġ é
ķ à¯įà®ķ
ĠU n
à® ²
Ġwh ich
el y
at a
Ġ1 5
os e
á» §
ĠâĢ Ŀ
ĠAn d
ĠW e
Ġg r
ar a
áĢ ¸
ä ½
Ġt ime
Ġc ol
áº Ń
p e
ĠTh is
Ġ >
áĢ º
Ġs u
ĠÄĳ á»
à¯Ī à®
o od
Ġv á»
Ġp re
ç½ ĳ
ĠA s
Ġy ear
x t
r u
n ya
Ġ Q
à¹Ī à¸²à¸
à¯įà® Ł
Ġv Ãł
ter n
e k
à¸Ńà¸ ĩà¸
v el
áĢ ¯
æ ĸ
ĠA r
Ġà® µ
at er
Ġ" ,
Ġun t
Ġ0 1
Ġ0 0
ar g
áŀ¶ áŀ
Ġs c
Ġb l
Ġan y
Ġe v
l ine
es e
Ġd es
Ġp art
à¹ ĩ
Ã Ń
oc k
å ľ
áĢ Ń
on s
ad a
Ġal so
o ol
ĠA d
il d
t e
áº §
o y
Ġwor k
ĠO n
Ġ +
Ġre c
ĠãĢ Ĥ
Ġf e
Ġà® ®
en c
à¸Ńà¸ ĩ
æ Ĺ
emb er
ur n
Ġap p
à¯ ĩ
an c
Ġà® ħ
le ct
å Ľ
Ġwh o
1 0
um b
ad e
Ġa cc
r i
Ġ1 8
ĠP h
áĢ Ģ
Ġm eng
Ġof f
Ġh is
ĠH e
Ġk n
Ġs ome
an y
Ġl ike
æ Ī
eng an
at es
m er
ul l
Ġ) .
i áº¿
Ġ2 5
Ġo ver
at h
Ã¡ c
Ġ1 4
em ent
Ġth ere
Ġl Ãł
ro w
Ġ i
Ġà® ¤
Ġ1 3
ver y
å Ĳ
Ġo ther
ic es
Ġwh en
Ġ1 6
âĢ Ŀ
ĠY ou
Ġ2 2
å Ĭ
at ing
ir st
å ¹
Ĺà¸µ à¹Īà¸
ĠA p
Ġth an
à® µ
ak an
y st
o ve
Æ°á» Ŀ
Ġne ed
Ġin d
a j
Ġthe m
a x
Ġà® ļ
à¸£ à¸²à¸
ĠN ew
à¹Į à¸
ĠF or
l ow
Ġth á»
du ct
el p
à¹ ĩà¸
v iew
å į
us e
A N
a ir
Ġc o
Ġp e
Ġm ay
Ġunt uk
à®¿à® ²
Ġd engan
à¯ģà® ®à¯į
Ġj ust
u c
ģà¸² à¸£à¸
_ _
Ġ3 0
± áĢ
Ġ ä¸
Ġw ould
l es
Ġt á»
Ġs up
ol d
Ġf un
Ġ à¹ģà¸
Ġbe en
am a
Ġwh at
ap p
¹ à¸
Ġb r
Ġm em
Ľ i
´ à¸
Ľ à¸
á ģ
Ġ em
áĢ Ħ
E R
et h
æ ĺ
Ġn o
ic t
Ġh ad
it t
ç ī
Ġad d
áº¥ t
à®¿à® ¯
cl ud
Æ°á» £
ç Ķ
Ĭ à¸
al am
· à¹Ī
ĠP r
Ġà® ĩ
Ġ *
Ł à¸£à¸µ
Ġin i
ĠC l
áº¡ i
Ä ĥ
Ġb et
Ġ1 7
Ġs erv
d ay
as h
Ġw ere
n ing
è ¿
± à¸Ļà¸
Ġch o
Ġb ack
Ġpro v
ic s
Ġh ow
ĠB l
yst em
ĠE x
u h
å ½
j ect
³ à¸
is s
Ġs et
Ã º
à¯ Ĩ
Ġit s
à¸£à¸ ±à¸
áĢ¸ áĢ
Ġc Ã³
Ġc á»§
e e
Ġ â
as i
f ul
ol og
Ġbe c
I N
Ġcá»§ a
à¸£à¸ °à¸
6 5
ment s
Ġm in
Ġt w
f ter
ĠÄ Ĳ
al e
à¹ī à¸²à¸
ay a
if ic
an k
Ġo p
i o
æ ī
ĠS p
æ Ŀ
ĠF r
e y
Ġ201 7
Ã £
n er
¨ à¯įà®¤
re d
ot h
à¹Ī à¸²
iz e
Ġf irst
in ess
a z
Ġh á»
Ġh elp
at ure
Ġus e
w w
Ġ) ,
Ġse c
Ġint o
à¹ī à¸²
à¹Ħà¸ Ķ
Ġin ter
ow er
Ġà® ¨
al s
Ġin clud
è ®
Ġ, "
Ġp ost
ub l
at ch
op le
å °
Ġst r
Ġh igh
Ġg i
Ġl ook
Ġp os
Ġcom m
1 3
Ġ", "
äº º
ĠP l
Ġon ly
v o
Ġh er
is e
ĠâĢ ¦
Ġ2 4
ad ing
ĠãĢ ģ
ª à¯įà®ª
or k
Ġm ake
Ġ X
Ġ201 9
c r
p le
ç »
Ġcon s
Ġd own
ul y
Ġre l
å ·
us iness
è ½
Ġtr ans
ro l
1 2
r ough
à® £
ä ¼
Ġ": "
en er
- -
á» ĭ
Ġsa id
Ġ u
Ġ. .
à¸Ń à¸Ļ
ľ à¸
Ĺà¸µ à¹Ī
per t
Ħ à¸£à¸
Ġv ery
ip t
à® ®
áº ¯
Ã¬ nh
it ies
Ġs ub
il y
1 4
ĠI f
Ġkn ow
3 0
Ġm u
Ġb o
p x
à¯įà® ±
à® ±
ĠU S
ĠT e
et s
r it
Ġm od
w e
Ġd r
è ¯
Ġw ell
ĠD e
ĠM ar
Ġa ct
5 0
a use
ĠL e
à¯ ĭ
Ġgo od
ang e
ĠIn d
å ¸
ation al
s s
Ġà® İ
p h
Ġ201 8
t ing
ä¸ Ģ
Ã¢ n
ĠP ost
Ġpe ople
er m
t on
Ġ Z
i x
i ous
Ġw ww
Ġl oc
.. ..
Ġas s
Ġb u
Ġb el
Ġre g
Ġm ost
ul ar
Ġwe b
ģà¸² à¸£
o h
Ġs m
ĠAl l
al ah
el s
Ġd ec
ib le
Ġ1 00
i ed
ad i
lo ad
ag es
it s
it ed
Ġat t
ĠG r
1 9
Ġto p
è µ
Ġin v
Ġre m
Ġa c
Ġun der
åı ĳ
iv ers
f ore
Ġe very
Ġc ar
O N
± à¸Ļ
iá» ģ
form ation
Ġth rough
á» ¯
Ġ0 00
á» ±
8 8
il ity
Ġt y
w n
Ġd if
ers on
ĠC ol
ļ áŀ
å ¼
am b
Ġw ant
à¯įà®ķ à®³
if e
áĢ Ĳ
Ġ0 7
áĢŃ áĢ¯
ĀĀ ĀĀ
Ġd ari
° à¹Ģà¸
Ġin st
Ã ²
ĠÂ »
g an
ĠW ith
ļ à¸Ńà¸
Ġm ak
ra ct
Ġ ed
Ġb est
é Ĺ
ou se
Ġ ent
Ġm emb
Ġst ud
p ect
Ġr ight
el d
ec k
Ġin s
Æ°á»£ c
å Ń
l and
æ Ĭ
Ġb as
Ġv e
¡ à¸²à¸
Ġg reat
Ġm ed
ĠB e
Ġse b
Ġtw o
) ;
r ic
Ġse e
ĸ à¸
Ġ2 1
A T
Ġa fter
ark et
Ġ2 3
Ġf ind
ĠQ u
à®¤ à¯įà®¤
y s
Ġl ist
Ġd ata
i ence
ou p
Ġp o
Ġar t
Ġm as
el f
Ġ5 0
à®¿à® °
ï ¼
Ġth ese
Ġin c
Ġb ook
Ġh ome
å ¿
at ive
á» ¥
Ġf l
ch n
áĢ ķ
6 6
A R
Ġn ow
id ak
á» ©
à® ®à¯į
à®¿à®² à¯į
Ã ©
it a
ĠT o
Ġs ystem
à¹Ħà¸ ¡
ĠM an
1 5
1 7
á»Ļ t
Ġà¸ ªà¸
Ġpl ay
Ġc Ã¡c
gr am
ar m
Ġpro duct
ĠIn vo
in h
1 8
§ à¸²à¸
æĺ ¯
Ľ à¹ĩ
ik an
Ġre t
à® ķ
al th
Ġm on
r ap
le t
U S
ĠR ep
ĠS e
an a
Ġv al
b le
Ġs ch
Ġre qu
ar n
Ġc ur
å Ĩ
Ġd et
ar s
à¯ Ĭ
à®¿à® ©
ang an
Ġfor m
vel op
ĠR es
à®¾à® °
Ġt ak
à®¤ à¯ģ
Ġp ol
æ ¸
ear ch
Ġwh ere
Ġc ould
é Ģ
Ġkh Ã´ng
c ess
Ġsp ec
ĠB r
Ġ201 6
ĠS o
k a
áĢ Ļ
Ġf in
Ġd alam
E N
i ent
é ĩ
Ġyear s
áĢ ¼
od e
Ãł y
Ġf il
Ġsh ould
w ard
Ġw ay
Ġd ay
æ ³
Ġf ree
Ġo b
Ġs er
ur ing
å¤ §
å º
Ã ¹
u a
Ġfun ction
ç «
6 0
ion al
h ip
an ya
à¸Ļà¸ µ
Ġa ut
o ver
Ġman y
umb er
ä¸ ĭ
ĠÄĳ Æ°á»£c
ĠH ow
ç Ľ
á» Ł
Ġon line
Ġsh ow
Ġst art
Ġdes ign
iá»ĩ n
à¸Ļ à¹Ģà¸
Ġs im
Ġs ur
in a
ĠO r
7 5
ust om
id ent
Ġo pt
à¹ĥà¸ «
Ġth en
åĽ ½
E S
à¯Īà® ¯
2 2
áº ·
en e
v ail
Ġim p
Ġsh e
er n
ĠC on
åľ ¨
Æ° Æ¡
Ġex per
å® ĺ
ap at
i Ãªn
h e
g et
ĩ à¹Ģà¸
i or
ate g
9 9
uk an
7 0
Ġd id
d ition
Ġev en
Ġp res
à¯ģà® ķà¯įà®ķ
Ġh ere
à® ¯
Ġ2 8
i er
Ġe ff
ol low
Ġin formation
in s
áº§ n
Ġsu ch
O R
ĠI s
1 6
å Į
å İ
Ġ <
Ġbec ause
Ġt idak
Ġg u
Ġà¸ ª
ç İ
2 4
à¯ģà® ¤
Ġl o
å ±
á Ĥ
Æ°á» Ľ
ot t
Ġ end
é Ļ
Ġ2 6
ĠS c
Ġb usiness
Ġ0 9
Ġ201 3
Ġtr ong
l ed
ĠE n
Ġh and
it ch
Æ°á»Ŀ i
Ġre p
Ġd on
áĢ Ķ
Ġl ong
m an
Ġbe fore
Ħà¸ §à¸²à¸
al k
Ġus ed
äº Ĩ
w ay
áĢĦ áĢ¹áĢ
Ġdif fer
Ġre ad
Ġd ep
à¹ī à¸Ńà¸
ure s
Ġmu ch
Ġn gh
ģ à¸£à¸
) .
Ġå ¤
re en
um p
Ĥ à¸
è ¡
à¹ĥ à¸Ļà¸
Ġde f
or n
Ġc all
Ġ0 8
ro om
Ġï¼ ļ
u es
at her
Ġ201 2
áĢ ±áĢ
Ġs k
áº¡ n
Ġm á»Ļt
ot her
áŀ ĵ
áŀ Ģ
å½ ©
ĩà¸ ´
ĠN o
Ġ @
iv es
ĠD es
pl ic
ubl ic
ĠH ome
Ġf am
Ġ áģ
ol ut
å ¾
¡ à¸µà¸
9 0
ĠInvo ice
Ġ0 2
it al
a f
Ġ z
å ¥
Ġ2 7
8 0
Ġvá» Ľi
at an
Ġth ink
à¹Ī à¸Ļ
m s
le h
æĹ ¶
Ġv is
olog y
2 5
Ġc r
o x
Ġprov id
iá» ĥ
iv ing
ç º
Ġs l
ä¸ Ń
e x
vail able
à »
à®Ł à¯įà®Ł
Ġl ast
v en
in es
à® Ļ
em p
Ġ- -
as on
Ġï¿½ ï¿½ï¿½
à®¾à® ©
Ġ à¹Ĥà¸
è §
ĠP M
Ġex t
Ġa ir
· à¸Ńà¸
Ġo wn
j a
ist r
æľ ī
Ġp en
A L
ic le
áŀ Ħ
à¹Ħà¸Ķ à¹ī
ĠD r
à¹Īà¸ ĩà¸
ĠCom p
3 4
ĠC ont
Ġdis c
è ´
Ġag ain
Ġ= "
iá»ģ u
Æ°Æ¡ ng
al ity
Ġa kan
le ase
Ġ2 9
Ġm ade
o ot
at or
Æ°á»Ŀ ng
¥à¸ °à¸
Ġp erson
as a
Ġ201 5
at t
Ġt ake
Ġc re
ļ à¸²à¸
re ad
Ġit u
d ing
er g
Ķ à¸´à¸
v ent
å ĩ
á» į
Ġs ign
æĿ ¥
re ct
Ġp ar
ro p
a o
åĪ Ĩ
Ġdo es
am es
Ãł ng
æľ º
áº£ i
Ġ201 4
Ġc le
ļà¸Ńà¸ ¥
ĭ à¸
à® ¨à¯įà®¤
us h
Ãł nh
ĠN e
g a
3 5
ĠA m
Ġin f
±à¸ ĩà¸
á» ĩ
le ction
ĠM ay
ĠâĢ Ķ
Ġc ent
áĢ ½
w are
Ġpro f
uly o
Ġ4 0
à¸£à¸ ´à¸
ï¼ Į
i qu
Ġg l
ide o
áº£ n
Ġex p
Ī à¸²à¸
u ally
å® ¶
Ġe ach
Ġwor ld
i eld
ĠTh ere
Ġbe ing
on es
Ġ _
Ġm el
Ġde velop
ä ¿
ow s
ĠP er
ain t
Ġpro gram
Ġng Æ°á»Ŀi
Ġ0 3
ĠB ut
Ġa k
a ut
i um
ru ct
Ġp ada
Ġre view
y n
A S
iz ed
ç ľ
im ulyo
1 1
4 0
c ed
Ġpro cess
Ġh o
Ãł n
ĠÂ £
ĠD ec
d f
an n
Ã¡ ch
ot e
à®¾à® ķ
ä¸ į
id er
ce pt
à®° à¯į
ar ch
Ãł i
á»¯ ng
ĠP re
à¯ Ģ
p r
áĢ ·
ag i
ant s
Ġcl ass
Ġ0 4
Ġus ing
ĠC ar
ot el
is m
3 9
em pl
Ġng ud
Ġngud imulyo
am i
ar ge
u an
Ġf ollow
Ġg ener
r am
è Ģ
Ġre ally
l ess
3 2
¥ à¸²à¸
áº§ u
å¹ ³
æ °
Ġ0 5
à®¿à® ±
ĠA b
r al
Ľ à¸£à¸°à¸
Ġv iew
un ity
om m
E D
r on
im es
at i
y l
ä¹ Ĳ
Ġnh Æ°
à¯įà® ļ
Ġs em
is a
Ġcont ent
æ¸ ¸
ĠE ng
á» ĵ
ĠI m
ent ly
Ġ. ,
Ġw id
Ġ19 9
un d
en a
áĢ ²
Ġd el
Ġ201 1
· à¸Ń
¶ à¸
ĠWh at
Ġserv ice
Ġle ft
Ġs om
ĠÂ ·
¡ à¸²
7 7
od y
Ġro om
in ce
Ġmon th
ç ¥
ģà¸ ±à¸
Ġpl ace
s ite
n ess
ĠS ch
we en
y le
Ġs it
è Ĥ
Ġc our
à¸£à¸µ à¸
ĠC o
à® ªà¯įà®ª
± à¹īà¸
Ġc ustom
ain ing
Ġth ose
ĠF ree
Ġa vailable
Æ°á»Ľ c
Ġsup port
ug a
Ã¢ y
Ġ el
ĵ à¸
ĥ ½
Ġch ild
à¹ī à¸Ļà¸
Ġc ount
à® ļ
Ġl ife
æ µ
ä¸ Ĭ
l ing
Ã´ i
I T
cr ipt
ĠD i
§ à¸´à¸
Ġh im
Ġr a
åı °
ĠÄĳ á»Ļ
Ġà®İ à®©
è½ ½
at u
at ur
Ġp ur
ĠJ un
áºŃ n
ĠJ an
ĠS ep
ut e
à¯ģà® ķ
Ġm arket
ĠA M
ł à¸²à¸
ĠB y
æī ĭ
ĠM y
ro ss
Ġcol or
Ġm er
ik a
ĠF l
us s
Ġb ar
áŁ ĭ
av ing
å ¯
pl ay
in al
æ ķ
ĠA mer
Ġar ound
Ġ) ;
r ist
r en
Ġ\ /
p ing
Ġim port
al u
Ġj ob
Ġn et
Ġà® ī
ç Ĳ
æĸ ¹
ĠS up
à¹ĥà¸ Ĭ
å Ŀ
ĠD o
Ġn umber
at s
am s
áº¿ n
ĠS erv
3 8
å¹ ´
Ġc are
Ġ ide
Ġwh ile
à¯ Ĥ
Ġ0 6
oc i
iáº¿ t
á» ķ
enc y
Ġdiffer ent
à¸Ń à¸²à¸
Ġbet ween
7 8
cc ess
Ġat au
Ġc or
I C
Ġad v
Ġ eng
æ ł
áĢ ħ
Ĥ à¸Ńà¸ĩà¸
Ġm et
Ġr un
Å ©
Ġs ame
Ġnh á»¯ng
Ġth ough
et y
le x
ĠC ent
ĠR o
Ġ. âĢĿ
Ġl ot
b ook
our ce
ĠCom m
ah an
amp le
Ġ3 5
Ġ Ð
¨ à¸
ish ed
b er
or ies
á» Ń
à¸Ń à¸£
ĠâĢ ĺ
Ã¡ n
Ġad alah
Ġwe ek
Ġv ar
à¸² à¸Ļà¸
c es
ire d
eth od
ä¸ĭ è½½
Ġv ari
ĠC an
al i
áºŃ t
ãĢ ĳãĢĲ
ail s
Ġop en
ç Ļ
as y
æ Ń
Ġpr ice
Ġp ay
æ Ķ
Ľà¹ĩ à¸Ļà¸
itt le
Ġfe ature
Ġte chn
ip s
Ġm ov
ard s
a an
ivers ity
n ect
Ġc ap
à®¿à® Ł
Ġof fer
l l
Ġsec ond
ĠM e
end s
Ġl ine
w ays
Ġgo ing
Ġj uga
ĠAmer ic
A M
o f
ĠThe y
Ġk ep
I S
å¤ ©
ĠA t
Ġret urn
le y
ĠN ov
p os
Ġty pe
Ġit em
Ġp df
ĠM ed
à¹ī à¸Ļ
áŀ ĺ
æ ŀ
ĠAr t
y m
ul ts
Ġs ize
áĢ ®
Ġl l
rap h
Ġn ame
Ġf ound
Ġse arch
Ġre st
ĠD is
Ġp eng
Ġmen j
uc k
áŀ ·
áĢ Ľ
ap er
ĠÄĳ Ã£
Ġb oth
Ġs ay
Ġ20 20
à®© à¯į
à¯įà® ²
Ġcont rol
Ġsm all
Ġhe ad
Ġres p
Ġg ame
ĠU s
2 7
Ġà¸ Ħ
Ġhttp s
c om
ÃŃ nh
Ġl ove
à®¾à® ²
Ġst ill
c o
ou th
os s
m in
ĠÄĳá» ĥ
Ġor gan
ag ement
Ĵ Į
à¹ Ĩ
å®ĺ ç½ĳ
ĠN E
Ġl ight
Ġ} .
Ġor der
Ġ201 0
4 5
Äĥ ng
Ħà¸ ¸à¸
an h
Ġcur r
c on
à¸Ļ à¹Į
Ġto o
Ġ äº
Ġfr i
Ġph ot
áº¿ t
m l
and ing
Ġfam ily
ar an
e ver
ĩà¸´ à¸Ļà¸
Ġt est
Ġdi rect
Ġo ld
à® ´
at ic
áĢ Ĭ
Ł à¸
en n
å¼ Ģ
Ġre al
a ik
v ed
à¸Ńà¸ ¢
Ġde v
Ġà¸ ŀ
Ġad a
Ġå Ī
Ġthá» ĥ
à¸Ļ à¸²à¸
Ġs ite
ä½ ĵ
Ŀ i
Ġcon f
b e
ĠM ore
Ġpl an
3 6
ĠG o
à¹ī à¸Ńà¸ĩà¸
æ İ
ĠAp r
Ġcomp any
a im
Ġå ħ
one y
ĠO ff
ç §
re ak
Ġà¸ Ĺà¸
ĠP ol
ĠIn c
Ġare a
à¯įà®ķà®³ à¯į
á»ĳ i
g er
ĠAnd a
Ġsch ool
Ġå¤ §
Ġte xt
id s
Ġo per
à¯ģà® µ
æ Ģ
çī Į
ĀĀĀĀ ĀĀĀĀ
s p
Ġre port
å ĳ
I D
à¹Ħà¸ ¥
it or
à®¿à® ķ
à® ķà¯įà®ķ
Ġf ull
b ih
and s
Ġp ut
th ing
Ġw r
æĸ °
Ġbas ed
ain s
our s
ib r
Ġh app
E L
Ġw ater
i ver
« à¸Ļ
ĠâĢ ¢
æ ²
or th
ud ah
ĠN g
éĹ ¨
Ġp ower
ģ à¹Ģà¸
d s
Ĺà¸ ¢
áº ©
al es
ĠN h
Ġf act
w ork
ction s
Ġqu est
is ion
O M
Ġà® Ĩ
ĠK h
d e
Ġin tern
ĠA g
ir ing
Ġf ew
Ġd ays
Ġpro ject
Ġinclud ing
Ġ4 5
Ġpos s
a ff
ĠPost ed
2 8
æ ĭ
ĠE m
ĠP art
Æ¡ n
Ġ( )
à®£ à¯įà®Ł
in ed
ir i
ĠM in
Ġtr y
if ied
Ġb i
ĠWh en
é Ŀ
Ġ6 0
Ġhe alth
Ġch eck
t y
00 3
Ġà¸ ķ
Ã¹ ng
ag ram
g al
og raph
Ġis s
Ġle vel
Ġc Ã´ng
áŀ Ł
Ġth ree
Ġ3 1
Ġan g
Ġc ost
±à¸ ģà¸
Ġan t
in o
¡ Â
Ġl ink
Ġm us
el ah
ä¼ ļ
Ġb isa
Ġl a
å ĴĮ
ĠO ct
Ġpro ble
Ġp ass
Ġ( "
00 0
Ġne xt
à¹ĥà¸« à¹īà¸
Ġeff ect
pert y
Ġb uy
Ġd uring
ist s
à®¿à® ¤
Ġke ep
ĠIn tern
ĠG l
w a
Ġpro t
Ġï¿½ ï¿½
Ġper form
ĠD own
Ġbu ild
R E
iá»ĩ t
ag ai
Ġimport ant
ç« Ļ
Ġb áº¡n
Ġ. "
å Ł
Ġinter est
3 3
ĠF eb
Ġte am
å¹³ åı°
Ġexper ience
Ġe qu
om en
ľà¸ ¹
as ed
à¸£à¸±à¸ ļà¸
à¸Ń à¸Ńà¸Ļ
áĢ ±
Ġre ce
h or
p ly
Ġ et
4 4
* *
Ġs ing
ĠR ed
áº ½
á»ĳ ng
ĠA ug
A C
áŁ Ĩ
Ġl ittle
á»Ļ i
p ar
ªà¸ ¸à¸
Ġgr oup
Ġs el
Ġw on
ap i
áĢ ļ
er ing
Ġwid th
Ġmen y
ĠA ut
Ġp age
Ħà¸§à¸²à¸ ¡à¸
Ġb ed
Ġpos ition
é ¢
Ġdown load
Ġwith out
Ġ ess
ol id
æ ¬
à¸Ńà¸Ńà¸Ļ à¹Ħà¸¥
á» ī
âĢ ¦
ĠAs s
Ġbet ter
å ĵ
ĠG u
Ġ9 9
n e
.... ....
Ġserv ices
Ġ est
Ġweb site
áŀ Ķ
Ġdis play
en se
2 6
ĠRe ce
Ġm ust
b o
Ġs ure
Ġe ar
à¹īà¸ §à¸
it le
if y
ap a
ater ial
ĠW or
Ã ½
s i
u f
op e
à¸² à¸£
Ġd apat
áŀ »
ĠR ec
à¹ĩ à¸Ńà¸
Ġ, âĢĿ
Ġpart ic
áĢ ľ
Ġacc ess
Ġre f
Ġb ig
E T
æ £
å¿ «
Ġfe el
áŁ ģ
Ġth u
Ġand a
b y
Ġh al
áŁĴáŀ ļáŀ
áĢ ŀ
ur y
Ġn Ãły
at ter
ĠY our
à ²
Ġtá» «
are d
ob ile
à¹Ħà¸¡ à¹Īà¸
Ľ à¸£à¸
Ġ ä»
ent ial
2 9
Ġth ings
r ing
ĠO f
um ent
-- --
Ġv ideo
ĠáĢ ¡
Ġf ac
ã ģ
ug g
Ġd em
arg a
Ã¡ i
oc ial
Ġå ı
Ġs w
Ķ à¹Ģà¸
Ġal ways
à¹Ī à¸Ļà¸
__ __
Ġp op
Ġle ad
Ġe lect
u ro
p ut
âĢ ĭ
Ġhá» į
Ġ( '
Ġm á»
ĠOn e
Ġpro du
Ĥ à¸Ńà¸ĩ
re m
Ġh ard
å¸ Ĥ
à¹Īà¸ §à¸
Ġm il
I n
ĠT er
Ġ200 9
à¹Īà¸ ĩ
Ġh ouse
à¸Ļà¸µ à¹ī
Ã¡ ng
ĠS m
IN G
ĠB ar
Ġl á»
b r
à¹Ħà¸Ķ à¹īà¸
v ious
Ġag o
ª à¸´
og le
Ġwith in
«à¸ ¥à¸
Ã¡ t
s on
Ġap plic
Ġw ind
¡ à¹Ģà¸
Ġse k
Ġt u
é ģ
iss ion
ĠU p
c ent
åħ ¬
Ġp at
ib ut
Ġqu ality
ag s
ur s
i Ãª
áŀ ı
ĠT H
à¸µà¸ ¢
ķà¸ ±à¸
è¡ Į
Ġ$ (
ĠUn iversity
Äĥ m
ĠPh ot
Īà¸ °à¸
al a
3 7
Ġcom e
Ġle bih
æ³ ¨
à¸£ à¸£à¸
l er
ill s
æ ±
8 5
ĠI N
is ter
à¸µà¸ ¢à¸
Ġk ita
Ġm ere
Ġor g
ight s
é ĺ
Ġ ur
ab ility
Ġinc re
¦ ģ
eth ing
åľ °
Ġg row
o int
Ġp ublic
Ġim age
ĠÄĳ áº¿n
Ġc ert
iv id
Ġ id
à®¿à®© à¯į
á»ĳ c
et er
Ġbl og
ä½ ľ
I G
à¸Ń à¸Ļà¸
Ġm ethod
å ¨
Ġg iá»
ĠCh rist
ķ à¸´à¸
ĠNew s
Ġp ast
as es
f ect
le ge
ĠC or
Ġw in
ª à¸²à¸
Ġval ue
Ġs aya
çĶ Ł
ĠOn line
Ġu 003
à ¤
Ġcont in
à¹ ģ
à¸² à¸Ļ
¥à¸ °
p or
Ġmed ia
áºŃ p
an e
empl ate
Ġan other
v es
r or
ĠBl ack
ir on
Ġprov ide
eng th
Ġproduct s
ĠIn st
Ġ! !
Ġvá» ģ
ĠTh at
Ġl u
iáº¿ n
s w
Ġ' ,
ä¸ ļ
e el
a it
Ġæ ľ
ent ion
¥ à¹ĩà¸Ńà¸
Ġpres ent
Ġlook ing
O S
Å© ng
Ġex c
â ĸ
ĠSh e
Ġkh i
åĪ °
Ġadd ition
iqu e
à®¿à® ķà¯įà®ķ
e ed
á»© c
at ely
Ġg ive
Ġk er
Ġor ang
if t
à¯įà® ³
áŀ Ľ
ft ware
Ġpr om
Ġke y
al se
ĠO ur
ruct ure
ĠA ir
è ĩ
Ġapp ro
um e
a ur
§ à¹Īà¸²
áĢ¬ áĢ¸áĢ
al an
Ġspec ial
Ġm ight
gr ound
v ers
è ¾
il le
Ġtr ue
U R
ĠRe view
æĪ ı
æ ´
iz ation
Ã¡ o
Ġinv est
p g
Ġl i
Ġsh op
Ġl ess
ä¸ º
Ġm ill
Ġ3 2
å ī
6 4
pl oy
Ġpo int
ap t
eb ut
à® ª
ĠlÃł m
ent al
Ġle t
ä¸ ª
Ġl og
Ġab le
Ġst and
Ġ) {
end ing
9 5
à®¾à® ¤
Ġb ah
Ġt ers
Ġo leh
um an
re am
Ġsom ething
Ġp ort
à¯įà® µ
cript ion
ap an
ĠNE W
j oy
iá»ĩ u
Ġl aw
« à¸Ļà¸
ac y
oh n
Ġ á»Ł
áĢ «
ap e
Ġà®ļ à¯Ĩ
áº¥ y
Ġs ince
à¯ģà® ®
èĤ ²
çī Ī
art ment
ĠN ot
s h
Ġe le
Ġm ain
Ġb ro
Ġst at
é Ľ
ic ally
ĠM od
¡ à¸µ
à®² à¯į
ĠÄĳ Ã³
I L
Ġt áº¡i
Ġsh ort
Ġf ood
ĠS er
Ġ3 4
ç ¾
à¹ĥ à¸Ļ
é Ĵ
Ĺ à¸²à¸
·à¹Ī à¸Ńà¸
Ġc áº£
Ġc ase
g in
ä¸ ĩ
Ġg ia
u at
Ġcon nect
ĠH igh
¾ ³
l ish
Ġg ot
æīĭ æľº
æ¸¸ æĪı
in c
Â ¬
Ġa i
enc es
Ġm ember
ĠFr om
b ack
å· ¥
Ġco ver
ã ĥ
Ġl ang
l u
Ġ es
ĠC ount
Ġcon st
ĠB ook
§ à¹Īà¸²à¸
O T
Ġd á»¥
Ġch e
Ġn ull
à®¾à® Ł
Ġto day
6 8
ec ial
s elf
Ġ8 0
ĠE d
Ġcons ider
áĢ ģ
Ġn ear
Ġw rit
is i
iv ed
Ġd oc
à¹ģà¸ ¥à¸°à¸
our n
ģ à¸²à¸
áº ±
Ġex pl
Ġs áº½
Ġan n
? ?
Ġan al
à¹Ħà¸ Ĺà¸¢
7 4
ĠO ut
à¸Ńà¸Ńà¸Ļà¹Ħà¸¥ à¸Ļà¹Į
Ġm arg
ic ro
Ġf ont
ust r
æ ĥ
Ġf alse
à¸£à¸±à¸ ļ
Ġres earch
µ Ã
ĠAd dition
çĶ ¨
Ġt ah
Ġ à¸Ńà¸
à¯įà® ©
ĠW eb
u le
Ġd ig
ob er
, "
ĠV iew
re t
áĢ ¶
© à¸
is ing
er a
æĹ ¥
Ġf lo
ķ à¹Ī
any ak
Ġmere ka
h ing
p ed
Ġp m
ĠDown load
Ġne ver
Ġm ult
ģ à¹ĩà¸
åĩ º
as an
ĠDes ign
le te
ĠC ity
à¯ģà®¤ à¯įà®¤
ï¿½ï¿½ ï¿½ï¿½
Ġloc al
ot a
O L
Ġs ide
Ġa ff
à¹ĥà¸Ĭ à¹īà¸
áŀ ¸
ç Ĥ
Ġ/ /
un ic
áĢĦ áĢº
Ġa way
P art
Äĥ n
ãĢ Ĥ
Ġst yle
à¯ģà® Ł
Ġt urn
à¸£à¸²à¸ Ħ
Ġas k
Ġst ate
m ed
Ĭà¸ ±
Ġ200 8
Ã² ng
ra w
Ġnh Ãł
ĠC al
ç½ĳ ç«Ļ
Ġev ent
in ation
iv en
Ð ¾
ĠS ec
Ġb it
ain ed
ĠT op
Ġs ang
as ter
A P
id d
Ġm Ãł
l ah
olut ion
åħ ¨
Ġc Å©ng
o o
Ġ3 65
5 5
ab ly
Ġact iv
Ġà¸ ģà¸
ord ing
in ts
é ¡
ĠB er
Ġhe ight
Ð °
à®² à¯įà®²
7 9
ĠRe g
Ġres ults
ĠÄĳá» ĭ
Ġp ad
fer ence
ĠN am
Ġl ow
áĢ »
Ġ, .
á» ģ
S t
ot s
ĠApr il
Ġse lect
Ġh aving
Ġf ile
Ġpro perty
un ch
f ort
Ġch ange
ĭ çīĮ
Ġc al
Ġè ¿
Ġprof ess
ir t
ĠB est
ä ¾
áº «
Ġh t
Ġst ore
Ġm oney
6 9
Ġh ist
Ġl arge
ĠS k
¾³ éĹ¨
Ġæ Ī
Ġunder st
Ġmarg in
ĠT w
ob al
Ġn on
Ġà¸ Ħà¸
Ġp em
à®Ļ à¯įà®ķ
f a
uf act
ĠSep t
Ġå ®
ĠRe ad
ir d
Ġk ar
åĿ Ģ
cr ib
in ing
Ġch ar
ĠB o
Ġ à¹Ģ
Ġmak ing
Ġwork ing
in i
2 1
à¹Ĥ à¸£à¸
ĠW ind
Ġch ang
Ð µ
Ġar r
à¹Ģà¸ ¥
Ġchild ren
Ġm aterial
Ġm end
çº ¿
ĠvÃł o
A D
ĠM en
Ġper m
Ġter m
¥à¸ ĩà¸
ik i
Ġà®ĩ à®°
ĠS un
Ġe asy
ĠMar ch
Ġh Ãłng
Ġup d
Ġs ays
æ Į
or der
Ġtr Ãªn
Ġnh iá»ģu
Ġme et
Ġl ay
åŃ ¦
ç ł
å Ģ
è ¦ģ
u ff
áŀ¶áŀ ĵ
Ġ3 9
if ul
c er
Ġvis it
áĢ °
è ģ
Ġbl ock
E C
is ed
Ġ ut
Ġå ĩ
§à¸ ±à¸
ĠUn ited
áĢĢ áĢ¹áĢ
à¹Ħà¸¡ à¹Ī
Ġl ain
p ro
Ġst ay
Ġp ict
Ġ7 0
et her
ĠP ar
Ġl áº¡i
Ġ9 0
é ķ
y pe
Ġ3 6
u ary
æ£ ĭçīĮ
ç Ń
ir c
itch en
Ġ3 8
ap s
al ing
Ħ à¸£
Ġáŀ Ķ
Ġh ar
Ġimp ro
an ks
¡à¸ ŀà¸
Ã ¨
g i
Ġstud ents
Ãł o
ag n
ĠJ ohn
à®± à¯įà®±
Ĥ à¸²à¸
æĬ ķ
áº· t
Ġv ers
Ì ģ
ĠK e
d o
Ħà¸£à¸ Ķà¸´à¸
Ġ4 4
an j
ĠJun e
oc us
± ä¹Ĳ
Ġs á»ĳ
Ġ4 8
Ġf our
åĬ ł
Ġbo x
ä» ¥
Ġen joy
ĠW ell
I ON
Ġinclud e
Ġb ag
n ment
Ġcle an
l i
id es
Ġl im
ĠM on
ur ity
ul a
iá»ĩ c
åŃ Ĳ
ic y
© æĿ¥
u it
áº¥ p
å¤ ļ
Ġæ ¾³éĹ¨
end ed
Ġp ack
ĠD ep
Īà¸ ±à¸
re et
Ġcon dition
Ġf ore
Ġcont act
ver t
aut iful
ĠIn ter
áº »
Ġv ol
ĠRece ipt
iv ely
Ġp ract
Ġem ploy
Ġ5 00
ĠS et
ar ing
à¹ĥà¸« à¹ī
è ĥ½
Ġst ep
Ġb ott
il a
Ġd ist
Ġ5 5
ĠP at
2 3
ĠAr ch
¢ à¸²à¸
Ġà® Ĵ
Ġå į
Ġto ol
çĲ Ĩ
Ġt imes
Ġb ody
Ġm aj
Ġp ot
ĠÄĳ áº§u
Ġk ind
Ġn Ã³
Ġd ip
ĠO p
ut er
ou ch
Ã Ĳ
áº£ o
ibr ary
Ġagain st
ĠB usiness
Ġsa f
Ġsu ccess
ĠSt ud
å® ī
Ġgi Ã¡
ä¸ ī
Ġall ow
s ide
Ġn a
Ġse ver
àº ²
th ers
Ġc a
« ĺ
é ĥ
Ĭ à¸²à¸
áŁ Ħ
Ġd ib
Ġm ot
ä¹ ĭ
áº ¹
Ġ4 9
ac es
Ġt able
Ġch á»ī
ä¹ Ī
Ġ ul
Ġse em
il t
Ġor ig
Ġtr av
Ġå¤§ åıĳ
Ġs end
ones ia
ĠJ uly
Ġst ructure
« à¸²à¸
ĠA cc
ene f
ĠS outh
ir l
Ã Ĭ
am an
áŁ Ĥ
Ġd iv
ific ation
ĠAl so
Ġcour se
Ġå °
ĠP ark
ç ®
ie f
áĢĦáĢ¹áĢ ¸
red it
y r
E M
Ġáģ ĭ
ĠT ra
v iron
con om
ĠC r
Ġ er
Ľ à¸£
S T
ĠS ystem
Ġm ar
Ġnew s
Ġnh áº¥t
ĠTh ese
µ à¸
ol l
¥à¹ĩà¸Ńà¸ ķ
on y
áŀ ¾
ĠSept ember
Ġb á»ĭ
Ġl ab
å¨ ±ä¹Ĳ
un t
Ġb reak
Ġáŀ Ģ
ĠÄĳá» ĵ
ut es
Ġ200 7
à¹Īà¸ ĩà¹Ģà¸
Ġper fect
Ä ©
y d
Ġsh are
àº Ļ
ļà¸²à¸ Ĺ
Īà¸²à¸ ģà¸
o es
m m
Ãº ng
ĠG et
Ġal ong
Ġl ik
Ġdá»¥ ng
Ġex ample
« à¸£à¸
ĠH otel
ä½ĵ èĤ²
Ġ... .
Ġback ground
ĠWor ld
à¹Ģà¸ ģà¸
ĠS w
è® ¡
Ġs atu
t en
N D
ĠSch ool
Ġht ml
Ġs á»±
ag er
à¸£à¸ §à¸
Ġn Äĥm
Ġ3 7
ð Ł
ĠP res
į à¸
Ġfollow ing
è ·
Ġh iá»ĩn
Ġwh y
Ķ à¸µ
Ġt reat
áº¯ c
ie ve
ÃŃ ch
ĠÄĳá»Ļ ng
ct or
Ġto t
±à¸ ĩ
ur ance
Ġn ight
Ġæ ĺ
ect ion
ĠÂ Ń
ĠE l
Ġneed s
g un
æ Ļ
it er
Ġk el
e ad
ĠF in
k at
ĠH ar
à¸Ńà¸¢ à¹Īà¸²à¸
à¹Īà¸ §
Æ°á»£ ng
Ġind ivid
ĠTe chn
{ "
it ive
Ġmenj adi
ĠJan uary
ĠS ub
·à¹Ī à¸Ńà¸ĩà¸
Ġseb agai
in ya
Ġp un
6 7
C l
§ à¹ĩà¸
à¸Ńà¸ ¢à¸
ading in
ure d
Ã¢ u
Ġai adingin
Ġà¸ Łà¸£à¸µ
ĠNov ember
g ed
ĠAug ust
Ġrec ord
Ã¡ nh
Ġex pect
ur ther
Ġ3 3
ak ukan
áŀ Ļ
ĠS T
æĪ Ĳ
à®¿à® µ
Ġm ax
ak t
ĠA c
Ġrequ ire
Ġle arn
= =
ĠN orth
Ġwor ks
c el
Ġbe h
2 00
Ġc reat
ĠP e
à¹ģà¸ ¥
çİ °
ĠM arket
à®³ à¯į
Ġgo ver
Ġeng ine
ł à¸
Ġme ans
ĠHe alth
Ġng Ãły
à¹ ģà¸£à¸
áº· c
ĠSt ate
Ġposs ible
8 9
ä¿ ¡
á»± c
al t
à¯ģà® ±
è½ ¦
as k
Ġ0 20
Ġv iá»ĩc
Ġak u
Ġs ocial
Ġinst all
Ġth ing
om es
ĠM us
Ã¡ p
ĠFeb ru
8 4
Ġtr ad
re w
id up
av or
Ġp el
Ġc ell
ĠAmeric an
es ter
Ġcurr ent
çĶ µ
ĥ n
ung an
ag ing
Ġå ľ
Ġb ers
ul ation
éĩ ĳ
Ġters ebut
uy Ãªn
b ar
ĠOct ober
ĠN ow
Ġ' ).
Ġopt ion
Ã² n
ĠPr ice
çľ Ł
âĢĭ âĢĭ
è Ī
Ġv i
ĠT emplate
ach ine
ĠAd d
á» ı
our ces
ĠNEW Part
à®¾à®° à¯į
å° ı
Ġb anyak
Ġth Ãłnh
ĠV al
ĠG e
Ġk em
Ġd ate
ç¥ ¨
ã Ĥ
Ġty p
ĠS ur
Ġ q
Ġk et
ust ry
Ķ à¹īà¸§à¸
à¹ī à¸Ńà¸ĩ
Ġl ov
er al
Ġrec omm
o on
ģà¸±à¸ ļà¸
Ġhá»į c
Ġph áº£i
Ġt elah
± c
es ar
in ks
æľ Ģ
Ġå Ĳ
au gh
ĠS im
Ġmonth s
Ġh ot
Ġà®ħ à®µ
amp ai
Ġm ess
Ħà¸¸à¸ ĵà¸
Ġc ard
Ġth Ã¬
æ ¯
áº¡ o
Ġáŀ ĵ
Ãº c
Ġf ocus
Ġd one
Ġh ours
Ġart icle
ç ¨
áĢĶ áĢ¹áĢ
u j
æ Ħ
b all
ĠP D
à®© à¯įà®±
áº± ng
an i
viron ment
Ġem ail
Ġt ax
it es
ĠTr ans
ĠG od
Ġspec ific
im al
is k
Ġcent er
Ġsp ace
ic ial
Ġkep ada
Ġcon c
âĢ ľ
Ġperson al
ĠG i
Ġus er
Ġs ale
Ġloc ation
æ ı
il ar
Ġst ory
Ġ ä½
Ġs ol
c k
Ġs um
Ġs udah
ĠD ire
Ġp ers
à¸Ń à¹Ģà¸
Ġo cc
Ġf ield
Ġcre ate
Ġà®ª à¯ĭ
Ġ7 5
Ġres ult
ĠâĢ º
ĠW ill
ĠD ay
ĠA ng
Ġs ed
get her
ľà¸¹ à¹īà¸
Ġfri end
æ³ ķ
ur ch
Ġproble m
Ġto gether
Ġæ Ĺ
ud i
Ġw atch
Ġt a
ĠA fter
Ġsing le
Ġpr iv
Ġc ity
Ġç Ķ
à®¿à®¤ à¯įà®¤
ast ic
à®¾à®© à¯į
Ġne g
Ġle ast
Ġopt ions
áĢ ¡
Ã´ n
ĠB el
à¸² à¸£à¸
ace book
£ p
Ġa w
st r
n ow
Ġqu y
Ġ> <
in ter
Ġcle ar
end er
ra ft
om p
Ġb ad
Ġl ive
å¥ ½
n y
à¯ģà® ³
Ġd a
à¸Ńà¸ ļà¸
ĠRep ly
Ġstud y
ĠServ ice
ĠIn t
æľ Ī
éĥ ¨
ort s
à¸Ļà¸ ±
á»ĭ ch
Ġcount ry
Ġb enef
Ġber b
Ġc ut
Ġt in
ĠPro duct
Ġt itle
Ġ5 4
ĠR em
ĠGo ogle
ut ure
os p
Ġcom ment
Ã¢ m
Ġqu ick
ell ing
äº ¬
Ġte ach
anc ial
Ġunt il
Īà¸²à¸ ģ
Æ¡ i
Ġf re
à¹ĥà¸ «à¸
ĠDec ember
r is
ens ive
Ġcert ain
ĠáĢ ±áĢ
Ġed uc
Ġpur ch
Ġsp an
a id
Ġcomm unity
§à¸ ±à¸Ļ
Ġse ason
å ģ
k e
ç½ĳ åĿĢ
à®¾à®² à¯į
ian s
æĪ ·
Ġget ting
Ġaut hor
ak ing
Ġcl os
ĠC le
read y
ic on
iá»ĥ m
åľ º
it as
v ille
st er
f ace
Ġst op
Ġdevelop ment
ħ n
et t
Ġan sw
ak s
ĠA ct
A d
Ġacc ount
ĠW ed
±à¹īà¸ ĩ
e le
ä¹ Ł
Ġt em
ĠA re
Ġf oot
iv al
iá»ģ n
Ġ ident
±à¹īà¸ ĩà¸
ĠJ ust
R O
om b
Ġ9 5
«à¸ ¡à¸
ĠB u
è ī
ĠE uro
ĠÂ °
Ġoff ers
row n
Ġf ar
Ķà¸´à¸ ¡à¸ŀà¸
s c
Ķà¸ ¥
Ġ: #
pert i
ĠÄĳ i
Ġk ami
Ġmak es
Ġdev ice
Ġmaj or
res h
or age
ur al
à¸Ńà¸£ à¹Į
ys is
atur al
anc es
ru ction
Ġp an
ĠP lease
Ġdi agram
ou ble
r ies
Ã¡ y
Ġindivid ual
o le
Ġre pl
å· ŀ
Ġd ia
ķ à¸²à¸
ou d
Ġof ten
an ies
åĬ ¨
ĠFebru ary
Ġp ress
ĠG ener
il i
å §
ap h
Ġn am
áŀ ļáŀ
Ġsever al
il ities
Ġn Æ°á»Ľc
ĠM al
¥ à¸´à¸
b et
éĻ ħ
à¯ģà® ¨à¯įà®¤
áº¯ t
Ġbel ow
Ġel se
I M
k in
Ġmus ic
áŁĴáŀ ĵ
ateg ory
Ġb al
ers hip
Ľà¹ĩ à¸Ļ
Ġn av
å®ĺ æĸ¹
Ġ emb
ir m
Ġ ing
ĠInd onesia
k t
Ġc u
ĠÂ ®
ĠWh ite
à¹Ħà¸ Ľ
ward s
áº¡ t
Ġh otel
ro id
Ġæ ĸ
ļ à¸£à¸´à¸
áĢ² áĢ·
æĸ ĩ
uy á»ĩ
ç ¤
act er
L E
Ġd im
im ate
Ġå Ľ
Ġ5 9
ĠCl ass
Ġcol lection
Ġt iáº¿
Ġt Ã´i
it ter
Ġwe ight
¢ à¹Ģà¸
ĠH ouse
Ġe ver
ĠD on
g u
Ġ\ "
áĤ Ķ
éĴ ±
Ġà®ķ à¯Ĭ
bo ard
Ġbott om
ough t
Ġber k
Ġcl ick
à¹īà¸ §
ĠÂ ¡Â
Ġadd ress
or ing
ĠD el
Ġh am
Ġbl ack
å »
ĠW est
Ġal ready
3 65
Ġen ough
Ġw alk
ĠSt r
ä» ¬
Ľà¸ ¥
Ġt ent
aw a
ĠCent er
6 2
Ġáŀ Ł
i ap
ore d
u x
Ġab ove
ah a
Ì Ģ
ĠCount y
Ġre d
á»ģ n
ip ment
Ġpad ding
çĤ ¹
ĠI S
Ġw ar
ĠR el
du c
ĠO b
i od
Ð ¸
ub e
Ġcom b
Ġk al
ĠA S
à¸´ à¹Ģà¸
Ġpartic ular
é £
à¹īà¸² à¸Ļà¸
åı ¯
Ġab s
à¹Ħà¸ Ľà¸
Ġc ode
³à¸ «
Ġreview s
ç¥ ŀ
áŁ ĩ
ĠHow ever
Ġdoc ument
Ġt im
ĠS u
Ġse perti
ab y
Ġpr int
à¸Ń à¸Ńà¸
áº© m
6 1
áĢĢ áĢº
ç¾ İ
ith er
áº¥ n
åİ ¿
Ġtr ack
U N
Ġ àº
é «ĺ
ol a
u i
Ġsa u
á»Ļ c
Ġå ¹
Ġqu an
4 9
Ġde al
Ľà¸£à¸ °à¹Ģà¸
Ġn i
A G
ĠR et
ĠCh ina
Ġmin utes
Ġdid n
Ġsang at
Ġc amp
Ġcall ed
3 1
k 10
æ Ľ
áº« n
áŀ ĳ
Ġdet ails
Ġ01 13
Ġà¸ ļà¸Ńà¸¥
Ġw all
ĠåĪ ©æĿ¥
ĠÂ ¹
ĠA ust
i res
Ġact ually
Ġo thers
Ġs áº£n
Ġ( );
Ġ01 75
Ġ200 6
uh an
Ġsc reen
em ents
åĲ Ī
ĠT V
ĠP ower
Ġm ind
Ġim ages
Ġh ost
ĠE lect
ķ à¹īà¸Ńà¸ĩà¸
ĠM c
Ġmod el
all eng
Ġhá» £p
Ġwh ite
å¿ ĥ
ĩ à¸²à¸Ļà¸
ĠSh op
Ġme an
Ġph one
U T
ip ping
à¹Ĥà¸ ¡à¸
Ġ Ø
ih at
Ġch ÃŃnh
est s
ĠCol lege
åĬ Ľ
Ġ) :
åī į
\ "
as ing
ĠPro f
Ġper t
Ġt alk
Ġl agi
Ġle g
à¯Īà® ķ
à¯ģà®ķà¯įà®ķ à¯ģ
ar kan
Ġb order
am in
ab les
ķ à¸£
ec ut
à¹Ģ à¸£à¸
Ġr ange
Ġfr ont
ĠL oc
en ing
ĠB ro
ĠS l
ĠÂ «
C h
ver age
Ġf a
Ġcl aim
Ã Ķ
id ge
Ġbec ome
Ġnh Ã¢n
at est
Ġfeature s
am u
à¹ģà¸ ļà¸
ªà¸¸à¸ Ķ
ĠG reat
C H
Ġstr ong
Ġï¼ ī
ĀĀĀĀĀĀĀĀ ĀĀĀĀĀĀĀĀ
ĠWind ows
I d
ĠF il
çĻ »
Ġcl ose
Ġx u
Ġmem il
Ġ Ĉ
EN T
à¸² à¹Ģà¸
s es
Ġman agement
ĠServ ices
it ing
à¸Ńà¸£ à¹Įà¸
ĠS el
ĠÄĳá»ĭ nh
Ġå Į
¸à¸ ķà¸
Ġâ Ĩ
e ks
¹à¸ ģà¸
i j
Ġc op
n a
Ġ ens
ag a
Ġp lease
Ġd il
Ġåĩ ¯
ģà¸²à¸£ à¹Ģà¸
Ġtah un
åĲ İ
Ġj pg
à¸´ à¸Ļà¸
Ġbe autiful
ç ķ
ĠY ork
èĩ ª
ĠC ons
Ġb ath
ĠH ere
Ġwrit ing
à¸µ à¹Īà¸
Ġop port
Ġà¹ģà¸ ¥à¸°à¸
Ġtrav el
Ġess ay
Ġc irc
c ial
Ġdo ing
arg et
A B
Ġk es
áŀ ¼
uk a
Ġ3 00
Ġur l
Æ° a
8 6
Ġ4 7
Ġ4 2
Ġp ick
Ġkar ena
áº£ ng
áĢ ¾
Ġmill ion
ic les
s el
à®¾à® µ
è ¶
ä¸ »
Ġcom es
¢ à¸Ļ
it ure
Ġäº ļ
éķ ¿
Ġs il
è °
m a
äº ļ
ip le
y e
it i
Ġâ Ĥ
Ġh old
ĠÄĳá» ģ
A Y
Ġà®İà®© à¯įà®±
.. .
h a
Ġcomp let
Ġj o
8 7
anc ed
ĠF e
I P
ĠEng lish
Ġh Æ¡n
Ġp ara
áĢ± áĢ¬
Ġ à¸Ļ
Ġnet work
Ġm om
æĪ ĳ
Ġre ason
Ã ĭ
ĠV iá»ĩt
ĠSt ates
O W
Ġf it
c i
itt ed
áĢ ĸ
ķ à¹Īà¸
è ĭ
Ġkh o
Ġac ross
Ġprovid ed
Ì £
Ġmen c
Ġà¸ Īà¸
ĠÂ£ Â¬
Ġp aper
åŁ İ
ĠF orm
Ġcomp et
Ġkn own
Ġm aint
åĮ º
ĠD et
is on
Ġs inh
±à¸ ļà¸
ĠG ood
Ġæ Ŀ
Ġm atch
ĠÃ £
Ġç ľ
ail y
d uk
Ġm Ã¬nh
á»¥ c
Ñ Ĥ
é Ĥ
Ġc ao
Ĥ à¹īà¸²à¸
Ġd ik
en ch
ib ility
ĠN ational
Ġå ½
Ġà®ħ à®¤
le v
Ġngh iá»ĩ
uy á»
Ã ĸ
Ġt emp
ar at
à¹Ĥ à¸Ļ
Ġg ames
Ġp emb
Ġstr ateg
ĠCh e
áŀ ĸ
Ķà¸´à¸¡à¸ŀà¸ ±à¸Ļà¸
ĠJ ul
Ġen c
et ic
äº İ
p s
¡à¸² à¸£à¸
ĠP ort
_ c
ŀ à¸Ļà¸
Ġæ ī
Ġquest ions
Ġen erg
ĠO ver
Ġman ual
ĠÂ ±
Ġman ufact
O D
Ġevery thing
Ã Ĵ
á»ĳ t
Ġ. )
Ġh ari
Ġfe ed
b a
Ġcont r
Ġà®ļà¯Ĩ à®¯
Ġcomp lete
ĠI D
Ġdoes n
Ã Ģ
Ġan ak
Ġthough t
Ġd it
Ķà¸¥ à¸Ńà¸ĩ
Ġm obile
Ġs ource
ĠPl ay
Ġ áŁ
Ġinclud es
ĠH ot
ain er
è¿ Ľ
ang k
¥à¸ĩà¸ Ĺà¸
ĠM ich
Ġs ound
ĠW ar
Ġç İ
ic ult
I R
åĵ ģ
å° ±
æŀ ľ
Ġapplic ation
Ġv ia
ĠC H
ĠÄĳá»ĵ ng
ĠL a
Ġd at
Ġ" ).
us her
é Ķ
Ġà¸ ģ
ur an
Ġquest ion
Ġc ou
ĠEuro pe
ĠÂ ½
Ġso ftware
n ey
±à¸ ļ
Ġ6 5
id ence
Ġà¹Ĥà¸ Ľà¸£
Ġfri ends
ĠÂ ³
w ood
Â µÃ
Ġe conom
Ġf uture
ĠIntern ational
Ġn orm
ip e
ak i
f r
Ġon ce
ï¼Į ãĢĳãĢĲ
c le
åı ¸
ĠS an
um ah
Ġä¸ Ń
Ġme as
Ġad min
à¹Ģ à¸£
i ents
ĠB ed
ĠÂ ¼
6 3
Ġf low
åĮ ĸ
ķà¸±à¸ §
ag ed
Ġdisc uss
Ġresp ons
Ġcom ments
Ġ ib
ĠN et
iá»ĥ u
Ġrel ated
ĠÃ Ĺ
ĠG old
er c
in ary
à®¾à® ¯
ish ing
ad es
Ġ200 5
Ġy et
Ġdef in
Ġp ubl
Ġprovid es
°à¹Ģà¸ ļ
at is
Ġpo ints
i et
Ġd á»±
Ġthe o
ĠJ o
åĪ Ĵ
ĠæĪ ĳ
Ġind ustry
ĠS il
ĠR ob
ĠáĢ Ģ
Ł ¥
Ġn Ãªn
air s
ĠA P
op h
Ġhe art
Ġrep res
Ġfil es
Ġc am
Ġmemb ers
Ġter b
¥à¸ ·à¸Ńà¸
p m
Ġc Æ¡
ģà¸ ±à¸Ļ
urn iture
Ġstart ed
t r
Ġrequ ired
à¯įà® ®
m as
Ġ4 3
á»ĳ n
Ġpro b
¦ Ĥ
Ġà¸ ģà¸²à¸£à¸
ĩ à¸²à¸Ļ
ĠãĢĳãĢĲ ï¼ĮãĢĳãĢĲ
é ¦
ĠáĢ Ļ
Ġc Ã²n
Ķ à¸µà¸
Ġs á»Ń
Æ°á» Ł
¡à¸ ±à¸
Ġï¼ Ī
ĠãĢ ĳ
ard en
Ĥà¸ ¶
èĢ ħ
Ġmá» Ľi
Ġc Ã¡ch
f or
éģ ĵ
Ġm ark
Ġ5 7
l am
Ġwon der
Ġsim ple
ak es
Ġth áº¿
Ġd ue
Ġ4 1
å¯ ¹
im a
ĠM et
Ġinf o
Ġt et
Ġcomp anies
Ġwind ow
ĠS ing
Ġgover nment
Ġper iod
ĠP C
éĿ ¢
Ġ ~
led ge
Ġtot al
Łà¸ ¸à¸ķà¸
ĠL ist
ĠD av
Ġhist ory
Ġl iving
èµ Ħ
Ġdif f
ĠS ee
ĠB ack
à¹Ģà¸ Ľà¹ĩà¸Ļà¸
Ġfil m
Ġbe gin
ert a
ĠRo om
ill ed
Ġob ject
Ġc ook
ur r
æ° ĳ
im ent
ang g
ĠS earch
Ã ı
ic a
Ġg iven
Ġ5 8
Ġb ul
iá»ĥ n
Ġh ope
Ġs ens
Ġtr Æ°á»Ŀng
åį ļ
A A
Ġser ies
om an
Ġinv ol
ĠM r
ģà¸ ©
Ġf urther
ç» ı
¥ ¿
Ġre du
ĠH er
å½© ç¥¨
Ġsup er
ĸà¸ ¶à¸
ed ia
at ors
Ñ ģ
Ġdet erm
Ñ Ģ
Ĺ äº¬
ĠGr oup
ĠIn s
áŀ ħ
f ord
or ang
ad em
áº¡ nh
å ķ
áº¿ u
Ġide as
ĠP en
Ġ4 6
áŁĴáŀ ļ
ĠS ome
æ º
Ġ6 4
Ġw iring
ĠSt e
å® ŀ
ĠA C
Æ°á»Ł ng
é ľ
Ġr áº¥t
Ġcom fort
Ġthá» Ŀi
Ġåľ ¨
æı Ĳ
Ġåĩ¯ åıĳ
å½ ķ
ar ter
Ġse ction
m ost
Ġmeng h
P h
Ġcomp uter
Ġb aik
Ġcomm unic
Ġtechn ology
çĲ ĥ
Ġä¸ Ģ
ĠF irst
Ġsec ara
Ġet c
Ġprofess ional
AN G
¾ Ļ
ell ent
A K
im um
Ġw omen
Ġapp ear
Ġthá» ©
à¹Īà¸ ¡à¸
æ ¶
Ġn ice
Ć Ĉ
om ain
Ġitem s
Ġperform ance
are t
Ġoff ice
Ġf ast
ĠÃ ´
ĠM icro
n es
Ġh Ã¬nh
à®Ļ à¯įà®ķà®³
h am
ĠáĢ ŀ
Ġbuild ing
ple ment
á»© ng
ĠInd ia
à¸µà¸¢ à¸Ļà¸
Ġcomm on
Ġre fer
Ġsit u
Ġà¸ ĭà¸
ĠL o
Ġr ate
ä» £
ang kan
az ing
Ġc ame
ing ton
c ome
åĪ ©
ģà¸ ¥
åħ ĥ
ul es
ĠI I
ĠPro gram
ĠPD F
og n
ict ion
Ġthá» ±c
Ġth Ã´ng
Ġà¸ Ķà¸
ĠTh anks
ĠL aw
Ġv s
äº ĭ
áĢĬ áĢ¹áĢ
Ġm iss
Ġst aff
Ġex am
¹ à¹Ī
Ã ģ
ĠL ight
pl es
p a
à¹īà¸Ńà¸ ¡à¸
à¹Ģ à¸£à¸µà¸
Ġbr ing
iÃª u
ĠD an
Ġà®ª à¯Ĩ
Ġs ugg
Ð ½
if f
Ġà¹Ģà¸ Ķà¸´à¸¡à¸ŀà¸±à¸Ļà¸
Ġyou ng
Ġà® °
Ġh anya
Ġ5 2
at al
ĠS port
Ġsem ua
ĠG reen
Ġà¹Ģà¸ ¥
Ġà¸Ĺà¸ Ķà¸¥à¸Ńà¸ĩ
Ġve h
ģà¸±à¸ ļ
è¿ Ļ
w ord
ĠV ol
Ġf lex
ĠT able
Ġear ly
ĠS ale
Ġass ist
Ġ ðŁ
Ġs elf
à¸Ńà¸ ļ
id a
A H
4 7
Ġt ell
Ġvari ous
v ing
Ġen vironment
enc ed
Ġl arg
Ĺà¸ ³
à®¿à®Ł à¯įà®Ł
um er
Ġs ent
Ã Ĥ
ĠNe xt
Ġsim ilar
à¹īà¸² à¸Ļ
U L
a ul
ec ess
Ġsub ject
ad u
ĠU K
Ĭà¸± à¹Īà¸Ļ
Ħà¸£à¸Ķà¸´à¸ ķ
áĢħ áĢ¹áĢ
v is
ĠE st
å® ļ
Ġl ength
Ġtr aining
Ġd istr
ĠAust ral
un ya
Ħà¸§à¸²à¸ ¡
åĽ½ éĻħ
4 8
à®¾à® ³
á»ķ i
Ġn one
ĠA f
ĠÄĳ iá»ģu
Ġn ak
ro du
on se
Ġà¸ Ľ
åħ ¥
Ġ& &
P S
g es
Ġw ent
è Ĭ
ķ à¸£à¸
ä» ¶
g g
ĠO ther
ĠH o
ĠF ore
¾ å®¶
all ery
ĠL ab
ĠR E
ful ly
Ĺà¸ ³à¸
Ġcustom ers
ĠM ot
I V
Ġg en
ress ion
iz ing
Ġh uman
ot es
Ġm or
ĠE v
Ġ5 6
Ù İ
Ġf ive
g o
Ġdr ive
c ast
è¿ ĩ
Ġorig inal
Ġiss ues
ĠF ind
le ment
Ġap a
Ġl ater
ĠAn t
ens ion
Ġes p
Ġà®µ à®°
ģà¸ ¡à¸
å± ķ
ĩà¸´ à¸Ļ
Ġf avor
ĠB uy
ie ce
ĠÂ ´
ĠF ull
Ġde g
·à¹Ī à¸Ń
áŁĴáŀ ı
Ġunderst and
Ġre ading
ĠW ord
Ġmil es
Ġu003 e
Ġass oci
Ġam ong
ĠW ork
Ġw ood
e es
Ġde b
ĠI B
Ġtak ing
à¸Ļà¸µ à¹īà¸
ig ure
åĨ Į
Ġ à¸£à¸
ĠO F
Ġa ud
R e
Ġà¸ Ĥ
ĠComp any
Ġs al
tt y
Ġmen u
ĠPr int
z z
Ġev ents
å± ±
é ĥ½
ĠC ustom
Ġk á»
he ad
Ġo il
Ġch alleng
Ġe ither
Ġ: "
ograph y
l ight
Ġper cent
å® ¢
è Ĳ
Ġpol it
Ġide a
Ġto ok
Ġsp e
Ġext ra
Ġwh ether
Ã Ī
Ġph ys
åĬ ¡
Ġf all
Ġç ļĦ
ik ut
id ed
Ã ĥ
Ġprot ect
Ġun it
ĠP age
Ġse en
à®¾à® ®
itt ing
h ere
Ġa ction
ĠC O
Ġre ach
Ġs en
ĠAb out
Ġ uk
æľ ¬
Ġà®Ĵ à®°
Ġb agi
ĠW ater
Ġsc r
Ġwho le
Ġam ount
Ġd rop
Ġæ µ
à®³ à¯įà®³
Ġsystem s
Ġadd ed
Ġáŀ ĺ
l in
åĽ ¾
Ġneed ed
ak er
Ġ à¸£
m ing
ĠCh ar
cl us
á»į n
ĠS en
äº §
Ġst ock
uyá»ĩ n
Ġh arga
ĠTH E
m e
å» º
b ox
ok er
à¸Ļà¸ ´à¸
çĽ Ł
åĲ į
ĠBl ue
im b
á» £
5 9
ĠS E
Ġhal f
ĠM em
v al
u age
im p
Ġpop ular
Ġfil ter
Ġaut om
Ġrecomm end
Ġiss ue
Ġt ing
à®¿à® ªà¯įà®ª
Ġacc ording
an an
Ġw ait
ĠUn t
h i
æĬ ¥
z e
ph one
Ġsome one
oun c
Ġrequ est
Ġc rit
ĺ à¸
ecial ly
n d
Ġd am
Ġc ult
Ġ5 1
ĠRe al
áº¡ ng
Ġà®µ à¯ĩ
Ġp as
} .
Ġvers ion
±à¸ įà¸
Ġ" ]
Ġf ire
æľ Ł
Â £
ĠÃ Ĭ
Ġpen y
is c
§à¹ĩà¸ ļ
Ġc redit
th ough
o oth
ĠK ing
Ġç »
ur g
Ġ200 4
ĠTh ank
±à¸ ģ
re g
ĠC our
um s
an ch
mer cial
u el
ond on
Ġenerg y
Ġkh Ã¡ch
Ã ĩ
Ī à¸£à¸´à¸
I A
Ġs es
Ġsa at
Ġl Ã½
up akan
áĢ¬ áĢ¸
æ ģ
è®¡ åĪĴ
olut ions
Ġ20 00
åħ ³
ĠCol or
Ġpot ential
Ġcustom er
Ġk itchen
ess ion
ĠÃ Ķ
ç ´
Īà¸ °
Ġt an
Ġsub m
ĠCh eck
ç ¬
ĠS P
å¾ Ĺ
itt en
N G
ļà¸Ńà¸ ¥à¸
Ġc ara
Ġ ill
Ġvá» ¥
Ġhar us
Ġä¸ į
Ġs us
Ĭ à¹Īà¸§à¸
éĹ ´
Ġà¸ ŀà¸
rol l
Ġs ales
ĠM ac
Ġloc ated
Ġc Ã¹ng
à¯ģà® ªà¯įà®ª
Ġå ¼
Ġin form
ĠL et
«à¸ ¥
áŀ ½
¢ à¸Ļà¸
ĠF acebook
Ġt arget
âĢ¦ âĢ¦
Ġk m
a a
b an
P r
Ġc áº¥p
Ġfin ancial
éĩ Į
ĠV ideo
Ġf ace
ir th
m y
Ġ$( '
istr ation
Ġm ove
........ ........
åĳ ĺ
5 8
ç ©
7 6
Ġany thing
l im
ĠâĤ ¬
ore s
b or
ĠL ong
Ġà¸ª à¹Īà¸ĩà¹Ģà¸
ĠBl og
Ġres pect
åħ¬ åı¸
ĠE r
ĠSh ow
ĠS ize
Ġbel ieve
ĠB i
Ġ5 3
Ġv iÃªn
Ġà¹Ģà¸Ķà¸´à¸¡à¸ŀà¸±à¸Ļà¸ Łà¸£à¸µ
Ġm o
æ³¨ åĨĮ
¥à¸ĩà¸Ĺà¸ °à¹Ģà¸ļ
æŃ £
Ġm achine
é ¾Ļ
c ul
____ ____
ĠS em
Ġare as
Ġqu a
0 4
åº ¦
ĠDe velop
Ġb ud
Ġqu ite
ĠH D
ĠnhÆ° ng
u ed
h op
Ġs le
er ed
\ /
ĠL ast
ĩà¸´à¸Ļà¸ ļà¸²à¸Ĺ
çŃ ī
Ĳ áĢ¬
Ġx e
g y
çľ ĭ
ç Ŀ
Ġber t
à» Ī
å¤ ĸ
åľ¨ çº¿
ĩà¸´à¸Ļà¸ļà¸²à¸Ĺ à¹Ħà¸Ĺà¸¢
Ġintern et
ĠP ay
ĠIn f
ri ed
ap ter
Ġro ad
Ġp ain
Ġind ex
æµ ·
Ġrel ations
ok e
Ġh ay
Ġins urance
Ġà¸ ļ
á» «
ªà¸²à¸ ¡à¸²à¸£à¸
ĠD ata
ĠA L
so ft
ç Ħ
1 00
Ġmemil iki
Ġà¹Ĥà¸ Ķà¸
éĢ ļ
Ġproble ms
Ġà®ĩ à®¨à¯įà®¤
æ° ´
Ġ `
! !
Ġchar acter
áº¥ u
Ġf ix
Ġgl obal
Ġpr im
ĠÄĳ ang
s y
çł ģ
ĠC are
áŀ ĩ
Ġ" .
Ġáŀ Ĭ
Ġà¸ Ĺà¸µà¹Īà¸
as ino
¹ à¹Īà¸
Ġth ird
Ġ} #
Ġph áº©m
Ġread y
Ġb all
ĠAmeric a
t o
ĠP eng
Ġ< /
Ġham l
Ġtr Ã¬nh
id ay
æĬ Ģ
ent ing
ac ity
à¹ī à¸Ń
Ġbar u
ud e
Ġs un
Ġï¿½ï¿½ï¿½ ï¿½ï¿½
Ġsec urity
Ġs i
at form
Ġbr and
Ġbo leh
un j
n ot
y p
ĠT O
ĠÂ ²
ĠE very
à¯ĩ à®°
Ġa ch
h ib
Ġan h
Ġsign ific
Ġd u
ĠEng ine
n ers
en ar
7 3
is es
à¸£à¸²à¸ °à¸
ĠA tt
and a
Ġsim ply
Ġl Ãªn
ª à¯į
Ù Ħ
ä¿ Ŀ
s et
ĠnÃ³ i
ri ver
à¯Īà® ķà¯įà®ķ
Ġt re
àº² àº
Ġh Ãłnh
Ġm Ã¡y
ih an
f ield
idd le
Ġà¸ ¥
Ġdes crib
Ġk ids
ol f
ĠArt icle
Ġb iáº¿t
it ut
ĠAddition ally
---- ----
en ed
Ħà¸£à¸ ·à¹Īà¸Ńà¸ĩà¸
Ġp ark
ash ion
Ġdec or
ist ic
Ġwor ds
T h
ĠM er
æ į
Ġ" >
Ġb ill
Ġwor d
Ġs qu
Ġb ank
Ġkh Ã¡c
ĠRep ort
it u
ĠWh ile
ĠM el
Ġcho ose
Ġpriv ate
Ġg old
á»ĵ i
ĠIntern et
ĠT od
ĠI de
Ġfin al
j ust
ĠS al
ourn al
Ġn ecess
Ġent ire
Ġesp ecially
Ġind ic
Ġpre vious
Ġm ag
ĠA ccess
ur t
Ġaddition al
Ĺà¸²à¸ ĩà¸
ĠP al
Ġs ave
it ation
ĠM aret
Ġsp eed
áŁ ħ
Ġm a
Ġpost ed
ĠOff ice
æ¬ ¾
as il
ig ation
ak it
Ġsugg est
Ġex ist
ug e
T M
Ġa y
Ġso on
Ġp ag
ad io
Ġal ign
à®¿à® ´
Ġdiff icult
á»ĩ nh
å £
k er
ung kin
iá» ħn
Ġpl ant
Ġbut ton
Ġs ama
åį Ĺ
Ġbook s
h ir
ĠRes earch
ĠT ime
Ġmer upakan
Ġph Ã¡t
Ġv o
Ġappro ach
ĠH ol
ģà¸ ´à¸
à¯ģà®³ à¯įà®³
è £
Ġph ÃŃ
it ar
ģà¸ ¥à¸
Ġl Æ°á»£ng
ĠF am
ĠJ e
ĠDis c
y cl
T C
s a
Ġn atural
Ã į
ff ee
Ġbe ber
áĢĢ áĢŃáĢ¯
ad o
à¸£à¸²à¸Ħ à¸²à¸
ĠSt reet
Ġeduc ation
åĲ Į
Ġch Ãºng
§à¸ ±à¸Ļà¸
Ġc áº§n
Ġke h
Ġc and
ron ic
Ġf ail
Ġ8 5
ĠW all
ĠY ear
Ġpre d
áº¯ n
Ġmod ern
ar ang
é ©
á»ĵ ng
Ġstand ard
Ġcons ult
Ġw ide
Ġ020 39
ľà¸ ¥à¸
Ġn Äĥng
Â »
ĠS um
il es
è§ Ħ
ik asi
ur ah
Ġe as
Ġd ar
k u
Â ¡Â
p ose
7 2
Ġn Ãło
Ġ Î
ĠÂ ©
«à¸ ¡à¸²à¸
ĠJ ob
Ġ} ,
Ġà¹ģà¸ ¥à¸°
Ġb us
Ġed itor
áĤ ı
un ities
Ã³ a
áº£ m
b el
Ġphot os
å¿« 3
Ġbeber apa
à¹Īà¸² à¸Ļà¸
ĠRo ad
Ġr ound
Ġpict ure
at ory
ĠÃ ½
Ġa ge
ĠE ar
ĠFl or
ĠCl ick
Ġlá» Ľ
Ġpart y
i very
Ġevery one
Ġmess age
Ġd og
b on
è¿ Ĳ
Ġreg ard
e xt
ab in
ĠL ondon
ac ed
Ġint e
Ġyour self
Ġar ch
Ġaut o
ah kan
ĠC am
Ġdo or
ĠMan agement
ä½ į
Ã İ
Ġexper i
y t
ĠAn n
Ġcre ated
Ġus ers
ĠT R
ĠW ood
Ã ĵ
Ġun ique
æ ¡
b l
Ġdet ail
Cl ass
Ġsit es
Ġl oss
Ġl ower
Ġwr ite
é ĵ
re f
ĠT ags
ele br
Ġmemb uat
Ġpart s
Ġ200 3
Ĺà¸µ à¸
Ð¾ Ð
g ress
Ġal most
ĠáĢ ľ
ä» ĸ
Ġ": {"
Ã ķ
ĠCor por
à®° à¯įà®ķà®³
¥à¸ĩà¸Ĺà¸°à¹Ģà¸ļ à¸µà¸¢à¸Ļà¸
ĠK ey
é ħ
Ġincre ase
Ġrem ov
à®ªà¯įà®ª à®Ł
à®¤à¯įà®¤ à®¿à®²à¯į
ĠP et
on a
ī à¸
ªà¸ ³à¸«
Ġl atest
é ļ
Ġapp ly
ĠM ost
Ġå ¾
id ing
er o
Ġtreat ment
do or
Ġst orage
Ġpre tty
Ġ= =
ag ue
Ġdesign ed
Ġh ear
ĠáĢ Ĳ
Ġins ide
Ġbed room
ĠP R
z a
Ġc ool
áŀ ľ
ķ à¸´
Ġtry ing
Ġg irl
Ġçľ Ł
ĠW omen
Ġlo ad
Ġimp act
ak a
Ġgener al
è¡ ¨
ĠÄĳ Ã¢y
Ġprob ably
Ã ¤
ĠC A
Ġin put
Ġ15 0
I B
h at
ĠPh il
Ġà¹Ĥà¸Ľà¸£ à¹Ĥà¸¡à¸
us ed
áŀ Ĭ
ĠK ar
P ro
à¸´à¸ Ķà¸
Ġhow ever
¡à¸²à¸ ģà¸
Ġoff icial
Ġdi re
Ġà¸ ¡à¸
Ġk eb
éĩ į
ķ à¹Į
áĢ® áĢ¸áĢ
Ġsa ja
Ġtak en
Ġp et
d a
łà¸²à¸ ŀà¸
ic ient
à¹ĥà¸ Ī
Ġp end
av en
ĠM ake
Ĺà¸ ¸à¸
çĻ» å½ķ
Ġent ry
T S
Ġ: :
Ġæ Ń
ac ing
àºĻ àº
Ġnh áºŃn
Ġbah wa
à®° à¯įà®ķà®³à¯į
Ġfor ward
Ġt Æ°
Ħà¸¸à¸ ĵ
ĠO pt
ģ à¸£à¸°à¸
ĠÂ ¶
ĠM ov
è· ¯
ch an
Ġs ell
um ents
Ġè¿ Ļ
Ġl and
ĠP ublic
ãĢ ģ
oun ts
osp ital
we et
Ġm áº·t
Ġhapp y
t d
à¹Ģà¸ Ķ
Ġà¸ªà¹Īà¸ĩà¹Ģà¸ ĩà¸´à¸Ļà¸ļà¸²à¸Ĺà¹Ħà¸Ĺà¸¢
Ġequ ipment
Ġal tern
Ġr isk
å ł
Ġrest aur
ĠAss oci
um n
ĠSup er
ĠS a
med i
a ction
Ġd ah
il ing
Ġà¹Ģà¸ ¡à¸
ĠãĢ Ĳ
å¼ ı
u ah
ĠGener al
row s
ĠS eb
ell ow
à¹Ĥà¸£à¸ ĩ
Ġanal ysis
Ġpr ices
ition al
Ġknow ledge
äº Į
ĠJ ack
8 3
Ġe p
ac a
Ġà¸ ¥à¸ĩà¸Ĺà¸°à¹Ģà¸ļà¸µà¸¢à¸Ļà¸
Ġtr Æ°á»Ľc
Ġch áº¥t
} ,
Ġsup pl
Ġb á»Ļ
Ġrun ning
Ġshow s
Ã³ ng
it an
or ge
Ġchang es
ĠH is
è¯ ´
ĠB ank
Ġf ul
Ġt ouch
æĬķ æ³¨
B S
ç® ¡
Ġcom ing
Ġhigh er
åĬł çĽŁ
ĠÂ ¾
Ġbo ard
çī ¹
Ġcont ract
b s
Ġ4 00
Ġs n
Ġd raw
a el
am ent
Ġà¸¥à¸ĩà¸Ĺà¸°à¹Ģà¸ļà¸µà¸¢à¸Ļà¸ Łà¸£à¸µ
ep at
ĠPl an
Ãº t
ĠP ack
ol es
Ġu003 c
ĠUnt uk
oun ter
Ġ, ,
Ġflo or
Ġ" )
à¸£à¸²à¸Ħ à¸²
ĠM ag
Ġis n
Łà¸¸à¸ķà¸ ļà¸Ńà¸¥
à®® à¯įà®ª
Ġm ix
à¹Ĥà¸ Ķà¸
Ã §
ĠUn der
ĠS pe
h ad
å¥ ĸ
Ġwe eks
k i
I F
Ġg e
ĠL og
Ġsignific ant
Ġ ia
ĠH and
è® ¾
Ãª u
ç¨ ĭ
Ġa verage
Ġp ages
Ġm ga
p ress
Ġcol l
ĠE duc
ĠD ig
Ġin ch
à¸Ļ à¹īà¸
ĠIn formation
ĠEx cel
ĠB ay
L C
Ġto ld
Ġnorm al
Ġlik ely
Ġs olid
8 2
ar ning
Ġdig ital
ĠM or
ĠD em
Ġview s
Ã Ħ
ĠC ap
l ist
à¯ģà® °
O C
r up
ĠR est
ĠL ibrary
ĠAn al
Ġnghiá»ĩ p
à¹ĥà¸«à¸ ¡
åį ķ
ĠAn y
Ġtá» ±
ati ents
Ġ6 9
à¹ģà¸¥ à¹īà¸§
Ġse par
Ġy g
Ġs ong
ĠE ast
ot o
_ s
¤ à¸
Ġbu ilt
Ġt our
Ġmed ical
ĠA ND
lo od
gun akan
è ¥¿
¢à¸ §à¸
à¸Ńà¸ µà¸
Ġg ar
Ġout side
ä¸ İ
om et
èĢ ģ
à¸£à¸²à¸ ¢à¸
Ġr umah
æĺ İ
Ġp ath
Ġam p
Ġim g
ak u
æĥ ħ
Ġus ually
Ġrece ived
Ġac cept
áºŃ y
ĠAp p
à¹ĥà¸Ĭà¹īà¸ Łà¸£à¸µ
ĠSo ftware
U M
t ain
5 6
ĠY es
ĠW ash
ĠReview s
ic ks
aj a
æīĭæľº çīĪ
Ġrec ent
ĠE xt
ç ³
if orn
ĠE ss
à¸´à¸ ĩà¸
ĠCom ments
Ġpr ior
Ġ à¸Ļà¸
ĠUS D
Ġb and
Ġj ika
Ġd Ã¢n
Ġà¸Ĺà¸Ķà¸¥à¸Ńà¸ĩ à¹ĥà¸Ĭà¹īà¸Łà¸£à¸µ
áº¡ ch
ther n
Â º
ĠCan ada
è ²
ĠChrist mas
el t
Ġ icon
ĠL ife
ĠS ampai
Ġb esar
Ġmarket ing
æĶ ¿
Ġwor th
ic o
ou l
Ġw ays
Ġcurr ently
Ġdes cription
ĠUp d
Ġb ay
åı £
à¹Īà¸² à¸Ļ
Ġs ym
èµ °
ĠÃ ī
ĠFr iday
Ġ' );
ªà¸ Ķà¸
iv ity
áŀ İ
un e
Ġcho ice
Ġ3 A
om a
ĠÂ ¸
Ġinte gr
em a
el um
ip p
re y
Ġxu áº¥t
à¹Ħà¸Ķà¹ī à¹Ģà¸
Ġgrow th
iz es
av y
ĠComm unity
0 1
Ġcom pl
à¸²à¸ ģ
art a
Ġà¹Ĥà¸Ľà¸£à¹Ĥà¸¡à¸ Ĭà¸±à¹Īà¸Ļ
å ¢
Ġcr usher
ĠG erm
Ġmas ih
ve y
pos ed
ĠI r
ĠS M
à¹Īà¸²à¸ ĩà¸
g n
Ġresp onse
Ġm ount
Ġens ure
Ġfeature d
Ġun d
áĢĲ áĢ¹áĢ
Ġk áº¿t
k n
³ à¸Ļà¸
Æ°á»Ľ ng
áŀ¶áŀ ļáŀ
om s
Ġh it
¾ áĢĢ
Ġpartic ip
7 1
ĠU l
Ġinclud ed
Ġpre p
Ġ] [
Ã ī
5 4
ĠIn v
Ġà¸ªà¸ ¥à¹ĩà¸Ńà¸ķ
ªà¸ ¹à¸
Ġv Ã¬
Ġà¸ ĸ
æº Ĳ
à¸²à¸ ªà¸´
oc ks
olid ay
Ġp ul
ĠWh y
ĠC D
¶ à¹Īà¸ĩà¸
Ã ¼
Ġg ian
ĭ Ĺ
iforn ia
áŁĴáŀ Ľ
Ġæĸ °
T ER
Ġph p
à®¾à® ®à¯į
ĠC op
Ġh our
Ġest ab
Ġp le
æĢ İ
Ġwant ed
B C
Ġins p
ĠUS A
Ġprogram s
Ġgr ound
il an
ŀà¸ ·à¹Īà¸Ńà¸
ĠC ard
åķ Ĩ
Ġcol lege
Ġk inh
ist em
i ers
ven ue
8 1
Ġdel iver
à¸£à¸ ¹
Ġg reen
ĠBe ach
ou b
á» Ĺ
Ħà¸ ¡
ĠSp ecial
ĠP an
ĠI P
ĠÄĳ iá»ĥm
Ġn á»¯
Ć ć
à®¾à®Ł à¯įà®Ł
ar ies
Ľà¸£à¸°à¹Ģà¸ Ĺà¸
éĽ Ĩ
Ġjob s
Ġtr ading
sel ves
ĠÃ ĵ
Ġrelations hip
Ġle arning
Ġch á»§
ç ģ
Ġex act
á»į i
à¸£ à¹īà¸²à¸
ic ing
Ġphot o
ĠOp en
olog ical
åĪ ¶
áº¯ ng
áº¹ p
ĠÂ ¿
Ġè Ģ
Ġtyp es
Ġto wn
Ġs ix
äº ¤
ul u
Ġtak es
st on
Ġany one
èµ Ľ
ĠÃ ģ
ig er
Ġh air
Ġ>< /
ĠS H
Ġ Þ
ç ²
Ġam azing
Ġ um
Ġáŀ ¢
ition s
g ing
å° Ĩ
Ġà® ı
Ġt Ã¢m
Ġ à¸Ń
ce ed
ĠT ype
áĢ¯ áĢŃ
å¿« ä¸ī
end ent
Ġcol lect
ĠSt ep
Ġm atter
ĠL ook
Ġres ource
Ġr ather
Ãº p
«à¸£à¸ ·à¸Ń
Ł ³
Ġlook s
Ġk at
Ã Ĩ
Q u
ĠT im
Ġ1 20
ĠH ist
Ãª m
·à¹Ī à¸Ńà¸ĩ
Ã ļ
w ner
ĠS ign
Ġabs olut
n ov
Ġd est
el come
Ġro le
ill a
Ġb áº£o
ĠF ood
æĹ¶ å½©
ç Ī
ĠC re
Ġprodu ction
ĠAf ric
«à¸Ļ à¹īà¸²à¸
Ġtent ang
Ġg uy
Ġph Ã²ng
Ġexc ellent
Ġh on
ĠåĮ Ĺäº¬
ĠJ apan
up un
Ġcontin ue
æ¬ ¡
Ġm ac
N ame
ģ àº
Ġm ass
éĢ Ł
Ġà®µ à¯Ĩ
Ġb ukan
Ġrepres ent
Ġpre vent
Ġeas ily
å ĭ
ist ry
Ġcou ple
ĠN Y
áº£ nh
ill ing
Ġer ror
9 4
Ġb an
áŀ¶áŀ Ģ
ĠHe ad
Ġsk ills
ig a
Ġáŀ ĳ
è ¢
a res
Ġm akan
Ġg Ã¬
áĢ Ĩ
ĠCh ild
Ġthá» ĭ
Ĳ áĢ¼
Ġ> >
ra z
ĠF IG
ĠÃ Ĵ
ĠCont rol
ĠDep artment
Ĺà¸ ±à¹īà¸ĩà¸
Ġt á»ĳt
Ġlong er
Ġt áº¿
Ġup on
Ġ| |
Ġrece ive
ªà¸ ¥à¹ĩà¸Ńà¸ķ
Ġà®¨ à®Ł
ĠãĢ ĭ
à®¿à® ļ
Ġatt r
** **
O P
Ġat as
Ġth iáº¿t
ĠO h
é ª
$ (
Ġb áº±ng
ĠM ark
Ġal ue
à¹Īà¸²à¸ ¢à¸
b and
ĠSt ar
e uk
Ġ25 0
or i
Ġpre fer
ĠAnd roid
ĠPre vious
à¹Ģà¸ ª
ol der
à®© à¯įà®©
Ġset t
Ġto Ãłn
Ġpurch ase
az on
åº Ĺ
Ġr at
Ġrep air
Ġh á»Ļi
ĠI T
Ġd in
qu e
Ġsend iri
ĠV e
Ġmend apat
Ġng o
Ġreg ular
Ġï¿½ï¿½ï¿½ ï¿½ï¿½ï¿½ï¿½
ĠB as
Ġ' '
Ġpl us
ĠâĢĿ .
ĠSh are
à» ī
ĠD ate
us i
Ġansw er
Ġb ase
Ġth áº¥y
ag o
Ġsub st
ĠM o
è´ ¹
ĠL ine
Ġm ap
æ Ĳ
Ġap pl
Ġà¹Ģà¸ ĩà¸´à¸Ļà¸
Ġtiáº¿ p
ĠP ubl
à®ªà¯įà®ª à®Łà¯įà®Ł
k en
ĠÄĳ Æ°á»Ŀng
Ġpict ures
áº¡ c
Ġrem ove
ĠTh en
ĠU se
Ġask ed
çİ ©
ĠÄĳ á»ĳi
Ġmeng gunakan
æķ Ļ
N A
ĠL ear
à®Ł à¯ģà®¤à¯įà®¤
ĠH al
Ġab euk
akt u
us an
Ġde ep
ĠMus ic
ĠCh o
Ġm ail
Ġç Ļ
ic i
à¯Īà®¯ à®¿à®²à¯į
anc y
ra ce
Ġh iá»ĩu
od es
ĠÃ ĥ
Ġà¸ ķà¸
Ĥ à¹īà¸²
áŀ¶ áŁĨ
Ġcan not
èµ ·
Ġrec ogn
Ã µ
Ġ200 2
S h
ĠDe f
åĬ ¿
Ġpract ice
Ġè ¯
Ġter ms
p k10
Ġopport unity
ĠOr gan
à¸Ńà¸ Ķ
Ġt Ã¡c
Ġpl atform
Ġt iá»ģn
Ġcomp on
ĠPro ject
Ġstud ent
am m
Ġsaf e
ĠIt al
Ġnot hing
Īà¸±à¸ Ķà¸
idup an
Ġpol icy
ĠC OM
Ġc áº§u
å ²
é »
Ġgu ide
att le
Ġà®¤ à¯Ĭ
Ġtá» ķ
à¯Ī à®¤à¯įà®¤
ģà¸ ±à¸Ļà¸
ĠM ill
ant u
ĠAll ah
Ġmult iple
ĠL ove
ang er
Ġm s
ĠáĢ ķ
ĠS ales
ĠN umber
Ġå ¯
ir it
è ¨
Ġsh own
Ġé ĩ
ĠRed ir
ĠB ig
Ġst e
Ġ Ù
æľ į
Ġà®Ĵà®° à¯ģ
r om
ĠM ult
Ġseem s
av es
áĢķ áĢ«
sy ch
Ġad m
áĢĦ áĢ¹
åĨ ħ
Ġáģ Ĭ
«à¸ ±à¸
ĠE qu
ad d
ĠF re
Ġà®ķ à¯Ĥ
ac ement
Ġpro duk
ĠM ond
åı Ĭ
T he
as c
Ġ: -
ĠS ol
ack s
è§ Ĩ
Ġt Ã¬nh
åı ·
ĠT ag
Ġs erta
Ġt en
Ġg as
ĠAustral ia
Ì ī
Ġthrough out
Ġp atients
ĠV is
ľà¸¹ à¹ī
c m
à® ¸
åħ ĭ
Ġt ÃŃnh
Ġp il
Ġconc ern
Ġw ish
Ġactiv ities
Ġh eld
ŀà¸Ļà¸ ±à¸Ļà¸
Ġsk in
Ġlo áº¡i
ew s
Ġmak a
oci ety
Ġf resh
f ast
Ķ à¸²à¸
ĠM P
ro s
Ġvá» ĭ
ĠPres ident
ĠPr iv
ä¸ ľ
_ id
Ġad i
ĠW al
Ġpl ans
ut h
Ã ¥
ĠR ock
Ġå ¥
Ġk ata
Ġsch ed
ĠP erson
ļà¸ ±à¸
om in
et te
ateg ories
ĠCal ifornia
æ Ĵ
ĠM ount
ur a
Ġ' )
à¸´ à¸Ļ
Ġqu áº£
ĠC all
ĠB rit
Ġs olution
Ġ2 C
ĠM obile
áģ ¾áĢĢ
ĠDav id
oy s
æ »
Ġt áº¡o
ĠPhot o
æĦ ı
à¸£ à¹Įà¸
çĽ ´
ĠÃ ¢
ª à¸´à¸
it ely
op s
Ġáŀ ĸ
ĠÄĳ o
Ġc ause
un ia
· à¹īà¸Ńà¸
eng k
Ġs r
atur day
ir a
à¸Ļà¸ Ħ
Ġche ap
Ġupd ate
ĠÃ ĸ
Ġact ive
L S
Ġeffect ive
Ġre le
Ġle ave
Ġm ang
y ar
áĢĶ áĢº
à¹ĥà¸ Īà¸
Ġp ool
áĢļ áĢ¹áĢ
á»Ń a
Ġveh icle
ĠG over
ĠW atch
atter y
Īà¸£à¸´à¸ ĩ
b it
Ġbeh ind
Ġw ed
uyá» ĥn
à®¿à® ®
ist ics
ĠInd ian
Ġsa w
Ġhá» ĩ
à¸Ńà¸ Ķà¸
5 7
a ult
Ġsur face
Ġs yn
æĹ¶ æĹ¶å½©
ª à¹Īà¸§
Ġb áº£n
Ġn ay
Ġ' :
4 3
ĠG ame
à¹ģà¸ ģ
ĠÃ Ĥ
ĠF un
æ¯ Ķ
ĠR uss
Ġ": [
ĠFe ature
ĠO N
à¹ĥà¸Ĭ à¹ī
§à¸´à¸ ĺ
Ġà®ħ à®°
Ġm i
Ġs alah
4 6
ĠFam ily
Ġcont ainer
Ġent er
ç³ »
h ood
4 2
Ġsw itch
áŀ ļ
Ķà¹īà¸§à¸ ¢à¸
¡ à¸Ļà¸
Ġc ross
er ap
Ġv ac
Ġ ć
ĠGl obal
ĠB ag
ud d
or ial
Ġà¸ §
ian ce
à®Ļ à¯įà®ķà®³à¯į
Ġmot or
Ø §
Ġï¼ Ł
Ġï¿½ï¿½ï¿½ ï¿½
ĠTechn ology
C E
j ak
Ġc ategory
çĿ Ģ
Ġch arg
Ġmov ie
ĠÃ Ń
Ġfriend ly
Ġpre m
à¹ģà¸ ¥à¸°
Æ Ĵ
à®± à¯įà®ķ
ĠT ax
áĢķ áĢ¹áĢ
ĠTe x
ĠP ress
oc ol
Ġmaterial s
Ġwr itten
ip ped
Ġà®® à¯ģà®
Ph one
l a
Ġ7 9
ĠÃ´ ng
Ġp ush
Ġà¹Ģà¸ Ħà¸£à¸Ķà¸´à¸ķ
Ġr out
ays ia
Ġsub s
à¹Īà¸²à¸ ĩ
Ġm es
Ġv er
ĠG ar
Ļ à¯įà®ķ
Ġplay er
Ġt ur
à¯Īà® µ
áĢ ³
es is
ĠâĨ Ĵ
Ġsm art
ann el
ŀ à¸´
Ġh ai
éĻ ¢
Ġrem ember
ug s
Ġk om
Ġsu ff
Ġgi Ãºp
Ġmel akukan
ĠG M
ĠB ath
áĢļ áĢ¹
ĠáĢ Ľ
Ġex cept
Ġgl ass
aj ar
Ġtrans form
g en
T R
Ġbath room
Þ ¦
æĢİ ä¹Ī
Ġ à¹Ħà¸¡à¹Īà¸
Ġà¸ Ĺà¸µà¹Ī
Ġin ner
ĠTod ay
à¸£à¸£à¸ ¡à¸
Ġhelp ful
çī ©
ĠL td
Ġmom ent
ŀ à¸´à¸
Ġst ar
ĠM S
Ġr en
per ature
Ġn ational
ç ±
Ġag re
er ve
Ġre v
ĠMed ia
à ³
Ġcl ients
Ġproject s
Ġintern ational
à¹Ģ à¸Ļà¸
ĠH P
ir us
Ã ®
Ġvari ety
ĠIB _
Ġext rem
ide os
ĠEn ter
Ġï¼ ģ
ch ange
aw an
Ġg un
ĠMicro soft
Ġtr ip
Ġk ed
or ks
Ġ} );
Ġprovid ing
à¹Ģà¸ ķ
4 1
Ġcondition s
Ġh om
ĠW in
bar u
it ect
o e
Ġstat us
it ial
ç» ĵ
Ġtool s
ak at
_ d
um in
ĠEduc ation
ap ers
Ġter j
AN D
Ġsum mer
Ã¬ m
Ġk ec
T A
ĠIs land
hing ga
Ġrequire ments
em pt
Ġà¹ģà¸ Īà¸
ª à¹Į
ĠPost s
ĠF ri
Ġ200 1
Ġcare er
ĠIt em
Æ° u
Ġà¹Ģà¸ĩà¸´à¸Ļà¸ Łà¸£à¸µ
éĺ ³
it ute
è į
éĩ ı
Ġle ading
Ġ() {
ĠPhot os
Ġd ouble
ams ung
æ± Ł
åİ »
« à¹ĩ
empl ates
à¹ Ĭà¸
Ġt al
ĠDire ct
Ġph áº§n
å¤ ĩ
Ġè ®
ĠS C
ĠSt and
av a
Ġlab el
à¯įà® £
Ġt ips
Ġlang uage
Ĥà¸¶ à¹īà¸Ļ
Ġcl ient
Ġplay ers
ed eral
Ġl ate
00 00
m ore
Ġd aily
Ġ9 7
âĢĭâĢĭ âĢĭâĢĭ
Ġcor rect
Ġmor ning
ĠF ire
ĠAd v
Ĭà¸ ¸à¸
ĠA D
ĠS aturday
ĠL ou
Ġim plement
ĠÄ ĥn
Ġd ry
al d
Ġrec ently
Ġd á»ĭch
Ġpat tern
Ġà¸ŀ à¸Ļà¸
à ¥
ą ć
«à¸ ¥à¸²à¸
ĠÄĳ áº¹p
Ġres ources
àº ĩ
c a
op er
ĠB et
Ġh ref
ĠC Ã´ng
Ġb Ã¡n
Ġhá» ĵ
os ed
Ġ!! !
b u
Ġt ay
çĽ ®
ĠSun day
Ġe arn
ant i
ĠTra vel
Ġh ous
ĠG al
Ġm m
«à¸£à¸ ·à¸Ńà¸
Ġ100 0
Ħ à¸²à¸£
as ons
» áĢķ
à¸£ à¹Į
ç ĥ
Ġpress ure
å¸ Ī
Ġim m
Ġaff ect
æī Ģ
Ġt ub
ģà¸ ³à¸
Ġdec ision
Ġab ility
Ġon es
ĠCl ub
Ġbu at
ĠSer ies
ĠCent ral
Ġth Ã¡ng
it te
Ġdeg ree
ĠC amp
é ¤
ĠÄĳ iá»ĩn
Ġth o
ĠM ad
Ġm ention
à®¾à® £
ire less
Ġreg ister
ĠD istr
ĠBo ard
åĽ ¢
a ign
à¯Ĩ à®°
ig r
Ġla unch
Ġform at
umb ers
Ġcost s
Ġtrans fer
ĠIs lam
P R
os ing
G B
æĸ ¯
at ives
Ġp iece
Ġáŀ ĩ
à¯įà®¤ à¯įà®¤
ĠR ich
ĠWill i
ĠH ard
¢ à¹Į
Ġper lu
Ġm icro
Ġ] .
Ġ8 9
k y
Ġquick ly
á»Ļ ng
Ħ à¸Ļà¸
Ġl ic
Ġa f
áŀ ī
ĠK el
Ġho áº·c
il m
Ġhigh ly
ĠAp ple
Ġsh all
ĠSt art
Ġc er
ĠArch ive
Ġh or
ĠU N
Ġà¸ ¢
é¢ ĺ
ĠF lo
og a
ĠE p
è§ £
Ġch á»©c
«à¸Ļ à¹īà¸²
Ġsu it
ĠA R
Ġsup ply
łà¸ ±à¸
Ġde ath
Ġan im
Ġà¸ ¢à¸
ĠK itchen
Ġint rodu
Ĭ à¸µà¸
ib er
Ġqu al
æĹ Ĺ
al ink
pl ace
ur ation
Ġfre qu
Ġmeet ing
å ŀ
áº© n
Ġsaf ety
ĠW r
Ġt api
ĠS D
á»Ł i
Ġè µ
Ġm at
Ġc elebr
à¹Ĥà¸ ¥à¸
rop ri
å·¥ ä½ľ
áĢ ĳ
Þ¦ Þ
ar ant
ĠIde as
Ġé Ģ
à» Ģ
Ĺ à¸£à¸
Ã ±
Ġfavor ite
m p
Ġkh u
à¹ģ à¸Ļà¸
ĠPro v
ism e
Ġ3 D
u ang
ĠMond ay
Ġpro per
à¹Ĥà¸£à¸ĩ à¹ģà¸£à¸
ĠN or
D e
ĠCorpor ation
ç ¼
ĠOr ig
Ġdis e
es tern
çĻ ¾å®¶
Ġæľ ī
Ġph Ã¡p
Ġf urniture
Ġe y
ĠTw o
Ġimpro ve
Ġth Æ°á»Ŀng
ĠBu ild
ant a
ĠS and
Ġk amu
æ ·
Ġre lease
åį ģ
Ġlet ter
l og
Ġf ab
àº °
at in
ĠK n
aut y
Ġà¸ Ī
Ġpubl ished
Ġkeh idupan
Ġd ating
ind ing
Ġbl ue
Ġå ·
Â ¹
ecut ive
aw ah
Ġnecess ary
es ome
Ġd Ã¹ng
ĠE ven
ĠSc ience
ĠIm age
Ġin j
ĠS af
Ġdistr ibut
§à¸ ¥
r ay
Ġå Ĩ
ç ¦
Ġj adi
Ġfun d
Â µ
Ġà®ª à®Ł
Ġele ment
ĠP em
æµ ģ
Ġtá» Ľi
yn am
Ġb a
at kan
m en
Â ¨
Ġt ag
Ġob s
Ġk áº¿
ĠB ox
ĠP aul
Ġw rap
ĠÄĳ áº¡i
Ġlevel s
Ġdev ices
æķ °
T r
el i
d om
Ġcon duct
Ġst ars
Ġall ows
Ġm al
5 3
Ġ8 00
áŀ Ĥ
Ġmem ory
C ont
Ġreg ion
m ark
áĢĬ áĢº
ĠC ond
Ġj e
à¸Ńà¸ ģà¸
Ġ à¹ĥà¸Ļà¸
ĠMod el
Ġâ Ī
f l
ĠH elp
int a
Ġc ash
ĠPre m
Ġtr ang
ĠAut hor
åĲ Ĺ
ĠT est
Ġgi áº£i
Ġ Ãł
ĠSt at
ĠP H
U D
ĠF L
Ġp ull
ĠM ain
Ġseb elum
ĠF R
b ed
ĠM eng
Ġgiá» Ľi
Ġà¸ ¡
Ġinst ead
Ġ. [
Ġb á»ĩnh
ul is
ĠM at
ie ved
àº ±
ounc il
I K
Ġroom s
Ġsign al
Ġs on
ĠQu á»ĳc
ra f
Ġch ance
Ġs low
Ġl ed
ĭĹ ä¸ĩ
ĠU t
áº§ m
Ġlá»Ľ n
çĽ ¸
ĠA T
à¯įà® ¯
ĠO ld
Æ° ng
Ġb ur
ĠG en
Ġc ases
C C
Ġnh iÃªn
èµ Į
Ġk ali
Ġd en
ĠJ ames
ĠD E
at o
d d
Ġk an
Ġb ang
Ġtr á»ĭ
á»į ng
à¸Ńà¸¢à¹Īà¸²à¸ ĩà¸
ĠSup port
ĠCont act
ĠM art
ur er
Ġplay ing
Ã¡ m
am ing
a e
ĠÂ º
æĢ »
Ġl ost
9 6
Ġ" );
Ġ6 00
áº ³
å¸ ĥ
O K
Ġser ver
Ġä¸ Ĭ
Ġw aktu
ĠSt ock
ç§ ĳ
ĠT erm
Ġà¸ ¥à¸
el es
ind er
Ġapplic ations
Ħà¸£à¸Ķà¸´à¸ ķà¸
Ġselect ed
à¸Ńà¸¢à¹Īà¸²à¸ ĩ
è® °
Ġm id
Ġå½ ©
ĠWash ington
ĠL ake
Ð º
¹à¸ ģ
Ġmem p
Ġp ant
à¹Īà¸²à¸ ¢
Ġ$( "
Ġ' ]
ĠA ud
ª à¸Ļ
ĠL im
Ġdisc over
o ff
ĠB en
ĠL ike
Ġber m
Ġ8 8
Ĺà¸µà¹Īà¸ ªà¸¸à¸Ķ
un an
Ġex pert
ç ĸ
Ħà¸ ´à¸
ak arta
T 00
ĠH all
os it
Ġstart ing
ĠK er
ic ed
ov ers
Ġcons um
Ġå Ń
Ġch á»įn
á»į c
l ation
ģ à¹ĩ
Ġl if
ĠProf ess
Ġad ip
áŀ ¢
erv ed
Ġdirect ly
Ġs old
Ġtr ust
ĠV er
ĠÃ į
ĠA v
Ģ â
ĠL and
ĠTex as
Ġthá»© c
à®¤ à¯į
ĠO R
Ġbenef its
Ġdefin itely
ĠM any
ĠH Ãł
Ġt ick
l ay
éĢ ī
Ġmethod s
àº Ķ
ÂµÃ Ħ
Ġæ ¶
Ġcand id
è ĥ
Ġess ential
Ġad just
ĠB and
ch e
Ġcour t
áĢ® áĢ¸
ond a
æĭ Ľ
Ġsh oes
Ġp in
ib ly
Ġ à¹
Ġgo al
Ġtrans m
ĠÃ Ī
on us
Ġcáº£ m
Ġi Phone
á» Ľ
Ġ6 6
ĠDevelop ment
Ġwonder ful
0 6
ĠL ow
_ m
Ġwork ed
ĠH y
Ġs ampai
ent y
Ġmu a
Ġim medi
Ġg ives
ĠSm all
ĀĀĀĀĀĀĀĀĀĀĀĀĀĀĀĀ ĀĀĀĀĀĀĀĀĀĀĀĀĀĀĀĀ
Ġsh ipping
Ġn y
º «
Ġå ¸
pert ies
Ġ Ã¡n
Ġ à¹Ħà¸
ER S
d own
ĠT ur
ä» Ģ
Ġf ine
Ġtemp at
Ġ% ;
h old
Ġà®İà®©à¯įà®± à¯ģ
ĠA N
Ġæ ²
?? ??
Ġann oun
æ ¨
Ġcomfort able
ĠP op
Ġà¸ Ľà¸£à¸°à¸
Ġà®ļ à¯Ĭ
ĠD omain
à¸Ļà¸± à¹īà¸Ļ
åĽ ŀ
Ġy Ãªu
Ġcount ries
Ġb aby
Ġassoci ated
Ġc Ã¡i
Ġà® Ł
ĠTr ung
è ª
Ð »
ĠPl us
ĠD V
à®¾à® ±
Ġtem perature
Ġd ress
ç« ¯
9 8
ĠAp plic
Ġc á»©
ĠC ert
æ ¼
å¼Ģ å¥ĸ
AT ION
Īà¸ °à¹Ģà¸
Ġ áº£nh
Ġdel ivery
å ĸ
Ġ6 2
ĠMan ager
Ġpay ment
è¢ «
or g
ĠP S
Ġing in
Â ª
à¹Ģà¸ Ĺ
Ġp aint
ĠSec urity
Ġle gal
Ġreg ul
Ġg amb
h ouse
C T
A V
urs day
ak ers
łà¸²à¸ ŀ
à¯Īà® ªà¯įà®ª
áĤ ķ
ĠSport s
Ġs ort
Ġse ek
Ġf air
Ġh idup
Ġgo es
§ à¸Ļ
ĠS ocial
Ġt áºŃp
i en
å± Ģ
Ġkel u
à¯Īà®¯ à¯ģà®®à¯į
á» ¹
Ã Į
æĹ ©
Ġr adi
Ġac qu
· à¹īà¸Ń
y cle
Ġà®ķ à®Ł
Ġx em
ues day
Ġç ĭĹä¸ĩ
ªà¸ ±à¸
iá»ĩ m
Ġsle ep
re st
Ġdo anh
ab ase
æĪ ¿
ªà¸´ à¸Ļà¸Ħ
s ung
Ġç Ľ
Ġber h
it ary
à¸£à¸°à¸ ļà¸
l s
æ° Ķ
ĠO per
end ar
Ġ ult
Ġne igh
Ġs ense
nes day
Ġ7 2
ĠMich ael
ĠFlor ida
ĠG allery
å§ Ķ
} }
æ ¹
ķà¹Ī à¸Ńà¸
P T
äº Ľ
è İ
Ġm is
ĠMed ical
Ġseb uah
B A
à»Ģ àº
in ese
æİ ¥
ĠDig ital
çĦ ¶
en is
ers ey
P M
Ġ0 30
Ġse lection
Ġ ^
ĠWe ek
Ġbe ach
omm od
pr ise
ĠCour t
Ġr ates
ä» »
à¸£à¸µà¸ §à¸´à¸
Ġà¸ Īà¸²à¸ģ
Ġáŀ ļáŀ
w an
or ation
Ġconst ruction
Ġpos itive
áĢĻ áĢº
Ġh y
ĠáĢ ħ
el ess
Ġà¸ ľà¸
Ġà®ĩ à®¤
ustr ial
O G
Ġ: )
as er
v ement
ra ight
n ah
ound s
Ġwr ong
Ġth á»§
Ġqu Ã¡
un k
èī ²
ar ah
Ġl inks
Ġtr ade
Ġright s
om ing
Ġbe g
Ġpar ents
Ġs olutions
ĠãĢ Ĭ
ed ic
ĠÃ ·
Ġd ark
Ġse hingga
Ġexpect ed
à¹ģ à¸Ļ
Ġw arm
Ġits elf
Ġcomp lex
Ġinterest ing
el as
idd en
Ġ00 Z
Ġfor mer
çľŁ äºº
Ġgr aph
E x
Ġn ature
Ġinterest ed
Ġå Ĭ
Ġthink ing
ĠK al
Ġa vo
Ġl ives
Â ²
Ġlim ited
ĠDe v
ĠÃ ĭ
Ġ; -
em e
ĠGr and
ast e
Ġeffect s
ĠM A
ä¹ ¦
ŀ à¸£
Ġman a
ĠC ode
à¹ĥà¸«à¸¡ à¹Ī
ĠPro t
l or
Ġch i
Ġs istem
Ġpro s
rup t
Ġv áºŃy
Ġhand s
ul an
Ġch u
Ġà¹Ģà¸ ģà¸¡à¸
Ġà®ħ à®®
áĢ½ áĢ¬
Ġd ir
Ġut il
Ġm ungkin
alu i
¡à¸²à¸ ģ
Ġprocess ing
E E
oc r
ĠB al
l ic
ĠÃ İ
im ately
ut an
Ġset iap
ĠV ia
áŁ ī
B O
p as
ĠMal aysia
áŀ¶áŀ Ķ
Ġadv ant
Ġa v
Ġso ft
Ġd er
à¸Ńà¸²à¸ «
Ġj ud
Ħ à¸Ļ
r ical
ç¤ º
9 3
Ġv áº«n
Ġtet api
Ġprim ary
Ġh uge
an o
ag on
à®¿à®± à®¤à¯ģ
ĠL ink
à¸²à¸ªà¸´ à¹Ĥà¸Ļ
ĠP A
ĠCle an
Ġä» ĸ
Ġà¸ §à¸±à¸Ļ
Ġà¸ Ĭ
Ġful ly
re ci
Ġc Ã´
eng ah
ĠTw itter
Ġstr ength
Ġdire ction
Ġáŀ ħ
tern al
Ġt Ãłi
Ġgroup s
ĠM ax
Ġcur ation
Ġlay er
en ance
or ary
apt op
Ġf arm
æ´ »
á» Ŀ
Ġsom et
T H
Ġcar ry
l ines
Ġmas a
Ġmed ic
ç¤ ¾
Ġsa o
ĠÂ µÃ
Ġb irth
Ġæ ±
r d
ĠIn i
Ġde ad
é¤ Ĳ
Ã³ c
ak in
Ġelect ric
å ¦Ĥ
Ġd iri
Ġad vert
Ġch arge
Ĺà¸²à¸ ĩ
Ġnot e
olog ies
Ġshop ping
Ġst eel
Ġses u
à®® à®¾à®ķ
Ġr ent
ĠEn d
ĸà¸¶à¸ ĩà¸
ĠQ ual
ab i
ä¼ ģ
Ġm agn
Ġl ibrary
ĠTh ursday
ĠPe ople
Ġà®ª à®¿à®°
Ġs at
Ġrep ly
Ġpre c
Ġ9 8
§ à¸Ļà¸
à¹Īà¸ ¡
ĠB rown
ari o
Ġcons ist
ĠM aster
on om
áŀ¶áŀ ļ
Ġn ov
op t
Ġcom mercial
ĠN on
Ġbro ad
5 2
Ġmu á»ĳn
Ġthan ks
ot al
Ġro ck
Ġl iter
Ġget s
ĠãĢĳãĢĲ ãĢĤ
ä¸Ń åĽ½
Ġà®µ à®¾à®
Ġwed ding
ĠH i
Ġst uff
æ Ĥ
Ġs pl
Ġc at
ĠAm azon
uy á»ģn
S H
ir an
ro te
å° ĳ
as uk
ib ute
æł ¼
Ġd ua
Ġm ah
à¸Ļ à¹Įà¸
uk up
Pr ice
Ġactiv ity
äº ī
Ġl iÃªn
j o
Ī à¹īà¸²à¸
n am
Ġres ist
ĠP aper
Ġb Ãłi
ç¬ ¬
ĠEm ail
ĠD I
oy al
ĠF OR
ĠAut om
at akan
èģ Ķ
åİ ħ
à¸Ńà¸¢à¸ ¹à¹Ī
ĠN C
O U
Ñ ĥ
Ġà¸ ¡à¸µà¸
Ġc art
Ġcam era
ES T
Ġmy self
ool s
Ġcommunic ation
ĠWed nesday
Ġtrans port
um a
Ġs á»ĳng
ģà¸ §à¹Īà¸²
Ġse orang
ach e
ed i
Ġfin ish
Ġcon vers
Ġà¸ ģà¸²à¸£
er i
Ġ6 8
æ ¥
Ġro t
Ġser ious
Ġhelp s
ĠT uesday
å· ²
ĠK et
ĠA vailable
ä½ ł
ĠH ave
S S
ĠSil ver
Ġmov ing
Ġter l
Ġh omes
Ġco ach
à¹Ģà¸¥ à¹Īà¸Ļà¸
æİ ¨
Ġk as
Ġas pect
æĹ ł
à®ª à¯į
t a
ĠM iss
Ġcomplet ely
è Ļ
Ġt ab
« a
ĠY ang
ķà¸±à¸ §à¸
æĪ ĺ
ĠWor ks
et a
Ġatt ention
Ġme chan
ĠF ound
çº §
¡à¸ ·à¸Ńà¸
Ġà¹Ģà¸ §à¹ĩà¸ļ
Ġb lood
Ġf irm
ĠD a
áŀ ģ
Ġp i
Ġch em
ip es
Ġà® ľ
Ġ11 0
Ġt Äĥng
Ġ6 3
ĠM es
ĠC over
» ¿
Ġà®ª à¯Ĭ
Ġsr c
Þ °
Ġber l
Ġjo in
Ġsp ot
Ġgiá» ¯
ĠProduct s
9 2
Ġinvol ved
ĠAut o
Ġcl ub
Ġprom ot
áºŃ u
m ar
áŀĺ áŁĴáŀ
Ġtr iá»ĥn
ĠM il
Ġä½ Ĩ
âĢ Ļ
Ġap pe
ķ áĢ«
áŀ ¹
Ġ, #
à¹Ģà¸ Ľà¹ĩà¸Ļ
itte e
Ġtrans ition
Ġqu arter
Ġà¹ģà¸ ķà¹Īà¸
Ġ] ,
ĠSystem s
aim ana
Ġin itial
ĠÄĳá» ķ
res p
n i
Ġor d
) ,
æł ·
Ġhe at
á» Ŀi
app ä¸ĭè½½
ur ang
ĠNet work
ip ts
¥à¸ °à¹Ģà¸
Ã© t
éĹ ®
Ġplan ning
Ġro ll
oth ing
r ant
áº¡ m
Ã «
Ġc ry
ĠEx per
ĠS ince
ĠEurope an
åĮ Ĺ
ut s
in er
as is
à¹ģà¸ļà¸ ļ
am il
Ġs av
ul it
Ġal b
Ġte le
Ġ19 99
ĠC ost
h aps
Ġ365 bet
20 19
Ġper k
ĠD alam
Â ´
Ġh op
ĠCom ment
Ġschool s
ĠM ont
Ġass ess
à¸µà¸¢à¸ ĩ
Ġpl aces
ĠB ec
Ġv oc
à®¿à®° à¯ģà®¨à¯įà®¤
æł ĩ
à¯įà® ¨à¯įà®¤
æĽ ´
Ġg ur
Ġout put
Ġmas ter
Ġr ing
ĠI d
Ġ" ;
ĠP ak
Ġ à¸Ńà¸Ńà¸Ļà¹Ħà¸¥à¸Ļà¹Į
_ n
Ġexact ly
Ġ[ "
Ġdiffer ence
Ġcertain ly
è¿ ĺ
an ita
Ŀ à¸²à¸ģ
é¡ µ
Â£ Â¬
Ġen h
å¾ Ī
åĨ Ľ
k ey
Ġcap t
æĥ ³
å Ļ
à¹ĩà¸ ģ
_ t
ĠÂ ¬
ĠTe am
Ġpro ced
á»ĵ n
ew ork
enc ies
Ġf ight
Ġh ing
ģ à¹Ī
os is
ell o
æģ ¯
Ġc m
ĠCol lection
Ġà®ĩà®° à¯ģà®ķà¯įà®ķ
¨à¸ ¶à¸
Ġbas ic
Ġt Ã¬m
or a
ĠCon st
Ġh over
r id
¸ à¹Īà¸Ļ
Ġkal au
ĠC ong
Ġth Æ°Æ¡ng
ª à¸£à¹īà¸²à¸
20 17
Ġæĺ ¯
ĠAd min
Â ¼
Ġà®ķ à¯ģà®±
Ġupd ated
Ġà®¨ à¯Ģ
Ġmem ang
v in
à¹Ī à¸Ńà¸ĩ
ĠD engan
Ġmay be
ĠS am
Ġà®ª à®¾à®°
ell er
ĸà¸ ¹à¸ģà¸
ĠL ive
ĠçľŁ äºº
åį İ
Ħ à¸£à¸²à¸°à¸
ĳ âĸ
Ġ î
ropri ate
ed s
ļ à¸Ļà¸
Ġdec ided
ĠFor um
Ã ħ
Ġs and
ĠR iver
ud a
à®ļ à¯įà®ļ
Ķà¹īà¸§à¸ ¢
Ġreport ed
r t
ĠM ary
åı Į
Ġorgan ization
Ĺà¸¸à¸ ģà¸
Ġm ul
Ġpost s
áº³ ng
Ġáŀ ı
Ã ¶
il ies
ĠRe f
Ġà¹Ģà¸ Ĭ
Ġcell s
Ġc n
o very
à¹Ģà¸ ĭ
Ħà¸£à¸²à¸°à¸ «
on str
Ġth i
åº Ķ
ĠS U
ĠC R
ä»Ģ ä¹Ī
P A
ec es
å¯ ¼
ĠDr ive
ĠDes cription
Ġg iving
Ġst ress
Ġm ir
ĠK ab
Ĺà¸ ĺ
ol ah
é¦ ĸ
c ing
ĠGu ide
ĠCh urch
åĪĨ å½©
ĠFr ench
Ġmember ikan
I m
Ġ12 5
Ġs ah
Ġb enar
Ġmem per
à¹ĥà¸«à¸ į
Ġgia o
à¹ģà¸ļà¸ ļà¸
Ġem erg
ĠBr and
Ĵ âĸ
u ch
Ġfr ame
Ġtr á»įng
st anding
Ã ¦
anc ing
Ġbud get
id ents
ĠÃ º
è º«
ong an
Ġb ao
ä¸Ģ ä¸ª
ªà¸ ¡à¸
ĠG ames
æĸ Ļ
ĠB ill
l ier
ĠTr ip
Ġà¸ Ĺ
Ġthem selves
am ond
us es
9 7
Ġtr a
å¾ ·
åģ ļ
ĠDet ails
Ġhist or
F L
Ġ02 00
ĠH ill
à®£ à¯įà®£
ķà¹Ī à¸Ń
Ġst ates
áĢĻ áĢ¹áĢ
à¹ī à¸Ļà¹Ģà¸
à®¿à®² à¯įà®²
ĠP ass
A p
Ġfl u
Ġl áº§n
ĠPol icy
å½ ±
Ġmet al
ĠMan ufact
ĠJ ika
ĠM ass
Ľà¸£à¸°à¹Ģà¸Ĺà¸ ¨
b al
ĠA lex
Ġpro te
ĠF ollow
à¹Ģ à¸£à¸²à¸
ĠQ ue
m b
iss ions
k it
Ġinv ent
Ġweek end
Ġj am
Ġp aid
iáº¿ u
Ġp aling
Ġenc our
Ġset ting
ĠN ame
ĠH arga
Ġev alu
Ġs y
ĠC ross
am at
ar ik
ģ à¸£
Ġexp ress
ĠM O
ĠDi agram
ĠB ur
iv il
áĢĶáĢ¹áĢ ¸
Ġsitu ation
Ġcontr ibut
Ġà®¤ à®®
Ġ6 1
Ġngh Ä©
ent uk
ĠS K
éĢ ģ
Ġwind ows
ver pg
ak ah
ĠV ir
ĠÃ Ĩ
Ġconsider ed
Ġth á»ĳng
Ġh Ã³a
Ġconf ig
ip ada
ĸà¸ ·à¸Ń
Ġind ep
Ġg arden
Ġ ä¹
augh t
Ġå½© ç¥ŀ
Ġpur pose
ä¸ ĵ
å° Ķ
is ions
à¹Ģà¸ ¥à¸
Ġtá» ī
Ġqu ot
Ġd Æ°á»
Ġsc ience
Ġr á»ĵi
Ù Ĭ
ĠA k
Ġtr ied
à¹Ģà¸ ¡à¸
ĠP T
S P
il s
ĠOn ce
éĻ Ĳ
Ġgrow ing
Ġmeas ure
ç Ł¥
Ġrequ ires
ĠA nh
had ap
om as
éĹ »
ĠC L
Ġm udah
Ħà¸ ¥
ĠâĢĿ ,
ab led
Ġtrad itional
Ġprof ile
Ġ6 7
Ġus es
ing kat
E X
U t
æī ĵ
Ġinf lu
Ġl ib
Ġdescrib ed
æ ¢
Ġsl ot
m i
Ġg ave
Ġl á»±c
Ġphys ical
Ġ07 70
iqu es
Ġsomet imes
Ġpro gress
ç» Ł
it ude
Ġc up
Ġe at
Ġar g
m ail
Ġide al
Ġà¸ ģà¸£à¸
Ġd river
Ġket ika
f low
Ġrel ative
n is
ĠS amsung
æ² ³
ĠÃ Ĳ
çī ĩ
se qu
Ġb iá»ĩt
é© ¬
b urg
à®¿à®© à¯įà®±
Ġv Äĥn
Ġtr ung
ĠM ap
ĠÄĳ áº¥t
ĠEng land
Ġg ift
Ġe k
ident ial
Ġcop y
ĠP o
Ġm other
ĠJ ournal
Ġt iÃªu
å®¢ æĪ·
i ant
Ġf ant
Ġre ference
è® º
5 1
Ġæ Ĭ
un ning
Ġth Ãªm
æ² ¡
ĠCar ol
Ã ĳ
m on
Ġà®¤ à®¿à®°
Ġgr adu
Ġï¼ Ľ
ä» ·
Ġber j
Ġto wards
pt ion
Ġ7 8
ĠD en
Â ½
ĠGover nment
Ġst age
Ħà¸£à¸Ķà¸´à¸ķà¸ Łà¸£à¸µ
Ġe asi
Ã »
C M
ĠF it
åħ ¶
Ġ1 px
Ġw p
Ġv an
ĠMed ic
us ia
el ine
ĠQu est
Ġbeh av
Ġaut h
d n
Ġco ffee
Ġc asino
E O
Ġaff ord
Ġst ick
Ġ ir
å®ĺæĸ¹ ç½ĳç«Ļ
ur ers
à¯ĩ à®©à¯į
Ġmel alui
è£ ħ
Ġappro x
Ġæ Ľ
re te
Ġç º
ĠAre a
ªà¸²à¸¡à¸²à¸£à¸ ĸà¸
Ġst one
Ġáŀ Ĥ
Ġresp ond
ĠCh inese
Ġatt ach
Ć ą
ĠT ips
ķà¸²à¸ ¡à¸
Ã¬ n
Ġcamp aign
ĠTh u
áĢħ áĢº
ĠR p
Ġover all
ĠW ay
Ġpol y
ĠE ach
Ġl alu
Ġsp orts
ĠHot els
Ġe ye
Ġag ar
Ġb orn
Ġn umbers
r ound
Ġp k10
ĠSt eel
ous ly
Ġb Ã¡o
Ġgr and
ĠL iving
ĠL ang
Ġd unia
è¯ ·
çľ ģ
ĠâĢ ļ
Ġf ashion
Ġho áº¡t
å Ķ
Ġl ock
yr ight
RE E
Ġl ines
æĮ ģ
áĢļ áĢº
ĠL ED
å½ ĵ
Ġdirect ory
ĠSt ore
Ġh a
ï ½
ĠC up
ad y
Ġ7 4
_ p
âĢ Ķ
Ġm iddle
Ġmon itor
Ġsp end
em at
ific ations
e en
Ġwas n
ĠLe ad
ĠRel ated
Ġacc ur
Ġant ara
Ġse p
Ġmed ium
Ġt ÃŃch
à¹Ħà¸ §
Ġinter view
è Ħ
ob il
Ġin nov
Ġà¹Ģà¸ ŀ
Ġst raight
Ġf an
Ġoffer ed
E lement
Ġdevelop ed
ĠF ort
Ġautom atic
Ġ) (
çİ ¯
Ġpro p
Ġstr ing
ĠEst ate
Ġo wner
å¸ ¸
Ħà¸§à¸²à¸ ¡à¹Ģà¸
Ġf elt
Ġnh au
àº Ń
Ġà®ĩà®° à¯ģà®¨à¯įà®¤
áº¯ m
ĠÄĳ Æ¡n
åĲ ĳ
§à¸ ĩà¸
Ġc e
¥à¸ ĩ
Ġapp reci
ĠPh one
Ġd oll
ķ à¹īà¸Ńà¸ĩ
Ġlot s
ĠC ase
Ġk o
y an
ĠI ll
ĠInv est
Ã³ n
Ġtiáº¿ ng
j ax
åŁ º
w orks
ĠA h
ing k
ag u
ĠC ook
Ġhot els
ĠCon nect
Ġ7 7
uk u
à¸´à¹Ģà¸ Ħà¸£à¸²à¸°à¸«
ĠM a
Ġ8 4
ĠM ah
p et
c are
ĠR am
Ġ9 6
Ġà¸ Ľà¸
c ape
¶ à¹Īà¸ĩ
ĠM emb
um lah
Ġch á»ĭ
å¼Ģ æĪ·
Ġinvest ment
erv ation
Ġbers ama
Ħ ¢
èµ° åĬ¿
use um
g as
ain an
b ol
ļà¸²à¸ Ħà¸²à¸£
augh ter
Ġç ½
çķ Į
ic er
Ġwe ather
Ġthan k
ªà¹Īà¸§ à¸Ļà¸
Ġcor por
IN E
Â ±
o om
Ġå ¿
Ġtr ÃŃ
Ġ1 st
ĠAcc ording
Ġvi ol
Ġj aw
Ġlov ed
ç ¯
if ts
ĠSup pl
Ġting gi
ç« ĭ
§à¹ĩà¸ ļà¸
int age
Ġ? âĢĿ
Ġs atis
b at
ect or
ĠPart y
Ġaltern ative
C D
áĢĢ áĢ¹
Ġà¸ ļà¸
ear s
ĠãĢĳãĢĲãĢĤ ãĢĳãĢĲ
Ġup load
ĠMot or
ç ı
Ġlo an
áģ Ģ
ill age
6 14
Ġà¸ªà¸ ¡à¸±à¸
æĴ Ń
áŁ ĥ
ĠFr ont
ĠHist ory
at ively
Ġc ards
Ġdar ipada
ĠB aby
ĠSp ring
h r
Ġà®® à¯ĩ
Ġh um
ĠWh o
amb il
Ġcreat ing
Ġant i
Ġáŀ Ľ
Ġ"> <
Ġà®ķà¯Ĭ à®£à¯įà®Ł
å¼ º
v an
Ġro w
Ġinc ome
Ġ à¹Ħà¸Ķà¹ī
ĠBook s
A F
ĠSe lect
Ġdil akukan
Ġp oker
Ġsuccess ful
Ġpolit ical
à¹īà¸Ńà¸ ¢
end a
Ġbas is
Ġfe et
ES S
Ġst ation
ĠF ord
ĠAssoci ation
adem ic
Ġindividual s
Ġval ues
orn ey
ĠT om
Ġemb od
Ġbusiness es
v a
b sp
Ġc atch
ĠS at
er ry
Ġf igure
mer ce
ĠP el
ell a
Ġemploy ees
Ġplay ed
Ġter d
ĠT or
le g
Ġy a
Ġcl in
áŁĴáŀ Ļ
áº§ y
Ã Ĺ
cept ion
Ġgiá» Ŀ
Ġ à¤
è¿ ĳ
Ġtan pa
I E
ĠC ara
Ġè ĩ
r ome
Ġim ag
Ġmendapat kan
amp u
Ġhealth y
ä¼ ł
ä¸ ĸ
0 5
Ġpan el
Ġw rote
à®¿à®ķ à®³
áŀ¶áŀ ı
Ġhigh est
ĠS i
ĠK ore
Ġdam age
Ġb rows
ud ian
ad ian
ĠáŁ Ķ
¨ å¤©
é£ İ
ĠS aya
Ġé ĺ
ĠI ng
ĠE ner
Â ·
Ġro b
Ġtr á»Ł
Ġhand le
ĠWh ere
Ġunderst anding
à¹ Ħà¸£
Ġex erc
Ġp ng
Ġter hadap
Ġsay ing
áŀ¶áŀĢ áŁĭ
ĠC reat
e f
Ġlog o
ĠChrist ian
ourn ey
ç§ į
r ain
ĠCh ic
Ġ7 6
ªà¸³à¸« à¸£à¸±à¸ļà¸
Ġb Ãªn
Ġtá» ¥
ªà¸¸à¸ Ķà¸
ĠB L
ĠF oot
Ġ$(' #
Ġà®ī à®³à¯įà®³
Ġv irt
æĶ ¶
ĠTr ump
Ġä» ¥
b ody
w h
à¹Ģà¸ Ĭ
à¹Ħà¸ ĭà¸
Ħà¸£à¸ ±à¹īà¸ĩ
Ġcontin u
il ah
ĠM i
Ġincre ased
æ Ł
ĠM ath
Ġd áº«n
Ġà® ¯
m et
Ġeconom ic
æľ ¯
áĢĬ áĢ¹
ĠLe g
az ine
aw at
Ġv áº¥n
ĠSm art
Ġa ward
łà¸²à¸ ©
Ġà¹Ģà¸ Ľà¹ĩà¸Ļà¸
Ġrele ased
vis or
Ġregard ing
ĠÄĳá»ĭ a
Ġph Æ°Æ¡ng
Ġà®µ à®¿à®
Ġsc ale
à¯ģà® ª
B y
ĠV ery
Ġr ich
¨à¸¶à¸ ģà¸©
ĠR os
ĠT our
Ġc ore
åı¯ ä»¥
Ħ à¸Ńà¸
áŁĦ áŁĩ
Ġstep s
and er
ĠÃ ©
Â ¿
Ġp es
ree k
ĠÄĳá»ģ u
åĻ ¨
Ġbenef it
ar ily
ify ing
ess age
ç² ¾
Ġk en
ĠW H
ĠÂ¡Â £
Ġadv ice
land s
Ġ8 2
Ķà¸ ¹
áŀ¶áŀ ĺ
Ġæ °
0 9
à¹īà¸Ńà¸¡à¸ ¹à¸
Ĳ à¸
Ġc ukup
Ġtop ic
os ure
æİ Ĵ
20 16
is her
Ġqu á»ĳc
Ġneg ara
ĠRe v
Ġt on
ä½ ķ
ĠDire ctor
ol ar
ens i
Ġà¸ «
Ġè ´
Ġà®µà¯ĩ à®£à¯įà®Ł
æ¸ ¯
Ġé Ļ
Ġoper ation
Ġho Ãłn
Ġcu á»Ļc
Ġ __
Ä Ĳ
Ġre pe
Ġconnect ion
ut r
am ar
åıĳ å±ķ
Ġ8 3
B ook
Ġsqu are
Ġ8 6
Ġç §
Ġgo ogle
ĠN á»Ļi
ĠP ers
æ ®
ĠRob ert
Ġuse ful
Ġill ustr
ĠOn ly
Ġdist ance
Ġal though
Ġrel ax
ĠC P
g ar
Ġfor ce
áŀ· áŀĦ
ĠTr ong
ĠÃ£ ÆĴ
Ġa im
Ġ199 8
Ġx ml
ĠåĽ ½
âĢ¦ ]
Ġr adio
Qu ery
ĠPr om
ĠG arden
Ġch Æ°a
ĠL u
x y
à¯įà® °
Ġmin ute
åħ ļ
Ġ) )
Ġcult ure
Ġv ict
olog i
ens ions
Ġh yd
Ġdise ase
à¸Ńà¸Ńà¸ ģà¸
Ġt emplate
Ġà®¤à®® à®¿à®´
ĠP ict
ĠAl b
Ġoffer ing
Ġ à¹Ĩ
Ġreport s
Ġpat ient
ĠU r
Ġl iá»ĩu
h o
ing er
Ġ[ âĢ¦]
Ġag ree
h an
ä¾ Ľ
Ġs Ã¡ng
ĠP RO
Ġ365 ä½ĵèĤ²
Ġc ounter
ĠCont in
Ġà®® à¯ģà®Ł
Ġc abin
à®ķ à¯į
ĠW rit
Ġeff ort
áŀ» áŀĦ
Ġf ill
al ed
it ors
Ġå İ
ĠÃ ĩ
Ġh ide
ĠM D
Ġ9 2
z er
ç© º
Ġcomp ared
ĠE dition
ĠUs ed
un akan
is ode
Ġk a
ĠC urr
ĠD iv
ĠS ave
à¯ĩ à®ļ
Ġem p
Ġc ru
ĠMarket ing
à¸£à¸ ¹à¸
Ġmod e
áģ ¿
Ġprofess ion
ĠI M
Ġ äºº
ord in
ĠS le
ĠçĶ µ
æ± Ĥ
Ġker ana
Ġb re
Ġst ream
ĠC Ã¡c
ĠA ff
Ġnot ice
ĠM achine
Ġà¸ ¡à¸µ
Ġhe ard
Ġtechn ical
ĠJ os
Ġre ve
Ġpol ice
á» ħ
Ġm ach
0 2
or row
áĢĦáĢ¹áĢ ·
Ġorgan iz
Ġfoot ball
Ġop in
ĠEx p
Ġb áº¥t
Ġä¸ º
ĠFr anc
w here
Ġ= \"
Ġstat ement
Ķà¸ ¹à¸
ĠInst itute
å¹ ¿
Ġinv ention
ĠD C
Ġth am
ĠT own
us ion
i ah
Ġáŀ ģ
ĠEx c
Ġacc ommod
Ġextrem ely
è ±
Ġst ories
ĠJ ew
´ à¸Ļà¸
V iew
ON G
ŀ à¸£à¸
uy áº¿n
ĠRe qu
è¾ ¾
Ġl Ãºc
Ġhapp en
Ġey es
Ġun s
åħ į
ç ¡
Ġh ab
ĠA w
ĠE X
ĠM as
ĠèĢ Į
Ġmeng en
inc ip
Ġdi e
à¸µà¸ ģ
ant ly
Ġh ang
¨ à¸²à¸
Ġsh oot
L e
Ġatt ack
Ġæ ķ
ĠS ek
Ġà®ļà¯Ĩà®¯ à¯įà®¤
Ġw oman
Ġstud ies
Ġb id
ou ter
à¹Ī à¸Ļà¹Ģà¸
es us
à¸£à¸¹ à¹īà¸
# #
is co
ĠS ample
Ġsec ure
Ġr ules
ĠWeb site
ç¾ ¤
à®± à¯įà®ª
Ġscr ipt
Ġgu arant
d ed
w ise
Ġorig in
Ġass ign
¥à¸ ¹à¸ģà¸
ĠBrit ish
èĢ ĥ
Ġt ut
ĠE D
é ĸ
Ġgo als
il er
Â ¶
Ġt om
v y
ĠIn n
ĠT X
Ġchang ed
amp ions
ĠT ake
Ġhing ga
ĠK im
re h
Ġ à¹Ħà¸¡à¹Ī
or an
ĠÄĳá»ķ i
Ġmod ule
«à¸¥à¸ ±à¸ĩà¸
w ell
çİ ĭ
Ĺà¸µà¹Ī à¹Ģà¸
Ġstrateg y
Ġ) -
ĠP L
Ġapp arat
ĠIs ra
Ġthem e
Ġsl ide
Ġdem and
Ġconnect ed
áº¥ m
à¸Ńà¸ °
ĠS qu
P L
ĠBed room
Ġé Ķ
· à¸Ńà¸Ļ
Īà¸ ¸à¸
Ġcomp are
Ġpart ner
ic ious
Ut ama
Ġâ ĸ
ĠD oc
ĠU R
m ary
ĠR ent
à¸£à¸±à¸ ģà¸©
Ù Ĩ
ĠM ethod
áĢŃáĢ¯ áĤĶ
Ġr ank
i i
Ġch urch
ĠDomain Utama
ĠB ul
Ġp ak
l ook
ly ing
Ġun ivers
åħ ī
Ġbec ame
k o
Ġà¸ §à¸´à¸ĺ
ĠC ouncil
µ à¹Īà¸
ŀ à¸²à¸
åİ Ł
Ġal t
ģà¸ ¥à¸²à¸
Ġcap ital
ĠG irl
ax y
Ġå¼ Ģ
Ġà¸Ħ à¸²
i os
ĠN ote
é¡ ¹
ĠRec ord
· à¹īà¸Ļà¸
æ´ ²
il ang
verpg bel
and om
Ã² a
y les
è½ ¯
ç» Ļ
Ġart icles
Ġtr aff
ĠB reak
ar r
à¯ģà®® à¯įà®ª
w ide
ĠAl though
Ġth read
ĵ à¹Įà¸
Ġlarg est
è ĳ
Ĺ i
Ã ¸
t ime
åĬ ŀ
B N
Ġng ay
ol ic
Â ¾
Ġæ ŀ
in n
Ġest ate
clus ive
ĠInvo ices
art ments
áŁĴáŀ Ł
ait u
l ers
¢à¸ ¸à¸
ĠT an
Ġm att
æ² »
Ġexist ing
Ġpro perties
Ġ9 4
Ġh á»Ļ
V al
Ġbe gan
ĳâĸ ĳâĸ
os ition
Ġport ion
Ġà¸ ļà¸²à¸Ĺ
r as
ĠÃ ķ
Ġh ospital
Ġh oliday
p ite
Ġele ments
ÃŃ n
Ġ/ "
ĠAfric a
Ġarr ang
ĠC ool
ĠR M
à¹ģà¸ Ĥ
0 8
ĠÃ ı
Ġdef ault
Ġmult i
0 7
Ġopen ing
Þ ¬
w id
est ival
Â ¸
Ġmod els
Ġber p
ĠB R
Ġ8 1
Ġref lect
arn a
Ġn ation
Ġrepl ace
Ġavo id
Ġ à¸Ļà¸²à¸
Ġap artment
anj ang
Ġcol d
äº Ķ
Ġngo Ãłi
è² ¸
ut y
Ġ á»©ng
} ;
Ġ ip
ĠV ers
Ġapparat us
ug ar
Ġch uyÃªn
Ġdr iving
Ġx Ã£
P C
Ġé Ĥ
Ġà¸ª à¸²à¸
ĠT oy
Ġcon ven
Ġrestaur ant
Ĵâĸ Ĵâĸ
ĠEss ay
Ġ; &
Ġtr ail
Ġprot ection
Ġam b
æŃ ¤
Ġh ub
act ive
Ġlist ed
uyá» ħn
Ġredu ce
à¸Ļà¹īà¸ ³à¸
ĠDec or
ä¸ ¤
ĠÂ §
à¯Īà®ķ à®³
ĠUs er
ĠE ff
y ing
g est
os ph
Ġcar s
à¸Ńà¸¢à¸ ¹à¹Īà¸
Ġopport unities
Ġqu ant
à¹Īà¸²à¸ §à¸
ĠAcc ount
é į
' '
er ah
à®¤à¯įà®¤ à¯Ī
Ġth Ã¢n
Ġs q
ĠUS B
å¥ ³
ĠVal ley
è Ń
è¯ ķ
C om
å¤ ´
ĠM ex
Ġw al
ĠM id
ang ka
ĠÃ Į
Ĺà¸ ĩà¸
æł ¡
com ing
Ġperm alink
ĠT re
ad s
áŀ Ĺ
·à¹Ī à¸Ļ
è¶ ³
Ġk ons
à¸²à¸£ à¹Įà¸
ĵ à¹Į
åŀ ĭ
Ġfin ally
Ġgreat er
Ġcent ral
Ġgu id
ĠW il
ĠB all
L ist
Ġann ual
Ġ7 00
ĠW iring
Ġth ous
Ġg t
ĠO k
à¸£à¸£à¸ ¡
Ġte ams
Ġs á»Ł
Ġo k
ĠK ami
Ġbegin ning
Ġadd ing
ĠS S
Ġf uel
ĠS ource
Ġprodu ce
å· ±
ab il
ĠMod ern
ĠD ress
Ġtr ain
Ġæĺ ¨å¤©
Ġj Query
§à¸¥ à¸²
Ġpack age
áĢ¯ áĢ¶
Ġter us
ens es
Ġ8 7
Ġcont ains
Ġà¹Ģà¸¥ à¹Īà¸Ļ
Īà¸ ³à¸
as ar
èĬ ±
Ġv ot
und red
er l
ĠElect ric
ĠDV D
Ġincre asing
ick en
Ġfeel ing
à¯ģà®ķ à®³
à®¿à®° à¯ģà®ķà¯įà®ķ
Ġth umb
Ġdr ink
9 1
ĠC N
Ġtrans l
ĠP ur
ĠK em
Ġ7 3
l as
Ġdat abase
Ġc Ã¡
Ġtr áº»
E n
Ġsc ore
Ġd ining
ĠÄĳ Ã¡nh
ce p
Ġsur g
Ġg ain
åĲ Ħ
ĠH u
ĠT otal
Ġquy áº¿t
Ĭà¸ ·à¹Īà¸Ńà¸
« à¸²
ĠC ON
áĢĦáĢº áĢ¸áĢ
Ħ à¹Īà¸
a ctions
Ġfam ilies
ĠJob s
Ġlist ing
Ħ à¸£à¸±à¸ļ
Ġch áº¿
é¢ ĳ
Ġä¸Ń åĽ½
æĺ Ł
et ah
Ġman ager
æ Ł¥
s ites
Ġé Ŀ
áŀ¶áŀ Ľ
à¸´à¸ Ķ
Ġr áº±ng
ĠP erm
åħ ±
Ġæ ¯
or por
ock et
Ġb attery
Ġallow ed
áĢĢ áĢ¼
ä¼ ĺ
ķà¸´à¸ Ķà¸
æŀ Ĺ
Ġmas uk
ain less
Ġs ession
Ġper nah
Ġbuy ing
Ġr u
ĠS n
Ľ à¸µ
Ġt ree
ĠM aterial
I AN
Ġprof it
Ġapp ropriate
ĠSm ith
i able
Ġdem onstr
Ġter t
Ġn áº¿u
à¸£à¸µà¸ ¢à¸
ung i
Ġå ¦Ĥ
Ġsp ring
Ġà¸ª à¸´
à¯įà®ķ à¯įà®ķ
Ġval id
Ġs am
Ġn bsp
Ã£ i
Ġsp ent
Ġlain nya
å¤ Ħ
ĠF ile
ĠK en
Ġth ÃŃch
Ġberb agai
à¹Ģà¸£ à¹ĩà¸
ļ à¹īà¸²à¸Ļ
ĠN H
ist an
" ,"
ĠB an
Ġg h
Ġà¸ŀà¸Ļà¸ ±à¸Ļ
Ġç ī
Ġmean ing
Ġwant s
ĠE asy
èĢ Į
Ġbr ought
áĢ¬ áĢĢáĢ¹áĢ
Ġwe ar
l ished
Ġdi et
ob e
Ġo l
or ry
ic an
Ġdr ug
Ġret ail
_ gr
ĠO l
à®©à¯įà®± à¯ģ
Ġc ung
ĠRes p
Ġdi j
ĠAs ia
è Į
Ġturn ed
ĠPro cess
ĸà¸¶à¸ ĩ
l ik
Ħà¸ ¥à¸
Ġsur round
Ġm ata
Ġm áº¯t
ĠM B
uk t
Ġaud io
ĠEn t
Ġag ent
ĠM aj
Ġatt empt
Ġf ig
Ġæ ³
emb ly
ĠW as
¢ à¹Įà¸
Ġeasi er
Ġcal cul
Ġlook ed
a ikan
ĠT P
Ġà®ķ à¯ĭ
Ġy aitu
ĠLe ague
ĠTr aining
Ġout door
ľà¸ ¥à¸´à¸
Ġcrit ical
Ġv ideos
Ġà¹Ĥà¸Ķà¸ ¢à¸
el a
Ġst reet
Ġfe e
ob a
Ġoper ating
ap kan
Ġsh aring
Ġch uyá»ĥn
Ġtr uly
Ġintern al
à¹ģà¸ ¡
ĠFr ank
èģ ĺ
Ġterb aik
Ġsh ot
á»± a
å®¢æĪ· ç«¯
àº µ
Ġvol ume
Ġ? ?
ä¼ģ ä¸ļ
Ġh idden
Ġgr ade
à¹ĥà¸Ļà¸ ģà¸²à¸£à¸
Ã© p
Ġparticular ly
ĠJ akarta
Ġocc ur
Ġf ans
ı i
Ġà¸ Łà¸¸à¸ķà¸ļà¸Ńà¸¥
Ġs ample
vers e
u et
ĠS ite
à®¿à® ¨à¯įà®¤
Ġse j
Ġà®ħ à®©
} ,"
Ġh ati
Ġc ast
Ġw ife
ĠV an
ĠF urniture
AT E
ĠEx am
ĠK ids
Ġde als
Ġbe y
Ŀ à¸
Ġvá» «a
ĠF act
I I
Ġ199 7
áĢ±áĢ Ķ
as ional
æĶ ¾
Ġgener ally
ĠI ts
ĠEner gy
cent r
ĠTe ch
Ġl ack
Ġker ja
èĩ ³
à¯Īà® ªà¯į
Ġcomp ar
Þ ª
Q U
ç» Ħ
il ai
Ġlarg er
Ġc it
à¹ĩà¸ ģà¸
ab et
Ġp p
Ġtá»ī nh
ĠF all
Ġj ual
Ġs outh
Ġ0175 3
ĠJ esus
Ġtah u
à¸£ à¹Īà¸§à¸
Ġbul an
ĠPerson al
áĢĬáĢ¹áĢ ¸
Ġ9 3
Ġcont ain
Ġmel ihat
ig an
Ġbill ion
ep h
ĠP ada
Ġbel um
Ġl á»ĭch
Ġcol umn
us us
_ h
EN G
Ġb ak
Ġown ers
ĠCom ple
ĠB M
Ġ9 00
Ġfix ed
Ġannoun ced
éĢ ł
Ġsp irit
åı ĸ
Ġfl at
Ġimmedi ately
Ġd ial
áĢ¬ áĢĦáĢ¹áĢ¸
Â «
Ġn ames
Ġsm ooth
ĠWed ding
l an
atal og
ªà¸ ĸ
b erg
Ġch Æ¡i
Ġpe ace
Ġh us
ĠV i
Ġà®¤ à¯Ĩà®°
Ġapp oint
Ġre lev
ell ig
ĠSt yle
Ġcan cer
eb ab
ĠUn ivers
uck y
Ġtraff ic
å Ħ
Ġå¤ ©
Ġp al
ĠÃ ĺ
ĠEx pl
à¯Īà® ļ
ĠRep air
ĠáĢ Ĩ
à¸£à¸ ´
Ġn á»Ļi
unya i
ĠF air
ant ic
Ġ à²
ĠH app
O V
Ġse g
Ġp ump
ĠM á»¹
ĠL os
Ġs weet
ĠW W
Ġ à¸£à¸µà¸§à¸´à¸
Ġent ert
Ġ7 1
Ġmas alah
Ķà¸ ±à¸ļà¸
us ing
åħ Ī
= >
áº¯ p
à¹Ģà¸ģà¸ ´à¸
à®¿à®¯ à®¿à®²à¯į
Ġeff icient
Ġcour ses
alam an
Ġsp ort
Ġmemb antu
Ġexperi enced
T o
áŀ¶áŀ Ł
àº »
ĠO il
im in
Ġcomp ut
Ġadv anced
à®¾à® ķà¯įà®ķ
ą Ĉ
Ġcol ors
ĠAss ist
áŀ ł
ĠLe vel
Ġà¸ªà¸ ¹à¸
ĠLoc al
áŀ¶áŀĶ áŁĭ
Ġth reat
ĠT emplates
ĠAn other
n el
at en
ks i
Ġguy s
Ġà®İà®© à¯įà®©
Ġbey ond
Ġd oub
crib e
Ġï »¿
x x
ul ing
ĠB ad
éĺ Ł
Ġdá»± ng
Ġl ama
Ġadvant age
Ġre asons
ĠPro du
¸ à¸Ļ
áŀ¶áŀ Ļ
ĠRep ublic
Ġ9 1
áº± m
ĠSp ec
Ġn umer
Ġch annel
Ġ10 px
Ġà®ķ à¯ĩ
åı Ĺ
S e
Ġp enting
y o
Ġà®µ à®´
Ġrespons ible
£ i
ĠNg uyá»ħn
Ġà®µ à®¨à¯įà®¤
ĠL ov
ĠInf o
è¯ Ŀ
Ġlang sung
ç ħ
Ġà¹Ģà¸ ŀà¸
ĠC anc
Ġtu á»ķi
Ġfin ished
Ġ01 27
iqu id
ĠOr der
éľ ¸
ĠComm unic
à¹ģà¸ «
Ġmas yar
Ġact ual
ĠM ir
åĪ Ľ
Ġj alan
Ġth r
ĠH or
¥à¸ ±à¸ĩà¸
èĪ °
Ġph á»ĳ
Ġclass es
ĠQual ity
å ¦
éħ Ĵ
Ġlim it
ĠKe ep
ĠRet urn
æĿ ĳ
åĽ Ľ
vail ability
ĠChic ago
ĠRest aur
ĠC S
Ġweb kit
Ġrecord s
Ġmasyar akat
Ġ2 nd
Ġa head
ia u
æĮ ĩ
Ġp sych
ľ à¹Īà¸²à¸Ļà¸
G A
Ġw elcome
Ġ( $
ĠW alk
è½¯ ä»¶
r ings
j i
Ġpre par
Ġk emb
Ġi P
æĸ° éĹ»
Ġhas il
ch ester
Ġser ve
ĠH onda
ĠC art
Ġt iáº¿t
Ġ à¸Ńà¸²à¸
ĠBec ause
ĠB á»Ļ
ĠVir gin
æĲ ı
Ġf em
Ġadi ars
¢à¸ ±à¸ĩà¸
ar ian
Ġal one
ĠL in
ķ à¹Įà¸
Ġnear ly
áŁĴáŀ ľ
é£ ŀ
Ġinter ior
ur uh
pect ive
Ġcomplet ed
Ġé ¦
M S
Ġt ask
ĠLou is
ici ency
Ġ ãĥ
Ġatt ract
Ġ07 32
ĠT imes
Ġ= '
Ġtr ial
Ġsh ared
Ġr ace
Ġd om
Ġl ands
M A
Ġear lier
Ġlov ely
Ġ à¹ĥà¸Ļ
ce an
ĠÄĳ áº¡o
à¹Ģà¸£ à¸²
t own
ĠÄĳ áº·t
ft ar
Ġob at
Ġres ume
à¹ģà¸ ķ
Ġsek ali
ªà¸ Ķ
Ġ020 30
Ġ ä¹Ł
Ġpert ama
Ġ01 614
à¹ģà¸ Ĺ
ĠLear n
ĠI L
æĺ ĵ
ex _
ĠAccess ories
Ġev idence
ru ctions
act ers
åĬ ©
´ à¸Ļ
Ġpo or
ĠPro perty
Ġcreat ive
Ġexp and
Ġb urn
Ġalb um
Ġb t
Ġh Æ°á»Ľng
it ment
ate ver
áº« u
æ¡ Ī
iáº¿ m
Ġest im
Â °
erap y
§à¸±à¸Ļà¸ Ĺà¸µà¹Ī
Ġber d
·à¸Ń à¸Ļà¸
Ġcr ush
Ġp ow
Ġak hir
Ġkh Ã³
Ġfor um
0 3
us ah
ĠC ast
Ġcon cept
Ġgi áº£m
ĠLoc ation
Ġb ahan
ĠSec ond
ĠP ut
Ġcent ury
ĠProfess ional
Ġup gr
à¸Ļà¸± à¹īà¸Ļà¸
Ġj ump
Ġb Ã¬nh
Ġm ath
emp orary
Ĺà¸µà¹Īà¸ ¡à¸µà¸
m it
ik it
ļà¸²à¸Ħà¸²à¸£ à¹Īà¸²
é¢ Ĩ
T ime
Ã ĺ
az z
Ġorgan is
Ã£ y
è¯ ģ
à®µ à¯ģà®®à¯į
Ġà®ª à®²
Ġhead er
Ġä¸ ĭ
á»¯ a
ĠâĢ¦ .
Ġs á»©c
Ġdeterm ine
à¹ĥ à¸Ļà¹Ģà¸
Ġcirc uit
ĠB it
z h
áŁĤ áŀĽ
Ġmemp unyai
áĢ¶ áĢ¯
Ġæľ Ģ
Ġx Ã¢y
Ġchalleng e
åĵ ª
Ġwhere in
l ock
inter est
Ġremov ed
Ġbreak fast
Ġkh á»ı
Ķà¸ ±à¸ļ
ĠS ab
Ġa u
Ġ,, ,
ĵà¸ ĳ
ĠFr ance
ªà¸²à¸¡à¸²à¸£à¸ ĸ
Ġr ap
Æ°á»£ t
resp ond
Ĥà¸²à¸ ¢à¸
Ġlu Ã´n
Ġvo ice
Ġsed ang
Ġset elah
Ġpres ident
Ġj enis
ĠH a
A W
Ġfab ric
ĠÃ Ģ
Ġserv ed
Ġl ap
Ġvis ual
ab ila
ĠF i
Ġ07 7
ĠT ah
Ġr am
d en
à¹Ģà¸ ŀà¸
Ġsh ape
«à¸ ¡
áŁ Ĳ
ĠSh ipping
Ġpar ent
Ã °
ĠGe orge
à®¾à® ļ
Ġse qu
ĠGl ass
æĦ Ł
à¸Ńà¸Ńà¸ ģ
Ĥ à¹īà¸Ńà¸¡à¸¹à¸
ĠF REE
Ġsur v
ĠmÃł u
ĠCent re
Ġà¸ĭà¸ ¶à¹Īà¸ĩà¸
ust ain
T ype
ĠáŀĶ áŁĴáŀļáŀ
æľį åĬ¡
ĠT idak
à¹ģà¸¥ à¹īà¸§à¸
à®¾à®° à¯įà®ķà®³à¯į
ĠPh ys
Ġfind ing
Ġmac am
Ġcap acity
Ġà®İà®© à¯įà®ª
è® ®
à®¿à®ķ à®³à¯į
ri er
à¹Ī à¸Ńà¸
µà¹Īà¸ ¢à¸§à¸
ĠFeature s
Ġà¸§ à¸´à¹Ģà¸Ħà¸£à¸²à¸°à¸«
Ġsel ama
Ġpar am
h ttp
Ġkn ew
Ġ à¹ģ
Ġmin imum
Ġr is
Ġad ik
ĠPer form
Ġw a
Ġdig unakan
Ġb onus
Ġáŀĵ áŀ·áŀĦ
ĠD aily
Ġr ating
ĠD uring
Ġngh á»ĩ
ĠÄĳ áº·c
èĲ ¥
Ġv áºŃt
ĠÃ Ħ
Ġà¸ «à¸£à¸·à¸Ń
Ġto w
Ġb áº¯t
Ad visor
ĠDistr ict
ĠB re
çł Ķ
åł Ĥ
áº· p
áº· ng
Ġg a
Ġnot es
Ġm ut
ĠC at
re ens
Ġmet a
à¹Ģà¸ Ľ
C L
åį ĵ
anj ut
ĠL LC
à®µ à¯ĩ
ª à¸Ļà¸
à¹ģà¸ ķà¹Īà¸
ĠL E
D A
Ġsek arang
©à¸ ±à¸
ĠV ict
ĠChild ren
Ġengine ering
ĠE conom
Ġrem ain
Ġà®ħ à®±
Ġch air
Ġfac ilities
Ġn or
à¯Ģ à®°
ĠáĢ ģ
ĠW estern
od ge
el le
av our
ĠA B
ķ à¹Īà¸²à¸ĩ
Ġthu áºŃt
Ġelect ronic
Ġthan h
ĠCh air
s hip
Ġestab lished
ih ak
èĤ ¡
is nis
åĩ Ĩ
Ġà¸ Ĥà¸
è° ĥ
ol or
ber ry
AC K
æĹ¶ éĹ´
ĠPubl ished
Ġm áº¡nh
Ġ eth
áĢ±áĢ Ľ
Ġ* *
áĢĲ áĢº
f ol
f o
à¸£à¸²à¸ Ĭà¸
ĠB ang
Ġtest ing
Ġw ild
áĢ ĺ
Â ³
ĠChe ap
af e
ĠH uman
Ġem ot
ĠComp uter
enc ing
åĳ Ĭ
áĢ· áĢº
un a
Ġsc en
á» Ľi
Ġnh anh
Ġle tt
Ġinst itut
ĵ âĸ
ĠPl ace
ĠL i
I Z
ĠP oint
Ġwin ning
Ĭ à¸´à¸
Ġh undred
ur ut
ret ch
ĠUs ing
n av
Ġm urah
à¹Ĥà¸£à¸ĩà¹ģà¸£à¸ ¡
O B
Ġå ±
áĢĲ áĢļáĢ¹
em ap
ot ton
uh kan
Ľà¹ĩ à¸Ļà¹Ģà¸
Ġpl astic
ĠK now
ĠMin i
ä» İ
à¸Ļà¸ ³
Ġoper ations
Ġm p
v gr
st e
Ġhe avy
Ġ iron
Ġnh Ã¬n
os a
Ġarch itect
Ġcre am
co in
Ġdis s
_ on
Ġd edic
S p
pr ice
Ġclean ing
ro c
A ll
Ġed ge
Ġb ought
ik el
Ġm á»įi
ĠCustom er
Ġabsolut e
áĢķ áĢº
Ġsc ient
Ġtá» Ń
Ġmaint enance
Ġimp ress
çİ ĩ
ĠáĢ Ķ
Ġfact ors
Ķ à¹īà¸²à¸Ļà¸
Ġsh ower
á»ķ ng
åĢ ¼
S E
w in
Ġnh á»ı
Ġà®ħ à®Ł
ĠO K
r ors
å£ «
ĠNam un
uc ks
b our
æĹ ħ
vent ion
Ġd ish
ĠF igure
Ġe ase
ĠDo es
Ġà®® à®±à¯įà®±
Ġtalk ing
á» ĥ
à¸£à¸§à¸ ¡à¸
Ġed ition
Ġ Ã¡
ad ow
j u
èµ°åĬ¿ åĽ¾
ĠD R
iÃª m
Ġb es
Ġun its
ĠCh apter
à¸µà¹Īà¸ ¢à¸
as ure
Ġn ya
Ġ Å
à®² à¯Ī
Ġgu ess
st al
Ġpark ing
ĠAnal ysis
Ġb in
Ġr ub
Ġopt im
Ġth áºŃt
Ġup per
Ġäºļ æ¸¸
Ġv ert
á»« ng
ĠA G
Ġ199 6
r idge
ĠCre ate
og y
Ġmov ed
Ġà¸ŀ à¸£
Ġsh ares
à®¿à®± à¯įà®ķ
æĭĽ èģĺ
ä½ ¿
ik es
ĠF urther
Ġar m
ĠMe et
ĠStand ard
Ġsl ight
Ġquy á»ģn
Ġb Ã³ng
ĠT ak
Ġç½ ĳ
ĠC ell
ad ed
Ġd ash
à¸Ńà¸ ±à¸
ĠDo or
Ġd ream
Ù ĩ
en ess
Ġlá» Ŀi
à®© à®°à¯į
± à¹Īà¸ĩà¸
æĶ ¹
Þ ¨
Ġa h
à¹Ģ à¸Ńà¸ĩ
ĠFin ancial
Ġb ow
ĠP ac
Ġcould n
m art
port s
it o
Ġtá»¥ c
Ġe ight
ķà¸ ±à¹īà¸ĩ
Ġs ources
Ġngh e
ĠP red
M ar
Ġph á»¥c
Ġlu x
Ġbr ain
àº §
emp at
ĠFil m
æĹĹ èĪ°
į à¸²à¸
Ġbag ian
Ġp and
z y
Ġn Æ¡i
Ġinvent ory
Ġhim self
c aya
Ġex ternal
ĠT en
Ĭ à¸Ļà¸
Ġeconom y
ĠP ul
Ġon to
Ġ= >
uet ooth
Ġdisc ount
ir ation
Ġæ ¸
Ġse at
Ľà¸¥ à¸²
ĠÃ ¶
ĠTe ach
Ġse ven
ĠÄĳ Ã¡
ĠNe ed
ou thern
ĠTh omas
Ġpi eces
Ġh aven
Ġtr á»£
ep t
Ã Ł
Ġà®ħà®° à®ļ
Ġgu ests
so le
Ġinst r
éĽĨ åĽ¢
ĠSing ap
ĠAs k
art s
7 24
Ġmention ed
ĠLe ave
ĠCon ference
Ġb at
Ġ( {
Ġdep artment
ĠB ah
ŀà¸ ±à¸
AP P
ian o
Ġf ish
Ġdirect or
ĠK om
Ġåħ ¨
AL L
Ġwait ing
Ĥà¸²à¸ ¢
èĩª å·±
Ġmin i
Ġprote in
ģ à¸£à¸£à¸¡à¸
ĠCle ar
ĠIn sp
Ġæ¶ ĵ
ann ed
Ġf ather
Ġsched ule
Ġinc red
Ġpro ses
Ġb á»Łi
Ñ ı
ĠJ ersey
T V
Ġr ain
ĠTe xt
Ġb Ãłn
ĠT itle
ĠN ight
ly mp
c an
up a
ĠãĢĤ âĢĿ
Ġs elling
uc le
ĠT N
ort g
Ġ? "
Ġconsult ant
st ract
Ġinst ance
Ġbal ance
æ£ĭçīĮ æ¸¸æĪı
Ġdesign s
à¹Ģà¸ Ĥ
Ġthough ts
ĠUl t
ĠP end
ĠP ot
ĠáĢ Ĵ
ist a
ĠN S
ĠL ittle
Ġthere fore
áŁģ áŁĩ
Ġl ah
un te
Ġt i
ĠR oyal
Ġf at
Ġshow ing
ĠEqu ipment
áŁ Ģ
Ġ$(" #
ĠGerm any
ĠIns urance
áŀ¶áŀ Ħ
ĠQu ick
ĠS au
Ġká» ³
Ġg one
ĠUn ion
Ġph Ã¢n
Ġcompon ents
ĠP eter
y er
Ġpower ful
Ġà¸ªà¸ ³à¸«
Ġ ì
Ġn orth
U P
Ġhelp ing
áº¡ y
Ġth ay
æ¸ ħ
m ond
ĠRece ipts
Ġcover ed
Ġr asa
ĠM inh
ĠSing le
re l
Ġfe es
Ġnam ed
Ġs now
Ġy es
U B
ĠC ash
Ġman age
ed a
ĠP as
Ġsepar ate
_gr id
Ġatt end
ĠB E
ļà¸£à¸´à¸ ©à¸±à¸
Ġà¸ ĭ
Ñ ĭ
Ġpl ug
Ġhus band
ĠM att
Ġf ederal
Ġhelp ed
ul ated
ĠNEWPart 9
ĠSc ott
ģà¸´à¸ Īà¸
ĠN OT
ĠK it
Ġp u
Ġj ro
à¸Ńà¸ ģ
ed y
¥à¸ ±à¸
ar p
Ġç ¾
à¹īà¸ ¡à¸
ĠP enn
Ġcomp r
Ķ à¹Į
ĠF arm
ç Į
å ĥ
Ġbook _
EC T
ĠN gh
à¹Ĩ à¸
Ġà¹Ģà¸ §à¹ĩà¸ļà¸
à¯ģà®Ł à®©à¯į
ĠGM T
im ming
Ġprep ared
Ġform s
à¸Ńà¸ ±à¸Ļà¸
ĠD og
Ġcall s
Ġar en
áĢĻáĢ¹áĢ ¸
Ġv a
Ġsh ip
H e
Ġf t
Ġdet ect
«à¸ §à¸
Ġvoc ab
A n
Ġgamb ar
v g
ĠEngine ering
R ep
od el
Ġper haps
Ġun c
Ġh áº¿t
IG N
Ġrel ig
Ġâ Ħ¢
c s
à¹Īà¸²à¸ §
¢à¸ ±à¸ĩ
y at
Ø ±
Ġà®ķ à®°
Ġà¹ģà¸Īà¸ ģ
Ġear th
Ġà®¤à¯Ĭ à®Ł
æŃ ¥
à¸Ńà¸Ńà¸Ļà¹Ħà¸¥ à¸Ļà¹Įà¸
à¹Ħà¸Ķà¹ī à¸£à¸±à¸ļà¸
ag ian
Ġperm ainan
Ġm ent
Ġa th
row se
Ġm ampu
Ġwid get
áŀ Ĳ
Ġåı ¯
Ġmov ement
Ġsur pr
Ġin iti
Ġwh eel
Ġstore s
à¹īà¸ ĩ
ĠBath room
Ġprodu ced
· à¸Ńà¸ĩ
ra v
E P
ĠD u
C A
Ġd ynam
Ġph á»¥
Ġdo ctor
Ġchar acters
room _grid
ŀ à¯įà®ļ
M ore
Ġestab lish
ĠAt l
Ġb iáº¿n
ĠØ §
ĠRep l
Ġch iáº¿n
ian a
à¸Ńà¸ ¸à¸
Ġh arm
Ġshe et
Ġterj adi
Ġà¸ ľà¸¹à¹īà¸
Ġset s
Ġt ang
Ġpr ay
Ġcon centr
Ġà®ª à®¤
à¸²à¸ ģà¸
er int
Ġbet 365
áĢ± áĢ¸áĢ
Ġmax imum
ĠSh oes
usah aan
ĠL ee
Ġqu iet
ĠD O
Ġcon ference
Ġw is
ĠB ow
ung g
bor hood
ocol ate
Ġg áº§n
Ġclos ed
ĠApplic ation
Ġb oy
ĠB Ã¬nh
ĠB B
Ġaw esome
Ġj ourney
Ġcol le
U n
Ġdis p
Ġteach ing
áĢĲ áĢ¬
Ġl áºŃp
D ec
o or
Ġw anita
ĠAud io
ĠO S
Ġlaw s
um i
ĠTag ged
iz er
å¾ ĭ
¸ à¸Ļà¸
Ġpro pos
Ġp air
ĠComm ission
Ġà®® à¯ģà®¤
b i
est ic
Ġï¿½ï¿½ï¿½ï¿½ï¿½ ï¿½
Ġ% )
¢ à¸´à¸ĩà¸
ĠBe fore
Ġg allery
ĠLe ather
«à¸ §à¸±à¸
Ġbr ight
ĠN atural
ªà¸´à¸Ļà¸Ħ à¹īà¸²
Ġd omain
ĠL ord
Ġweb sites
Ġcor respond
as anya
ª à¹Įà¸
ĠP emb
Ġ199 5
Ġwin ter
is is
à¹ Ħà¸£à¸
ĠCount ry
g ant
ĸà¸ ¹à¸ģ
Ġsp read
ĠæĹ ©
r ig
Ġà¹Ģà¸¥ à¹Īà¸Ļà¸
Ġpred ict
Ġappl ied
Ġs Ã¡ch
ç® Ĺ
æī į
ĠG B
ik si
Ġmil itary
åĪ ©æĿ¥
ĠÄĳ Ã¬nh
Ġro of
Ġà®® à®©
Ġsee ing
Ġ10 1
Ġè ĭ
Ġpant ip
Ġpl aced
à®¿à®²à¯įà®² à¯Ī
Ġd á»ħ
Ġdep th
áĢĸ áĢħáĢ¹áĢ
ron ics
ĠLim ited
à¯ģà®ķ à¯į
ĠáŀĶ áŀ¶áŀĵ
Ġt it
P ost
Ġåħ ¶
ç ª
F C
ĺà¸ ¸
Ġæ Ķ
Ķà¸ ³
Ġansw ers
éľ Ģ
Ġmaint ain
Ġsp ect
Ġtá» ·
Ġstand ards
Ġcomb ination
ä¼ Ĺ
Ġob t
Ġex ecut
ĠM á»Ļt
ä¿ ®
Ġpl enty
ĠDe al
Ġdi agn
Ġpresent ed
ĠN O
ĠAr ts
Ġcandid ate
ĠSh ort
à¸Ļà¸µ à¸
ic ian
TM L
== ==
ng e
Ġç ¬
ĠF low
Ġse x
áĢŃáĢ¯ áĢĦáĢ¹áĢ
ĠD ar
ĠSpe ed
ear ing
Ġkemb ali
Ġå ¨
è ı
éĤ £
Ġkec il
ĠS ociety
ter ior
C on
F or
ĠV Äĥn
U K
å¸ ¦
ĠW i
Ġf ff
Ġ à
Ġpl ate
ĠGal axy
ĠT a
Ġe lection
amb ah
Ġ' ;
à¹Ĥà¸ ¢à¸
Ġnh áºŃp
Ġchang ing
ol ars
Ġseb ab
Ġm iá»ħn
ĠæĿ ¥
Ġ{ "
Ġ} }
20 14
Ġsec ret
Ġs b
Ġs in
Ġr ental
à¹Īà¸ ¡à¹Ģà¸
áĢ±áĢ ĲáĢ¬
è ³
Ġçİ ¯
Ġ20 px
V ER
ct ors
ĠçĻ ¾å®¶
Ġop pos
Val ue
ĠF eed
Ġst ruct
D S
Ġb awah
in ct
Ġw ine
Ġach ieve
Ã´ m
ĠN áº¿u
Ġupd ates
Ġwh ose
Ġrest r
Ġv Ã´
Ġstr ugg
________ ________
æķ ´
Ġvá» ±c
ĠC ategory
Ġb ila
ac le
ª à¹Īà¸ĩà¸
Ġfollow ed
Ġt end
if at
ĠC Ã³
à¸² à¸£à¸²à¸
Ġå ī
Ġt iÃªn
ĠTe le
uk e
áº£ y
Ħà¸ §
Ġ. -
Ġtr iá»ĩu
Ġclass ic
ĠPhot ograph
ĠK ep
Ġj u
Ġac ademic
æĭ ī
Ġth ick
Ġt inh
Þª Þ
Ĺ à¹Į
Ġinvest ig
ĠD at
el ry
Ġà®®à¯ģà® ©
OS T
Ġwork ers
Ġb ib
Ġlead er
ĠH ospital
k et
ĠD ia
ĠP ert
re es
M ay
ĠAr ab
à¯Īà®ķ à¯į
ĠáĢ ĳ
is an
Ù Ĳ
áĢ Ŀ
ut t
ĠQu ote
Ġd aughter
ĠIsra el
ind i
áŀŁ áŁĭ
ĠInter ior
áĢ½ áĢŃ
ost on
Ù ħ
im ents
ĠÃ ¦
ay u
Ġinstall ation
Ġà®® à¯Ĥ
Ġäºļ ç¾İ
Ġ... ..
ĠS ed
áŁĴáŀ ĺ
f e
IT Y
ĠH el
ĵà¸ °à¸
ang s
ĠÄĳ Æ°a
ĠM ember
ĠP ract
Ġ" "
Ġä¸ ī
p oint
Ġgi Ã¡o
Ġpop ulation
ĠInst all
à¯ģà® £
à¹ī à¸Ńà¹Ģà¸
ĠC ry
Ġ% ,
Ġà¸Ķà¸ ¹
uy áº¿t
Ð ²
Ġd iá»ĩn
Ġsel alu
ĠPat ent
åįķ åıĮ
ung si
Ġv iáº¿t
ĠTr ade
ç ¶
Ġná»¯ a
Ġsc roll
ĠUn it
à¸£à¸ ĸà¸
Ġm g
Ġv irus
Ġs an
Ġis t
ĠView s
Ġf acebook
Ġc oup
Ġ){ .
à¸Ńà¸²à¸« à¸²à¸£
as ion
Ġà¹Ģà¸ Ħà¸£à¸·à¹Īà¸Ńà¸ĩà¸
Ġexper ts
ut ch
Ġd ung
it amin
d y
¹ æŀľ
Ġà® ²
est yle
ĠM LS
Ġm áº¹
Ġad ian
ĠÄĳá» ©
Ġt ar
ĠSh ould
Ġfant astic
Ġ ice
Ġk iáº¿n
ĠBuild ing
æ ļ
ĠPr ices
N ov
Ġwrap per
å· §
à¸µ à¸Ļ
Ġcover age
è§ Ĥ
iáº¿ c
Ġsuit able
éĿ Ĵ
Ġrelev ant
Ġ"] =>
Ġcent re
Ġæ İ
Ġà®İ à®¤
ĠS on
Ġenjoy ed
ib at
Ġapprox imately
ĠÂ µ
ĠCom mercial
ac c
Ġrec ru
ç½ĳ æĬķ
ĠArch ives
Ġl aptop
ĠOut door
ä¹ ł
Ġphot ograph
ĠD im
c raft
Ġsett ings
áŁĴáŀĵ áŀ»áŀĦ
Ĥà¸¶ à¹īà¸Ļà¸
ªà¸³à¸« à¸£à¸±à¸ļ
Ġrestaur ants
Ġabsolut ely
Ġwould n
Ġfore x
Ġdetail ed
Ġtechn iques
Ġj s
à¯ģà® ²
ĠUpd ate
åħ Ń
Ġ9 78
è® ¯
ĠUR L
ç ļ
Ġæ Ģ
ak si
aw ay
Ġkep t
Ġ, -
eng er
Ġà®ħ à®¨à¯įà®¤
ĠC T
ĠMan ual
ĠA z
Ġ16 0
Ġsh ap
ç®¡ çĲĨ
Ġac id
Ġvá» ĩ
Ġæī ĭ
h ar
ĠR un
Ġtest s
Ġch á»©ng
Ġc c
Ġà®¤ à¯ĩ
Ġdec l
Ġpl ants
Ġé »
k ins
Ġp ed
Ġgirl s
¥à¸·à¸Ńà¸ ģà¸
Ġch ung
Ġsecond s
Ġk ont
à¹Ģà¸£à¸µà¸ ¢à¸Ļ
å® Į
Ġex hib
................ ................
Ġb Ã©
Ġbrows er
à¸£à¸§à¸ Īà¸
Ġng uyÃªn
app ed
Ġà¹Ģà¸ Ľ
Ġsesu ai
ĠD ouble
ad ar
ļà¸ ¸à¸
Ġà¸Ĺà¸ ³
Ġj udi
Ġum um
Ġ3 50
¥à¹ĩà¸Ńà¸ ķà¸
Ġ3 60
± à¹īà¸Ļà¸
on ym
åĮ ħ
à¹Ĥà¸£à¸ Ħà¸
à®¿à® ª
Ġth row
F F
ĠEar th
kt op
Ġdoc uments
Ġà®ĩ à®Ł
ĠH om
Ġå º
ĠCon c
æĶ ¯
Ħ à¹Į
ĠD ark
åı ĭ
Ġho a
à¹īà¸ ³à¸
à®© à¯Ī
Ġg Ã¢y
ag en
Ġf ol
ĠC redit
Ġg el
ĠN A
ĠGr aph
IG H
app ing
Ġ à»
em s
Ġdiscuss ion
Ġt un
Ġb á»ı
Ġa id
Ġp ihak
Ġwalk ing
adem y
Ġsen ior
ester day
Ġfore ign
ĠTr ack
Ġå° ı
Ġeven ing
ç½ ®
åı ª
Ġold er
ent ic
Ġm ist
T T
an nya
Ġrecomm ended
Ġn ama
¡ à¸´à¸
àº ļ
c ap
ĠBe autiful
è´ ¨
à¹ĥà¸«à¹ī à¹Ģà¸
å®ī åįĵ
unj uk
au h
Ġm and
ĠFound ation
c oh
áĢŃáĢ¯ áĢ·
Ġcompon ent
_ b
èĬ Ĥ
Ġl Ã²ng
ĠCong ress
ĠAs h
ĠAd a
à¹ĥà¸ ª
Ġdevelop ing
Ġcomp reh
Ġbig gest
Ġè §
Ġperform ed
Ġprem ium
ĠS W
Ġs Ä©
ĠYou ng
ĠJ adi
Ġt as
æį ®
Ġmen er
å Ĥ
ĠR ight
Ġà¹Ĥà¸Ķà¸ ¢
áĤ Ī
à®£à¯įà®Ł à¯ģ
ĠO lymp
Ġinter face
Ġlá» £i
Ġ2 F
ĠTh ree
us ter
IC E
¨à¸ ±à¸
Ġc ss
åĮ »
Ġv ent
ĠÃ ĳ
Ġ9 18
Ġc Äĥn
áŀ· áŀı
ĠC ut
Ġse a
-------- --------
Ġtet ap
éĿ ŀ
å® ¹
¢à¸ §
ĠF ac
Ġapp s
æĸ ½
Ä© nh
id ikan
äºī éľ¸
Ġfl ight
ĠF und
à¹Īà¸²à¸ ªà¸¸à¸Ķ
ĠWilli am
Ġen able
i us
ĠC ur
Ġg ather
ĠCh em
Ġsatis f
Ġfact or
Ġth us
ĠP il
Ġhapp ened
Ġfac et
Ġdi ed
Ġo t
à®® à®¾à®©
Ġro ot
Ġnghiá»ĩ m
éĺ ²
Ġmin ing
Ġu 0
ĠA V
ĠL arge
ĠFlo or
èģ Į
ĠæĹ ¥
Ġpr incip
Ġáŀ Ĳ
Ġber ikut
à¸´à¹Ģà¸ ¨à¸
Ġfunction s
z en
ot ype
ĠB ody
¶à¸ ĩà¸
Ġt ai
Ġneg ative
ĠT em
Ġrun s
Ġlearn ed
Ġà®ļ à®¿à®±
ĠC ath
un ately
Ġg am
el ines
ĠG row
ç ĭ
Â ¢
T ube
Ġcor ner
ĠSt orage
ĠÃ ħ
amp ak
Ġindep endent
ic ies
Ġfl ash
áĢŃ áĢ³
Ġ! âĢĿ
Ġtrack ing
Ġinform asi
or ter
áŀ· áŀĵ
Ġk it
Ħ à¹Įà¸
n ership
ab or
ĠL ib
ą ĆĈ
ĠD id
ro y
Ġre ar
à¸Ļà¹īà¸ ³
if ikasi
Ġak t
èµĽ è½¦
word s
ĠL ux
ĠChar l
Ġt Æ°á»£ng
Ġob vious
Ġà¸Ķà¸ ¹à¸
or ia
Ã¹ a
_ at
a q
r at
ŀà¸ ·à¹īà¸Ļà¸
ĠCl in
ĠE N
eng ar
Ġinstall ed
Ġj ack
æ¶ Ī
Ġmas k
uk i
ĠÄĳ á»§
Ĺ ı
áĢŃáĢ¯ áĢ¸áĢ
ub ah
ĠD ie
Ġfeed back
Ġad vent
à¹Ĥ à¸Ńà¸
ĠH air
ĠSt ory
Ġhous ing
ĠGerm an
reat h
åº ľ
Ġà¸£à¸µà¸§à¸´à¸ §
Ġnov el
áĢ² áĤĶ
Ġgener ation
Ġbe auty
à¯ģà® ļ
Ġà®ļà¯Ĩà®¯ à¯įà®¯
Ġter k
Ġse ctor
ĠVirgin ia
Ġkh iáº¿n
áŀĢ áŀ¶áŀļáŀ
l ink
p o
Ġk iá»ĩn
G o
à¹Ģ à¸Ń
ĠThe ir
ong eng
Ġlo ans
ç¯ ĩ
æ· ±
Ġv ote
ĠJ ava
Ġsus p
Ġl ose
ĠSum mer
Ġeff orts
ĠD eb
į à¸²
«à¸ ķà¸
à¸£à¸µ à¹Ģà¸
Ġsmall er
ĠCon f
ĠM useum
åħį è´¹
à®° à®¿à®¯
Ġd ump
å¤§ åıĳ
Ġad apt
ĠKh Ã´ng
hip s
e g
Ġwas te
é¢ Ħ
ab ilities
Ġp enc
ĠPart s
Ġ% .
ur i
Ġ( ).
ĠNh á»¯ng
ĠE vent
ĠSel ain
al nya
is er
Ġke k
Ġdec ide
ĠP in
Ġå° ±
Ġgr ant
Ħ à¹īà¸²à¸
«à¸¡à¸ Ķ
ĠR adio
\/ \/
Ġc able
ĠIm ages
æ²¡ æľī
Ġ'] [
èĭ ±
Ġfun ds
_ P
Ġà®ĩ à®µ
Ġæ ·
Ġ18 0
Ġ3 rd
Ġéĩ ĳ
Ġtá»« ng
on der
æĿ ¡
Ġpass ed
Ġex change
ĠF our
Ġà¸ªà¸ Ķ
ad er
Ġlight s
ĠÄĳ a
ĠM ike
Ġkeep ing
out s
Ġcá»© u
è¯ Ħ
ä¿¡ æģ¯
Ġ& #
áĢĲ áĢ²áĢ·
åĳ ¨
ĠH omes
k ah
G H
åĽ Ń
à®¿à®¤à¯įà®¤ à¯ģ
Ġopin ion
78 9
ĠCh ris
at ers
ĠCol l
Ġà®ĩ à®²à¯įà®²
h ire
v as
ĠPriv acy
à¹Ĥà¸Ķà¸ ¢
Ġal ert
Ġm ur
æ ħ
os en
ĠJ im
Ġnam un
Ġlead ers
áĢĶ áĢ¹
Ġpeny akit
ĠV iet
ĠT ok
Ġspe ak
Ġfa ith
à®Ł à®¿
Ġt Ãªn
Ġteach er
ĠÂ ¥
ĠC AR
ĠR en
ĠPar is
Ġà®® à¯Ģ
A ug
ĠT ick
Ġexpl ore
Ġ ign
ut a
Ġtr ig
Ġexp ensive
A r
ĠComm ittee
à¯ģà®µ à®¤
ĠCol umb
le ts
ag ra
Ġpen j
Ġob tain
ªà¸ ¡
Ġpast i
åĪ Ĺ
T E
Ġdo i
ĠSt one
ual itas
ĠEn vironment
Ġlab or
Ġberm ain
ĠStr ateg
ĠTh read
Ġé Ľ
ĠA ge
ĠIn clud
ĠC ru
Ġà®¨ à®¿à®²
ã Ħ
Ħ à¹īà¸²
ĠNh Ãł
ĠC irc
m u
ĠÄĳ Äĥng
le bih
Ġ ilm
ĠSec ret
Ġdin ner
Ġu ang
pl ikasi
ĠâĨ Ĳ
Ġd iá»ħn
ĠCarol ina
Ġk id
Ġ01 66
çĻ ¾
ĠM oney
88 8
à¸Ļ à¸²
Ġd Ãłi
Ġsens or
ĠMon th
éĤ Ģ
Ġagre ement
ro ph
Ġc á»Ńa
ĠA ku
Ġexam ples
Ġth Æ°
ĠAng eles
g el
c y
Ġà¸Ħ à¸²à¸ªà¸´à¹Ĥà¸Ļ
Ġdeb t
áŀ¹ áŀĦ
Ġs ociety
ik at
ub a
Ļ Ģâ
ĠL ot
ĳ åħĭ
ĠMov ie
fa at
ĠW ild
ĠH aw
à¹Ħà¸ Łà¸
ĠéĶ Ľ
Ġform ed
ŀà¸ ±à¸ģ
Ġterm asuk
çĻ¾å®¶ ä¹Ĳ
Ġdis app
O ct
áĤı áĢ½
Ġå¯ ¹
oles ale
Ġm au
ortg age
«à¹ĩ à¸Ļà¸
Ġmot iv
Ġad ire
Ġà®µà¯Ĩ à®³
at ar
O n
A pr
e ch
ot ic
Ġm ission
r ibut
ģà¸ ¤à¸
Ġsound s
ĠI ss
Ġtr uth
Ġber ada
ib a
à¹Ģà¸£à¸ ·à¹Īà¸Ńà¸ĩà¸
ĠRes ults
ĵâĸ ĵâĸ
Ġ} ;
i as
Ġsit us
ĠG as
Ġspl it
Ġsom ew
Ġph im
Ġexerc ise
ific ate
Ġun iversity
ĠAir port
Ġng u
ĠA ction
áŀ¶áŁĨ áŀĦ
ĠCo ffee
ç Ĺ
åĢ Ł
F A
Ġà®ķ à®²
Ġembod iment
ĠL ay
Ġr id
Ġloc ations
ĠB oth
Ġdat ang
Ġ10 5
ul f
à¹ĥà¸«à¸į à¹Ī
ul ate
áĢģ áĢº
c ase
Ġtr uyá»ģn
áĢĻ áĢ¾
æĪĳ ä»¬
Ġle ather
Ġé «ĺ
ub s
Ġdo ors
áģ¿ áĢķ
ĠT urn
ĠN ear
Ġmenc ari
ent ed
ri x
Ad d
Ġà®Ĩ à®©
ĠForm at
Ġm alam
amp s
Ġ13 0
ç ¿
åŃ Ĺ
ĠB oot
Ġq verpgbel
à¸µà¸¢ à¸Ļ
Ġä¸ ĩ
Ġmá» Ĺi
Ġk u
b ur
Ġad ol
duc ing
Ġlu ar
æµ İ
ĠJe ff
ĠL ic
Ġprovid er
C O
ĠItal y
ĠC it
g ets
I t
ĠV in
Ġwh atever
Ġsubm it
à¹īà¸Ńà¸ ¢à¸
ĠR d
Ġsch ema
Ġà¸ Ķ
Ġh iá»ĥu
ang es
par ent
Ġà®¤ à®²
æľī éĻĲ
¡ ng
Ġd ur
áĢ±áĢ ĲáĢ¼
áĢķ áĢ¼
Ġqu áº£n
Ġprofession als
< /
r ik
ĠÂ ¨
ĠG h
Ġch uyá»ĩn
ĠN av
Ġmengen ai
og en
åı ĺ
Ġsil ver
· à¸
Ġc red
Ġcompet ition
Ġchalleng es
I X
le pas
ger i
iÃª ng
P D
æ ĳ
âĢ¦âĢ¦ âĢ¦âĢ¦
ĠÂ ¡
l ife
ri age
Ġph ong
ªà¸£à¹īà¸²à¸ ĩà¸
ĠMart in
Ġà®ª à®¯
ĠToy ota
Ġord ers
Ġ$(' .
ĠJ ud
aj u
ĠP ast
Ġexperi ences
Ġtr uck
Ġmul ai
ĠF ashion
âĢ ¢
Ġthu á»Ļc
ĠB a
áŀĶ áŁĴáŀļáŀ
_ M
ĠG ift
ª à¸µà¸
Ġa x
ĠS y
å® ģ
ent o
ĠA ve
ex_ room_grid
ĠL uc
ĠB ob
Ñ Į
S c
Ġ[ /
ģà¸ ¡
è¶ ħ
ach el
Ġclaim s
ä¸Ń å¿ĥ
ĠT og
Ġæ ł
¯ u
ik ir
ire ct
Ġk urang
engk ap
Ġp ula
ĠPriv ate
ee ch
Ġdr ivers
Ġgo v
Ġassist ance
Ġcheck ed
ªà¸ §à¸
Ġc epat
Ġf i
Ġbec omes
Ġr are
Ġadv ance
iz z
ad ang
ĠÃ §
à¹īà¸ ĩà¸
c at
ĠÄĲ áº¡i
è§ ģ
åİ Ĩ
åĽ ´
ĠT u
èĭ ¹æŀľ
Ġmas ing
Ġnumer ous
ĠT api
ĠTh anh
åĪ «
Ġvisit ors
ĠãĢĳãĢĲ ï¼
Ī âĸ
Ġ19 90
è¿Ľ è¡Į
ĠÃ ¥
ai re
ĠM ak
Ù Ĵ
Ġflo at
r l
ĠH ope
åħ ·
¡à¸µà¸ ¢
Ġfor get
Ġexc ited
ed er
ĠTrip Advisor
Ġch Ã¢n
ç± »
Ġpr oud
Ġe gg
Ġgover n
ĠCons ult
áŁĦ áŀĻ
ĠS ong
A 1
å¤§ åħ¨
Ġkh ai
Ġm á»¥c
ĠCont ract
ç Ĭ
âĢĭâĢĭâĢĭâĢĭ âĢĭâĢĭâĢĭâĢĭ
ĠD ani
å ¡
ĠEv ents
kn own
Ġtr á»±c
Ġmanufact urer
Ġph arm
Ġprocess es
Ġdep osit
Ġpart ies
Ġmark ets
Ġ à¸£à¸²à¸Ħà¸²
Ġdep end
Ġt v
ĠE U
áº¿ p
Ġ. ;
ĠPrem ium
ĠC B
ĠI R
Â ¤
ä» Ĭ
ĠR ay
ĠåĪ Ĩ
Ġknow s
m g
Ġj ournal
Ġ199 4
ic ip
æĢ Ŀ
ĠMex ico
un ting
à¸²à¸ ¡à¸
æµ ĭ
od a
Ľà¸¥ à¸µà¹Īà¸
ĠC C
Ġbe at
áĢĽ áĢ¬
n ight
ah am
ost er
ĠS O
ĠÃ ³
ĠT reat
à¹Ĥà¸ Ľà¸£
y th
Ġd ust
i ation
æķ Ī
Ġc as
is p
à¹īà¸²à¸ ĩ
Ġ14 0
D ata
æĿ ĥ
Ġtub uh
à¯įà®ª à¯įà®ª
urs ing
ĠEx press
à¸Ļà¸ ³à¸
Ġinch es
Ġmakan an
Ġother wise
Ġstart s
Ġs Ã¡t
Ġopen ed
ĠSaf ety
à¯ģà®ķ à®³à¯į
áŀ ķ
Ġind ustrial
Ġcon vert
Ġend ed
ĠTh rough
if ier
Ġà¸ Ħà¸¸à¸ĵà¸
ĠFore x
áŀ½ áŀĻ
à® ¨
Ġï¼ļ âĢľ
ar ks
à¹īà¸Ńà¸ ¡
Ġæ ĭ
ä¾ ¿
Ġconc rete
ĠWh ether
æľĢ æĸ°
¶à¸ ģà¸
Ã ľ
à¯įà®ļ à®¿
Ġåħ ¬
Ġw ire
b n
ateg or
Ġà¸ «à¸£à¸·à¸Ńà¸
s u
Ĭà¸ ±à¸
Ġacc ord
Ġà®µ à¯Ģ
ģ éĢŁ
J an
Ġworks hop
Ġk Ã½
h h
Ã¡ u
Ġkh usus
ĠD S
à¯Īà®ķ à®³à¯į
lev ision
Ġbehav ior
Ġwas h
à¯įà® ¸
os c
ese h
Ġy e
åĪĨ å¿«3
à¸µà¸¢à¸ ĩà¸
Ġä½ ł
Ġval u
è ħ
ĠC ategories
Þ¬ Þ
Ġed u
ĠU k
à¹ģà¸ ªà¸Ķà¸
àºĩ àº
ŀ à¸´à¹Ģà¸¨à¸
Ġ35 6
l ass
ĠM ade
Ġtyp ically
Ġ365ä½ĵèĤ² æĬķæ³¨
Ġthous ands
ĠKing dom
Ġrem ote
Ġr h
at if
Ġz ip
Ġcáº£ nh
b ury
ĠD river
Ġcorpor ate
Ð ¼
Ġ à¸£à¸²à¸Ħà¸²à¸
IT H
è® ¤
ĠJo in
_ price
R es
lo y
Ġfam ous
Ġa ware
ĠII I
IL L
ĠS end
Ã£ o
r ick
å¢ ŀ
à¯ģà® ´
Ġorganiz ations
uyá»ĩ t
Ġè ¡
Ãł u
ab at
Ġhapp ens
Ġc ategories
a ud
Ġad ults
Ġc á»ķ
Ġart ist
ĠM iddle
Ġag ency
Ġé ķ
ĠM ach
ĠK ota
ĠZ e
i ences
ik o
Ġwatch ing
Ġ: '
ed om
ĠHe art
ĠA th
ĠYou Tube
ĠW elcome
Ġå ĳ
Ġbed s
ĠC ore
E Y
Ġæ Ļ
Ġcl oth
éª Į
v d
Ġacc om
ebab kan
Ħà¹Īà¸ °
Ġveh icles
Ġinst ructions
g or
ĠAL L
ĠR om
ik ing
ĠÄĳá»Ļ i
ĠM agn
ĠOrig inal
à¹Ĥà¸Ķà¸ ¢à¸
ww w
Ġshow ed
Ġà® ĵ
Ġanim als
Ġr andom
Ġhá» ıi
ĠJapan ese
Ġdisc ip
Ġkem udian
Ġf illed
Ġå® ī
à¹ī à¸Ńà¸Ļ
áŁ Ĭ
áŀĦ áŁĴáŀ
5 00
Ġman usia
æĪ ĸ
M L
A l
Ġca used
il ed
ĠT ay
Ġ à¸Ļà¸µà¹ī
ĠClass ic
S ep
ĠC abin
Ġb ab
ĠC asino
Ġch ÃŃ
ĠThe o
Ġan c
Ġáŀĵ áŁħ
ĠáĢ »
Ġk ing
å® Ŀ
Ġ* **
Ġmen ingkat
Ġ outer
Ġdec k
Ġf use
à¹Ĥ à¸Ļà¸
Ġchem ical
ĠSt aff
åĽ ł
ĠÃ Ļ
Th is
Ġt aste
Ġdef ined
à®¿à®¯ à®¾à®ķ
Ġà¸Ľ à¸µ
A I
ļà¸£à¸´à¸ ģà¸²à¸£à¸
Ġå ĵ
Ġw ireless
Ġr end
Ġman ner
ĠEm ploy
Ġpem ain
ç ¹
ĠæŃ £
å¤ ª
Ġcol our
Ġter p
ĠH en
ĠUpd ated
ĠB áº¡n
ĠMount ain
w est
Ġph ase
G R
ĠP ink
Ġc ivil
ĠB oston
éĤĢ è¯·
O f
ĠD ari
ĠWrit ing
Ġsc ene
Ġf old
Ġph il
çĽ´ æĴŃ
Ľà¸ ±à¸įà¸
ĠC and
ic ians
áĢ» áĢķ
let ter
Ġsit emap
ili ar
ĠSer ver
ĠCop yright
à¹Ģ à¸Ļ
Ġs aving
Ġr ib
F OR
à¸Ńà¸µà¸ ģà¸
Ġident ify
ial ly
ĠSp ace
ĠO H
ç¦ ı
at us
åį ĩ
Ġå½ ĵ
J un
à¹ģà¸ ģà¸£à¸
Ġmanufact uring
Ġad opt
Â ¯
Ġç¾ İ
Ġdec re
Ġpract ices
AN T
erm an
Ġl iquid
Ġdeterm ined
ĠAr m
Ġchu áº©n
Ĺà¸ ±
Ġ- >
Ġt ough
Ġanal y
Ġ à¹Ĥà¸Ļ
Ġnh iá»ĩm
Ġ01 724
Ġd anger
Ĺà¸ Ħ
Ġcontin ued
ĠG R
Ġr ide
ing gu
ĠK a
ĠB ud
Ġres olution
Ġdes k
Ġch á»ĳng
ĠAS S
çĶ ±
Ġinc orpor
Ĭ é¾Ļ
Ġkho áº£ng
ar is
Ġà®®à®±à¯įà®± à¯ģà®®à¯į
Ġqu ote
Ġafford able
Ġch ain
Ġj angan
Ġcar bon
ĠSt ation
ĠL inks
ĠR h
áĢ Ł
Ġb ond
Ġe c
Ġmes in
ĠJohn son
o a
Q L
Ġgiá»¯ a
ek er
Ġm ine
Ġre ality
ĠMet al
3 00
r ance
ĠÃ ¸
e at
er ies
Ġà¸ Ħà¸§à¸²à¸¡à¸
à¯ĭ à®¤à¯ģ
ĠV o
Ġcont ext
Ġsur vey
ĠB at
±à¸ĩà¸ «à¸§à¸±à¸
eseh atan
Ġb ound
n s
èĪ ª
ur u
Ġm á»©c
D R
Ġte a
ly wood
à¯Īà® ¨à¯įà®¤
Ġk ulit
ĠGe org
ĠOb ama
IV E
ac ious
Ġve get
Ġfield s
ĠCh i
à¹Ī à¸Ńà¸Ļà¸
Ġqu e
Ġbi asa
ĠC EO
Ġrem ains
ĠT ut
ĠF ast
Ķà¸²à¸ §
ĠJ on
Ġch at
Ġa ctions
ĠKore a
à¹Ģà¸ §à¸
Ġn eck
Ġpost ing
C S
rant y
Ġg b
o ch
Ġmiss ing
Ġked ua
ĠT el
ul ations
ĠT ry
nav __
Ġ á»
ĠWilli ams
ĠL eb
ĠD in
orge ous
Ġn u
ĠL atest
·à¹Ī à¸Ńà¹Ģà¸
ar row
Ġå¾ ·
ult ure
ant e
Ġt id
ĠF ab
Ġprevious ly
ä½ ı
ĠG olf
Ġb entuk
à¹Ī à¸Ńà¸Ļ
Ġs áº¯c
ĠLet ter
Ġc dn
ĠG un
à¹Ģà¸ Ĺà¸µà¹Īà¸
os oph
Ġun less
èĲ ½
f g
en al
im s
à³ į
ĠR ound
ĠR ub
ĠA st
Ġsek itar
Ġposs ibly
ĠWh ich
ĠN ice
Ġà®İ à®´
ĠY e
ĠH am
ole c
Ġà¸ «à¸²à¸
å ©
ĠS ony
ŀà¸Ļà¸±à¸Ļà¸ ļà¸Ńà¸¥
Ġappear s
h en
Ġpres ence
è§Ĩ é¢ĳ
Ġim pl
Ġgar age
Ġc Ã¢u
ĠEff ect
Ġsem akin
AM E
Ġrec ipe
Ĭà¸µà¸ §à¸´à¸
am aha
Ġsel uruh
å° ¼
Ġsp ending
Ġcont aining
F eb
AR T
Ġc oc
enn is
em ukan
n o
ik ip
ĠPl ant
à¯Īà®¯ à¯Ī
ol is
Ġyou t
áĢŃáĢ¯ áĢĦáĢº
ĀĀĀĀĀĀĀĀĀĀĀĀĀĀĀĀĀĀĀĀĀĀĀĀĀĀĀĀĀĀĀĀ ĀĀĀĀĀĀĀĀĀĀĀĀĀĀĀĀĀĀĀĀĀĀĀĀĀĀĀĀĀĀĀĀ
Ġrepl acement
Ġâ ĺ
Ġexper iment
ªà¸ °à¸
Ġto ward
Ġsu atu
ĠCr usher
Ġ10 4
ĠK at
ĠSe ason
j ar
coh ol
è¯ Ń
Ġgu est
Ġadmin istration
Ġdedic ated
Ġstrateg ies
Î ±
Ġinj ury
Ī à¸´à¸
ĠM E
ĠJ am
raf ts
ĠB O
Ġm ental
ľ à¸´à¸
Ġproper ly
Ġbar ang
³à¸ Ħà¸
A IL
à¹Ģà¸¥ à¹Īà¸Ļ
ul ed
ak hir
Ġt iáº¿n
um es
Ľà¸£à¸°à¹Ģà¸ łà¸
á»Ń i
f it
er ia
° à¹ģà¸Ļ
l ike
ĠSim ple
x i
ĠHapp y
N S
Ġy ellow
ok ing
Ġch iáº¿c
è½ ¬
ļ à¹īà¸²à¸Ļà¸
Ġed it
Ġess ays
Ġmajor ity
ĠI l
Ġsed ikit
re ams
Ġdec isions
ģà¸²à¸ ¨
Ġp ic
oc ation
Ġ! =
Ġown ed
Ã¢ ng
ĠM oh
Ġt ip
Ġà¹Ģà¸ ŀà¸·à¹Īà¸Ńà¸
Ġmin imal
Ġarr ay
Ġre b
Ġæľ ¬
ĠInd ustry
ĠEr ror
Ġå¹ ¶
éĵ ¶
à¹ģà¸ ľ
umin um
Ġpil ihan
ª à¸µ
r an
ĠS yn
Ġ uc
å¹ ²
ĠQ U
ķà¸²à¸ ¡
Ġtransm ission
Ġà®ī à®Ł
etah ui
ĠDis ney
id en
ªà¸ ĩà¸
Ķ à¸´à¸Ļà¸
áĢ¬ áĢĦáĢ¹áĢ
Ġp apers
Ħ à¹Īà¸²à¸
Ġdistribut ion
ĠM ix
éħ į
Ġsp ons
h ow
Ġ2 20
æĬĢ å·§
ell s
ľà¸ ¥
Ġdis k
Ġcontin ues
Ġçİ °
Ġj ew
t age
é ¥
Ġ5 px
ĠD ining
Ã ¯
ĠPol it
ens ity
Ġbr anch
Ġà®µ à®¿à®Ł
ĠLook ing
Ġter baru
ĠS ide
Ġme ant
Ġfocus ed
Ġ10 2
Ġmin h
Ġl unch
éĹ® é¢ĺ
Ġsym bol
Ġå¹ ¿
Ġs ini
Ġhon est
Ġåį Ĺ
åľ° åĿĢ
Ġfe at
Ġtr end
Ġ":[ "
¢ à¸Ńà¸
Ġs we
Ġlead s
å¸Ĥ åľº
ag ers
Ġh r
ĠH oliday
± ¼
Ġx Ã¡c
« à¹īà¸Ńà¸ĩà¸
ir ds
à¸£à¸±à¸ Ĳà¸
åħĥ æ£ĭçīĮ
Ġseek ing
Ġfac ility
à¹Ģà¸ģà¸ ¡à¸
à¹Ģà¸£à¸µà¸ ¢à¸
l ights
Ġappro ved
ĠStud io
§à¸´à¸ Ĺà¸¢
Ġwor ry
ah oo
E B
i y
Ġgener ated
et ch
æ¨ ¡
ĠCh ampions
Ġadvert ising
in an
ĠTerm s
åĨ ³
ĠS it
Ġsubst ant
Ġkh ÃŃ
à¹Ģà¸£à¸ ·à¹Īà¸Ńà¸ĩ
ĠW ireless
ĠC a
ĠÂ ¢
® à¸
ĠMedic ine
Ġæ ĥ
Ġg á»įi
ĠCond ition
p ool
Ħà¸£à¸ ĩà¸
Ġp a
ĠStud ents
ak yat
r ast
łà¸²à¸ ¢
C R
Ġser ing
à®¤ à®¿
e v
Ġà®¨ à®¿à®±
ĠEx ecutive
åı ²
à¹ģà¸ ¥à¸°à¹Ģà¸
ĠK am
ĠDem ocr
Ġn á»ķi
ĠC ars
à¹Ģà¸£à¸µà¸ ¢à¸Ļà¸
Ġmov ies
Ġcomb ined
ont on
ĠCont ent
ĠØ§ ÙĦ
ĠD ist
à¹ Ĭ
ĠáĢ ĺ
ĠSen ior
Ġteach ers
ĠL ess
Ġå »
ĠVers ion
å ³
Ġconst ruct
Ġlead ership
Ġinter p
ĠT in
Ġbr ief
Ġf ly
Ġt áº¥t
Ġst atic
ĠÄĳá» Ŀi
aj i
en ities
áĢ Ĵ
Ġà®µà¯ĩà®£à¯įà®Ł à¯ģà®®à¯į
Ġin line
ĠSingap ore
Ġib u
ĠH R
ĠAdd ress
un ction
um en
ŀ à¸£à¸°à¸
Ġà® ¸
Ġing red
ç Ł
Ĺ à¹Įà¸
Ġbec oming
Ġtick ets
im age
d r
ĠSp an
Ġocc up
áĢĲ áĢ½
Ġc Ã¡o
ĠdÆ°á» Ľi
æĬ Ĭ
B ay
el er
àº° àº
ĠIS BN
Ġtot ally
Ġneigh borhood
ĠS A
Ġcl oud
ç» Ń
±à¸ĩà¸ ģà¸¤à¸
I H
Ļ æ¸¯
Ġenvironment al
Ġcomm and
amp ing
áĢ¯ áĢķáĢ¹áĢ
à¸£à¸µà¹Ģà¸ ¡à¸µà¸¢
ĠTer b
Ġte kn
Ġk Ã©
ĠS anta
ĠC V
ĠR od
tt e
Ĺà¸ ¢à¸
Ġr ule
ĠAp pro
ĠAn sw
Ġab ung
Ġst retch
à¹Ī à¸Ń
g ent
Ġf o
ĠF ield
Ĺà¸µà¹Īà¸ Īà¸°à¸
ķ à¹Īà¸²à¸ĩà¸
ĠAl tern
Ġ ë
è¿ ŀ
od ing
Ġà®ķ à®¾à®²
Ġpol icies
Ġres idents
ik m
M ed
Ġbag aimana
Ġtop ics
ļà¸ Ĺà¸
Ġc Ã¢y
é Ł³
Ġb rown
ĠR a
Ġbas ket
Ġass ets
ĠS av
à¸£à¹Īà¸§à¸ ¡à¸
ŀà¸±à¸ Ĵ
ĠR s
b ro
T op
ĠÂµÃ Ħ
ŀ į
Ġv n
ĠA ward
ļà¸£à¸´à¸ ģà¸²à¸£
ob et
ªà¸ ¡à¸±à¸
æ ĵ
ĠSqu are
Ġåı ĳ
Ġconf idence
ĠAp pl
łà¸±à¸ ĵà¸ĳ
ĠR ate
ĠMus lim
áŀ¶áŀ ĸ
Ġrel iable
Ġregister ed
ind s
Ġle aving
] ,"
oc cer
Ġ: .
Ġach ie
Ġ365bet å®ĺç½ĳ
ada an
ĠÃ ¤
Ġm obil
ĠAc ademy
Ġprotect ed
éķ ĩ
clus ion
ĩà¸´à¸Ļà¸ Īà¸£à¸´à¸ĩ
Ġr aw
Ġl t
Ġm áº¡ng
Ġvirt ual
p on
ĠP a
F ree
oc al
ĠRich ard
el u
Ġc raft
Ġ Ñ
Ġsek olah
à®¸ à¯į
ĠO ak
ap un
à¸´à¸ ĩ
Ù ı
ĠT ools
ĠV A
Ġqu otes
un der
EL L
e els
Ġrec overy
åĨ ł
20 20
c ont
Ġf if
ĠH ong
Ġbus y
ĠTr ust
ĠR ose
Ġg áº·p
ĠæĪĳ ä»¬
ç»ĵ æŀľ
Ġsur f
Ġr om
Ġå¤§åıĳ å¿«ä¸ī
Ġis land
ĠCo ast
Ġä» Ĭ
Ġt el
Ġfrequ ency
Ĭà¸²à¸ ķà¸´
ĠÄĳ Ãºng
Ġmen arik
Ġç¬ ¬
enc ana
ikip edia
Ġd ulu
st one
Ġmeas ures
ĠDirect ory
éĤĢè¯· çłģ
ķà¸ ¥
Ġæ Ĳ
Ġpass ion
ott en
Ġs uka
Ġc row
è® ©
à®¾à®³ à¯į
Ġà®ª à®°
æľīéĻĲ åħ¬åı¸
Ġaud ience
Ġ Ï
Ħà¸ ³à¸
Ġs ustain
ir im
ĠStud y
ut ter
}, {"
rem e
ig e
Ġper usahaan
Ġc overs
åĽ½ å®¶
Ġpeng gun
Ġl y
ĠL an
Ġaccom pl
ind a
çĻ ½
Ġe ating
ç§ °
Ġredu ced
±à¸ģà¸ ©à¸
Ġy ard
à¹Ģà¸ Ħà¸£à¸Ķà¸´à¸ķ
Ġdep ending
ĠF ar
tain ment
Ġp itch
ĠLear ning
if orm
à¯ģà® ªà¯į
w ar
Ġ+ +
çĪ ±
or al
ĠH old
ĠItal ian
äº ĳ
ĠS aint
Ġc ities
ä¹ ī
Þ¨ Þ
áŁģ áŀŁ
Ġop acity
ĠIm port
Ġvis ion
ĠE s
Ġáŀ ł
Ġmost ly
ĠJack son
«à¸¥à¸²à¸ ¢à¸
Ġdis cl
ĠRes ources
ul ous
Ġp ix
Ġentert ain
Ġbe ar
ĠProdu ction
enn a
os es
Ġ Ã¡p
Ġb ike
à® ŀà¯įà®ļ
Ġexp ression
Ġé ģ
Ġcomm unities
ĠT Ã´i
ĠL aur
Ġro les
pt y
Ġ à¸£à¸²à¸¢à¸
ĠE ll
as ant
Ġsc an
ĠOrig in
ĠWith out
Ġ áº¥y
æĻ ¯
ĠVal ue
Ġh áº¡n
Ì ĥ
ict ed
Ġwill ing
ĠSE O
ĠB ol
Ġlight ing
åĬ Ł
åį ¡
ĠE P
Þ° Þ
w 66
Ġk iá»ĥm
ļ à¹Ģà¸
ou ston
ab el
Ġdistr ict
ĠS us
Ġ' .
ĠM T
ĠF A
à®° à¯ģà®®à¯į
ĠL A
ĠCh ange
áŁĨ áŀĸ
ĠConst ruction
Ġradi us
ªà¸´à¸ Ĺà¸ĺ
arm a
ĠInter est
ĠMult i
æ ©
Ġ199 2
Ġad at
pos es
Ġà¸ ¨
àº ´
ĠQue en
ĠComm on
om y
ĠAfric an
çģ «
Ġf _
ĠB h
Ġclear ly
Ġcit iz
Ġs ugar
Ġcons umer
ĠR ing
b b
Ġr ail
P N
Im age
ĠSe a
Ġrece iving
æİ §
Ġ199 3
à¹Ģà¸ģà¸´à¸ Ķà¸
ion e
w ater
¸ à¹Īà¸¡à¸
ĠH on
Ġhá» ¯u
h older
_ C
Ġsurg ery
v i
Ġimpro ved
Ġth erm
Ġslight ly
Ġbeg itu
Ġhá» Ĺ
us at
Ġcr ack
ĠS elf
Ġtre es
ĠBl ank
ļà¸²à¸ ĩà¸
èª ī
Ġ11 2
Ġch ia
ĠJ er
à¹ģà¸Ļà¸ °
ĠS L
Ãł m
Ġa st
ĠF ederal
ĠE S
Ġt d
é ±¼
ĭà¸ ·à¹īà¸Ń
Ġm áº¥t
Ġle aves
ĠMay be
erint ah
Ġlic ense
áŁĦ áŀĢ
Ġnh u
Ġbirth day
ro ve
Ġ- --
áŁĨ áŀİ
ª à¸Ńà¸ļà¸
ĠFoot ball
«à¹ĩ à¸Ļ
Ġh ire
Ġb Ãł
as p
Ġçİ¯ äºļ
Ġà¸ ¡à¸²
áŁ ł
I O
ĠC u
ĠV ari
Ġacc ident
ªà¸ ³à¸Ħà¸
qu ir
Ġvol unte
Ġand roid
ĠN J
ĭ à¸µ
ĠReg ister
cep ts
è »
ul ah
Ġput ting
ĠIn te
áĢ±áĢ ľ
ult y
em en
ĠTh Ãłnh
Ġrat ings
Ġt or
ĠColor ado
Ľà¸ ¥à¸²à¸
Ġr ise
Ġter r
áº ¢
ĠJ ual
à¸£à¸ ĸ
ull ah
ĠInt el
ra vel
Ġt ap
Ġ ub
ĠW A
i ors
Ġspecific ally
åĩ ł
Ġnear by
ĠC er
Ġh el
Ġtr anh
Ġconven ient
Ġg Ã³
Ġclin ical
ĠFin ance
ĠPac ific
Ġk ill
id th
Ġ? ??
Ġl áº¥y
Æ°Æ¡ i
ĠE M
à®¿à®ķ à¯į
ĠV á»Ľi
æķĻ èĤ²
iss ue
ab ol
Ġsong s
à®ķà¯įà®ķ à¯ģ
Ġhard ware
ĠChar les
å· Ŀ
çł ´
Ġà®ļ à®®
Ġexc iting
Ġconcern s
ĠTechn ical
à®¿à®¯ à¯ģà®®à¯į
åº Ĩ
Ġins pect
Ġcho ices
ĠRes ort
Ġ/" >
Ġk ond
ģà¸ §à¹Īà¸²à¸
ĠB irth
Ġ11 5
ĠP u
Ġautomatic ally
N ew
åı Ĥ
ĠO wn
ĠS om
Ġleg is
å°± æĺ¯
Ġt angan
ĠåĮĹäº¬ pk10
Ġbad an
Ġmod al
Ħà¸ ·à¸Ń
è´ £
Ġp c
ĠP ages
ĠBro ok
ĠA venue
à¹Ĥà¸¥à¸ ģ
Ġwe ak
ad ikan
Ġwrit er
Ġra ised
łà¸²à¸© à¸²
¡à¸ ±à¸Ļà¸
åĳ ½
ĠA F
c ode
Ġfour th
IS T
ä¹ °
g ara
Ġm á»Ł
Ġà®¨ à®¾à®©à¯į
ĠOh io
ustr ies
Ġbe aring
Ġth erapy
ul kan
_ f
ĠT alk
Ġ12 3
_ B
Ġpass word
Ġelect rical
ĠB es
Ġtr Æ°á»Łng
éĶ Ģ
Ġd ivid
ĠTr ang
ç© ¶
it z
ĠÄĳ áº¥u
ĠP ick
Ġt ables
Ġc Æ°
Ĥ à¹īà¸Ńà¸
ell ed
n et
ĠM u
ell ite
Ġà®¤ à®©
Ġv en
ĠE R
áŁĴáŀ ĳ
ĠPol ice
ĠM ust
il it
Ġmo z
Ġair port
Ġdash board
ĠDisc uss
ĠCam era
I ES
Ġconsider ing
Ġilm u
Ġpart ners
Ġà®ħà®¤ à®¿à®ķ
Ġp or
ĠM ail
å·¥ ç¨ĭ
Ġman aged
Ġconsum ers
ĠðŁ ĺ
ĠC apt
Ġf avour
Ġbr ands
J ul
à¸²à¸ ¡
Ġre venue
Ġpract ical
å»º è®¾
Ġadmin istr
ĠÄĳ áº§y
Ġap abila
Ã£ ng
Ġaspect s
t or
æĬ ¤
åŃ ĺ
ĠH ari
å¿ ħ
ĠLab or
ĠB oy
Ġk ick
Ġc á»±c
Ġæ į
à®¾à®¤ à¯ģ
åĨ į
ĠÂ ¦
Ġso fa
Ġbr ings
áŁĴáŀ ĭ
ĠPay ment
ĠK B
à¯ģà®ķà¯įà®ķ à¯ģà®®à¯į
¡à¸ ±à¸Ļ
ĠDi amond
Ġke j
aj ah
è´ Ń
al o
ç« ł
ĠÄĳ áº£m
Ġbo ost
ur ies
Ġrap id
ang ing
Ġproced ure
Ġsym pt
Ġà®Ĩ à®ķ
ĠF estival
Ġ30 2
å½ ¢
Ġkh áº£
Ġà¸ Ĥà¸Ńà¸ĩ
Ġt ÃŃn
ĠR O
ĠR ating
Ġprot otype
ĠT uy
Ġmember i
Ġd ok
çº ¢
go ing
ķà¸ ģà¸
Ġk g
ab a
Ġb inary
ĠO x
al kan
Ġm áº«u
ĠDef in
åģ ĩ
à¸£à¸´à¸ ¡à¸
Ġt Æ°Æ¡ng
ĠAnd rew
ĠSpan ish
Ġins ert
å¤© åłĤ
W e
ĠSc reen
Ġà®ķ à®Łà¯įà®Ł
á»ĵ m
ĠWe ight
ĠS uit
à¸Ńà¸ ·à¹Īà¸Ļ
Ġask ing
he et
Ĺà¸ ±à¸
Ġexpl ain
ĠP sych
à®¾à®¯ à¯į
ess ions
alam i
à¹ĩà¸ Ħ
ĠH ost
2 15
Ġèĩ ª
ĠAg en
ĠS olutions
Ĺà¸ĩà¸ ļà¸Ńà¸¥
Ġä¸ ľ
ĠTh ose
ĠSte ve
Ù Ī
ĠGi Ã¡
Ġorgan ic
ĺà¸¸ à¸£à¸
Ġte ch
Ġsubm itted
à¹Ģà¸ Ķà¸
Ġà®ļà¯Ĭ à®²à¯įà®²
Ġfr am
Ġserv ing
Ġprep are
à®¤ à¯Ī
Ġ0113 14
ĠR ights
aj aran
à®¾à®± à¯įà®±
ç» ´
ĠU m
ä»£ çĲĨ
Ġl á»±a
Ġf ear
ĠSo ft
Ġal at
¸à¸ ¡à¸
Ġfail ure
y ak
igh ter
Ġw el
Īà¸ ³
ä» ½
ĠStud ent
eb all
raz il
Ġká» ¹
uh i
¨à¸²à¸ ªà¸
Ġt á»ĳi
ĠMin ister
Ġbah asa
Ġäº Į
áŁ į
_ 1
ĠRuss ian
Ġmin or
Ġmonth ly
ĠJ ac
Ġ4 th
Ġc ant
p aper
Ġvert ical
åĦ ¿
Ġtrig ger
ord an
Ġdan h
T D
sp ot
emb ang
S I
ĠH ello
Ġc ycle
à¹ ĭ
Ġb od
Ġmach ines
«à¸ į
Ġgood s
à¸£à¸²à¸ ¢
ĠA y
ĠS ym
Ġg olf
ov en
Ġ! )
Ġç ¥
Ġpro ceed
Ġan imal
Ġsupport ed
Ġex clud
Ġb en
ĠP ER
ä¸Ģ ç¯ĩ
ç» ľ
Ġat m
Ġallow ing
ĠF resh
à¯įà® ¨
t ed
áĢĲ áĢ¼
ri or
edi akan
Ġtho áº¡i
Ħà¸£à¸ ·à¹Īà¸Ńà¸ĩ
ĠB ased
Ġe f
Ġà¸ªà¸¡à¸±à¸ Ħà¸£
ĠD ip
ĠAp a
à®µ à¯ģ
Ġmanufact urers
ĠV ac
ĠKh i
à®Ł à¯ģ
ĠC M
h u
Ġfr uit
OR E
ģà¹Ģà¸ Ħà¸£à¸Ķà¸´à¸ķà¸Łà¸£à¸µ
áĢľ áĢŃáĢ¯
aw n
ŀà¸´ à¹Īà¸¡à¸
Ġ8 88
ĠE ver
áĤ Ģ
Ġatt orney
Ġib ex_room_grid
à¸Ńà¸²à¸ Īà¸
å¢ ĥ
Ġsh irt
Ġdel ay
Ġgl ad
Ġs itting
ĠCan adian
ĠContin ue
æľ Ľ
Ġlow est
à¸µ à¹īà¸
Ġany where
Ġt ung
Ġreach ed
èµ ¢
ans ion
Ġdes pite
Ġsign ed
Ġà¸§à¸´à¸ĺ à¸µ
Ġrelationship s
Ġrefer enced
abet es
Ġc Ãłng
ĠK ind
Ġfail ed
Ġáŀ ľ
fr ont
aj ib
ç µ
Ġà¸ ľà¸¥à¸
à¸µà¸¢à¸ §à¸
ĠnghÄ© a
Ġbo at
h l
K ey
ĠL as
Ġd l
ª à¹Īà¸ĩ
Ġk im
Ġst yl
Ġà®µà®¾à® ´
Ġcl imate
Ġtw itter
Ġgi áº£
ial is
Ġf le
Ġà®ķà¯Ĥ à®±
ĠG rey
ĠN ick
Ġà¹ģà¸ ¥
à®¿à®² à¯ģà®®à¯į
ĠNg Æ°á»Ŀi
Ġreg istration
ĠY ellow
è¨ Ģ
áŁĴáŀļáŀ »
Ġv ary
ĠH ay
ľà¸¥à¸´à¸ ķà¸
Ġhold ing
ĠÃ ¯
ĠS her
± à¹īà¸Ļ
Ġthu á»ĳc
P ress
Ġam er
fort unately
ĠH ous
à¹ĩà¸ Ķà¸
Ġad s
ĠInst agram
ĠF ox
ĠWh eel
er as
**** ****
Īâĸ Īâĸ
æĿ ¿
Ġ] ;
Ķ áŀŁáŁĭ
Ġlog in
ĺ à¸£à¸£à¸¡à¸
Ġcut ting
ç± ³
å¹ ¶
Ġc os
ail and
ļà¸ ¸
M ENT
Ġfun ding
ĠJo e
Ġass embly
_ S
å¤ į
Ġthe ory
Ġk ap
çħ §
ĠExt ra
ĠEx ample
Ġtype of
g ers
à¹ģà¸ Ľà¸
le m
à¹Ģà¸ Ĥà¹īà¸²à¸
ĠRuss ia
Ġlist en
Ġdog s
Ġ( $(
Ġshop ify
Ġjo ined
à¸Ļà¸²à¸ Ķ
aw asan
ver ter
Ġcirc um
Ġ10 8
es ign
ĠE th
Ġb read
Ġà¸ Īà¸°à¸
Ġemerg ency
Ġhigh light
ĠCh ief
å§ ĭ
à¯ģà®³à¯įà®³ à®¤à¯ģ
ĠKal au
Ġbel iau
äºº æ°ĳ
ĠJ u
Ġl Æ°u
ĠP oker
ĠJ ones
áĤĢ áĢĢ
k m
Ġv ital
Ġp up
Ġ10 6
Ġ à¹ĥà¸«à¹īà¸
im inal
áĢĻ áĢ½áĢ¬
±à¸ĩà¸ģà¸¤à¸ ©
ir ts
ĠG A
Ġappear ance
Ġemploy ee
ĠAnt i
ĠMich igan
ĠAustral ian
ĠCh ÃŃnh
Ġcal endar
Ġ365 æ£ĭçīĮ
P P
Ġtá» ©
ç ¢
Ġdeg rees
r um
ĠE L
±áĢ ĲáĢ¬
ĠSc ot
Ġ( +
à¸µà¸¢à¸ §
ŀà¸Ļà¸ ±à¸Ļ
Ġqu Ã½
Ġmess ages
ĠArch itect
or ough
Ġo d
ĠS ound
ĠExper ience
he ets
Ġh all
book s
å®ī åħ¨
é ł
EN D
Ġ15 px
Ġ à¸£à¸±à¸ļà¸
è²¸ æ¬¾
ģà¸ İ
ĠPer fect
ot ive
op y
in st
Ġdoub t
1 50
al and
Ġberk ata
ĠPerform ance
çĥ Ń
AG E
Ġdep an
à®¤à¯įà®¤ à®¿à®©à¯į
Ġpro posed
Ġkelu arga
Ġ'][ '
æ¹ ĸ
å£ °
a ft
ĠV en
ĠAb d
Ķà¸ §à¸
il der
ļà¸£à¸´à¸©à¸±à¸ Ĺ
åĲ ¬
Ġpur poses
G r
Ġacc ounts
ä¸ĸ çķĮ
12 3
åı į
Ġ24 0
i el
èĢģ çīĮ
ĠPol y
å¤ĩ çĶ¨
et ers
ur b
Ġelect ro
Ġca uses
áĢ±áĢ¬ áĢĦáĢº
Ġcompet itive
éĴ Ł
yl van
Ġsh ift
Ġn ucle
Ġà®ī à®£
à¸² à¸Ļà¹Ģà¸
ĠFranc isco
à¹Ī à¸Ńà¸ĩà¸
Ġw 66
Ġd ivers
áŀĶ áŀ¶áŀĵ
as ikan
Ġb attle
at re
Ġfor g
Ġt ight
áŀĵ áŁĴáŀı
Ġ/ >
Ġ) }
Ġb ola
ĠÃ ±
ĠKar ena
Ġdeliver ed
ĠE mer
į ng
Ġconf irm
Ġma upun
ĠC as
L Y
ik ian
1 10
th e
Ġw est
è´ ¢
it is
S A
Ġaff ili
ok es
Ġpresent ation
ĠVol ume
Ġab i
4 00
Ġyout ube
Ġspec ies
_ 0
20 18
ĠH á»ĵ
ĠC ab
Ġ199 1
ial ah
ĠÄĳo Ãłn
Ġmeng atakan
Ġcre ation
æ ½
à®° à¯Ī
ĠM uh
à¯Ĩ à®¯
Ġfact ory
à¹ģà¸ Ī
Ġch art
al le
ªà¸ ³
Ġè ¥¿
Ġkas ih
Ġco ast
Ġk omp
ĠâĢ ³
az a
Ġm ic
e qu
Ġad il
æľ ª
Ĉ Ĉ
i ac
à¹Ģà¸£à¸ ´
Ġæīĭ æľº
Ġr Ãµ
Ġimport ance
oun sel
Ġà¹Ģ à¸£à¸²à¸
ĠM ur
Ġf aster
fol io
Ġintegr ated
Ġlu áºŃt
ĠS R
Ĺà¸²à¸ ĩà¹Ģà¸
C P
é º
ĠåĲ Į
e ve
Ġtr áº£
Ġcon sole
De lete
· à¸Ļ
Â¡Â £
Ġmir ror
è¶ Ĭ
Ġå Ł
Ġcall ing
Ġap os
Ġc á»¥
W D
u its
ĠGeorg ia
Ġpol l
à¹ģà¸ ¡à¸
ĠTh ink
ĠP K
ĠĈ ć
Ġn om
q v
R o
ang i
åħ ´
in ity
à¯ģà®ķ à®¿à®±
Ġsearch ing
¥à¸·à¸Ńà¸ Ķà¸
Ġrout e
Ġeff iciency
åĶ ®
ach us
igr ation
ªà¸´ à¹Īà¸ĩà¸
iven ess
Ġb isnis
Ġcom US
Ġ356 bet
§à¸±à¸Ļ à¸Ļà¸µà¹ī
ĠI a
ŀ áĢ¬
Ġto Ã¡n
Ġï ½
Ġ$ .
Ġreturn ed
Ġaw al
Ġb á»ĳ
Ġobt ained
Ġ() ,
ĠM ere
æĶ¿ åºľ
xt ure
ch ool
Ġbal ik
ĠæĹ ¶
Ġs akit
Ġs izes
Ġ à¹Ħà¸Ķà¹īà¸
Ġint ended
ĠBro ad
Ġcharg es
ĠÂ ª
Ġvac ation
us kan
Ġâ ľ
Ġpl ays
áº© u
ĠB ell
ĠR on
Ġpurch ased
Ġç «
ph ones
Ġsecond ary
ĠPr im
Ġà¸Ńà¸ ±à¸
Ġcomp os
ĠS ter
ĠSub s
åľ ĭ
Ġh Æ°á»Łng
ĠFor ums
Ġres ol
Ġy áº¿u
ycl ing
à®¾à® ľ
Ġà® Ĭ
Ġcompreh ensive
Ġà®® à®ķà¯įà®ķ
ann a
ĠMc C
è ©
¡à¸·à¸Ńà¸ ĸà¸·à¸Ń
am eter
ellig ence
Ġs ides
tern oon
ĠIm p
é Ĭ
Ġè ¦ģ
ĠG amb
à¹ģà¸ ŀà¸
ĠG T
Ġj oint
Ġç ģ
Ġcontrol s
Ġsp eech
Ġc ab
ĠNe ver
ĠCap ital
Ġé Ĺ
Ġu 04
or ld
Ġed ited
ĠAdv anced
±áĢ Ķ
Ġappreci ate
Ġsuppl ies
ªà¸¹à¸ ĩà¸
Ġprom ote
Ġè ¾
ĠåĽ ł
ĠÄĲ á»©c
Ġdef ense
r ame
et ime
ļà¸Ļà¸ ±à¸
Ġk uat
Ġsign s
Ġo x
Ġinterest s
ĠéĤ £
Ġà¸ Ĥà¸Ńà¸ĩà¸
for ce
«à¸Ļà¸ ±à¸ĩà¸
Ġfil ed
Ġ"] ,"
à®¿à®¯ à¯Ī
Æ ¯
Â ©
Ġper j
Ġr ay
Ġmonitor ing
Z H
ĠM ess
Ġbut ter
utr ition
em on
è ¦
Ġà® ¹
ĠRes ume
Â §
ĠJ P
Ġm it
ĠBe auty
Ġ Ñģ
ĠCl oud
il ik
OR T
à®¿à® ³
Ġend s
Łà¸¸à¸ķà¸ ļà¸Ńà¸¥à¸
§à¹ĩà¸ļ à¹Ħà¸ĭà¸
å® ¤
in ar
èī ĩ
à¯ģà®ķ à®¿à®±à®¤à¯ģ
Ġ12 8
at as
Ġt iá»ĩn
we ight
Ġfem ale
ord ers
ĠRestaur ant
ĠOff icial
ĠÄĳ áº¡t
ĠB Y
Ġè ½
ĠG ard
v est
Ġt umb
Ġçİ ĭ
35 6
j s
I s
ĠI ron
if i
Ġth in
se y
Ġd ates
Ġ# :
Ã Ļ
Ġl at
ĠR ol
æĬĢ æľ¯
os h
US 200
ĠE sp
Ġimpro vement
¨à¸²à¸ªà¸ ķà¸£
ĠInvo icing
A b
r ics
Ġbe ker
à¹ī à¸Ńà¸Ļà¸
Ġæ ¬
Ġob l
æ² Ļ
Ġg al
Ġdi h
Ġrep ut
Ġstud io
ot i
Ġag en
å¿ Ĺ
re ll
c ious
Ġà¸ģà¸ ¥
ĠiP ad
r ie
ĠAp ply
Ġlux ury
ĠW ould
Ġaccur ate
ĠNg o
ĠMe an
à¯ģà® ©
Ġt ail
Ġbro ken
Ġkind s
Ġj umlah
Ġ ä½ľ
ĠH as
ĠE T
Ġtechn ologies
«à¸¥à¸ ±à¸ĩ
iz on
ĠI V
ĠC amb
Ġbel ajar
Ġà®ª à®£
àº ¡
ĠN AS
ograph ic
Ġread ers
Ġm ula
ĠPen y
ĠR ab
ªà¸ °à¹Ģà¸
Ġj elas
Ġinflu ence
Ġhear ing
p y
ĠF an
Ġpro of
Ð ´
Ġarr ived
Ġà¸ ģà¹ĩà¸
eker ja
æ¬ ¢
ĠÃ Ŀ
Ġf ell
á»§ y
gi atan
am ic
Ġä» İ
Ġl ok
w i
Ġdá»¥ c
Ġprovid ers
à¹Ģ à¸Ńà¸
ĠInd ustrial
Ġequ ipped
Ġequ al
¥à¸ ¥
ĠÃ¢ m
ĠIr an
Ġv illage
Ġl á»ĩ
Ġh at
Ġh its
·à¹Ī à¸Ńà¸Ļ
Ġlink ed
Ã³ m
à®¤ à®¾à®ķ
Ġ ialah
it ness
Ġprint ed
T Y
if er
aya an
amb ut
Ġo h
Ġå° Ĭé¾Ļ
Ķà¸µà¸ Ĺà¸µà¹Īà¸ªà¸¸à¸Ķ
Ġflow ers
Ġà¸ Ŀà¸²à¸ģ
ud ara
Ġbel i
ŀà¸ ¢à¸²à¸
Ġst ated
ĠUn c
¹ à¹īà¸
Ġex clusive
ĠT ree
Ġp ep
Ġofficial s
ä¸ ¾
amp il
Ġb iá»ĥu
ĠEnter tainment
Ġ} @
ĠQuest ions
ylvan ia
ŀà¸ ±à¸ģà¸
ģà¸³à¸ ¥à¸±à¸ĩà¸
Ġcontr ast
20 15
re land
s k
S earch
ol i
Ġmot ion
Ġà®ħ à®´
Ġpun ya
ant or
Ġà¸ ľ
Ġch á»©
ĠSp ain
ro ad
Ġy esterday
Ġæ± Ł
Ġra ise
Ġà¸Ń à¹Īà¸²à¸Ļ
Ġn ode
ĠAg ain
ask et
ļ à¸£
áŀĺ áŀ¶áŀĵ
ad or
ĠThere fore
¢à¸ ¡
ĠH E
Ĭ à¸Ļ
Ġrepe at
Ġk ung
o z
Ġ! "
Ġt ast
77 7
Ĺà¸³ à¹ĥà¸«à¹īà¸
ut ton
2 50
Ġme al
ty pe
Ġ, '
Ġs ung
Ġl it
æī ¹
Ġg á»ĵm
Ġor ient
ĠS ection
ĠWr ite
onym ous
Ġpre gn
ĠPop ular
Ġr áº»
ĠEn joy
ĠDe als
w ear
Ġout standing
ĠN G
ĠT ar
or able
Ġch Æ°Æ¡ng
åº ·
à¸£à¸¹à¸ Ľ
ER E
le up
Ġsol ar
ĠFin ally
ino is
ĠÄĳ Ã¢u
ĠVis it
Ġattach ed
ĠS ar
ĠOb at
ĠLang uage
er r
j ek
áŀī áŁĴáŀ
Ġex ecutive
Ġst anding
Ġident ified
çī Ľ
ŀà¸ §à¸
ç Ł³
ĠN orm
Ġdist inct
Ġcu á»ĳi
ĠB ase
¸à¸ ģà¸
up aten
ro t
æĢ ģ
Ġbro ther
å¼ ķ
Ġpriv acy
Ġv ui
Ġà®¤ à®¾à®©à¯į
Ġmeng alami
umb ai
enar nya
å¾ ®
è¾ ¹
à¯ĭ à®¤
Ġà¸ª à¹Īà¸§
Ġtre ated
Ġro l
Ġut ama
Ġassess ment
ĠM urah
ĠIm pro
Ġngu á»ĵn
Ġt ank
Ġpay ing
ir ms
ĠÃ Ł
ĠT á»«
Ġlu áºŃn
Ġinf rast
ĠT yp
Ġà¹ģà¸ ķà¹Ī
k now
Ġà®İà®¤ à®¿à®°
ĠD ry
raz y
Ġæ ı
Ġ\" :
Ġang g
ib ilities
ŀà¸ ¹à¸
Ġfam iliar
è¾ ĵ
O r
Ġnav igation
Ġc odes
±à¸ Ķà¸
Ġel imin
åĨ ľ
Ġdesign er
ĠSch olar
cl ub
Ġst yles
Ġad ult
ĠG a
ob by
ĠB C
«à¸Ļà¸ ¶à¹Īà¸ĩ
Ġinsp ired
å¤§ åŃ¦
à¹īà¸²à¸ ¢à¸
Ġrespons ibility
Ġc atalog
ĠFore st
Ľà¸ ı
ĠáĢ ĸ
ans i
ĠS outhern
ĠOr ange
ĠC F
¢à¸´à¸ĩà¸ Ľà¸¥à¸²
áŀı áŁĴáŀı
ent u
ĠP ad
çĽ ĳ
æī ĳåħĭ
Ġx a
Ġcount y
Ġproced ures
ĭà¸ ·à¹īà¸Ńà¸
ast ers
ĠK eb
iá»ĩ p
Ġ ic
ĠâĢĭ âĢĭ
Ġà¸ Ĭà¸±
Ġ2 10
Ġc ute
r ieved
ĠÃŃ t
ĠM ent
ĠA K
Ġ10 3
áºŃ m
1 65
Ġrat io
Ġ ik
é¡¹ çĽ®
åı ¤
u ine
Ġiss ued
ª à¸²à¸£à¸
ĠR ental
à¹Ģà¸ģà¸ µà¹Īà¸¢à¸§à¸
im ul
ĠáŀĬ áŁĤáŀĽ
ĠCh á»§
à¯ĭ à®®à¯į
Ġtá»ķ ng
ĠT á»ķng
per caya
w ich
ud uk
ĠAd vert
as tern
åĮ Ĺäº¬
ict ions
ou g
Â Ń
ĠAct ive
Ġdecor ation
Ġà¹Ģà¸ŀ à¸£à¸²à¸°à¸
Ġà¹Ģà¸ ª
Ġmeng g
ĠD am
Ġkelu ar
ç« ŀ
łà¸ ¹à¸
Ġyou th
Ġsp in
ingk ungan
à¸Ńà¸µà¸ ¢à¸
ug as
ĠP ool
9 18
Ġhous es
äº ¿
Ġbu ff
à¹īà¸²à¸ ĩà¸
ĠI reland
U p
áº µ
Ġdel icious
pr ene
as m
Ġé ĵ
h es
ĠPl ans
ĠGold en
Ġcon d
à¹Ģà¸ Ī
ªà¸ ļà¸
ĠViet nam
ĠM I
ap ai
ç»ı æµİ
Ġguarant ee
Ġáŀ ķ
at ible
Ġvisit ing
ĠB razil
ĠTr ad
Ħ à¹Īà¸²
Ġnet works
s or
U rl
ĠMan chester
Ġper man
il ly
er ts
ĠK ent
ĠCurr ent
Ġp ill
ĠR oll
Ġprefer red
Ĺ à¸´à¸
Ġcar ried
ĠçĻ¾å®¶ ä¹Ĳ
ĠFl ash
èŃ ¦
Ġh u
Ġ!! !!
ont o
Ġqu ery
U s
Ġr an
Ġc áº¡nh
Ġrem aining
ĠV intage
ĠB attery
ĠDis play
o en
à¹Ħà¸¡ à¹ī
è¯ »
Ġs orry
Ġph Ã¹
f ri
à¹Ī à¸Ńà¸¢
Ġtrans parent
Ġ: \/\/
Ġj auh
Ġæ Į
à³į à²
Ġs ab
Ġfor t
ĠPrint able
Ġd ic
ĠClean ing
og ue
Ġà®ķ à®¾à®°
ĠÂ ¯
Ħ à¸²à¸ªà¸´à¹Ĥà¸Ļ
ĠTh ings
±áĢ ĲáĢ¼
Ġfunction al
ãģ ®
ann els
Ġd Ã¹
Ġcult ural
Ġd omin
fa ult
Ġlay out
ĠCo ach
Ġmemil ih
Ġl es
à¹Ģ à¸Ńà¸µà¸¢à¸
Ġà®ª à¯ĩ
V ID
ģà¸²à¸ ¨à¸
au x
Ľà¸£à¸°à¹Ģà¸Ĺà¸ ¨à¸
p ass
Ġs alt
ĠM R
«à¸¥à¸ ±à¸ģà¸
Ġap art
Ġbag us
¢ à¸´
åŁ Ł
ĠH á»Ļi
ĠF ix
ul er
ç½ Ĺ
ian ces
Ĺ à¸£
ĠPict ures
ĠM and
Ġch a
Ġch apter
Ġmemb eli
pro of
Ġm Ã´
Ġæī Ģ
ĠExc ellent
r ight
åĢ Ļ
à®² à®¾à®®à¯į
l is
ĺ à¸´à¸
Ġæ ´
ĠH ouston
osph ere
Ġco ordin
Ġlik ed
Ġè ·
ķ à¸²
Ġ&& (
d it
Ġentertain ment
ĠG ia
Ġtu j
æľ ĥ
è ŀį
ement ara
Ġ9 99
Ġp atch
as arkan
ot ing
¥à¸ ¢à¸
ĠSk y
ile t
O UR
Î ¹
ro ke
å¼ ł
áĢ° áĢ¸áĢ
Ġt Æ°á»Łng
Ġxu á»ĳng
Ġ3 20
Ġsignificant ly
Ġgreat est
ļ à¸Ļ
Ġdiscover ed
ªà¸ ¥à¹ĩà¸Ńà¸ķà¸
ĠLab els
ĠÄĳá»Ļ c
ĠÄĲ Ã´ng
Ġcr ash
Ġ4 50
ur kan
Ĭà¹Īà¸§à¸ ¢à¸
In d
Ġle m
Ġmp 3
P l
ĠTrans port
ĠRe ading
Ġ10 7
Ġdynam ic
Ġch osen
Ġp ink
à¹īà¸ ³
Ãº i
Ġb s
Ġreal ize
Ġcon v
ĠCommunic ations
erl ukan
E W
Ġng Ãłnh
¹ à¸Ļà¸
Ġl ens
ĠIS O
à®¾à®® à®²à¯į
Ġ Ã¡o
Ġà¸ Īà¸²à¸ģà¸
ĠC reek
Ġext ended
em y
au c
±à¸Ļà¸ ĺ
Ġintrodu ced
ĠSp irit
Ĥ à¸²
Ġ0200 7
ĠB ola
Ġr g
Ġk ena
à¹ģà¸ Ķà¸
Ġsupport ing
ĠW inter
Ĺ à¹Īà¸²
br id
ens ed
ķ à¹īà¸Ļà¸
Ġm Ã´i
æıĲ ä¾Ľ
y ard
Ġà¹Ģ à¸Ļà¸
à¹ĥà¸ ģà¸¥
Ġx á»Ń
id as
an akan
Ĭà¸ ¡
ĠN a
ĠInte gr
ĠE le
Ġ0113 13
«à¸¡à¸²à¸ ¢à¸
Ġp ure
Ġevent ually
it age
Ġcompar ison
ĠD ub
Ġ', '
ģ áĢº
Ġl ou
Þ §
Ġà®® à®°
Ġ":" ","
æĹĹèĪ° åİħ
ĠSet elah
Ġline ar
Ġk ota
Ġo re
ĠP V
Ġcook ing
Ġseem ed
Ġhistor ical
ĠP urch
ĠASS IGN
ç Ĩ
æĹ© é¤Ĳ
Ġk illed
er k
Ġà®¤à¯Ĭà®Ł à®°
F l
ĠG L
Ġfe els
Ġbel ie
¸ ı
¥à¸·à¸Ńà¸ ģ
Ġsh adow
Ġnot ed
o i
ar eness
ç¨ ³
æĸ°éĹ» ç½ĳ
Ġflex ible
Ġäºļ æĲı
s m
á» ³
Ġà®ĩà®¨à¯įà®¤ à®¿à®¯
Ġter min
Ìģ c
ĠCreat ive
Ġem pty
Ġb ench
ĠPh arm
áĢŀ áĢĬáĢ¹
Ħà¸´à¸ Ķà¹Ģà¸
Ġch icken
Ġsub t
ph a
áŁĴáŀĵ áŀĢ
Ġc ig
çº ¦
Ġç Ĵ
Ġdes ire
Ġ7 50
c d
Ġà¹Ģà¸¡à¸ ·à¹Īà¸Ńà¸
Ġfiles _
Ġh ack
Ġbook ing
à®¾à® Ļà¯įà®ķ
Ġs ac
ĠT al
3 d
Ġcom plic
¢à¸ ¸
ģà¸ µà¸
áŀ¶áŀ ħ
Ġbro ker
iz za
ĠDistr ibut
ĠK ong
ķà¹Īà¸²à¸ĩ à¹Ĩ
Ġth áº§n
ĠStud ies
Ġà®ī à®°
Ġtem an
Ġg Ã¡i
Ġcl ock
Ġcal c
ĠD ays
M P
ĠC able
ĠB on
id ers
Ġpart nership
ĠX L
ĠT et
ĠEp isode
Ġl ip
ĠÄĲ á»ĵng
asil kan
Ġå¥ ½
ĠDesign s
±à¸ Ķ
re prene
qu is
Ġpers pective
Ġc orn
åį ı
ing gal
Ġè¿ ĺ
Ġauth entic
Ġ: \
Ġart ists
Ġeduc ational
Ġbah kan
Ġà®ª à®¾à®¤
iz ona
ĠM s
H z
ĠNg Ãły
um at
Ġh ur
áĢĦ áĢ·áĢº
rodu ction
ic ers
Ġrepres ents
Ġæŀ ģéĢŁ
Ġr á»Ļng
Ġexpert ise
Ġr iver
ĠH ai
Ġaf ternoon
ĠB us
ĠAd vent
à¸²à¸£ à¹Į
Ġwall s
Ġlá»Ľ p
oun der
IS H
Ġdoll ars
ķ à¹īà¸Ļ
Ġ ä¼
w rit
àº ģ
Ġo z
Ġcompr ising
åŁ ¹
ro g
in ations
Ġt áº£i
Ġover flow
unjuk kan
Ġworld wide
ert i
Ġt epat
B I
Ġ25 62
Ġb uku
adi um
ĠS cr
Ġ0 px
Ġar rest
Ġ ä¹ĭ
ĠN T
ĠHo a
à¥ į
und ry
Ġr ad
à¹Ĥà¸ Ķ
à¹Ģà¸ ŀ
yt ics
Ġk on
Ġf urn
Ġreturn s
ĠW IB
Ġperfect ly
é ı
Ġs vg
à®² à¯įà®µ
Ġà®µ à®¿à®°
ä¹ ¡
Ġtr i
ĠN i
Ġm ile
ä¿¡ èªī
ha ust
à¸£à¸°à¸ļà¸ ļà¸
ĠD if
à®¿à®Ł à®®à¯į
§à¸´à¸Ĺà¸¢ à¸²à¸
Ġkho a
Ġch ief
Ġopt ical
¸à¸ ĩà¹Ģà¸
Go ogle
Ġmar ried
ĠS ay
Ġg ear
ģà¸±à¸ Ķ
ĠSt ill
Ġl ift
Ġsympt oms
æ¼ Ķ
ĠL ock
G E
on ic
åĪ Ļ
e j
à¹ĩà¸ Ķ
èĮ ĥ
¥à¸° à¹Ģà¸Ńà¸µà¸¢à¸
áº¡ p
ĠÐ ¿
Ġl uck
ĠPred iksi
W eb
Ġda erah
Ġsmart phone
ģ áģ
Ġn ut
Ġadip ur
u anya
U C
ĠTh Ã¡ng
ĠåĬ ł
Ġfor ces
Ġcon cer
áĢĻ áĢ»
Ġé ©
Ġà¹Ģà¸¡à¸ ·à¹Īà¸Ń
ķà¹īà¸Ńà¸ĩà¸ Ŀà¸²à¸ģ
ĠAssist ant
Ġå ĴĮ
Ġpow der
IT E
ĠDel ivery
Ġs ad
es an
Ġposition s
Ġfac ing
d i
Ġà¸ Ħà¸£à¸±à¹īà¸ĩ
ab eth
ant an
Ġlik es
ala upun
ĻĢâ ĻĢâ
Ġbig ger
ĠMar c
Ġ10 9
Ġsch olars
Ġfact s
áŁĴáŀļáŀ ¼
ĠJ udi
å· ´
Ġl in
Ġcontrol led
all as
ĠS ens
Ġà¸ ¡à¸²à¸
Ġå §
yd ney
Ġà¹Ģ à¸£à¸
Ġadol ang
ä½ İ
Ġw arna
v ements
éļ ¾
w _
N H
Ġn ilai
d ale
u as
Ġ11 4
ĠT ool
em an
éħĴ åºĹ
Ġv end
Ġcomm itted
à¹Ģà¸ Ħà¸
uk um
Ġas p
ĠA qu
æĺ ¥
Ġbah awa
Ġm outh
b ase
ĠR oman
ä» ĭ
ĠGirl s
Ġingred ients
eb ook
Ġ11 1
ĠAutom atic
ĠM L
Ġpain ting
Ġtr ouble
Ġe Bay
Ġéķ ¿
Ġ2 30
Ľà¸ ģà¸£à¸
Ġtw ice
cl es
Ġà¸ķ à¹īà¸Ńà¸ĩ
Ġte levision
olid ays
Ġrel atively
ģ à¸£à¸£à¸¡
Ġâ Ļ
Ġsum mary
U Y
M B
Ġemb ed
à¹ģà¸« à¹Īà¸ĩà¸
à¸£à¸²à¸ ĩà¸
By Id
Ġæ Ħ
Ġv iá»ĩn
Ġdr iven
U E
ar on
à¹Ģà¸ Ħà¸£à¸·à¹Īà¸Ńà¸ĩà¸
ªà¸¹à¸ ĩ
Ġbt n
ç ĳ
e h
ĠRem ove
ĠTh ough
Ġtick et
Ġresist ance
Ġà®ļ à®¿à®²
Ġorgan isme
Ġt iga
ess ed
ç ¸
æ± ½
ĠÂ ¤
iss an
¡à¸ ŀ
Ġc á»ĳ
Ġbel ong
çķ Ļ
Ġsyn th
put er
áĢĻ áĢ½
ĠÄĳ Ã´
Ġbedroom s
é Ĳ
ĠD Æ°Æ¡ng
ĠC ro
Ġa vailability
ĠBl ock
é£ Ł
Ġocc asion
æ ¿
ar ry
M an
Ġex cess
ĠW ant
F T
åĨ µ
ategor ized
Ġber at
e i
ew ay
à¸Ļà¸ ±à¸ģà¸
ĠN ature
ĠA wards
Ġà¸ķ à¸²à¸£à¸²à¸
ĠD raw
ĠP ain
Ġv áºŃn
in ery
c omm
Ġprom o
ĠD un
à®° à¯įà®µ
ç¡ ®
ĠPr ime
Ġà¸Ħà¸ ·à¸Ń
Ġx in
gal a
æŀ Ħ
Ġobject s
ĠX u
Ġv Ã¹ng
Ġpattern s
ĠK r
I AL
ĠM arg
Ġtá»© c
Ġext ract
Ġt ile
aj aan
Ġé ļ
Ġtax es
çľŁ éĴ±
R ec
ath an
1 20
ģà¸´à¸ Ī
Ġn ine
Ġass um
Ġk il
Ġcook ies
Ġkeep s
p ers
Ġs oul
ĠAn ak
ĠâĪ Ĵ
ĠLe gal
æŃ Į
Ġdr ugs
ĠGr ay
adu ate
Ġreason able
ĠS N
ap or
· à¸Ńà¸ĩà¸
Ġadat ongeng
AR D
ir al
ĠRet ail
aw ab
Ġtyp ical
Ġcl ip
Ġ19 89
Ġl ived
Ġsav ed
Ġd raft
ĠBit coin
Ġeffect ively
à¹Ģà¸ ģ
ra ction
ĠC y
Ġà®ª à®¿à®±
Ġterd apat
à¹Ģà¸ ŀà¸·à¹Īà¸Ńà¸
Ġfood s
Ġ uy
ĠáĢŀ áĢ°
åĩ »
Ùİ Ø
Ġdan ce
ĠL ew
Ġaccess ories
Ġè ¶
ĠÃ ¨
áĢ±áĢ ķ
Ġ il
ĠÃ ¼
ĠC ards
se a
Ġà¸ľà¸ ¥
à¹Ħà¸§ à¹ī
uj u
· à¸Ļà¸
amb er
ĠR S
áŀĽ áŁĭ
ŀà¸´ à¹Īà¸¡à¹Ģà¸
Ĺà¸µà¸ ¡à¸
Ġr iÃªng
ĠTh á»ĭ
ĠSim ilar
t op
b ay
ĠTer baru
ĠEd itor
Ġqu Ã¢n
ĠAl i
ang kat
c ol
Ġcon sequ
Ġs ifat
ĠLux ury
ĠAmeric ans
Ġemploy ment
ist ers
Ġfollow s
Ġch Ãº
Ġå ģ
Ġr ated
Ġsk ill
ĠP aint
Ġtop nav__
Ġbo ot
ir med
Ġv otes
ĩ à¹Īà¸²à¸¢
b reak
ĠM om
Ġcont emporary
amp ung
Ġmil k
H S
Ġinstr ument
room s
AC T
ug u
ĠAnn ual
æĻ ®
Ġå¹ ³
Ġvalu able
Ġl az
ĠNh áºŃt
ĠN ike
ĠMag azine
áĢ±áĢ¬ áĢĢáĢº
ĠE 0
g reg
ĠMere ka
Ìģ t
ak kan
Ġthu Ãª
ĠIm m
udd en
Ġè °
à¹ģà¸ ķà¹Ī
«à¸±à¸ §à¸
s x
Ð ¹
um my
áŀ¶áŀı áŁĭ
Ġ= ==
ĠM AR
áĢ² áĤķ
Ġsb obet
å ª
Ġme at
Ã ¿
b orn
à®¿à®© à¯įà®©
Ġm l
ĠCl ose
Ġdisapp oint
ĠæĪ Ĳ
ĠÄĳ Ã¡ng
Ġtw e
ĠG D
AS T
ĠâĢĿ ï¼Į
Ġà®¨ à¯ĩà®°
Ġc áºŃp
åĥ ı
Ġz one
Ġv ibr
ĠdÆ°á» ¡ng
Ġpay ments
áŀ¾ áŀĻ
ĠS now
ĠIll inois
Ġsh ock
å¨ ģ
Ġmeng ambil
Ġstore d
Ġch rist
è¡¨ ç¤º
ĠæŃ ¤
ĠCor p
6 00
Ġmiss ed
& &
à®¾à®² à¯ģà®®à¯į
AS S
arm ing
Ĭ à¸µ
b z
Ġs os
à¹Īà¸Ńà¸ĩ à¹Ģà¸Ĺà¸µà¹Īà¸
Ĭà¹Īà¸§à¸ ¢
Ġvi agra
Ġno ise
«à¸¡à¸²à¸ ¢
ĠT ow
ĠS Æ¡n
ly n
Ġç ¼
ĠæĹ ł
Ġvol tage
à¹ĥà¸ ķ
±áĢ Ľ
¨à¸¶à¸ģà¸© à¸²à¸
çİ° éĩĳ
æ¯ ı
n ik
Ġfeat uring
ĠNh Æ°ng
ĠÃ ®
ŀà¸£ à¹īà¸Ńà¸¡à¸
è® Ń
aw arkan
P ublic
Ġth esis
ç¤¾ ä¼ļ
Ġfl ag
ung k
ĠP P
èµ ļ
p an
Ġà¸ģà¸²à¸£à¸ ŀà¸Ļà¸±à¸Ļà¸
ĠÄĲ iá»ģu
r ich
ĠGu est
ĠB ern
áº§ ng
æĻ Ĥ
ĠJ enn
é£ŀ èīĩ
ŀà¸£à¸ °
Ġaccept ed
pect ed
Ġgr atis
ç¼ ĸ
Ġtr áºŃn
P ER
ĠF ig
ĠH yd
å¥½ çļĦ
ĠTh us
Ġ. :
ies el
ĠS ER
ĠPenn s
Ġà¸ģà¸ ¡
Ġtest ed
Ġl ite
Ġkond isi
Ġag ents
ĠU TC
Ġch ocolate
à¹Ĥà¸£à¸ ĩà¸
elp h
Ġspe aking
ĠComple te
Ġc ake
ĠPrem ier
ĠB ible
Ġlett ers
Ġå¼Ģ åħĥæ£ĭçīĮ
p ack
¸ à¹Īà¸¡
f all
Ġ à¹Ĥà¸£à¸ĩà¹ģà¸£à¸¡
[ ]
Ġco al
Ġwe ap
ĠTah un
Ġh yp
ĠCour se
ªà¸ĸ à¸²à¸Ļà¸
anding an
H A
ł Ģâ
Ġche ese
ĠAs ian
à®¿à®ļ à¯įà®ļ
H ot
Ġsign als
Ġà®ĩ à®¯
Ġem ph
à¹ģà¸£à¸ ĩà¸
ig ible
om i
Ġb iá»ĥn
ĠFri end
Ġse jak
ul um
ant ai
Ġbeker ja
Ġd uty
ĠS omet
Ġth áº¥t
Ġs ister
Ġcap able
¨à¸¶à¸ģà¸© à¸²
ĠP ow
e o
Ġset up
ĠO cean
Ġáŀ Ļ
èµĮ éĴ±
Ġà¸Ħ à¸Ļ
ĠF inal
Ġç Ń
ĠvÃł ng
Ć ï¼Į
Ġh Ã£y
ĠK ed
à®¿à®Łà¯įà®Ł à¯ģ
ĠC ream
é» ĳ
Ġcou pl
ĠS old
Ġlaunch ed
ĠSt an
ord s
ivers ary
Ġful f
| |
ĠphÃŃ a
Ġinnov ative
áŀ Ĵáŀ
Ġm un
Ġkhá»ı e
ĠB ott
Ð ¿
Ġchá»ĭ u
Ī à¸²à¸£à¸
ĠM aint
ĠJos eph
pr int
ĠR umah
Ġhouse hold
Ġs Æ¡
Ġb oys
æ¸¸æĪı å¹³åı°
Ġn Ã¢ng
Ġmedic ine
Ġbuild ings
Ġabs or
¡à¸ ·à¸Ń
ĠW onder
ĠS yr
Ġp jax
ŀà¸´à¹Ģà¸¨à¸ ©
ĠDI Y
int on
ĠX em
ĠTechn ologies
ĠBar b
ell ers
ĠH aving
èµĦ æĸĻ
Ġse w
ĠMi ami
ĠJ angan
Ġse ks
Ġrec ording
ĠáĢĢ áĢŃáĢ¯
ĠF a
Ġw ave
à¸Ńà¸ ¥
ĠSt ainless
Ġul asan
Ġk iáº¿m
åħ °
oh on
Ġà®ķà¯Ĥ à®Ł
Ġé ĥ
çŃ ĸ
Ġ11 8
ĠVe h
ĠK enn
áŀ¾ áŀĦ
vent ional
Ġinvest ors
ĠWal mart
Ġr ough
à¹Ĥà¸£à¸ĩà¹ģà¸£à¸ ¡à¸
k h
g l
Ġl augh
ĠY OU
Ġep isode
Ã¹ i
Ĭà¸ ¡à¸
ĠP E
Ľà¸ ģà¸
à¯ģà®³ à¯į
áĢ¸áĢ Ļ
uk ul
Ġprint ing
Ġkh Ã¡
Ġgr ab
ĠSh irt
y al
Ĩ áŁĴáŀĵ
ung a
Ĥà¸Ńà¸ĩà¸ Ħà¸¸à¸ĵ
è» Ĭ
Ġtransl ate
Ġà¸ŀà¸£ à¹īà¸Ńà¸¡à¸
ĠSk in
Ġæµ ·
ak im
à¹Ĥà¸ ķ
at im
èī º
ĠVe gas
à®µ à®°
¸ è¿Ĳ
çı Ń
áŁĴáŀ Ħ
ak ai
Ġun f
Ġgener ate
à¹Ĥà¸ «à¸¥à¸
à®² à®ķ
ģà¹ĩà¸ Ķà¹Ģà¸
ah u
Re view
Ġs iap
ĠDani el
ĠE V
oss ible
Ġsuccess fully
Ã¨ n
±à¸ ĩà¹Ģà¸
Ġh i
un ter
ĠS pl
Ġdar ah
ĠG O
Ġco oper
ro gen
de f
ĠSur g
ĠR ear
ĠP interest
ĠF ant
Ġçº ¿
à¤ ¾
Ġw et
Ġho áº¡ch
y ers
Ġà¸£à¸ ¸à¹Īà¸Ļ
Ġsam ples
osoph y
Ġmatt ress
à¹ įà¸²
Ġper l
Ġh uyá»ĩn
à² ¿
Ġext ensive
Ġà®ª à®ķ
ĠB arn
áŁĨ áŀĵ
à® ·
Ġå° Ĩ
Ġ5 27
Ġaffect ed
ĠCh alleng
Ġáģ ı
ĠÐ ²
Ġincred ible
ay an
Ġcomp ens
éķ¿ é¾Ļ
Ġmy book
ĠHo Ãłng
Ġquant ity
Ġ ą
N O
é ²
Ġte en
áĢ ¥
Ġfore st
Ġcircum st
ĠPro duk
ªà¸´à¸Ļà¸Ħ à¹īà¸²à¸
Ġport able
åĪĨ éĴŁ
è¯ Ĩ
Ġst orm
M I
C ount
ĠV illage
ur l
Ġnh áºŃt
G S
Ġart ikel
Ġdi amond
Ġreg ional
à¹Ħà¸ Ĺà¸¢à¸
Ġtr im
Ġsc ores
Ġcorrespond ing
ĠI C
Ġ à¹Ħà¸Ĺà¸¢
_ F
Ġdes ired
ger a
ÃĪ Ãĭ
Ġpre view
ut ers
èİ ·
äº§ åĵģ
Ñģ ÑĤ
gor ith
ļ à¸£à¸£à¸
ĠÄĲ á»ĥ
ĠIn ch
ĠG ive
os i
Ġk art
Ġà¸ Ķà¸µ
Ġ( -
o leh
Ġoff set
ing u
ĠH ad
Ġmix ed
ķ à¸£à¸§à¸Īà¸
Ġpre v
Ġa plikasi
arn ess
Ġj oy
d ag
ĠH TML
¡ à¸´
ĠPenns ylvania
é» Ħ
ĠM aking
àº ·
ial s
Ġpr ia
ĠTay lor
ĠEl iz
v r
Ġ+ "
Ġdefin ition
Ġex port
çĽ ĺ
Ġencour age
Ġpat io
is ation
ªà¸ ±à¸ĩà¸
¨à¸±à¸ ŀà¸
ĠAn th
Ġde kat
b c
Ġmount ain
Ġis ang
alan an
ch arge
ªà¸°à¹Ģà¸ ģà¹ĩà¸Ķà¹Ģà¸
ĠðŁ Ļ
ir k
Ġfin ance
ut i
ĠH ills
ĠFor ce
w al
Ġapp ar
Ġéĩ į
Ġtut orial
Ġs Æ°
h ol
Ġhundred s
Ġt ube
Ġsesu atu
t u
ĠAs li
Ġimplement ation
is ah
Ġà¸ŀ à¸£à¸µà¹Ģà¸¡à¸µà¸¢
Ġconcern ed
ĠDiv ision
ĠåĽ Ľ
ĠProf ile
ĠAr my
e a
ĠH um
Ġo vers
å Ĵ
ĠShop ping
æŃ£ è§Ħ
Ġà®ĩ à®¤à¯ģ
Ġsup posed
Ġb le
ĠComp are
ĠSub ject
ĠR as
C ode
N ews
Ġph áº¡m
Ġsim pl
Ġsh el
Ġl aser
æĸĩ åĮĸ
Ĺà¸± à¹Īà¸§
ĠSw itch
Ġsub str
Ġshop s
Ġwh om
ch ant
Ġmod ified
ĠN ik
ĠLight ing
Ġal cohol
ĠSt ay
à¸£à¸¹ à¹ī
ĠA A
Ġintrodu ction
Ġcuration __
ĠSomet imes
Ġkal ian
Ġele v
ch er
ad ies
Ġbeg ins
ĠY a
Ġrecord ed
es th
§à¸ Ķà¸
ĠBas ic
Ġh ook
Ġè ģ
Ġà®ķ à®£
ĠK es
ĠéĢ ļ
Ġfun ny
arg o
Ġæĸ ĩ
Ġbring ing
ļà¸ ±à¸Ļ
ĠB áº¯c
æ® µ
Ġres erv
à¹Ĥà¸ Ħà¸£à¸ĩà¸
Īà¸ ³à¸Ļà¸
ĠTick ets
Ġus aha
_ l
Ġx 22
Ġn ights
Ġk ini
áĢĸ áĢ¼
ire ment
ĠEx change
Ġ12 4
ĠNor thern
Ġlo ading
Ġåı ª
Ġpick ed
Ġ äºĨ
å½© ç¥ŀ
ĠM other
gy pt
ļà¸±à¸ ķà¸´à¸
ĠWord Press
Ġgu ard
ĠåĪ©æĿ¥ w66
Ġgr id
ĠE C
X X
Ĺà¸±à¹īà¸ĩà¸ «à¸¡à¸Ķ
Ġbu ah
Ġz ero
¥à¸ ¢
Ġcandid ates
ĠCho ose
ang at
ĠP ub
äºĮ æīĭ
5 38
å¤ļ å°ĳ
_ image
Ġd áº¡ng
Ġhe he
Ġä¸ »
ĠR yan
Ġin n
Ġ[ '
Ġupgr ade
ĠR at
ĠYear s
ĠEn c
K S
Ġtechn ique
ãĢ İ
or er
Ġ} }.
ĠM atch
ĠãĢ ı
Ġour selves
æŀ Ĳ
st ream
ĠD ream
Ġáŀĺ áŀ¶áŀĵ
àº ģàº
Ġmeningkat kan
Ġtag ged
m ission
Ġm ale
Ġguid elines
Ġch áº¯c
Ġgr inding
àº² àºĻàº
ĠC oup
Ġa jax
éĻ ©
Ð ·
ath y
u ages
com es
Ġ15 00
ungg uh
r ane
ah ami
AS E
ĠI F
Ġinterp ret
k g
Ġhost ing
ĠAC T
éĻ Ĩ
ĠSle ep
ĠN eck
ĠL iver
og rap
è´ §
Ġåı °
ad an
z uki
Ġflu id
à¹ĥà¸«à¸¡ à¹Īà¸
ste in
çº¿ ä¸Ĭ
duct or
ĠWe ather
ªà¸ ±à¹Īà¸ĩà¸
w rap
ĠN iger
Ġcamp us
Ġà¹ģà¸ ¡
ĠPro s
Ġget Element
el it
ç¦ »
Ġadi w
Ġà¸ ľà¸¹à¹ī
Ġo w
Ġin du
ĠK H
Ġ01 22
åı Ī
Ġà®ķ à¯ģà®Ł
ĠF M
ĠCar l
ĠWork ing
UN G
Ġb uh
æĹ© çĤ¹
Ġtr ends
Ľà¸£à¸ ªà¸´à¸
Ľà¸ ±à¸
ĠAd am
Ġlist s
ar o
Ġà®ħà®µ à®°à¯į
Ġstay ing
ĠFri ends
Ġrec over
ĠU M
ĠOpt ions
æĹ ı
áŀ º
ĠDe ad
Ġ:" \
Ġfit ness
åĲ §
Ã£ nh
Ġsq ft
Ġ19 80
à®±à¯įà®ķ à¯ģ
ĠHist or
Ġcomm itment
ill iant
ĠTr ading
es y
Ġterl alu
Ġoff icer
ĠB lo
Ġt á»ĳ
ĠN FL
ast s
ĠL yn
Ġ19 88
Ġn anti
Ġcharg ed
Ġsk y
Ġappe ared
Ġpeng h
ĠgetElement ById
áŀĸ áŀ¸
à¹Ĥà¸£à¸Ħà¸ ªà¸°à¹Ģà¸ģà¹ĩà¸Ķà¹Ģà¸
end ers
Ġà®® à¯ģà®±
Ġà®® à®ķ
Ġv eter
Ġtr áº¡ng
ĠF ace
à®¾à® ª
Ġren ew
Ġl Ã¢u
ra wn
Ġstop ped
re al
ara an
Ġterm inal
è¿ ľ
«à¸¥à¸²à¸ ¢
f c
ķà¸±à¸ Ķà¸
á»Ĺ i
Ġgu itar
qu est
ç Ĵ
«à¸ķà¸ ¸à¸
Ġperform ing
Ġvis ible
Ġarchitect ure
Ġang le
emp uan
ķà¸ ±à¹īà¸ĩà¸
áĢ Ĥ
ĠÄĳ Ã´ng
Ġsuff icient
æĻ º
Ġç Ħ
Ġex ceed
w orth
Ġe ast
Ġà®® à®Łà¯įà®Ł
Ġw iki
Ġst unning
Ġenh ance
ĠAn ton
¶à¸ ģ
Ġ17 0
Ġà¸ªà¸³à¸« à¸£à¸±à¸ļà¸
Ġle ague
ĠEvery thing
ka it
ĠN avy
à¸Ńà¸²à¸« à¸²à¸£à¸
Ġf akt
Ġb ags
Ġhub ungan
ļà¸ ±à¸įà¸
Ġent ity
L o
ĠW ITH
Ġoper ate
Ġcitiz ens
Ġngh á»ĭ
E A
Ġremov al
Ġknow ing
Ġext ension
Ġprepar ation
???? ????
Ġcabin et
gr is
Ġà®İ à®²à¯įà®²
ĠKab upaten
å¤ ®
Ġturn s
Ġà¹ģà¸ ļà¸
ĠÄĳ Ãłn
S ystem
Ĳ áĢ²áĢ·
Ī à¸Ļà¸
áŀ½ áŀĵ
áĢ¬áĢ¸áĢ Ļ
Ġæ Ĥ
Ġp ener
Ġinfrast ructure
ĠPak istan
ĠFil ter
ĠElect ronic
ĠCert ified
Ġdel ight
áº© y
¶ à¹Īà¸ĩà¹Ģà¸
Ġ] ]
ĠFurther more
Ġis ol
·à¹Ī à¸Ļà¸
«à¸ §à¹Īà¸²à¸
Ġà®ħ à®²à¯įà®²
ain ts
Ġdiffer ences
Ġd iter
_n ame
ĠT ue
Ġ45 7
ĠProt ection
ãĥ ¼
ĠRet rieved
Ġfac ilit
ĳ ng
ĠO cc
amm ad
ĠP df
ĠD ur
Ġh ol
ĠPan el
ĠG ear
Ġad an
ĠTr ue
bur gh
itut ion
ĠGrow th
à¹īà¸²à¸ ¢
ĠPhil ipp
Ħ à¸Ļà¹Ģà¸
Ġfil ms
ĠO s
Ġà¸§à¸´à¹Ģà¸Ħà¸£à¸²à¸°à¸« à¹Įà¸
ent ukan
Ľà¸£à¸ °
Ġberb eda
Ġn ative
ĠP ear
ĠElect ronics
Ġ13 5
ĠB urn
Ġs Ã¢n
Ġorder ed
å¼Ģå¥ĸ ç»ĵæŀľ
à¹īà¸ ¡
id i
ĠD oll
ĠIn nov
ĠG ene
B e
ĠA verage
â ĺ
Ġcom merce
Ġl ingkungan
Ġ... ...
r int
Ľà¸ı à¸´à¸
ĠAr izona
ĠMP 3
ĠJ r
åħ ħ
ol n
ĠOver all
ĠPlay er
è¯ ¥
¥ à¸µà¸ģ
Ġalue b
Ġg ak
ĠTh ailand
Ġ( !
¸à¸ ģ
çķ ¥
ÑĢ Ð°
asc in
Ġaccommod ation
åī ¯
Ġprodu cing
ent er
Ġhealth care
Ġb reath
er h
åħ «
Ġhe ating
æ¥ Ń
à®µ à®¿à®²à¯įà®²à¯Ī
Ġç ¦
lim ited
W R
ach ed
Ľà¸£à¸°à¹Ģà¸łà¸ Ĺà¸
Ġph á»§
Ġà®ħà®µ à®°
Ġcre w
ĠH an
ĠE UR
Ġsurround ing
Ġe uro
b as
U H
Ġpos it
ĠH ub
ä¾ Ŀ
olog ist
F O
Ġtas ks
Ġattr ibut
ĠGu ard
ag am
Ġst ack
Ġ3 35
é¦ Ĩ
re uling
Ġtom orrow
Ġabeuk reuling
Ġ11 9
çłĶ ç©¶
Ġsah aja
Ġdis abled
ĠO leh
Ġ5 th
æŀ ģ
Ġg ig
Ġf iber
ĠAdmin istration
ins on
à®¿à®±à¯įà®ķ à¯ģ
Ĺà¸ ±à¹īà¸ĩ
Ġk un
st ar
ig en
Ġscient ific
Ġt ags
ĠR ain
Ġà® Ĳ
Ġy ards
Ġà®ħ à®³
ĠK ita
Ġtin y
ĠLin ux
12 5
à®© à¯įà®ª
ans as
Ġple ased
Ġd Ãłnh
à®µ à¯Ī
ĠZe aland
ĠP le
Ľà¸£à¸°à¸ Ĭà¸²à¸
AN CE
īà¸ ŀà¸²à¸
ar in
Ġsebelum nya
t ers
Ġph en
Ġphot ography
åİ Ĥ
Ġmain ly
m o
Ġà¸ Ĭà¸¸à¸
Ġkh áº©u
Ġin ject
Ġter ror
emb angan
ograp her
if ies
ay ah
Ġredu ction
Ġconvers ation
8 00
ĠRe lease
Ġà®Ĩà®© à®¾à®²à¯į
Ġh Ã´m
ĠP ump
Ġg á»Ńi
Ġåī į
ĠColumb ia
à®¾à® ªà¯įà®ª
ĠBr ad
Ġam an
åĢ ĭ
ĠAct iv
ect ive
ĠK ec
«à¸±à¸ §
ĠL G
Ġtent u
Ġre ward
áŁĴáŀ Ĳ
Ġnorm ally
ĠK ap
Ġso le
èĩ ´
ra ctions
Ġà®ĩ à®²
Ġlands cape
à®µ à®°à¯į
Ġà¸ «à¸¡à¸
Ġauth ors
Ġng á»§
Ġevery day
ĠBreak fast
Ġaccess ible
Ġ07 45
Ġt issue
¸à¸ ĩà¸
Ġexpl ained
ĠÄĲ Ã¢y
Sh ow
Ĺ à¹Īà¸Ńà¸ĩà¹Ģà¸Ĺà¸µà¹Īà¸
Ġvo id
ĠPlan ning
Ġsupport s
Ġf ib
Ġdis pl
é Į
h ab
ĠP os
ĠBe ing
áŁĴáŀ Ķ
angg ung
ĠS olid
å± ħ
A tt
Ġb ol
«à¸Ļà¸ ¶à¹Īà¸ĩà¸
Ġl áº¡nh
OR S
Ġà¹Ģà¸ ĩà¸´à¸Ļ
æŃ »
L INE
Ġd ual
Ġà®¤ à®°
Ġm olec
ĠB uff
çİ¯ äºļ
Ġà¸ªà¸¡à¸±à¸ Ħà¸£à¸
ĠL aptop
åħ »
Ġc aught
ĠR AM
ĠL es
ĠEm p
Ġt engah
f ra
áĢ¬ áĢ¹áĢ
ç½ĳ ä¸Ĭ
æ´» åĬ¨
ab ang
ĠF C
Ġh ung
Ġmatch es
ĠCh arg
Ġà®µ à¯Īà®¤à¯įà®¤
Ġbi asanya
Ġch iá»ģu
US T
æ© Ł
Ł ©
ĠT S
ĠInd ex
Ġ era
æĿ Ĳ
Ġsuppl ier
Ġnh Ã©
ĠAtt orney
Ġ25 5
Ġhá»ĵ i
ĠCh rome
Ġh áº¯n
ur se
ĠZ h
çĤ º
om ens
Ġblog spot
ab ad
ĠL at
ce h
Ã¨ o
d h
ĠÃ ¬
Ġres idential
Ġcr isis
ĠBl uetooth
l c
" ,
Ġpl anned
áĢģ áĢ²áĢ·
Ġch áº¿t
ĠB ear
ĠA gr
am er
amp uan
Ġal le
ĠD om
ĠSt op
Ġv itamin
ĠH áº£i
ourn ament
¢à¸ ¡à¸
ur us
_ L
§à¸ Ķ
Ġ" /
è¶³ çĲĥ
p en
Ġte x
ĠL if
Ã ŀ
er ang
ĠS weet
ĠD J
ĠM N
Ġgradu ate
ï¿½ï¿½ ï¿½
ĠM C
n ic
ªà¸ ¡à¸²à¸
Ġ. '
al f
Ġprom pt
àºĶ àº
ip er
à¹ģà¸ Ł
ĠC e
N o
ĠáĢ ±
F i
Ã£ n
Ġç Ģ
Ġà®® à®¿à®ķ
Ġparticip ants
Ġimag ine
Ġg an
èĭ ı
Ġ12 2
Ġsuggest ed
Ġà®¨ à®¾à®Ł
Ġ077 90
à¸£à¸°à¸ «à¸§à¹Īà¸²à¸
Ġs uk
Ġ ×
r ag
ĠInst ead
ĠB S
Ġhold s
Ġpick up
Ġho le
Ġ030 14
Ġmill ions
ĠBM W
à¯ģà®ķ à®¿à®©à¯įà®±
Ġ030 25
Ġdest ination
ĠInd ep
à¹ ĭà¸
Ġliter ature
ĠSu ite
ĠAg ency
Ġm ortgage
Ġre action
Ġincre ases
Ġcare fully
Ġb anks
Ġad is
ĠComp et
_ row
Ġs ending
onom i
Ġà®ķ à¯ģà®´
ĠG S
asa an
Ġcrush ing
Ġp od
Ĳ à¸²à¸Ļà¸
Ġexp osure
Ġdom estic
Ġconduct ed
Ġpl ur
ĠB ak
łĢâ łĢâ
Ġà®µà®¿à® ³
Ġreg ions
ĠC ome
Ġd Ã²ng
âĢ¢ âĢ¢
Ġm old
Ġconfig uration
j aya
Ġch annels
Ġqual ified
ed e
ĠE ye
ĠFl at
Æ°á» Ľi
Ġmag azine
Ġpros pect
Ġam enities
Ġst ainless
ŀà¸´à¹Īà¸¡à¹Ģà¸ ķà¸´à¸
Ġcommunic ations
Ġt all
Ġf oto
ĠDel hi
ĠR ail
ain ya
ĠSh ower
un es
ĠI ce
IN D
Ġx anh
Ġind onesia
nes ota
ä¾ Ĩ
Ġká» ĥ
à®Łà¯įà®Ł à¯ģ
é ¸
ID E
Ġclos er
ä¾ ĭ
ov a
Ġæ ¹
à¹Ģà¸ Ĥà¹īà¸²
Ġprogram ming
et ts
Ġr akyat
Ġ à¸£à¸§à¸¡à¸
ĠH S
ĠC os
Ġu á»ĳng
Ġà¸¥ à¸µà¸ģ
Ġwor se
Ġa j
amp ir
Ġse ctions
y ah
Ġå¼ ł
Ġar ts
Ġtell s
Ġ ãĦ
Ðµ Ð½
Ġg ifts
ĠB io
à» į
am atan
Ġu0 e
Ġlist ings
à¹ģà¸£à¸ ģ
Ġg od
éĿ ł
ĠRe fer
Ġeng agement
B l
Ġnews letter
ĠD ual
Ġr ac
Ð¾Ð ²
ĠBr ian
Ġà¸ Ł
Ġ; }.
Ì£ c
Ġshoot ing
Ġk l
ĠS AT
ĠÄĳo áº¡n
Ġmeng ikut
Ġtable t
Ġse ats
ob s
Ġà¸ Ŀ
ĠR ange
ĠRem ember
ĠB rowse
ĠâĢ¦ âĢ¦
iv a
i at
ĠT ouch
ĠR ug
ese orang
Ġberl aku
Ġestim ated
Ġ à¹ĥà¸«à¹ī
ĠM oon
Ġwrit ers
ch o
Ġreport ing
Ġread er
¸à¸ĩà¹Ģà¸ Ĺà¸
Ġstay ed
Ġs id
eth yl
Ġseg ment
â Ī
Ġke giatan
Ġk esehatan
Ġequ ival
Ġcert ified
Ġinsp iration
çĶµ åŃĲ
v ro
Ġus ual
H ome
O ut
Ġnot iced
à¸Ļ à¹Īà¸²à¸
Ġg ate
Ġch ip
ĠâĢĻ .
Ġh p
in y
Ġ25 61
C al
Ġn Ãłng
à®Ļà¯įà®ķà®³ à¯Ī
Ġsw imming
Ġfrequ ently
Ġcons ists
å¤ ±
et ary
Ġà®ļ à¯ĩà®°
ĠGr ade
d ate
ĠV N
ĠÄĳ au
ĠY amaha
Ġconst ant
Ġbr ush
Ġgur u
çļĦ ä¸Ģ
ris es
à®® à¯ģà®®à¯į
ĠC orn
b ell
å·² ç»ı
ªà¸¸à¸ Ĥà¸
Ġf ro
ific ial
å¯ Į
ĠáĢ »áĢķ
ĠPhot ography
r ation
ĠAm azing
Ġnew sp
ĠAm b
ĠG P
à¹Ħà¸ «à¸Ļà¸
Ġmatt ers
Ĥà¸Ńà¸ĩ à¹Ģà¸
åħ µ
h one
A s
ĠAm p
ra q
Ġless ons
Ġà¹ģà¸ ¥à¸°à¹Ģà¸
Î ¿
Ġform al
Ġappe al
Ġsuppl iers
åº ķ
Ġpar se
ĠâĢ İ
Ġmult ip
Ġà¸ĸ à¸Ńà¸Ļ
et ics
Ġp our
Ġce iling
Īà¸²à¸ ģà¹Ģà¸
ul i
Ġg aming
bl og
æĹħ æ¸¸
U RE
ow a
Ġher o
ĠEnvironment al
D is
Ġ11 6
Ġà®ı à®±à¯įà®ª
áĢ¸ áĢĢ
ķà¸ ³
ĠD NA
Ġm ad
ĠSu ch
å¾ Ģ
ok en
ĠB ra
¡ áŁ
Ġstruct ures
Ġfor th
ĠT ab
Ĥà¹īà¸Ńà¸¡à¸¹à¸ ¥à¸
Ġsh r
Ġal ter
ĠJ ess
ĠQuest ion
Ć ĆĈ
ed ar
Ġph ones
Ġath let
ĠT i
u w
fri end
Ġdep endent
Ħà¸ ·à¸Ńà¸
ol o
Ġà®ª à¯ģà®¤
Ħ à¸²à¸
Ġ Æ°u
Ġpres ents
Ġn an
ĠEliz abeth
Ġadv is
Ġper gi
ĠD er
ew an
pro duct
ĠT Ã¢y
Ġ0770 3
ER Y
for c
fa ction
Ġth áº¯ng
Ġcomm ission
åĲ ĥ
ĠCanc er
Ġdraw ing
ĠBe h
e z
ĠN ic
te xt
Ġrg ba
Ġth iá»ĩn
ak ang
ĠRec omm
à¥į à¤
ĠF ive
Ġg ard
Ġexpect ations
ĠSp a
Ġcloth es
M y
ľ à¸´à¸Ķà¸
ĠAw esome
à¹Ģ à¸Ńà¸²à¸
ĠS in
ĠS Y
ĠB uck
Ġplur ality
E G
§à¸ ¥à¸²à¸
à¹ģà¸ķ à¹Īà¸ĩà¸
Ġdes ktop
áŁĴáŀļáŀ¼ áŀľ
æ± ī
Ġt au
ĠG el
Ġrespect ively
Ġur ban
Ġfre edom
ain e
Ġt áº§ng
ĠHar ris
Ĥà¹īà¸Ńà¸¡à¸¹à¸ ¥
æī ¾
vro let
à®¨à¯įà®¤ à¯ģ
m 2
ĠW ish
Ġbl ank
å¤§ å°ı
Ġpr w_
Ġm ong
k as
à¯įà®¨à¯įà®¤ à¯ģ
T ext
b ec
O H
ĠPict ure
i ot
ĠA U
og g
Ġdiscuss ed
à¹Īà¸ĩà¸ Ĥà¸
à¹Ģà¸£à¸´ à¹Īà¸¡à¸
le e
Ġi OS
ĠO kt
áĢ±áĢ¬ áĢº
áŀ¼ áŀĽ
ĺ à¸£à¸£à¸¡
Ġch airs
Ġsur prise
áĢ¯ áĢķáĢº
ak h
¹ à¹ī
ĠTh Ã´ng
Ġass et
Ġagre ed
Ġregul ations
è ĸ
A J
Ġé ¢
ĠDe ep
r ian
Ġaccord ance
ĠáŀĢ áŁĴáŀĵáŀ»áŀĦ
ĠÄĳ Ã´i
ek a
ĠM AN
ĠL y
äºº åĳĺ
u um
Ġå¿ «
ĠE ric
Ġcolle ges
00 1
Ġg er
à¸£à¸±à¸ģà¸© à¸²à¸
Ġm aps
Ġà®ķ à®µ
áĢ¬ áĢĽ
Ġsav ings
" )
à¯ģà® Ļà¯įà®ķ
Ã ·
æĤ ¨
ĠArt icles
ķà¸ ¥à¸²à¸
ĠÃŃ ch
ĠTra il
Ġbe er
Ġçº¿ ä¸Ĭ
Ġ" },"
in cess
T e
ĠLov ely
± à¹Īà¸Ļ
Ġmer asa
Ġà¹ģà¸ ªà¸Ķà¸
Ġgiá» ĳng
Ġà¹Ģà¸ ķ
Ġpublic ation
Ġmass ive
Ġfol ks
Ġ11 7
ĠDie go
Ġcl imb
ĠC ivil
ç§ĳ æĬĢ
æĻ ļ
à¹Ħà¸ Ĥ
ª à¸²à¸£
Ġent h
ĠP it
ļà¸Ńà¸¥à¸ ªà¸Ķ
m at
ĠB N
ãĢ Ĭ
Ġte eth
Ġ11 3
iction ary
ĠMed ium
ć ć
ĠæĽ ´
Ġp anjang
ĠIn form
ĠB ab
Ġrefer red
Ġk am
Ġse gala
Ġv intage
Ġatm osphere
Ġmo ist
Ġ" },{"
Ġpas ar
æĥ ł
Ġregular ly
ĠAp artment
Ġlif estyle
Ġv á»ĳn
Ġbl ocks
ĠP iece
Ġke adaan
Ġ3 000
ert y
ĠT on
ĠS ydney
ap ak
Ġsup erv
à¹Ģà¸ ļ
æľ ¨
Ġinvest igation
ĠCh el
ĠPro ble
à¹Ģà¸ķ à¸Ńà¸£à¹Į
Ġnh á»Ľ
w all
áŀ¶áŀ ĩ
« ng
ent i
Ġà¹ģ à¸Ńà¸
Ĺ à¸Ńà¸ĩ
ac o
ĠL iter
ĠG uy
Ġtr Ã²
Ġpass ing
Ġ à¸£à¸±à¸ļ
Ġl ol
çĶŁ æ´»
en z
Ġt iba
ata an
Ġà®®à¯ĩ à®²
inc oln
ĠR T
Ġting gal
Ġhistor ic
ert o
13 0
Ġgrow n
éĩ ĩ
OM E
Ħà¸´à¸ Ķà¸
à¸Ļà¸µ à¹Ī
emat ics
Ħà¸£à¸ ±à¹īà¸ĩà¸
L D
Ġst ands
Ġx Ã©t
Ġbet ting
Ġinf ect
Ġh d
p age
az e
Ġs udden
Ġman aging
Ġe book
Ġb ars
Ġappoint ment
ott age
Ġph Ãºt
alah an
Ġm ouse
æĸ Ń
Ġf vgr
Ġth orough
à¸£à¸²à¸ĩà¸ §à¸±à¸
¥à¸ Ķà¸
Ġs áº»
åĲĪ ä½ľ
ĠCh annel
Ġsh ut
Ġkat anya
Ġw arn
Ġl ao
Ġcl ar
AC H
Ġresult ing
Ġ') )
à¹Ħà¸Ķ à¹īà¸Ńà¸¢
à¯Īà® ®
s l
aw as
çĽ Ĭ
Ġ3 d
Ġre form
Ġbr idge
ĠB in
âĢ Į
ĠT amil
à¹Ĥà¸ Ĺà¸£à¸
Ġshap ed
Ġcho osing
å ĺ
Ġhor se
Ġc otton
Ġph Ã©p
Ġcont oh
¸à¸ Ķà¸
Ġpropos al
ĠM M
ĠTh Ã¡i
e ast
In fo
f ig
ĠÃ ª
r ia
Ġm Ã´n
Ġle l
ĠJ ay
ª à¸Ńà¸ļ
ĠL ady
æıĲ çİ°
Ġt ro
æ² ¹
ģ áĢ²áĢ·
Ġch áº¡y
ĠMat th
Cont ent
m ad
ĠV irt
Ľà¸£à¸° à¹Ĥà¸¢à¸
à¯Īà®ķà¯įà®ķ à¯ģ
à¹Ģ à¸Ļà¸µà¸
Ġag es
Ġspirit ual
ac on
Ġgener ic
ik s
ģà¹Ī à¸Ńà¸Ļ
ĠMaj or
Ġà¸£ à¸Ńà¸ĩ
Ġrecogn ized
reg on
// //
ik al
Ġtele phone
Ġfore cast
Ġäº Ķ
à®µ à®°à¯įà®ķà®³
r r
Ġs ink
u z
E vent
Ġmar riage
Ġt uyáº¿n
Ġrespect ive
Ġtransport ation
Ġprot ocol
Ġf ishing
ÃĦ Ãª
ĵà¸ °
äº «
ľà¸´à¸ §à¸
Ġconst antly
Īà¸±à¸ Ķ
u ct
à®Ł à¯įà®ļ
Ġg ene
Ġag encies
Ġdib er
IGH T
Ġpr icing
ĠL ights
åĿ Ľ
Ġind ia
¡à¸µà¸ Ħà¸§à¸²à¸¡à¸
t es
çľ ¼
Ġwood en
à¯Ĭ à®°
ĠW ine
å¤© æ°Ķ
Ġparticip ate
Ġwin ner
à®ļ à¯į
Ġmeny ebabkan
ing ly
Ġà¹Ģà¸ Ľà¹ĩà¸Ļ
Ġà®ħà®µ à®°à¯įà®ķà®³
ĠSp rings
Ľà¸£à¸°à¸ ģ
ĠkÃ© o
æ£ Ģ
88 5
å¸ Ń
Ġo m
Ġg ag
Ġcont est
à®® à¯įà®®
Ġtá» ĭ
Ġt ack
ĠSa at
Ġp ekerja
æ» ļ
Ġres erved
ĠT as
áĢ±áĢĲáĢ¬ áĢ·
ced es
Ġà¹Ģà¸ Ķ
ĠSchool s
ĠMon itor
R em
ĠX P
Ġcomp rises
k k
Ġ, ...
Ġwar ranty
hold ers
10 1
ĠGar age
å¿ µ
Ġsp aces
Ġimpress ive
ĠDisc ount
Ġ03 7
Ġk ualitas
Ġsub sequ
unt ungan
D ate
re ets
Ġ7 20
ç ĵ
H D
Ġup coming
ĠC elebr
ign ment
éľĢ è¦ģ
Ġb Æ°á»Ľc
«à¸¡à¸²à¸ °à¸
ad elph
ĠDoc ument
åŃ ©
Ġas ide
áŀ» áŀĵ
ĠRel ations
Ġsh arp
Ã ¾
Ġcontrol ler
ĠS EC
Ġå¤§åıĳ æĹ¶æĹ¶å½©
ig s
Ġhand lers
Ġer rors
Ġcurr ency
ĠDe ath
Ġc ache
Ġsp acious
Ġauthor ity
ą ï¼Į
Ġlov es
O ff
Ġturn ing
Ġentire ly
Ġseb enarnya
Ġs ized
Ġ19 0
ain kan
Ġg ent
á»ĭ p
Ġáŀ Ĺ
Ġtuj uan
Ġn ag
ĠT T
ĠPract ice
åĵ į
Ġrec ipes
ĠBer ita
æĺ ¾
un c
ul ai
Ġà®ī à®±
éĿ ©
Ġà¸ģ à¸£à¸°à¸
Ġs is
¡à¸²à¸ ĵ
_ W
Ġbel ief
amp ton
Ġà®ħ à®ªà¯įà®ª
Ġb io
l ict
ĠMr s
ä¸į æĺ¯
Ġà®® à®¾à®¤
Ġarg ument
à¸Ńà¸ĩà¸ Ħà¹Įà¸
Ġg ad
ĠS ir
Ġstat istics
Ġ3 33
I J
ĠBar u
ĠU B
Ġrelig ious
¡à¸µà¸ ģà¸²à¸£à¸
ĠÃ ľ
Ġmen unjukkan
ĠT ek
Ġï ¸ı
ĠY et
umb ing
ĠOF F
ĠF ish
Ġout let
èĻ İ
à¹Ĥà¸Ńà¸ ģà¸²à¸
Ġter akhir
ĠH im
st and
ĸà¸ ·à¸Ńà¸
{ {
C olor
ĠSe at
ibr aries
ut en
it als
ĠMov ies
ĠE gypt
am ed
ter y
Ġbib fra
ĠOff icer
Ġearn ed
Ġadd s
Ġà®¤ à¯ĭ
ĠD allas
Ġtrail er
ĠB onus
Ġtrans action
ĠOb ject
Ġcirc le
Ġn áº±m
Ġl an
Ġáģ Ĥ
Ġconsist ent
è®¾ è®¡
çº ª
ĠHen ry
ĠV Ã¬
äºļ æ´²
sc reen
adelph ia
Ġà¸ªà¸ ĸ
Ġdec ades
in vo
Ġreve aled
è´ Ł
Ġfor ced
à¹ĩà¸ ķ
ĠRoom s
Ġgraph ics
éĩį è¦ģ
ĠItem s
ĠT ai
à®² à®¿à®²à¯į
v ar
l ace
Ġfound ation
Ġt um
Ġs ight
Ġà®ī à®¯
Ġsp ray
Ġperson ally
åŁİ å¸Ĥ
Ġant ib
Ġ19 87
áĤı áĢŃáĢ¯áĢĦáĢ¹áĢ
ur un
res ent
Ġw66 åĪ©æĿ¥
Ġp ocket
Ġc yl
A X
Ġb Ã¡c
Ġadvent ure
áĢĨ áĢŃáĢ¯
Ġtid ur
Ġh older
¨à¸ ¹à¸Ļà¸
ors es
Ġrel ief
Ġè Ĥ
åľ Ł
¢ à¸²
æ¶ ĵ
Ġcru cial
ĠSuppl ies
ant ity
ĠW ire
ark able
b ow
ok ep
Ľ à¸µà¸
Ġdef ine
Ġà®ļ à®¨à¯įà®¤
Ġn arrow
Ġà¸§à¸´à¹Ģà¸Ħà¸£à¸²à¸°à¸« à¹Į
ĠÄĳá» į
Ġsched uled
Ġcl othing
h igh
ĠBr idge
åĸ ľ
Ġfig ures
s ur
åŃ ¸
Ľ à¸´à¸Ķà¸
Ġà¸ªà¸¹à¸ ķà¸£
Ġguid ance
Ġd ont
ĠTor onto
Ġn aik
¸ à¹īà¸¡à¸
ĠRec ent
ord inary
Ġjaw ab
Ġj un
à¹Ģà¸Ļà¸ ´à¸Ļà¸
Ġmom ents
Ġcig are
à¸£à¸§à¸ ¡
§ à¸´
ĠE astern
Ĥà¸ ±à¹īà¸Ļà¸
è± ¡
çļĦ äºº
Ġgr ay
Ġev ol
Ġsitu ations
achus etts
Ġrepl aced
Ġcont ained
ĠðŁĻ Ĥ
Ġre act
ĠWind ow
áĢŀ áĢĬáĢº
ul ating
Ġcr ime
Ġcollect ed
ĠBr on
Ġmengh asilkan
Ġwe alth
10 2
åĵģ çīĮ
up s
ap y
å± Ĥ
Ġà¸§à¸´à¸ĺ à¸µà¸
Ġs eseorang
ĠPat io
Ġent ered
S cript
åŃ £
ÌĢ ng
Ġvis ited
ĠFil ed
Ĭ áŁĴáŀĭ
Ġtr áº¯ng
ĠTr Æ°á»Ŀng
Ġåİ Ł
u ari
Ġo ven
Ġh indi
ì Ŀ
g ment
ĠIN D
Ġtu áº§n
ĠB 8
ĳâĸĳâĸ ĳâĸĳâĸ
ç¬¬ ä¸Ģ
à®Ļà¯įà®ķà®³ à®¿à®²à¯į
Ġint el
Ġserv es
Ġp s
_ st
Ġbel t
à¹ĥà¸Ļà¸ ģà¸²à¸£
Ġé¦ ĸ
Ġcoup on
à®µ à®°à¯įà®ķà®³à¯į
Ġc á»Ļng
Ġbott le
wh ile
ĠPl astic
Ġà®ķ à®¿à®Ł
åį «
ĠL ane
ens us
æ ¤
Ġacc omp
D C
åİĨ åı²
un n
ĠG re
Ĺà¸ ĩ
Ġ") ,
Ġfl ights
à¸²à¸ªà¸´ à¹Ĥà¸Ļà¸
Ġde lete
Ġm Ã¹a
Ġ2 12
æł ¸
ĠSe attle
Ġt elling
w at
Re f
Ġtr ained
Ġdisplay ed
áĢŀ áĢ°
ĠR F
Ġgr an
ĠC rit
ĠGet ting
é¦ĸ é¡µ
p al
Ġcomm ittee
Ġtr ick
Ġsequ ence
P K
Ġport folio
Ġinform ed
ĠDe g
Ġk au
åį ĥ
ĠSc iences
à®¿à®¯ à®¿à®©à¯į
r ate
ir kan
ical s
ĠD AN
Ġà®ª à¯ĩà®ļ
Ġident ity
æ» ¡
ĠMe i
ĠComp anies
î Ģ
Ġsup aya
ķ à¸µ
ĠH it
Ġy ield
Ġcer ita
ĠId ent
k l
o id
Ġ17 5
Ġcircumst ances
çĹ ħ
ĠSu ccess
em atic
Ġp ip
Ġpubl ish
forc ement
ĠB enef
j un
à¯Ĥ à®°
ĴâĸĴâĸ ĴâĸĴâĸ
1 000
å¥ ¹
à¹ĥà¸«à¸į à¹Īà¸
r ent
ĠE ag
ock ey
Ġè Ĭ
Ġw itness
à¸£à¸±à¸ ģ
m es
Ġth iáº¿u
å¦Ĥ ä½ķ
Ķà¸ ·à¸Ńà¸Ļ
elas kan
" ;
Ġth Æ¡
Ġevalu ation
ĠAn im
u u
icon ductor
Ġal am
ĠãĢı ãĢİ
Ġcapt ure
ĠJust ice
æŃ ¦
³à¸Ļà¸ ±à¸ģà¸
Ġad ang
ĠD ue
Ġ. $
à®¿à®¯ à¯ĩ
Ġd asar
IN S
ĠWh olesale
ĠáŀĽ áŁĦáŀĢ
à¹Ģà¸ ĩà¸´à¸Ļà¸
Ġà¸ªà¸²à¸ ¡à¸²à¸£à¸
« à¸²à¸£à¸
Ġn ursing
Ġcharacter istics
Ġv Ã²ng
Ġemploy ed
ĠCry stal
Ġweek ly
Ġà®ĩ à®±
Ġà¹ģà¸ «
Ġ(' .
ŀà¸ ¥
ĨáŁĴáŀĵ áŀ¶áŁĨ
Ġvict ory
Ġsu ite
Ġ0 x
áĢ¼ áĢ¬áĢ¸áĢ
ĠV illa
·à¹Ī à¸Ńà¸Ļà¸
ĠAust in
Ġk ot
Ġhand ling
ĠV ideos
ab oration
ĠKe vin
ĠJ ordan
Ġs ick
ï¼ Ī
ip un
Ġfair ly
ĠFit ness
Ġà®ªà¯ĭ à®²
ou red
U AL
Ġb old
ĠProfess or
Ġ12 7
ĠWW W
r ad
æĹ©é¤Ĳ åĬłçĽŁ
áŀ» áŁĨ
Ġmagn etic
Ġç Ĳ
Ġt aught
Ġ/ ?
Ġs ar
ĠK l
ĠRe venue
æĸ Ĺ
ON E
à¹ĥà¸ ļà¸
Ġngo áº¡i
Ġdoll ar
ĠSup ply
ĠBirth day
å² Ľ
à¹ĩ à¸Ļà¸
Ġb umi
I á»
Ġtrad ition
Ġram ai
ĠP ath
Ġmount ed
ç» ĩ
Ġenter prise
ang le
Ġwe aring
äºĨ ä¸Ģ
iá» ħ
Ġconcer ning
14 0
ab is
Ġn as
Ġgraph ic
Ġfoot er
Ġenth usi
Ġber g
åĪĨ æĹ¶æĹ¶å½©
Ġspecial ist
Ġp agi
sh ire
Ġhapp ening
ĠB Ã¡n
Ġcon vey
ag raph
Ġb one
ĠÄĲ á»ĭ
Ġj uta
Ġaw areness
ĠC oc
Ġcoll abor
Ġar ms
Ġapp end
¸ à¹Īà¸Ļà¸
Ġåĩ º
ĠTr áº§n
ĠE lement
è Ĵ
Ľ à¹ĭ
Ġ16 8
10 5
Ġsm ile
ĠAg ent
Ġà¸ §à¸´à¸
Ġvers ions
Ġsch eme
it able
àº² àºĻ
ĠSw ed
ul asi
or gan
Ġà¸ §à¸±à¸
Ġeng lish
à» ģàº
Þ§ Þ
Ġtr Ã¡i
ĠEar ly
Rep ly
n or
åģ ¥
B L
Ġà¸ §à¸±à¸Ļà¸Ĺà¸µà¹Ī
Ġch á»¯a
Ã Ŀ
st ers
ĠMeet ing
Ġvari able
Ġåħ ³
ĠR og
aks anakan
Ġwor st
Ġsal ary
Ġdanger ous
« à¹īà¸Ńà¸ĩ
ĠCath olic
Ġdirect ed
Ġfr ag
OC K
Ġmener ima
Ġprocess or
ĠP ed
ĠU P
IN T
ĠL atin
Ġorigin ally
ĠOpt ion
ĠMem ory
¸à¸ ĩ
g ency
Ġprior ity
Ġin her
à¯Īà®¯ à®¾à®ķ
Ġmemb awa
on na
åį °
emp atan
ĠPack age
Ġà¸ ķà¸±à¸§
Ġn á»ģn
ĠF uture
ĠPres ent
ok ia
et ry
E V
à¸£à¸°à¸ Ķà¸±à¸ļà¸
ĠK ansas
Ġpercent age
Ġl osing
ĠSK U
Ġk ÃŃch
man n
ĠC OL
à¸Ļà¸ Ķà¹Į
Ro oms
ac i
è® ²
Ĥ à¹īà¸Ńà¹Ģà¸
F orm
ĠRem ov
ĠÐ ¸
ĠMen urut
Ġun able
Ġh Ã²a
ĠB or
ĠSp ons
as ih
Ġchalleng ing
ĠÄĳá»© ng
Ġà®® à®±
Ġæı Ĳ
Ġstat ements
Ġmod er
ĠReg ional
ĠDon ald
åĪ Ŀ
Public ation
Ġh Ãºt
Ġakhir nya
ĠTh á»©
Ġmag ic
à¹Ħà¸Ķà¹īà¹Ģà¸ ĩà¸´à¸Ļà¸Īà¸£à¸´à¸ĩ
¡à¸²à¸ģà¸ ¡à¸²à¸
Ġsup plement
ĠHar ry
t ons
S ave
ĠAtl anta
P age
ĠCorpor ate
Ġbuh ok
c over
ĠTr uck
ĠR ot
ĠMin nesota
ĠGr an
ĠåĮĹäº¬ èµĽè½¦
Ġshe ets
Ġà®ļ à®°
imp in
Ø§ Ø
Ġl amp
Ġtal ent
ĠPh Ãº
Ġà¸Īà¸ ³à¸
Ġab ang
ĠT ER
å± ŀ
Ġrecommend ations
Ġatt acks
Se lect
Ġab use
ĠTh ai
à®¿à®°à¯ģà®¨à¯įà®¤ à¯ģ
ill er
à® ľ
ĠT un
ĠH ur
l ong
Ġinst ruction
cript ions
Ġef ek
Ġ22 2
ĠB Ãłi
ec ks
Ġimpro ving
R A
Ġplan e
Ġc rop
ĠTh erm
i wa
Ġà®İà®© à¯į
C o
ĠÃ °
å¯ Ł
Ġç¥ ŀ
Ġà®Ĩ à®°
à¹īà¸Ļà¹Ģà¸ ¥à¸·à¸Ńà¸Ķà¸
ĠList ing
ap olis
Ġè Ļ
à¸£à¸°à¸ ¢à¸
AS H
Ġstrateg ic
ĠÂ¡Â ¢
Ġinst ruct
ĠN one
Ġal gorith
Ł à¹īà¸²
ĠJ oh
Ġph Ã¡
Ġ ikut
ĠAg re
ĠAng el
ĠTreat ment
bour ne
Ġpolit ics
Ġfor d
Ñ ĩ
Ġconf irmed
ut ama
Ġk amar
ĠS ew
à °
Ch ild
Ġpers ons
Ġç Ĥ
łà¸±à¸ ¢
Ġbre ast
ĠCl ark
Ġorgan ized
Ġà¸ŀà¸Ļà¸ ±à¸Ļà¸
ĠR ah
Ġcert ificate
Ġant icip
Ġ à»Ģàº
Ġc v
ĠResp ons
è¾ ĥ
à¹ģà¸£à¸ ĩ
à®¿à®ķà¯įà®ķ à¯ģ
à¸Ļà¸²à¸ ¢à¸
ow een
Ġà¹ģà¸Īà¸ ģà¹Ģà¸Ħà¸£à¸Ķà¸´à¸ķà¸Łà¸£à¸µ
Ġmeet ings
Ġfor ums
Ġ15 58
w as
æī ¿
Ġkho áº£n
Ġinnov ation
ĠAd just
ĠMag ic
Ġappro val
ut o
Ġdescrib e
Ġbid ang
Ġren ov
à¸´à¸ ¥à¸
Ġ19 70
ol k
quir y
achel or
Ġé© ¬
Ġv ul
Ġinstitut ions
à¹Ħà¸ ¥à¸
Ġl agu
Ļ à¯įà®ķà®³à¯į
Ġc razy
ĠUn fortunately
ĠMad rid
åª Ĵ
à¯ĩ à®¯
ĠMar vel
ĠC otton
ĠP ic
äº Ĵ
Ġoff ices
Ġå» º
Ġsurpr ised
Ġexp enses
ĠM Ã¡y
ut up
ar u
Ġhop ing
ļà¸Ļà¸±à¸ ª
Ġ. (
Ķà¸²à¸§ à¸Ļà¹Į
Ġs essions
¥ à¹Īà¸²à¸ªà¸¸à¸Ķ
on ia
æĸ¹ éĿ¢
áĢĲ áĢļáĢº
al ik
Ġ2 60
ou st
Ä ±
ism atch
Ġris ks
ĠÄĳá»į c
b ul
ĠFR OM
Ġà¹Ģà¸ §à¸¥à¸²
Ġtr á»Ŀi
ĠNgo Ãłi
ĠUn ique
ĠNot es
Ġcrit ic
Ġapply ing
ĠOx ford
Ġsol ve
ģ m
à¯įà®ļ à¯įà®ļ
ĠL en
n t
Ġres ort
Ġch á»ĵng
ĠSt ream
Ġ25 60
Ġhead line
Ġc ycl
ĠO d
Ġval ve
è¡ Ģ
áŀ¶áŀĵ áŁĭ
ul ang
ĠH il
Ġ19 86
oen ix
g s
Ġmin im
æķ ħ
Ġå± ±
M ethod
FOR M
Ġcrit eria
Ġ] )
Ġsc rew
Ġearn ings
ĠDes pite
´ à¸Ļà¹Ģà¸
Ġsu áº¥t
áĢ¾ áĢŃ
Ġdep ends
Ġcall er
at oes
Ġview ed
Ġg orgeous
Ġcook ie
Ġsuggest ions
Ġ ille
m ith
ĠUnc ategorized
ĠS alah
Ġà¹Ģà¸§à¹ĩà¸ļà¸ ŀà¸Ļà¸±à¸Ļà¸ļà¸Ńà¸¥
ĠShe et
Ġun known
Ġneg oti
Ġng uy
Ġmen emukan
ĠWord s
áĢĬáĢ¹áĢ ·
è¿ İ
Ġà®®à¯ģà®© à¯įà®©
Ġtal ks
ĠTr i
ĠR aj
Ġt uyá»ĩt
ĠB 2
Ġ12 6
$( "
Ġext end
v at
IC S
t ml
n ie
à¹ģà¸Ļà¸ §à¸
Ġdump ster
Ġtan ah
ĠB áº£n
ĠAddition al
Ġind eed
à¹ģà¸ªà¸Ķà¸ ĩà¸
à¹Ģà¸ ĩà¸´à¸Ļ
Î ½
Ġmaint ained
§ à¹Į
r ip
ķ é±¼
Ġto ilet
åį Ĭ
ĠâĢ ŀ
Ġun g
ĠDiscuss ion
ģà¹Ī à¸Ńà¸Ļà¸
Ġse ed
Ġrec all
à¹ģà¸ ¥à¸
Ġv ast
Ġpng rt
om o
ace ut
à¹Ģà¸ ¢
ĠAp ps
AB LE
Ġpr inter
Ġanim ation
Ĵ áŁĴáŀľ
atter ies
Ġkh Ã³a
Ġposs ibility
è§ ī
ane ous
Ġobs erv
ĠT M
Ġt emplates
ĠF ly
ĠB agi
Ġsuper ior
áº ¤
Ġà®ªà¯Ĩ à®°
Ġu 00
à®¿à®¯ à®²à¯į
Ġs umber
å¯ Ĩ
áĢħ áĢ¹
ov o
Ġg ap
ĠÄĳÃ³ ng
âĢĶ âĢĶ
ªà¹Īà¸§ à¸Ļ
lect ual
ĠR ank
ä¹ Ŀ
ĠBes ides
Ù ĳ
Ġconf lict
ĠE c
áĢľ áĢ¬
Ġg all
ĠÃĶ ng
Ġarrang ed
ĠE t
ķà¹īà¸Ńà¸ĩà¸ ģà¸²à¸£à¸
ĠD IS
Ġqu áºŃn
ĠIng gris
Ġprincip les
Ġ6 50
çĶ °
Ġ14 9
Ġfacet Value
Ġf ungsi
Ġde aling
Ġvá» £
ĠI raq
Ġmov es
ĠW a
ĠBet ter
r s
à®Ł à¯į
Ġne geri
Ġd ad
¢à¸ ĩ
Ġb ug
ķ à¸Ńà¸Ļ
ch em
Ġf irms
r ah
Ġd ll
Ġph á»ĳi
Ġparam eters
Ġcolor ing
åį ³
Ġsp ark
Ġr ush
Ġto y
Ġcar pet
ĠSch ed
Ġdivers e
Ġoff icers
Ġadd Class
ĠM ask
Ġult imate
è¡ Ĺ
æ´ ¥
x ic
Ġop ens
Ġl ake
ĠL ength
row ave
Ġv in
ĠIN TER
ĠB BC
Ġbl uetooth
ascin ating
Ġph r
Ġ$(" .
Ġv áº»
Ġ" }
Ġin k
Ġme als
ĠMill er
ĠLic ense
ĠL ands
ĠÄĳ Ã¡p
Ġip hone
UL L
Ġcomp osition
Ġè® ©
Ġdr am
ĠLiver pool
et an
Ġ2 px
ĠB asket
atur ally
ĠM ens
M essage
Ġany way
O X
BO OK
Ġa ja
ĠS ri
Ġp ra
ĠD ES
ov es
Ġ ĆĈ
am ah
ĠW is
à®ķ à®°
Ġseb ag
am ental
Ġth er
Ġoppos ite
à®Ł à¯ģà®ķà¯įà®ķ
Ġrequ ests
äº ²
à¹ģà¸ Īà¸
um si
ĠS arah
Īà¸ ±à¸ĩà¸«à¸§à¸±à¸
Ġbet ul
Ġkep ut
ĠLe on
Ġpurch asing
ĠOr ang
ter i
aka ian
áŀ ¡
il st
Ġm ob
Ġr f
Ġdep loy
ĠI A
Ġà®ªà®¾à®° à¯įà®¤à¯įà®¤
ĠH art
IC K
ĠL Ãª
p i
ĠãĢ į
ĠVict oria
ĠB ey
ot te
Ġsc ored
Ġt one
ĠCons ider
us en
ĠR oss
ĠCh Æ°Æ¡ng
à¯Īà®ļ à¯į
ult ural
Ġb aju
Ġag ama
ent ar
Ľà¸¥ à¸Ńà¸Ķà¸
Ġm Ã³n
Ġre ject
Ġspec ified
ĠOn t
Ġperj alanan
Ġmark ed
à¸£ à¸Ńà¸ĩ
Ġæ· ±
áĢŃáĢ¯ áĢĦáĢ¹áĢ¸
Ġre k
ĠCh Ãºng
ĠHol y
ä¹ ħ
ĠáĢĴ áĢ®
Ġç ĳ
ļ à¸£à¸´
ang ers
Ġper c
Ġke ys
Ġg ol
th a
amp ilan
Ġconsum ption
Ġso il
Ġå¸ Ĥ
Ġemot ional
G P
Ġwid ely
Ġplatform s
«à¸ §
Ġbi aya
Ġæµ ľ
ĠJew ish
Ġindep end
ĠK u
r im
ĠM erc
Ġdr ain
ĠDo ctor
og ja
Ġach ieved
Ġflo oring
æĮ ī
ĠPort able
Ġk aki
ķà¸ ģ
Ġç Ī
ĠL iÃªn
ä½¿ çĶ¨
Ġann ounc
å¥ ĩ
Ĺ à¸£à¸±à¸
Ġà¸ ĺ
ĠOrigin ally
ĠA udi
Ġpower ed
ĠV ent
ĠP AS
à¸Ńà¸¢à¹Īà¸²à¸ ĩà¹Ģà¸
Ġaccount ing
Ġcor re
Ġc in
ĠR ES
áŁ ı
Ġmeng etahui
æĥħ åĨµ
à¹ĩà¸ ĩ
ĠH op
Ġad anya
Ľà¸¥à¸µà¹Īà¸ ¢à¸Ļ
Ķà¸ ±à¸ĩà¸
Ġà®¤ à¯ĩà®°
ĠÐ ¾
W h
Ġpen uh
à¯ģà®¤ à¯į
é Ń
à®ªà¯įà®ªà®Ł à®¿
Ľà¸£à¸°à¹Ĥà¸¢à¸ Ĭ
ä»ĸ ä»¬
ŀà¸ ļà¸
ĠB ru
Ġac know
Ġmun cul
Ġro se
In t
Ġconsider ation
ĠC ow
æ³ ¢
Ġtrad em
ail ed
Ġ} ,"
_c ont
Ġcheck ing
Ġt amb
OW N
Ġbow l
Ġé £
Ġngh iÃªn
Ġmechan ism
ĠSt ories
Ġk ay
b d
ĴáŁĴáŀľ áŀ¾
Ġobs erved
ĠC ov
Ġrequire ment
ĠFollow ing
in j
ªà¸ ·à¹īà¸Ńà¸
le tt
áŁģ áŀī
Ġch áº³ng
Ġà®® à®¤
em es
Ġç» ı
ak nya
ļà¸¸ à¸£à¸µ
P E
Ġwas hing
Ãº a
ĠM ic
ĠB A
xi ety
Ġkhá»ı i
ĠU V
ĠM essage
M eta
, ãĢĲ
Ġc uma
ĠYou th
ĠBe gin
ĠStep hen
ĠÃ Ľ
à¸£à¸ °
à¯įà®¸ à¯į
Ġus age
Ġ... ....
Ġequival ent
Ġr ice
ĠR oy
ĠH Ãłn
Ġr ig
ĠR ad
Ġsubject s
Ġexp ansion
ĠMass achusetts
Ġp int
ĠTop ic
ĠSp ot
v et
Ġà¹Ģà¸ ĭ
Ġanc ient
Ġacc eler
ĠR ap
ĠMin ing
Ġaddress es
ĠV Ãł
Ġg rey
à®² à®®à¯į
ķà¸ °à¸
ĠRo of
ĠMe chan
ĠCol lect
Ġ8 50
AT ED
ĠKet ua
ļà¸ ±à¸Ļà¸
Ġcreat es
à¸Ļà¸ ´
Ġconf ident
Ġp ukul
ĠD M
Ġap akah
Ġwar ning
Ġrec on
éĻ į
¨à¸²à¸ªà¸ķà¸£ à¹Į
st ery
Ġà¹Ħà¸¡à¹Īà¸ ķà¹īà¸Ńà¸ĩà¸Ŀà¸²à¸ģ
lah oma
Ġg mail
Ġclos ely
æĮ Ĥ
B 2
Ġinst ant
°à¹ģà¸Ļ à¸Ļ
ĠF ine
op edia
Ġprogram me
ust ri
Ġmenc apai
D es
ĠPark ing
æĶ »
Ġsem i
Ġdest roy
ĠæĿ¥ æºĲ
áŁĤ áŀĦ
ĠP ep
ĠBl u
Ġre ducing
ĠD ynam
Ġting kat
13 4
ĠT arget
im mer
ĠSt ars
ç§ Ł
åİ ĭ
åĪĨ æŀĲ
å¥ Ĺ
Ġtr ai
Ġgi áº£n
Ġarr ive
Ġv ess
T ON
Ġattract ive
" +
c ycle
our i
Ġdr ag
ĠManufact urers
ªà¸²à¸ ¢à¸
ĠB H
Ġà¹Ĥà¸Ľà¸£ à¹ģà¸ģà¸£à¸
ĠAdd ed
ç½ĳ ç»ľ
Ġà¸ ģà¸²à¸£à¹Ģà¸
Ġlang kah
ç ·
Ġsc ope
and ang
ĠSecret ary
ĠD est
éĵ ģ
à®¿à® ¸
amp ion
Ġgr ass
Ġn ic
Ġmemb ership
ĠÃ ļ
Ġ0732 8
Ġrend ah
å® £
Ġ}, {"
áģ¿áĢķ áĢ®áĢ¸
ĠJew elry
iz ont
Ġre plic
åĪ ĩ
Ġimmedi ate
Ġenc ounter
èı ľ
Ġc Æ°á»Ŀi
ĠB eb
li ament
U I
Ġdevelop er
Ġrecogn ize
Ġgi Ã¡c
à®¿à®µ à¯ģ
ik et
S erv
Ġapplic able
Ġåľ °
Ġnh iá»ĩt
C omp
ĠHe y
Ġmet er
Ġbreak ing
ĠS B
Ġah li
Ġfavour ite
à®¿à®ķà¯įà®ķ à¯ģà®®à¯į
Ġt ill
Ġwith d
Ġdim ana
ç³» ç»Ł
ress ed
ĠC urt
ĠA Z
² áŁĴáŀĻ
Ġviol ence
ĠW ars
Ġexcept ion
ĠBo at
Ġform ula
ul ator
ĠAb stract
, ,
Ġfram ework
ĠMaterial s
§à¸ ļà¸
U AN
Ġtá»ĭ ch
Ġlaw yer
à¹Īà¸²à¸¢à¸ Ĺ
ĠAn imal
Ġex haust
Ġse lepas
ĠS es
Ġà®ªà¯Ĩ à®±à¯įà®±
äºº çļĦ
áĢĲ áĢ¹
à¯Ĩ à®©
Ġpack ages
Ġmen ang
Ġent rance
Ġqu ay
Ġä¸ İ
Ġsá»Ń a
Ġé ĥ½
Ġst roke
b ert
19 0
Ġp t
ĠçľŁ éĴ±
ĠClass ification
Ġcompl iance
p in
Ġl akukan
D own
ri ers
it led
ĠHol lywood
à¹ģ à¸Ńà¸
ĠEngine er
Ġlo op
Ġ. âĢĻ
Ġçī ¹
Ġaccur acy
ĠâĢĻ ,
Ġh ers
Ġadv oc
ĠCan on
Ġ) };
ĠB ers
Ġw il
±à¸Ļà¸ĺ à¹Į
Ġv ag
Ä ĳ
ĠBar at
çĽ¸ åħ³
Ġç ®
Ġex terior
ĠG all
Ġdet ection
è® ¸
Ġè Ī
Ã³ i
Ġst able
Ġdiv ision
ĠT am
Ġrespons es
Ġr um
Ġdah ulu
Ġca using
Ġam pl
ĠvÃł i
Ġà¸ŀà¸ ¤à¸
ĠO P
g ak
Ġresist ant
zz le
Ġse gera
Ġam ounts
ĠEd it
ŀà¸ ¥à¸²à¸
Ġmi xture
ĠMem orial
ĠMar sh
Ġpromot ion
ul s
Ġconnect ions
Ġor ange
Ġl ucky
Ġform ing
Ġå½©ç¥ŀ äºīéľ¸
Ġimp ossible
h ari
Ġçľ ĭ
Ġser ial
Ġà¸Ħà¸ ³à¸
Ġk ak
ĠC ulture
Ġj ar
à®± à¯ģ
J S
Ġb ant
ç» Ī
Ġl ie
ĠT Ã¢n
Ġsu c
à¸Ńà¸° à¹Ħà¸£
ant o
Ġmeny ediakan
Ġh áºŃu
à¯Ĩ à®²à¯įà®²
à¯Īà®ļ à¯įà®ļ
Ġcelebr ate
Ġdip er
Ġbl ow
áĢ¸áĢ ŀ
ann y
Ġda ftar
en angan
Ġ3 30
iá»ģ m
ĠH CM
an ja
ĠTr ain
ĠN ation
ĠãĢĳ ,ãĢĲ
Ĺ àºµ
Ġbox es
Ġarr ival
ĠP i
æł ¹
¶à¸ ĩ
eb o
áŁĴáŀĦ áŁĥ
Ġ12 9
áĢ± áģ¾áĢĢ
Ġ19 85
Ġspe aker
ĠPurch ase
ick er
§à¸´à¸ĺ à¸µà¸
Ġst ake
Ġnucle ar
Ġ20 th
Ġcr iminal
Ġbas ically
ĠSen ate
Ġplace holder
ä¸ĵ ä¸ļ
ĠåĪ °
ĠBr ight
Ġfight ing
ĠT áº¡i
ep ing
Ġe ks
ĠO m
art ers
áŀĢ áŀĺáŁĴáŀ
ukt i
ĠG PS
Ġ= {
on i
215 34
Ġf older
ĠD oug
99 9
Ġperk ara
Ġb uck
Ġd uration
end o
Ġj ersey
5 e
Ġpro ve
Ġbuy ers
Ġsau ce
Ġmak s
ĠFact ory
ĠB oys
áŀĦ áŁĭ
ĠçĶ Ł
Ġç ļ
åį Ģ
Ġdown town
Ġ1558 34
Ġsever e
ĠBrit ain
Ġassoci ation
ple ments
Ĺà¸ ±à¸Ļà¸
Ġr ug
Ġprim arily
åĸ Ħ
alle l
è¿Ļ ä¸ª
i est
Ġdis pos
Ġ ąć
ebut uhan
ģà¸³à¸ «à¸Ļà¸
Ġ527 24
ons in
Ġsens itive
uk ung
id al
Ġcomput ers
ĠSe ver
ĠAut h
Ġdeal er
Î µ
ĠPhil adelphia
ĠHor se
o ft
ĵ à¸²à¸
ĠPat tern
è· Ł
v ens
ĠD rop
Ġ01 21534
Ġth ai
Ġ037 2014
es a
b ing
ĠWh it
à¸£ à¸²
Ġd d
Ġon going
ĠEvery one
A ss
uj i
12 9
Ġto ko
Ġport al
±à¸ ģà¹Ģà¸
ĠAnd re
Ġpro d
Ġk ab
Ġà¸ģ à¹ĩ
Ġif rame
Ġ6 th
ĠCO VID
Ġel igible
Ġd ent
æ¼ ı
ĠM ind
è Ĺı
ĠDav is
Ġjust ice
_ in
Ġkel as
à¹īà¸Ļà¹Ģà¸¥à¸·à¸Ńà¸Ķà¸ Ĥ
ĠL incoln
10 4
Ġk ol
ĠOkt ober
Ġ+ =
æĬķ èµĦ
oc ity
èĤ ĸ
Ġmus cle
Ġcon clud
ĠP and
áĢĶáĢ¹áĢ Ļ
ump ok
Ġc ounsel
Ġm ew
ĠSuit es
Ġç ´
Ġch Ãºt
ĠCom b
isc onsin
Ġà®ħ à®¤à¯ģ
Ġj er
p ad
lo ading
Ġ":[ ],"
ig o
ĠçĶµ çİ©
Ġå¤ ļ
ĠEx pert
ab aya
ĠT y
ĠO regon
ĠJan uari
Ġalue e
Ġaluee umpok
Ġdiber ikan
ĠD ave
est one
Ġdi abetes
12 8
Ġdis ebut
Ġmá» ģm
Ġ16 4
Ġserious ly
Ġm uda
è ¼
Ġl am
av as
ĠgÃ³ p
le b
_ 2
ĠPre p
Ġå· ¥
ĠR ow
cl aim
Ġauthor ities
Ġoper ator
à² ¾
l at
Ġperman ent
ĠLo an
Ġupload s
Ġs oph
ĠJ awa
Ġload ed
ĠMemb ers
N Y
Ġy ak
Ġsomew here
ĠáĢ±áĢ Ľ
Ġà¸ Ĭà¸
Ġ12 1
at asi
Ġl b
u v
iv als
ĠNE T
ĠÞ ĩ
æ¹ ¾
Ġflo ors
ĠIr ish
ĠCh and
à®¾à®£ à¯įà®Ł
17 0
ĠVis ual
ĠSol ar
ang un
æ ¦
Ġc Æ°á»£c
ump ulan
Ġo cean
Ġh ate
ĠQu áºŃn
ĠAdmin istr
à®¾à®¤ à¯įà®¤
Ġele gant
Ġth Ã´i
ĠRequ est
amp aikan
AC E
Ġ5 50
Â ¡
ĠTog el
O F
ĠB P
Ķà¸³ à¹Ģà¸Ļà¸´à¸Ļà¸
Ġk awasan
Ġend ing
ert ation
ģà¸İ à¸
«à¸¡à¸ ·à¸Ńà¸Ļà¸
ç ĩ
Ġf estival
ĠSc an
Ġ12 00
wid get
u ction
Ġplan et
Ġsp es
ĠW E
ĠP G
Ġad j
Ġbasket ball
ĠReply Delete
çİ° åľº
ay er
Ġæ¯ ı
Ġal uminum
Ġà®ķ à®¿à®°
Ġà®ħ à®£
ĠL aser
Ĭà¹Īà¸§à¸ ĩà¸
Ġà¸ļ à¸²
Ġper empuan
ĠRem ote
ub ahan
asis wa
ĠC ould
áŁģ áŀĽ
Ġ Ë
Ķà¸´à¸¡à¸ŀà¸ ±à¸Ļ
ç§ ¯
áĢĽ áĢ½áĢŃ
à¯ĭ à®ķ
Ġag ric
á»£ i
ott ed
Ġà¸ ¿
Ġc ro
f s
f ly
Ġ# ##
èĥ ľ
ĠEss ential
bu ild
ĠæĿ İ
ĠD ol
è§ Ĵ
L og
ĠW I
ĠP RE
Ġåį ļ
ĠTerb aik
ai h
Ġà¸ Ĥà¸²à¸¢à¸
çĶ ³
ĠUlt ra
Ġä¸Ĭ æµ·
ĠG reg
X 4
ĠDr agon
us aha
Ġmar ks
Ġà¹ģà¸ Ĺà¸ĩ
Ġass emb
ĠTh iÃªn
ĠDr ug
Ġl aki
Ġlay ers
Ġeng ines
ĠR ome
ĠF em
ç½ĳ _
Ĺ à¹Īà¸²à¸Ļà¸
Ġdrop ped
Ġent reprene
ĠT E
Ġb omb
Ġâ Ĺ
Ġsk illed
Ġ) ?
Ġsp ots
ĠU T
in th
åħ ¸
on ed
ĠB ali
ĠâĢĿ ãĢĤ
¥à¸ Ķ
Ġ Ā
c ard
Ġà¹Ģà¸ Ħà¸£à¸Ķà¸´à¸ķà¸Łà¸£à¸µ
Ġre in
Ġcan c
Ġakt iv
ĠP av
ĠC old
Ġt ulis
Ġcan n
Ġlel aki
ĠN ob
Ġmechan ical
Ġd ew
Ġsing les
ro it
Ġdem ikian
IE W
Ķà¸²à¸§à¸Ļà¹Į à¹Ĥà¸«à¸¥à¸
Ġpr ison
æ¥ ¼
ĠM Y
è¦ģ æ±Ĥ
Ġg ym
ĠArt ist
à®¾à®µ à®¤à¯ģ
ip per
ĠP ap
å³ °
Ġapp le
Ġpl ot
Ġconvers ion
î ģ
Ġ0127 6
Ġput ih
ĠWil son
Ġåį İ
Ġcont ents
b agai
ant ar
ĠL S
°à¹Ģà¸ Ľà¹ĭ
Ġh urt
Ġch ances
ĠPr inter
j e
ĠG ifts
Ġæ² ³
Ġrem ind
Ġà¸Īà¸ ³à¸Ļà¸
ĠCh ÃŃ
ªà¸£à¹īà¸²à¸ ĩ
§à¸ ¢à¸
ģà¸²à¸£à¸ ĵà¹Įà¸
Ġt amu
à¯Īà® ª
Ġsell er
Ġw ins
Ġinc ident
åī §
Ġb ub
Ġassign ed
ĠReg ion
Ġmenj alan
ĠApplic ations
à¹Ħà¸¡ à¹īà¸
Ġexpl an
ĠSem ua
Ġsol o
Ġfr ustr
ĠG er
à¯įà®ķ à®¿à®±
à¯ģà®Ł à¯Īà®¯
Ĭ à¸´
ĠA ld
Ġsk u
Ġinter active
ĠM all
st ore
R C
Ġf its
Ġà®ªà¯Ĭ à®°
Ġless on
Ġrecogn ition
Ġcontinu ing
P re
ĠçĶ ¨
ĠG ab
à¹Ģ à¸Ńà¸ĩà¸
Ġé İ
ĠBel ow
S ub
eb ra
Ġw er
áŀĹ áŀ¶áŀĸ
Ġen abled
ÃĶ Ãļ
W B
ĠTe a
ĠS we
om eter
Ġle ct
Ġvá» įng
Ġwhen ever
F P
ĠAr s
Ġnh Ã³m
ĠD ell
Ġpur s
Ġ10 80
ģà¸ ¸à¸
ĠSu zuki
Ħ à¸£à¸±à¸
Ġpend idikan
ĠIss ue
ĠB T
æĹ¶ åĢĻ
ĠAP I
ampil kan
Ġal ami
Ġdef end
ĠD ump
áĢ¬áĢ¸áĢ ŀ
Ġå¦Ĥ æŀľ
elit ian
Ġå® ŀ
ĠAl t
ĭ à¸´à¸
çĶ »
âĢ ĺ
Ġter kait
ĠB ush
ĠMet ro
ĠL CD
Ġkh Äĥn
Ġc y
Ġat a
ĠPro te
id o
Ġè į
à¹Ĥà¸£à¸Ħà¸ªà¸°à¹Ģà¸ģà¹ĩà¸Ķà¹Ģà¸ ĩà¸´à¸Ļ
Ap p
á» ·
Ð ³
Ġà¸ĭà¸ ¶à¹Īà¸ĩ
Ġèµ Į
à¹ģà¸Ļ à¹Īà¸Ļ
18 0
ä½ Ļ
Ġhead s
ĠAb u
à¸Ļà¸ °à¸
Ġph áº£n
ĠS ent
ĠLew is
Ġpem erintah
Ġlist ening
Ġexclud e
c ar
Ġunivers ities
ish i
ag ues
ä¸ Ķ
op her
65 0
Ġuk uran
Ġå Ŀ
Ġsh ots
Ġå ķ
ĠC Ã¡ch
éĽ Ħ
à¤¾ à¤
) )
ĠChe vrolet
Ġnh áº¹
Ì£ n
on ts
Ġà¹Ģà¸Ĭ à¹Īà¸Ļ
åĭ ķ
Ġnew ly
ĠDi j
Ġseb anyak
aw ang
Ġaccompl ish
Ġb ird
à¹Ĥ à¸Ń
Ġa er
ĠT ub
ang h
Ġstream ing
Ġh ip
à²¿ à²
ib e
å¤ «
Ġhab it
áŁĤ áŀĢ
ĠStat us
Ġà¸ģà¸²à¸£à¸ŀà¸Ļà¸±à¸Ļà¸ Łà¸£à¸µ
ĠnÃ³ ng
áŀ· áŀħ
el ih
ĠDif fer
C ol
à¯Ĭ à®´
ĠMuh ammad
ĠCh á»ī
ĠSum mary
do ors
ĠK an
Ġ ãĤ
áŁĴáŀ Ĭ
ick et
z ing
Ġle ts
å¤§ çļĦ
Ġthu áºŃn
Ġex e
Ġintegr ation
Ġch ina
} );
ĭ à¹Į
Ġå¹ ¸è¿Ĳ
Ġpeng alaman
gh an
Ġkart u
ĠPal m
in os
à¹ģà¸ľ à¸Ļà¸
»áĢķ áĢ¬
áĢ¬áĢ¸áĢ ľ
id get
Ġé» Ħ
Ġà¸ ļà¸£à¸´à¸©à¸±à¸Ĺ
Ġg rew
Ġdib uat
ģà¸²à¸£ à¹ĥà¸Ĭà¹īà¸
Ġt uyá»ĥn
Ġcover ing
Ġm ood
X L
à¹Ħà¸ Ĥà¸
at ile
Ġs ana
Ġmur der
ot ion
ĠVal ent
_c ol
Ġt ua
ĠEnt ry
Ġà®ª à®±à¯įà®±
è¡Į ä¸ļ
Ġà¸ª à¸µà¸
Ġmemb aca
åĿ ļ
çĶ ·
Ġext ent
ĠEx port
ĠSo fa
Ñģ Ðº
ŀ à¸Ńà¸
Ī à¸µà¸Ļ
Ġg hi
c in
æĺ¯ çľŁ
Ķ à¸´
oun ce
ure au
ĠBl vd
Ġ ä¼ļ
im er
Ġdr ama
Ġcompare _at
áŁĴáŀ ħ
ich e
Ġà¸ģà¸ ¥à¸
D r
Ĺà¸µ à¹Ģà¸Ķ
Ġå¥ ¹
ĠTh áº¿
ľà¸ ¡à¸
if ting
Ġl ihat
ĠSc ient
Ġbel akang
Ġn ob
ĠPaper back
ľà¸¥à¸´à¸ķà¸ łà¸±à¸ĵà¸ĳ
Ġæ° ¸
Ġcompare_at _price
Ġd ental
Ġj ava
34 56
Ġresearch ers
cel ona
Ġre cept
ĠE k
ĠK S
à»Ī àº
Ġnh áº¡c
Ġcon ventional
Ġcarry ing
Ã¼ r
Ġtravel ing
Ġre ception
ĠN ah
EM B
Ķ à¸´à¸Ļ
Ġflow er
à¸£à¸°à¸ļà¸ ļ
Ġå¤ ĸ
Ġà® Ī
Ġr uang
è¯ į
Ġtert entu
Ġab us
Ġtr Ã¡ch
Ġcop per
èµĦ æºĲ
is y
em ony
Ġà®¨ à®²à¯įà®²
Ġrout ine
ĠRepl acement
Ġ10 th
ĠV ista
ing ham
ĠK rist
éª Ĺ
c ue
_ T
ĠScot land
Post ed
Ġibex_room_grid _row
el ly
ut ral
anc er
Ġà¸ªà¸³à¸« à¸£à¸±à¸ļ
Ġvari ant
Ġlif etime
ĠL ed
ĠB lood
yr ics
Ġng Ã¢n
Ġmengh ad
Ġgi áº¥y
ÌĢ n
Ġg ro
EN S
Ġscr atch
ĠTod d
Ġæ ¾
á» ¡
ĠTh á»§
iger ator
«à¸Ļà¸ ±à¸ĩ
R P
ĠUs ers
B B
+ +
ĠA 1
Ġ4 80
à» ĥ
Ġin hib
Ġb oss
ĠS orry
Ġs áº¡ch
Ġman agers
Ġáŀ ļ
Ġt ind
ļà¸²à¸ ¥
ĠJ ason
Ġmem en
ĠEnter prise
Ġc Ã¢n
ai red
ĠPh Ã²ng
Ġber f
Ġsl ots
Ġunder t
Ġse al
ĠåŃ ¦
ĠManufact urer
Ġh iá»ĥm
ĠB udd
Ġfore ver
ä¹¦ è®°
à¸£ à¹īà¸²à¸Ļà¸
Ġà®® à®£
Ġpemb el
Ġéĺ ¿
Ġb ot
Ġple asure
Ġexpress ed
Ġdeb ate
Ġé¦ Ļæ¸¯
ĠP ier
Ġb are
áŀ¹ áŀĢ
Ġdec ent
Ġclos ing
ĠB ry
Ġleg s
ĠThe atre
ĠN ag
ĠOver view
Ġch á»Ĺ
åģ ľ
ĠæŃ ¦
ĠJ S
Ġexcept ional
Ġbroad cast
Ġà®ħà®µ à®°à¯įà®ķà®³à¯į
ĠAir lines
Ġcontr ibute
è Ľ
ĠåĽ½ éĻħ
ĠæĹ© é¤Ĳ
Ġk ira
ĠS V
Ġngh i
ļà¸²à¸ ¢
ĠK on
éĵ ¾
Ġacqu is
or ous
Ġcry pt
çŁ¥ éģĵ
_ q
ĠC in
Ġ3 10
§à¸²à¸ ĩ
re ts
Ġindic ate
ĠCl othing
i ology
Ġh ak
ĠJos h
Ġ] :
eng ers
Ġh Ã£ng
Ġg club
Ġacqu ire
Ġ7 th
Ġd Ãłng
ĠCom pl
d ays
à¸Ńà¸ ±à¸ĩà¸ģà¸¤à¸©
o op
Ġcon cepts
Ĉ ć
ĠAl as
G et
us ual
Ġn arr
éĶ Ľ
Ĥ à¸Ļà¸
ĠIn side
g am
Ĭà¸± à¹Īà¸Ļà¸
ĠâĢ ¡
ĠFun ction
d es
Ġ3 s
ä»· æł¼
ĠâĢĶ âĢĶ
æŁ Ĳ
Ġeng age
å®¢æĪ·ç«¯ ä¸ĭè½½
Ġal arm
ļ à¸´à¸Ļ
Ġobject ive
éĻ ¤
Ġè ħ
ä¸ °
Ġreal ized
ĠÐ ½
ro vers
ĠCal endar
ĠAss ess
Ġhe av
Ġberj alan
RO OM
áĢ ı
Ġstr ict
Ġs iÃªu
ĠJe an
Ġview ing
AT H
Ġà¸ķ à¸´à¸Ķà¸
Ġtrack s
Ġch ampions
ĠâĢ ²
Ġbo ards
ou ver
ĠExam ples
Ġinj uries
ĠFeed back
à®³ à¯įà®µ
34 5
Ġnav ig
ĠHe ight
ĠF ather
ĠD ise
ness ee
Ġt eng
Ġhon or
Ħ à¹Ī
Ġb á»ķ
ą Ćą
áŁĴáŀļáŀ ¸
ill ow
ĠQu otes
ĠJ ose
åŃ¦ ä¹ł
Ġpres cription
al ian
ģà¸¥à¸ ±à¸ļà¸
b angan
ŀà¸±à¸Ĵ à¸Ļà¸²à¸
Ġà®ĩà®²à¯įà®² à¯Ī
Ġcommon ly
ĠInt roduction
ĠáŀĢ áŀ¶áŀļáŀ
Ġ00 1
is ms
ĠChel sea
ĠElect rical
à¸µ à¹Ī
Ì£ t
F R
ĠInst r
Ħà¸ ³
ĠP AR
Ħà¸ °
Ġé ¡
Ġh arness
ĠSt ring
r ont
Ġfl our
Ġà¸ªà¸¹à¸ ķà¸£à¸
Ġmus ical
Ġhum ans
ļà¸¸à¸ Ħà¸
ŀà¸ ±à¸Ļà¸
Ġbr illiant
ĠR ates
Ġoccur red
ĠC ou
è®º åĿĽ
Ġref und
ak ap
Ġmem ories
j id
U G
Ġf ellow
Ġcap abilities
ĠAr r
Ġp ounds
Ġk ia
ĠF at
Ġdiscip line
ĠEconom ic
é İ
ob b
est i
Ġm Ãłn
Ĺ à¹Ģà¸
Ġd áº§u
Ġdem ocr
Ġassist ant
ĠN issan
Ġkey word
ĠSit us
ĠA W
m ur
7 00
Ġtur un
Ġt ape
g t
Ġæ ģ
Ġl á»Ļ
Ġcry stal
ĠB ond
Ð ±
ag an
Ġt Ã´
ĠD ance
ĠçĶ ±
Ġà¸¡ à¸´à¸
æĺ Į
v b
ka itan
«à¸ ¢à¸
Ġref r
Ġmá» ¹
ĠR out
Ġv el
Ġ( @
Ġremove Class
Ġm áº¡i
ĠUr ban
ĠPh Ã¡p
ĠO wner
ĠDes k
à®µ à¯įà®µ
ades h
Ġpoly mer
Ġsign ature
à®Ł à®¿à®¯
Ġs occer
rupt ion
Ġrequest ed
ĠG reek
Â ®
ľà¸¥à¸´à¸ ķ
ust us
ä» ĺ
Ġle pas
Ġdevelop ers
u ing
Ġgener ator
ang ed
Ġup s
Ġht m
Ġà®¨ à¯ĭ
Ġà®¤ à®µ
any akan
ĠE ST
ĠPer haps
ĠÄĳ Ãªm
ĠE y
Ġà¹ģà¸« à¹Īà¸ĩ
Ġyoung er
Ġa wards
Ġ19 84
Ġton ight
ĠCo oper
ped ia
ĠFr ame
Ġà¸ Ĥà¸²à¸¢
W O
ĠB anyak
ĠAp artments
åĪ° äºĨ
Ġà®ªà¯Ĩ à®£
ĠÄĳá» ı
æĸ¹ æ³ķ
Ĺà¸³ à¹ĥà¸«à¹ī
Ġcan cel
Ãĸ ÃĲ
ru ck
od ed
Ľà¸£à¸°à¸ ªà¸ļà¸
Ġ22 5
Ġsustain able
Ġjud ge
o ir
Ġguarant eed
Ġæ¾³éĹ¨ çĻ¾å®¶
ð Ŀ
áŁ Ī
Ġg em
Ġåį ģ
Ġamer ican
ĠR unning
ĠL ip
à¸£à¸¹à¸ Ľà¸
Ġreput ation
Ġobvious ly
ĠKore an
à¯Īà®¯ à¯ĩ
à®¿à®ªà¯įà®ª à¯ģ
art z
Ġen ables
Ġà®®à¯ģà®Ł à®¿à®¯
medi ate
Ġå Ģ
Ġcommunic ate
unj ung
¥à¸ ±à¸ģà¸©à¸
ĠT ol
ĠCar bon
Ġindic ated
ĠS ul
ĠáĢľ áĢ°
Ġ8 th
åı¯ èĥ½
ĠãĢ Į
ĠS ix
Ġpotential ly
and ung
ļ ãĢĳãĢĲ
à¹Ħà¸§ à¹īà¸
v n
Ġsomew hat
ĠCom fort
Ġexp osed
Ġdep art
Ġpar agraph
Ġc ouncil
ĠP od
Ġ(" .
ĠIndian a
à¯įà®¤ à®¾à®©à¯į
ĠVirt ual
Ġ\": \"
Ġass ume
Hot els
Ġb orrow
ĠCh Ã¢u
d c
à¹ĩà¸ ¡
Ġind ustries
åº ĵ
ĠA I
ĠC ann
ĠB ER
Ġwh eels
Ġsos ial
Ġr ust
ist or
Ġadm issions
Ġs Ã¢u
âĢľ ãĢĳãĢĲ
al y
Ġst uck
Ġfil ters
Ġincred ibly
Ġm ati
ĠMar ia
ell ence
Ġ áº¢
à¯Īà®¯ à®¾à®©
Ġprov en
ĠK inh
Ġà®Ĩ à®¯
Ġtr ips
Ġm inggu
Ġl Ã£nh
ï¿½ï¿½ï¿½ï¿½ ï¿½ï¿½ï¿½ï¿½
æŃ ¢
ĠG RE
ĠBu ilt
osp itals
æĿ Ģ
Ġlá» ħ
ĠáŀŁ áŀĺ
Ġjew elry
b ang
K N
Ġprom ise
ĠMes in
à¸£à¸±à¸ģà¸© à¸²
Ĭ à¸²
Ġcollection s
OR D
ĠçĦ ¶
à¸Ńà¸ ´à¸
è¯ ¢
Â ¥
ra id
Ġb atch
aj ak
à¹Īà¸Ļà¹Ģà¸ ģà¸¡à¸
Ġkh áº£o
Ġdeb ut
ĠIn vent
Ġ13 9
éĤĢè¯·çłģ _
ĠD h
ĠOnt ario
è§Ħ å¾ĭ
ĠT oys
ra it
ĠG iá»
Ľ à¹īà¸Ńà¸ĩà¸
Ġ3 17
Ġk Ãª
Ġk ebutuhan
Ġgr ad
omet ry
it em
Ġà®ª à¯ĩà®°
Ġco at
op i
Ġà®ļ à¯Ĥ
Ġsp r
Ġclaim ed
ut il
Ġap i
Cl ick
ĠY ahoo
à®¤à¯įà®¤ à®¿à®¯
ĠMar ine
Ġ19 th
Ġcomp atible
3 20
ĠV ert
Ġmem ahami
Ġposs ess
Ġà¹Ģà¸ŀà¸ ·à¹Īà¸Ń
Ġn it
Ġinter act
âĢĭâĢĭâĢĭâĢĭâĢĭâĢĭâĢĭâĢĭ âĢĭâĢĭâĢĭâĢĭâĢĭâĢĭâĢĭâĢĭ
Ġhost s
Ġch ose
US 5
Ġlay anan
Ġinventory _
Ġt áº¥n
Ġmeas ured
ĠN ap
ĠHe at
Ġh orm
ĠBer ikut
áŀĵ áŁģáŁĩ
¸à¸ĩà¹Ģà¸Ĺà¸ ŀà¸
ĠçĽ ®
ä¸ ¥
all ic
Ġhy per
Ġf inger
it ud
ĠS ets
«à¸Ļà¸±à¸ĩà¸ ªà¸
==== ====
ĠT ony
ĠMent eri
ĠRecord s
ab ama
asc ular
E H
ang unan
à¹ģà¸Ĥ à¹Īà¸ĩà¸Ĥà¸
ªà¸°à¸ Ķà¸§à¸
Ħà¸§ à¸£à¸
Ġdi ameter
Ġcrow d
ĠCh ap
und ai
In tern
Ġmus im
äº¤ æµģ
Ġtreat ments
ĠSl ot
ĠéĿ Ĵ
Ġv ill
ĠTur key
à¹Ħà¸¡à¹Īà¸ ¡à¸µà¸
ªà¸´à¸Ĺà¸ĺ à¸´à¸
2 000
Ġworld cat
Ġt ie
Ġc ush
r if
ing in
Y ou
Ġh Æ¡i
Ġb atu
Ġ15 5
Ġà¸£ à¹Īà¸²
ur ities
ett a
ĠÄĳ Ãło
Ġà®¤à¯Ĩà®° à®¿à®µ
Ġrel ation
ĠUnivers al
Ġl engkap
ĠLe x
t if
Ġut ility
Ġï¼Į âĢľ
ĠRas ul
ĠLe ft
ĠK id
Ġdrink ing
Ġp ig
Ġdire ctions
ĠW anita
Ġà®ĩà®°à¯ģà®ķà¯įà®ķ à¯ģà®®à¯į
Ġlim its
ĠCh at
umb le
à¯Ĭ à®£à¯įà®Ł
h ot
Ġè İ
Ġ; @
Ġtr oub
Ġc ialis
Ġd Ã¢y
ĠãĢĳãĢĲï¼ ļãĢĳãĢĲ
iáº¿ ng
O O
Ġaward ed
Ġpan els
Ġrub ber
ĠC ape
ç´ ¢
ik in
à¹Ĥ à¸£
à¯ģà® ¨
ĠRestaur ants
Ġ16 5
áŀĩ áŀ¶
Ġdec ade
Ġt adi
Ġw ajah
Ġpl acement
Ġher bal
ikm ati
k ers
ĠB ike
M e
ĠT B
ĠAp akah
ĠOk lahoma
Ø ¯
ĠWorks hop
Ġlang uages
Ġins ight
à²¾ à²
ĠGr ant
ĠâĢ ķ
äº§ ä¸ļ
áĢģ áĢ»
Ġà¸ «à¸¥à¸±à¸ĩà¸
Ġngh á»ī
Ġâ ģ
atur an
à®£ à®®à¯į
Ġres id
éĢļ è¿ĩ
ut ies
g ah
f y
ĠW olf
ĠHall oween
áŁĲ áŀĻ
Ġç ķ
Ġneigh b
ĠLog o
angg ap
Ġ14 4
ç® Ģ
Ġk ÃŃnh
Ġ2 13
Ġpr ime
ģà¸µà¸ ¬
Ġï¿½ï¿½ï¿½ï¿½ï¿½ï¿½ï¿½ ï¿½
ĠS ac
ĠK i
æ ĩ
à®¾à® ¨
Ĺà¸¸à¸ ģ
ĠÂ¡Â °
Ġrelax ing
Ġegg s
ang gan
Ġgen uine
il ih
Ġest imate
Ġsugg ests
e ff
are l
£ ¿
Ġind oor
Ġ14 5
à¸Ļ à¹Īà¸²
D E
Ġnh áº±m
ih atan
Ġsus pect
Ġdem o
on en
Ġbod ies
ĠJun ior
ģà¸ µà¹Īà¸¢à¸§à¸
Ġes cape
à¸Ńà¸ Ķà¹Ģà¸
ĠÙ Ī
Ġmatch ing
ĠPl atform
Ä ģ
Ġun p
ĠS oul
ĠS EL
O Y
iss a
ar ap
Ġill ness
ĠPhilipp ines
Ġj ur
ĠNg á»įc
áĢķáĢ« áĢĲáĢļáĢ¹
Ø ¨
AN K
Ġsubstr ate
ĠL ap
u ous
C I
Ġsc reens
éĽ ª
à¹Ħà¸ «à¸¡
Ġblog s
ĠOff er
è «
Ġ13 4
as ia
ç¾İ åĽ½
ĠáĢ ļ
Ġsuc ceed
ĠKel ly
Ġ Ã¡nh
l on
Ġcert ification
ĠPat rick
Īà¸ Īà¸¸à¸
Ġc ath
Ġ07 538
ç´ ł
áŀĵ áŁħ
list ed
Ĭà¸µà¸§à¸´à¸ ķ
It em
Ġad equ
ĠM uch
ch a
Ġr ack
g ate
áĢ° áĢ¸
Ġç¦ ı
us al
AN S
Ġrepresent ative
Ġmen urut
ĠW isconsin
b ie
Ġà®ªà¯ĭ à®Łà¯įà®Ł
Ġcontinu ous
ĠFab ric
Ġab ian
D on
11 1
Ġdifficult y
å¾ ħ
ĠC ra
ĠAgre ement
å®ĺç½ĳ ä¸ĭè½½
Ġabian base
áĢŃáĢ¯ áĢĢáĢ¹áĢ
Ġr ata
Ġadipur wa
ĠTop ics
ĠO tt
def ined
Ġair craft
Ġth áº¥p
Ġdis m
ĠR and
ĠPr ince
æĭ ħ
ĠR ated
Ġthem es
g ang
ĠT D
aring an
Ġadiars a
ĠR ace
¡à¸ «à¸²à¸
Ġáŀĩ áŀ¶
ĠVeh icle
ĠK y
Ġp ub
Ġinter action
Ġt iá»ĥu
_h sx
Ġcorrect ly
Ġs emp
ĠAss embly
çº ³
ĠHaw ai
ĠH ack
Ľà¸£à¸°à¹Ģà¸Ĺà¸¨ à¹Ħà¸Ĺà¸¢
Ġadvant ages
ĠCont oh
à¸Ńà¸µà¸ ģ
St ate
uc i
unic ip
d b
Ġbel ieved
ĠK ur
Ġtrans lation
ãĥ ³
el and
Ġ2 70
ĠAm ong
EC H
à¸£à¸²à¸ °
ĠOut look
ĠRes ource
Ġres idence
à®ķà¯įà®ķ à®®à¯į
Ġb acter
ĠRec ru
ĠRe ference
ul pt
it ative
æĽ ²
Ġdram atic
G N
Ġent ering
ĠP ok
ļà¸Ĺà¸ §à¸Ļ
ĠL iga
Ġpak ai
ĠáĢķ áĢ¼
å¤ Ł
P oint
à¹Ģà¸£à¹ĩà¸ §
èĳ ¡
ĠAgr icult
j ah
Ġth iÃªn
ĠBoot s
OL D
Ġh uy
ĠCabin et
Ġç ²
ĠM obil
im ental
Ġsi apa
Z W
is asi
ĠI st
ĠF ocus
ĠClin ical
pl ant
Ġint elligence
Ġsur ve
ĠPh ong
ason ic
1 A
Ġc áº£i
Ġsurg ical
ill ah
±áĢ ķ
Ġmin eral
ĠW ales
Ġata upun
à¹Ĥà¸ ģ
as akan
Ġc ub
Ġansw ered
Ìģ i
Ĺ à¹Īà¸²à¸Ļ
Ġâ ī
Ġpe ak
ĠK as
1 66
ĠæĹ© çĤ¹
Ġà¸Ļà¸²à¸ ¢à¸
Ġadm ission
Ġad ob
Ñ ĸ
Ġà®ħà®± à®¿à®µ
ĠM end
Ġchá»ī nh
Ġanal yst
Ġkan ak
ĠT ower
Ġ18 8
Ġfo am
Ġyak ni
Ġthá»§ y
Ġ2 14
Ġcas ual
Ġfl avor
Ġbe am
ĠTra iler
IM E
ung kan
ac ent
áº ł
à®¤ à¯ģà®®à¯į
Ġker ajaan
ĠÂ Ĥ
ĠBar celona
Ġ( .
Ġsp oke
Ġd ensity
Ġà®ª à®¾à®Ł
ĠKer ja
ĠCh icken
Ġæ »
Ġdo ctors
Ġshould er
Ġà®İà®´ à¯ģà®¤
Ġfac es
Ġst reets
L P
ĠFore cast
Ġsh ell
ĠIN C
Ġl anjut
Ġcomput ing
Ġsitu ated
Ġwalk ed
à¹Ģà¸¥à¸ ¢
ĠTrans fer
1 60
Ľà¸£à¸ªà¸´à¸ ķ
Ġint ent
å¤ ľ
ĠRep resent
ĠM un
ĠDen ver
Ġangg ota
ĠI owa
ĠD eck
Ġr ural
~ ~
Ġto k
ĠEd ge
æ¸ ©
apat i
Ġinvol ves
2 20
ģà¸²à¸ ¢
Ġstr ip
Ġ á»ķ
ĠçĻ ¾
Ġvul ner
ĠÄĲ Ãł
à ¦
S ee
Ġextrem e
Ġbak al
ªà¸³à¸Ħà¸ ±à¸įà¸
Ġcop yright
ĀĀĀĀĀĀĀĀĀĀĀĀĀĀĀĀĀĀĀĀĀĀĀĀĀĀĀĀĀĀĀĀĀĀĀĀĀĀĀĀĀĀĀĀĀĀĀĀĀĀĀĀĀĀĀĀĀĀĀĀĀĀĀĀ ĀĀĀĀĀĀĀĀĀĀĀĀĀĀĀĀĀĀĀĀĀĀĀĀĀĀĀĀĀĀĀĀĀĀĀĀĀĀĀĀĀĀĀĀĀĀĀĀĀĀĀĀĀĀĀĀĀĀĀĀĀĀĀĀ
Ġkons ep
ĠåĪ ©
Ġt p
Ġber as
ĠAd ult
Ĭà¸¸à¸ ¡à¸
ĠRep orts
f ish
elu arkan
Ġag çİ¯äºļ
om ena
Ġfunction ality
ac am
Ġr ah
Ġcomp act
Ġrel ating
Ġå¹ ´
us nya
on o
ĠMer cedes
Ġia itu
æį ¢
Ġà®ī à®¤
F S
Ġp ipe
Ġme le
ĠT ent
éĽ »
ĠH á»
Ġ15 9
à¸Ńà¸Ļà¸ ¸à¸
L ink
Ľ à¸£à¸²à¸
Ġpack aging
Ġber n
¢à¸Ļà¸ ķà¹Į
à¸Ļ à¸Ńà¸Ļ
èĦ ĳ
end ak
Ġç ĥ
amp a
Ġ21 st
pl o
Ġhe ading
Ġà®ĩ à®ªà¯įà®ª
ĠH ung
ur ious
Ġsatis faction
ĠB ib
Ġcoll aboration
ĠWi Fi
ĠNg uyÃªn
ĠH O
Ġ7 D
ĠInter view
ĠB ot
ĠCommunic ation
f ox
ĠB ek
Ĺà¸µà¹Īà¸ ¡à¸µ
ĠS r
Ġmah u
¡à¸ ·à¸Ńà¸ĩ
ĠIns pect
ous el
Ġw arga
Ġre verse
Ġrev olution
Ġ19 60
Ġact ing
Ġtur ut
Ġj son
f ire
ĠAll en
ĠInstall ation
Ġfif th
ug al
ĠR adi
áĢģ áĢ¼
Ġreview ed
ĠSeb elum
Ġpar as
ĠM ai
ĠF lex
çª ģ
ĠS QL
ĠDub ai
ĠB eth
Ġm Ã¡i
ĠSh el
ĠB earing
T I
M C
Ġà®ī à®²à®ķ
Ġna q
avas cript
Ġb aca
æĿ İ
Ġhang ing
Ġh ampir
P at
Ġslow ly
ĠImp act
Ġadvert is
Ġfac ulty
ĠL amp
æ±½ è½¦
å®ī è£ħ
ux e
Ġh áº¡i
Ġs ai
Ġpl ain
ĠJ ep
Ġspe akers
Ġg á»Ĺ
atim ur
N ext
ĠM ission
ĠDis k
Ġstyl ish
Ġshould n
ĠBer lin
Ġà¸¢à¸ ¹
Ġd z
à¸µà¹Īà¸ Ľà¸
Ġthá» Ń
ĠDesign er
Ġth Ã¡i
åĨ Ļ
ĠD or
Ġh ukum
çļĦ æĺ¯
W idth
ĠÂ ĥ
Ġhas n
Ġbath s
ars h
ĠP ara
Ġout comes
çĶŁ äº§
om er
R Y
łà¸²à¸ Ħ
Ġto oth
Ġsubstant ial
Ġmet abol
Ħ áĢ¶
Ġà» ģàº
Ġh olidays
Ġeng aged
Ġà®ĩ à®©
st ate
Ġc ari
Ġb ass
arn o
ĠçĽ ¸
Ġadob ala
éĸ ĵ
è´ ¦
Ġun ion
ĠFall s
Ġ01 789
æķ° æį®
à¹Ħà¸¡à¹Īà¸ ¡à¸µ
od ium
Ġsel ain
ä¸ ĥ
ÃĬ Ãĩ
Ġroll er
å² ģ
P H
ĠAd obe
ob i
24 0
Ķ à¸Ļà¸
Ġà®¤à®®à®¿à®´ à¯į
Ġb und
high light
Ġtopnav__ log
Ġinvol ving
izont al
im g
áŁ Ķ
ĠB erg
ĠSuppl iers
ĠPal est
ĠãĢĤ ãĢĤ
Ġmem pert
³ à¹Ģà¸
ĠGamb ar
Ġenjoy ing
ĠTh ird
Ġb inding
Ġtr Ã¡nh
angk ok
à®ķ à®®à¯į
Ġhas h
çĻ ¼
ĠNe gara
Ġsw ing
å® ¡
Ġle mb
à¹Ģà¸ ģà¹ĩà¸
Ġà®ª à¯Ĥ
Ġcomb ine
ĠF ed
p p
ail ing
A E
Ġfund amental
áĢ¯áĢ¶ áĢ¸áĢ
AR Y
à¹Ħà¸ «à¸Ļ
Ġà¸ĸ à¹īà¸²à¸
ĠProgram s
A rt
Ġab stract
M D
Ħ à¹īà¸Ļà¸
Ġvis ibility
Ġl amb
Ġáŀĵ áŁģáŁĩ
ĠC afe
ĠSeb agai
áŀľ áŀ·
Ġu i
Ġà®¨ à®¿à®©
ĠO w
ĠG ross
Ġà¸Ĺà¸ ļà¸Ĺà¸§à¸Ļ
é Ĩ
al m
ĠáŀĢ áŀ¶áŀļ
åĢ į
į à¸µà¹Īà¸Ľà¸
ľ à¹īà¸²
ĠáŁ ¢
çŃ ¾
Ĺà¸µà¹Īà¸ Īà¸°
¡à¸ ŀà¸´à¸
lam m
à¹Ģà¸¥à¸ ¢à¸
Ġáŀĸ áŀ¸
iv o
Ġngh á»ģ
Ġmaint aining
Ġto gg
ĩ à¸²à¸Ļà¹Ģà¸
ĠPH P
ĠAnd erson
ĠÄĳ áº£o
èī ¯
åº §
Ġcut s
à®¿à®ķà¯įà®ķ à®ªà¯įà®ªà®Łà¯įà®Ł
Ġc ow
Ġà¹ģà¸¥ à¹īà¸§à¸
Ġocc urs
are house
ĠPh oenix
ĠH Ã²a
ĠF oto
èµĮ åľº
Ãģ Ãĭ
ĠÄĳ u
à¹ĩ à¸Ļ
dag angan
Ġo xy
Ġfind s
ĠInvest ment
im m
Ġrece iver
Ġ15 2
Ġrf eb
ĠV S
Ġint ro
ķ à¸Ńà¸Ļà¸
Īà¸°à¹Ģà¸ Ľà¹ĩà¸Ļà¸
ĠG aming
Ġg if
ĠMir ror
à¹ĥà¸ Ķ
Ġ\" \
ĠF ro
ç²¾ ç¥ŀ
Ġhers elf
Ġany more
ĠR ick
ģà¸¥à¸²à¸ ĩ
Ġout come
Ġapproach es
Ġrfeb 2017
ĠNEWPart 90
ĠB attle
Ġh em
Ġsn ap
Ġover view
ĠC raft
ĠC AN
ĠBud get
Ġstr ike
Ġprof iles
ĠProm o
å± ĭ
§à¹ĩà¸ļà¹Ħà¸ĭà¸ ķà¹Į
Ġpolit ik
Ġexpl ains
ĠÃ ¾
à¹Ĥà¸ Ĭà¸
Ġé ħ
ĠPh Æ°Æ¡ng
ķ à¸Ļ
Ġcan ada
ĠH us
è ĵ
æ° ¸
Ġh az
Ġth Æ°á»Łng
Ġevery where
anc ouver
!! !!
à¸£ à¹īà¸²à¸Ļ
Ġf lying
er apa
åŁ¹ è®Ń
Ġyour s
ĠSup reme
ĠM akan
« à¸²à¸£
les h
Ġä¸ ¤
Ġpaint ed
Ġdur able
àº ¹
Ġv ai
ad ah
Ġ ä¿Ŀ
çīĪ ä¸ĭè½½
ĠW ide
ĠFil es
ĠFA Q
il ion
Ġth áº©m
Ġh ij
Ġan ch
He ight
Ġ{ {
Ġregard less
Ġche aper
ĠM ang
é¢ Ŀ
re ation
ĠæĲ ı
Ġl uc
Ġke untungan
ĠSaf e
ĠH amil
áŁĴáŀ Ĵáŀ
à¹Īà¸§à¸ ¢à¸
à¯Ī à®¤à¯į
er d
Ġmod ules
è® ¿
Ġmake up
Ġc ater
à¹ģà¸Ļà¸° à¸Ļà¸³
EM ENT
5 f
Ġdim ensions
Ġd ose
Ġcar rier
it zer
A ction
Ġk iá»ĥu
ĠT Æ°
Ñ ħ
Ġn á»ĳi
Ġk ur
à¹īà¸² à¸Ļà¹Ģà¸
âĢ ĵ
Ġter percaya
Ġd rawn
ĠSk ills
ĠPrim ary
ep her
arg ets
ĠJ alan
or ce
Ġpull ed
Ġimplement ed
ĠMaint enance
áĢ¯ áĢĲáĢ¹áĢ
er ver
ĠCanc el
ĠF o
çļ ĩ
Ġè ¢
Ġg re
Ġf illing
æĿ ¯
Ġ7 B
Ġk lik
Ĥà¹īà¸Ńà¹Ģà¸ ªà¸Ļ
Ġæį ®
n ail
Ġm áº·c
ast y
Ĭà¸²à¸ ¢
Ġkep ala
è´ «
n ame
ĠR isk
Ġm 2
G D
Ġdir inya
Ġd uy
Ġcare ful
Ġ) );
ĠAtl antic
Ġacc um
ĠM IN
art i
Ġun iform
Ġdise ases
Ġcompens ation
ç» į
» áĢģ
T itle
Ġam at
Ġ? !
à¹ĥà¸ģà¸¥ à¹ī
ĠLeb ih
ĠF avor
åį Ī
wid th
à¹Ħà¸¡à¹Ī à¹Ħà¸Ķà¹ī
Ġj asa
aw ai
ed ge
ak ar
Ġb irds
Ġ(' #
Ġsatisf ied
Ġs emb
Ġadiars atimur
åĪ »
áĢľ áĢĬáĢ¹áĢ¸
Ġcons cious
ĠK ings
ĠJava Script
çĶµ æ¸¸
Ġn ih
Ġconc ert
Ġk os
á»Ľ m
ĠÃ ¹
Ġkes el
á»« a
Ġh áº¥p
ĠUn d
à¸£à¹Įà¸ ¥à¸µà¸ģ
Ġk 8
im an
Ab out
and o
±áĢ ľ
ot ed
Ġconcentr ation
ĠM aka
Ġà¸Ńà¸ ¸à¸
Ġà¸Ńà¸ µà¸
Ġsat ellite
il is
Ĭà¸µà¸§à¸´à¸ ķà¸
ĠP es
ick r
Ġc t
Ġæ ¿
å¼Ģ å§ĭ
å·ŀ æīĳåħĭ
ĠEd ward
ric ulum
Ġab b
ĠH ood
ĩ à¸£à¸²à¸Ħà¸²
Ġch Äĥm
ĠRe ally
à¹Ĥà¸ ŀà¸
Ġinf ection
ĠED T
à¹ĩà¸ ¡à¸
_ w
d am
Ġberh asil
Ġ20 2
áĤ Ĳ
Ø ª
ä¸Ń çļĦ
rol ogy
Ġtar uhan
ĠCol ors
ak en
Ġ Ćć
Ġber kaitan
Ġn Ã´ng
ģà¸ ³
ĠVict or
Ġph i
19 9
ķ à¸Ńà¸ļ
ĠDi et
Ġlegis lation
à¹ģà¸ Ĺà¸ĩà¸ļà¸Ńà¸¥
w ick
Ġáŀļáŀ ĶáŀŁáŁĭ
ĠM is
à¯ģà®® à¯ĩ
r ibute
Ġsubs cribe
à®¾à® ¨à¯įà®¤
Ġpo inter
ĠC OR
ĺà¸¸à¸£à¸ ģà¸´à¸Ī
ch i
ater n
L O
Ġtang gal
ĠS AL
ĠåĲ İ
ĠÐ º
Ġunderst ood
Ġbl end
Ġor al
ĠSh ah
ok o
AR E
Ġtarget ed
ĠT C
Ġcabin ets
ION S
A Z
Ġæ ¡
Ġk awan
Ġt Ã¹
id h
Ġform ation
Ġpenggun a
a is
ĠT ell
Ġimp ression
Ġh áº¡
ĠChalleng e
er on
ĠN abi
ĠCent ury
ah l
Ġâĺ ħ
ĠB alt
in ja
i our
Ġà®ª à¯ģà®°
Ġmenc oba
on ial
j ay
Ġmus lim
Ġback up
Ġk ul
à¹Ħà¸ Ł
p ost
ĠMin istry
ç¶ ²
Ġà®ĩà®° à¯ģà®ªà¯įà®ª
Ġl inh
Ġmer ch
¥à¸ ±à¸ĩ
b urn
Ðµ ÑĢ
Ġatt ended
Ġob st
Ġ\" ,
ĠMill ion
Ġcoupl ed
ĠOrgan ization
Ġ19 83
Ġan xiety
à¸£à¸ ©à¸
à¸Ńà¸° à¹Ħà¸£à¸
ĠçĻ ½
Ġfound ed
Ġdisc ounts
ĠS alt
æĭ ¿
à¯Īà®¤à¯įà®¤ à¯ģ
Ġ ion
tt es
Ġside bar
ªà¸ ±à¸įà¸
St ring
Ġbook ed
ks es
Ġà¸ªà¹Īà¸§ à¸Ļà¸
Ġprepar ing
âĢĿ ãĢĳãĢĲ
ªà¸ Ľ
Ľà¸£à¸°à¸ģ à¸Ńà¸ļà¸
Ġun ex
ĠCl inton
ĠB ull
Ġ" +
Ġw ikipedia
ĠSel atan
Ġed iting
wh el
aman an
Ġà¸Ļ à¸Ńà¸ģà¸
Ġè¿ Ľ
Ġpel uang
ĠW omens
Ġutil ize
Ġkey board
çİ© æ³ķ
Ġtrans actions
ĠCh a
are st
Ġcent ers
ĠNiger ia
ec om
Ġter utama
Ġd reams
ĠTr ib
åıĳ å¸ĥ
Ġc áºŃu
æ¯ į
å¤ ı
Ġw alaupun
Ġtekn ologi
w ire
ĠK o
Rem ove
æ¬ §
Ġmin yak
Ġam azon
ĠMatth ew
ĠEm b
ĠAl ways
åĪĨ pk10
ĠP rior
W N
ann e
Ġt ournament
Ġhyd ro
½ Ĳ
Ġà¹Ģà¸ģà¸¡à¸ ªà¹Į
S up
Ġà¹Ģ à¸Ń
ĠUk rain
ĠÃĶ Ãļ
els on
> >
Ġnecess arily
Ġd ot
ĠHealth care
land o
Ġ5 000
ut ion
p es
16 8
ķà¹īà¸Ńà¸ĩà¸ ģà¸²à¸£
Ġt áºŃn
Ġband ar
Ġ3 px
Ĉ ï¼Į
a ver
ĠåĪ©æĿ¥ æľĢ
Ġsuff ering
Ġrest ore
em ic
ĠMiss ouri
Ġleg end
Ġas li
ĠHard ware
Sh are
Ġident ification
r us
est a
Ġï ľ
ce k
Ġä¸ĩ åįļ
Ġs ik
Ã© e
Ġek onomi
ĠHal f
Ġw 88
il ter
Ġ} )
Ġpag ination
EN C
bo ards
Ġè Ĳ
ĠPe ace
ĠWith in
ĠV eter
ĠTim ur
à¸Ńà¸±à¸Ļà¸ Ķà¸±à¸ļ
Ġtit les
Ġac ara
ç½ĳ é¡µ
B ox
ĠBow l
áŀĢ áŁĴáŀĵáŀ»áŀĦ
ry lic
ĠL oss
à¸£à¸µ à¹Ī
à®£à¯įà®Ł à¯ģà®®à¯į
Ġ12 px
è®° èĢħ
ģà¸£à¸ °
Ġple asant
Ġpan as
Ġis u
Ġfeel ings
Ġà®ķà¯Ĭ à®³à¯įà®³
Ľà¸£à¸°à¸ ¡à¸²à¸ĵ
Ġst ations
à¹ĥà¸ ļ
cl osure
aw s
æĹ¥ æĬ¥
Ġdr inks
ĠTen nessee
z i
ĠYe ah
à¸£à¸±à¸ ģà¸
ģà¸¥à¸²à¸ ĩà¸
åŃ¦ éĻ¢
Ġhom ework
Ġhe aling
awas aki
à¯įà®Ł à¯į
Ġperson ality
H elp
ĠåĮ Ĺ
Ġng á»ĵi
Ìģ n
Ġ] =
Ġà¹ģà¸ ģ
Ġt áº·ng
ª à¹Ģà¸ĭ
Ġlic ensed
ä»£ è¡¨
Ġlok asi
ĠE sc
qu ote
åŃ¦ çĶŁ
ľà¸ ¡
z one
88 0
34 0
Ġfocus ing
è¯ ¾
Ġv ector
ÃĪ Ãķ
in ent
Ġpas angan
ĠZ one
ĠManufact uring
ape ut
u angan
ĠDa ftar
ĠRe le
Ġ ikan
é¡ º
æĹ©çĤ¹ åĬłçĽŁ
Þ¦Þ ĩ
Ġstrugg le
3 60
f ull
Ġwonder ing
áĢģ áĢ¯
av ors
ĠèĢ ģ
Ġpr iced
ĠQu áº£ng
ŀ à¸²à¸£à¹Įà¸
Ġà®ĩ à®©à¯įà®©
§ à¸Ńà¸£à¹Įà¸
ĠH iá»ĩn
ĠL P
éĮ ¢
c ut
12 4
ĠW ow
áº ¾
ĠS F
iá»ħ m
et ies
Ġà¸ īà¸
ĠM ari
H ead
à ½
ĠFeature d
äº¤ æĺĵ
Ġsubs crib
Ġm Ã¡u
Ġf iction
Ġenh anced
Ġ13 8
10 8
Ġm áº¯c
Ġc s
ĠRent als
á»¥ ng
ĠAnton io
æŀ ¶
Ġx áº£y
ch ed
Ġfall s
Ġch ips
st ock
anjut nya
ĠR av
Ĥà¸²à¸ §
ģà¸¥ à¹Īà¸²à¸§
at eway
Ġrelig ion
Ġille gal
Ĺà¸³à¸ ĩà¸²à¸Ļ
Ġle af
à®¿à® ªà¯į
Ġmak er
ĠA ch
Ġsuppl ied
ĠKab ar
± à¹Īà¸Ļà¸
Ġex ec
Ġcontact s
ĠVo ice
Ġcap s
ĠB os
Ġbay i
Ġc ouch
ĠW R
Ġvis its
ª à¸Ńà¸ĩà¸
Ġà®İ à®Łà¯ģà®¤à¯įà®¤
att oo
ĠM U
ĠD B
ĠCP U
Ġst abil
ok ed
ĳ áŁģáŀŁ
Ġmen it
ĠCol oring
äº ®
Ġcuration__ highlight
ĠStat istics
ĠW OR
R oom
ĠReview ed
ĠD H
Ġsu ami
Ġadip ala
ı çĦ
ĠLa unch
Ġperson nel
ĠRec ipes
ĠPress ure
å® ¾
P ar
ĠV ill
ĠAmer ika
9 00
à¹Ģà¸ Ľà¹ĩà¸Ļà¹Ģà¸
Ġsk i
èį ¯
Ġpack ed
Ġmen inggal
AV E
Ġev olution
Ġà®µ à®³
Ġact s
ĠMen u
Ġà®İà®©à¯įà®ª à®¤à¯ģ
Ġdam aged
Ġax is
Ġex ists
ĠSur vey
áĢĶ áĢ²áĤĶ
« à¹Į
om ed
Ġæ¯ Ķ
ĠSle eve
ĠD L
ung gu
Ġpel ajar
Ġäº ĳ
Ġm useum
un ikasi
ıçĦ ¯
Ġéİ ıçĦ¯
Ġelectric ity
ĠM p
Ġal ive
rop ical
en y
ģà¸£à¸°à¸ Ĺà¸
k el
ib adi
Ġret irement
Ġopt ional
ĠSet t
Ġd gn
Ġk or
Ġà¸Ħà¸ °à¹ģà¸Ļà¸Ļ
à¹Ĥà¸ ¥
ĠXu Ã¢n
ĠN ak
ĠRead y
ĠèµĮ éĴ±
Ġà¸ «à¸Ļà¹īà¸²
ĠÂ¡Â ±
im edia
Ġtemp orary
Ġinv ited
ĠJ en
à®Ļà¯įà®ķ à¯ģ
Ġy oga
Ġt ons
Ġb rowse
Ġsurpr ising
Ġmenj elaskan
ĠF red
ĠD unia
uj ud
Ġrepe ated
Ġãĥ »
æº ª
ĠâĪ ĳ
Ġdip erlukan
35 5
Ġf b
Ġcomplic ated
ĠCap acity
in is
Ġun w
Ġgreat ly
å®ĺæĸ¹ ä¸ĭè½½
Ġrefer ences
Ġr acing
ĠT s
áŀ¶áŀı áŀ·
ost ic
ļ à¹īà¸²à¸ĩ
Ġfr aud
ĠTw in
ļà¸ ¹
ģà¸¥à¸ ±à¸ļ
ĠÙ ħ
Ġà¸ĸ à¹Īà¸²à¸¢à¸Ĺ
Ġd up
Ħà¸¸à¸ĵà¸ łà¸²à¸ŀà¸
Ġpost er
¾ è®¯
ĠUB ND
à¸£à¸°à¸«à¸§à¹Īà¸²à¸ ĩà¸
ªà¸¡à¸²à¸ Ĭà¸´à¸
Ġkal o
Ġdr ives
Ġtw enty
Ġterl ihat
Ġsurf aces
Ġmeasure ment
Ġsp a
Ġc d
Ġa udi
ç» Ĩ
à¯ĭ à®Łà¯ģ
Ġb ills
ĠB uk
Ġv f
ķ áĢ¼
ĠM ED
á»§ ng
c al
Ġst ere
Ġpro x
Ġadire jo
å Ĺ
iáº¿ p
Ġà¸Ħà¸²à¸ªà¸´à¹Ĥà¸Ļ à¸Ńà¸Ńà¸Ļà¹Ħà¸¥à¸Ļà¹Į
Ġ15 6
ON T
Ġà®µ à®ķ
Ġcons erv
ķ à¸Ńà¸£à¹Į
Ġp ics
ĠS ung
ch ron
Ġ19 6
Ġ ä¿
10 7
Ġà¸ª à¸µ
Ġch Ã³ng
Ġ% }.
Ġm ari
ĠTH IS
éģ Ĺ
ol y
ay ar
Ġl Ä©nh
G u
ĠF uel
ĠM az
ah aya
ķà¸£à¸ ĩà¸
ĠFore ign
áº· n
aks ana
p c
con y
Ġc Å©
Ġwe igh
ĠB áº£o
è®¡åĪĴ _
hip ping
Ġtim ing
Ġmer ely
Ġall erg
ĠF ul
ĠEmer gency
ç»Ħ ç»ĩ
Ġtalk ed
Ġcondition ing
Ġclass room
Ġad am
ĠW at
à¹ĩà¸ Īà¸
Ġmedic ation
§à¸´à¸Ĺà¸¢à¸²à¸ ¥à¸±à¸
ens ing
ĥ ı
Ġà¹Ģà¸ ģà¸¡
ĠNe geri
Ã© n
Ġèĭ ±
Ġak un
ãģ «
ĠæĤ ¨
Ġà¸Łà¸£à¸µ à¹Ģà¸
Ġ30 px
ĠST AT
ĠKind le
p ot
Ġo dd
gress ive
Ġutil izing
D et
Ġ22 4
Ġ13 6
on line
aks a
Ġrec ip
IS S
Ġkn ock
ir ty
ch est
uk ur
Ġ25 6
æĸ¹ å¼ı
Ġh oles
ĠTh á»Ŀi
k r
b es
ĠV s
ĠC Ã´
A nd
Ġb unch
ant ung
Ġok ay
ĠAnth ony
Ġed ges
us o
ac ular
ers e
66 6
ĠáŀĬ áŁĦáŀĻ
Ġay am
ĠAnsw er
ul in
ĠB aca
ĠAlex ander
Ġp ace
Ġm áºŃt
ĠAb s
anding kan
Ġr ender
omm y
ist ol
Ġpar allel
Ġconven ience
Ġrob ot
ĠN ether
ĠCop y
Ġ4 38
Ġà¸ Ķà¹īà¸§à¸¢à¸
Ġr ambut
Ġemploy er
ĠDim ensions
ast ikan
Ġcon ver
Ġb lo
» áĢĻ
ĠW ikipedia
¡à¸ŀà¸´à¸ §
head er
ect s
Ġd ed
å® ³
ah al
Ġà®ĩ à®£
Ġå· ²
ĠMil itary
ĠDisc over
vel and
uh ur
Ġar ah
ĠDep osit
Ġfall ing
m ade
ĠáĢ±áĢ Ķ
Ġkh Ã¡m
ock ets
Ĺà¸µà¸ ¡
ĠJ oy
Ġ à¹Ĥà¸£à¸ĩà¹ģà¸£à¸¡à¸
é ¹
åľ° åĮº
ed ing
ĠAff ili
Ġ/ *
Ġdispl ays
Ġ3 80
Ġm áº¥y
áĢ±áĢ Ļ
Ġthu áº¿
Ġl Æ°á»£t
Ġl ady
ĠSubs cribe
å°ı æĹ¶
Ġit o
ĠT ro
Ġà¸¥ à¹Īà¸²à¸ªà¸¸à¸Ķ
Ġkes empatan
«à¸ ¸
ish a
ĠAl abama
Ġ97 80
Ġ14 px
à¸£à¸±à¸ Ĳ
10 3
aan o
ock t
ern a
Ĥ à¸Ļà¸²à¸Ķ
æĺ¯ ä¸Ģ
Ġà®®à¯ģà®¤ à®²à¯į
Ġk end
Ġt anda
_ re
ĠInc re
Ġ18 9
ĠIntern al
Ġacqu ired
ĠMore over
ç§ Ģ
Ġà¹Ģà¸§à¹ĩà¸ļ à¹Ħà¸ĭà¸
Ġmenj aga
Ġtr uy
Ġun e
Ġst ability
è®¾ å¤ĩ
ĠT ip
Ġto ler
am el
G M
Ġáŀ¢ áŁĴáŀĵáŀĢ
ĠGr ound
ĠCont ribut
åº Ń
åĿ ĩ
ªà¸¥à¹ĩà¸Ńà¸ķ à¸Ńà¸Ńà¸Ļà¹Ħà¸¥à¸Ļà¹Į
j an
Ġl ies
ĠX ia
ĠSim ply
Ġmen awarkan
Ġappoint ed
Ġ13 7
áĢ» áĢĸáĢħáĢ¹áĢ
duk si
Ġs áº¡n
Ġl upa
Ġjo ining
à¯ģà®³à¯įà®³ à®¾à®°à¯į
±à¸ į
Ġim per
Ġgr ades
n ut
ĠProcess ing
Ġcomp lement
Ġx Ãºc
Ġå® ¶
Ġà®¤ à¯Ĩ
à¹ģà¸¡à¸ Ĭà¸
aw atan
Ġberd asarkan
ĠSurg ery
áģ ļ
Ġc iri
ĠR acing
ĠH at
Ġbl ess
Ġbeh alf
Ġ0166 6
Ġæ £
Ġsm oke
ĠC E
ik iran
Ġx uyÃªn
Ġimpro vements
ĠWr itten
Ġa z
ı a
ĠF le
ov ed
Ġpur su
Ġp ets
ĠPl ate
Ġlov ing
ĠV Å©
ĠN BA
ĠM ilan
v s
ä¸į èĥ½
Class es
Ġa ust
AT A
U J
Ġnh a
ĠL amb
ĠAr gent
Ġbul k
Ĺà¸Ħ à¹Ĥà¸Ļ
Ġme ets
Ġmass age
Ģ áĢŃáĢ¯
us er
Pro duct
10 6
Ġv on
Ġre ct
Ġn erv
Ġfind ings
ĠGi ang
Ġindic ates
Ġà®ħ à®²
ĠResp onse
Ġpert andingan
Ġgent le
áĢĻáĢº áĢ¬áĢ¸
Ï ģ
Ġdep ression
isc al
ĠR ib
Ġlog ic
à¹ĥà¸ Ħà¸£à¸
à¯ģà®ļ à¯į
H H
Ã¨ m
Ġembod iments
Ġ ought
Ġvers us
à¹Ĥà¸¥à¸ ¢
ĠCont emporary
Ġr ising
Ġcam eras
à¹Ħà¸¡à¹Ī à¹Ħà¸Ķà¹īà¸
S ize
Ġsc ar
ĠP O
ä» ¤
ĠT b
Ġle ak
ĠÄĳ em
b ag
ah aha
ļà¸Ńà¸¥ à¸Ńà¸Ńà¸Ļà¹Ħà¸¥à¸Ļà¹Į
ap se
ĠS uk
èĳ Ĺ
àº ¥
Ġà®µ à®¿à®Łà¯įà®Ł
Ġappreci ated
Ġincreasing ly
ij aya
ĠMary land
in ance
b ound
Ġà¹ģà¸ Ī
Ġsm oking
Ġrepresent ed
Ġgi ant
us a
Ġáº¢ nh
Ġà®ķà¯Ĭà®£à¯įà®Ł à¯ģ
ĠSM S
Ġ6 30
Ġt act
y i
ling ton
Ġann iversary
ä½į ç½®
ĠTh r
Gr oup
Ġf ounder
Ġdistribut ed
Ġarrang ement
ĠT ang
ĠReg ard
ĠM OD
Ġthere of
Ġpix el
Ġqu áº§n
ĠO ri
Ĺà¸Ħ à¸Ļà¸´à¸
ĠIndep endent
Ĺà¸Ħà¹Ĥà¸Ļ à¹Ĥà¸¥à¸¢
ĠB eck
Ġag ak
à¸£à¸°à¸ Ķà¸±à¸ļ
ĠCl ient
ĠAh mad
an es
ĠN W
è¿ĳ å¹³
Ġmet ers
ĠC ant
Ġä½Ĩ æĺ¯
Ġng on
Ġult imately
ç® ±
Ġreve al
Ġw ise
Ġb its
ĠFl ights
à¸Ńà¸ ¡
Ġæĺ İ
Ġsl ip
Ġdem ands
Ġt Æ°á»Ľng
ĠH az
ĠDeg ree
ĠMel ayu
åĢ ĳ
Ġ20 5
ĠP ent
Ġâ Ķ
Ġw estern
ĠO t
Ġà®ĩà®°à¯ģà®¨à¯įà®¤ à¯ģ
ĠCh ain
G G
Ġà¸Ĥ à¹īà¸Ńà¸
Ġwithd raw
Ġliter ally
ĠS á»ĳ
Ġ= !
æīĢ æľī
Ġà¹Ĥà¸ ļà¸Ļà¸±à¸ª
ĠV el
em u
O b
Ġcan vas
ç¬ ĳ
IL E
Ġs á»Ľm
Ġr ings
ĠP or
è½ »
Ġkar ya
ĠTut orial
ĠB und
ĠBey ond
à¯ģà®± à¯Ī
Ġdish es
Ġbenef icial
ĠCast le
Ġju ice
ut her
Ġrep airs
ĠD ating
éĴ ¢
ĠçŃ ī
ĠCh ocolate
k es
be an
ĠPres iden
c n
Ġprofess or
æķ ĳ
ÌĢ i
ĠåĲ Ī
Ġbelie ves
ĠS ant
Ġtogg le
ĠÄĲ Æ°á»Ŀng
à¹Ģ à¸Ńà¸ģà¸
ĠPur ple
ĠA x
u ange
IN K
ĠN ar
ĠF old
ģà¸ ´à¸Ļ
Ġto gel
ĠM umbai
M E
Ġkem ampuan
ä½ĵèĤ² æĬķæ³¨
b ank
Īà¸±à¸ ļà¸
edi at
ĠKh an
ĠI k
ªà¸ ·à¹Īà¸Ńà¸
Ġà¸ łà¸²à¸©à¸²
Ľ à¸£à¸±à¸ļà¸
Ġequ ity
ĠBook ing
as ma
Ġx o
Ġcant ik
all ow
ĠAn onymous
ell i
I Y
ĠÃ »
Ġarg uments
ip her
ĠM aps
Ï Ħ
lection s
Ġt ired
Ġst ead
Ġd áº¥u
Ġ16 px
ern ame
Ġfakt or
AM P
Ġ30 4
ar ia
ĠÎ ¼
ĠOr d
ellig ent
Ġ12 th
pl us
Ġ19 75
à®¾à®± à¯ģ
à¹ĩà¸ Ħà¸
Ġpos isi
T P
Ġroad s
h al
Ġpat ent
Ġp usat
Ġcar b
ĠR anch
Ġm ort
lebih an
ªà¸±à¸ ķà¸
Ġgold en
Ġfocus es
Ġdes ain
áŁĬ áŀ¸
b age
Ġâ Ĺı
Ġre ly
_ IN
Ġà¸Īà¸³à¸ ģà¸±à¸Ķ
ĠN Äĥm
ĠV I
ĠD K
ĠCamb ridge
roc ery
E ng
Ġab adi
ĠAccount ing
§à¸ ĩ
Ġ20 4
Ġters edia
ol ly
ar ab
US 8
ĠIB M
ĠGraph ic
ĠFebru ari
Ġ13 2
Ġth Ãº
Ġrent als
ĠCom merce
Ġà®ªà¯ĭ à®°
ĠB ass
Ġ15 8
_t itle
Ġab ah
ach es
à¹Ģà¸ª à¸µà¸¢à¸
Ķ à¸µà¸¢à¸§à¸
Ġcomplet ion
à¹ģà¸ ŀ
ac er
A t
Ġoper ated
éĤ ®
à®¿à®¯ à®¤à¯ģ
Ġter rit
à¸£ à¹Īà¸²à¸ĩà¸
inst all
Ġà®ļ à¯ĩ
Ġres et
Ġperm ission
ĠO EM
1 14
Ġban ner
áŀ¼ áŀľ
å°¼ æĸ¯
ä» ħ
Ġv it
Ġ à¸Ńà¸¢
Ġhost ed
Ġc Æ°á»Ŀng
éĿŀ å¸¸
Ġseb agian
Ġreturn ing
ĠK Y
m ont
åĳ ³
omp ok
ĠÄĳ en
Ġlist _
ĠMethod s
ik h
Ġbu á»ķi
Ġassign ment
Ġ15 7
å± Ĭ
10 9
ĠG E
ĠCr ush
Ġs ib
Ġem ails
Ġay at
ĠSuppl ier
ĠKet ika
Ġs ambil
è¯ ī
æĭ ©
ard o
ĠMach ines
as ir
Ġny aman
ĠSub m
ĠH asil
ç £
ĠLoc ated
à¹ģà¸Ĥ à¹ĩà¸ĩ
Ġpep per
Ħà¸§à¸²à¸¡à¸ Ħà¸´à¸Ķà¹Ģà¸
Ġà¸£à¸ «à¸±à¸
ĠCert ificate
_ v
Ġ14 8
æ± ĩ
le ting
ĠãĢĤ âĢľ
Ġm Ã£
Ġb unga
Ġà®µà®´ à®Ļà¯įà®ķ
Ġbas eball
ĠM V
ĠHe avy
Ġsc rap
Ġent itled
ç¨ İ
Ġphil osophy
Ġà®ķà¯ģà®± à®¿à®ªà¯įà®ª
ĠAutom otive
Ġman faat
Ġà®ķ à®£à¯įà®Ł
ĠN om
Ĭà¸²à¸ ¢à¸
Ġf ing
ĠCurr ently
Ľà¸ıà¸´à¸ ļà¸±à¸ķà¸´à¸
éĥ¨ éĹ¨
3 50
ĠB I
Ġæ² ¡
Ġconfig ured
ĠL Ã½
Ġ... "
Ġ20 8
ĠIsland s
éģ İ
Ġp ap
ĠP EN
Ġev il
B R
ħ è¯»
Ĥ à¹Īà¸²à¸§à¸
omet ric
Ġà¸ ĵ
ĠS á»Ł
Ġserv ers
Ĳ à¸²à¸Ļ
Ġpro port
Ġh iring
Ġcoup ons
rupt cy
Ġy v
Ġab ban
Ġ21 5
Ġng á»¯
ym e
it ations
Ġreg ulation
Ġperm it
Ġbl ind
Ġabban uange
Ġå¤§åıĳ å¿«3
ä¸Ĭ çļĦ
âĺ ħ
ih kan
B r
Īà¸°à¸ ¡à¸µà¸
ĠM ET
ąĈ Ćć
Ġph iÃªn
ĠL OV
ĠG ary
áĢŃ áĢĲáĢ¹áĢ
e vent
M od
Ġnewsp aper
á»Ļ n
Ķà¹īà¸§à¸ ¢à¹Ģà¸
ĠB Ã¡o
ª à¸£à¸£à¸
m outh
Ġà¸Ĺà¸ ³à¸
ra ul
p n
Ġst ocks
Ġim plic
æĭ į
uk o
¥à¸ ¹à¸ģ
Ġdis ini
ä¸ ½
ĠN inh
Ġ Æ¡n
Ġinitial ly
ŀà¸§à¸ ģà¹Ģà¸
ĠåĲ Ħ
áŁĴáŀļ áŁĩ
éĢ Ģ
«à¸Ļà¹īà¸²à¸ Ĺà¸µà¹Īà¸
Ġh 3
ĠTet api
ĠL ag
ĠCho ice
Ġatt ending
ĠRepublic an
ĠG ro
áĢ¸áĢ Ľ
Ļ áĢº
Ġintel lectual
Ġber c
ĠFin ish
æī §
Ġse asons
Ġ19 20
ŀà¸´à¸ ¡à¸ŀ
Ġà®¤ à¯Ģ
Ħà¸ ¡à¸
Î »
ĠNh Ã¢n
à®© à®®à¯į
è° Ī
Ġ3 25
Ġrank ed
ĠR C
ple te
itt y
ang nya
Ġwatch ed
Ġc ord
Ġåĳ ¨
Ġevalu ate
ĠPort land
Ġper ubahan
áĢģ áĢ¶
th eless
ĠHigh way
ĠR SS
ĠD ear
al id
Ķ à¹Įà¸
Ø ³
Ġste am
ib atkan
è§ Ī
ĠSt ick
ĠSim on
ĠF S
k ar
add y
Ġsyn d
Ġrol ling
ĠæĲı å¤©åłĤ
Ġdeterm ining
à¹ĥà¸ Ħà¸£
art o
Ġà®ª à®¿à®©à¯įà®©
æ´ ¾
Ġch ecks
Ġser if
Ġover look
Ħà¸ ĩà¸
Ġr iding
ĠSc ore
Ġæ ¢
Ġà®ªà¯Ĩ à®¯
13 5
ĠBut ter
Ġweap ons
åĲ ī
Ġrapid ly
ĠJe ep
on ing
Ġqu anh
less ly
Ġå¤ ª
Ġà¸ §à¸±à¸Ļà¸
Ġpre st
Ã© s
Ġout s
Ġbuy er
ĠSter ling
ĠT ile
Dis play
Ġé Ĵ
n ull
Ġ3 15
z o
Ġwis ata
èĩªå·± çļĦ
Ġn ail
ĠJul i
Ġ0113 18
¸à¸ ©à¸
Ġà¸ĭà¸ ¶à¹Īà¸ĩà¹Ģà¸
Ġh es
Ġa ek
He alth
... ]
Ġbank ing
áŀĺáŁĴáŀ Ķ
um per
or rect
Ġexist ence
ĠH Ã£y
áŀ¼ áŀĵ
Ĺà¸µà¹Īà¸ Ķà¸µà¸Ĺà¸µà¹Īà¸ªà¸¸à¸Ķ
Ġch áº¥p
ĠMel bourne
Ġä¸Ĭ ä¸Ģç¯ĩ
Ġover whel
c ers
Ġà¸Ļ à¹īà¸³à¸
Ġcomm it
ĠA BC
Ġcool ing
áŀĳ áŀ¸
ol ine
Ġ[ [
Ġch ronic
³ à¸£à¸
ĠĈ ąć
åı ³
Ġm Ã£i
Ġber ubah
Ġà¸Łà¸£à¸µ à¹Ģà¸Ħà¸£à¸Ķà¸´à¸ķ
Ĭà¸± à¹īà¸Ļ
Ġgun a
à¹ģà¸ģ à¹ī
ut uhkan
Ġè ĥ½
Ġph osph
on ut
ĠÐ ¼
ĠTh erapy
ĠG il
áĢ±áĢ ŀ
se x
ic ate
Ġà®®à®ķà¯įà®ķ à®³
Ð¾ ÑĢ
as kan
ĠáĢ» áĢĻ
Ġà¸«à¸²à¸ ģà¸
ĵâĸĵâĸ ĵâĸĵâĸ
ĠInd ivid
Ġke ku
Ľ à¸´à¸Ķ
ĠSep erti
bor o
Ch eck
å¸ ģ
ĠStr ong
Ġinstall ing
Ġb okep
Ġà¸Ķà¸ ±à¸ĩ
Ġsuff er
Ġch áº¯n
Ġalong side
ĠI ST
áĢ±áĢ «
ĠBag aimana
å® ĥ
Ġm art
æĪĲ ä¸º
ĠL ett
ĠD ental
ĠAlas ka
Ġelect ed
ĠM aker
à®ªà¯įà®ªà®Ł à¯ģà®®à¯į
ĠN ama
ĠN at
ĠS ementara
y ang
P er
ģ à¸£à¸²à¸
Ġà®¤à®² à¯Īà®µ
Ġre h
Ġalle ged
In ter
Ġdecre ase
áĢ¯áĢŃ áĢĦáĢ¹áĢ
à¹ĥà¸Ĭ à¹Ī
ru it
ĠOff ers
ĠN othing
ĠMor ning
ĠCon vers
àº²àº ¡
U V
Ġhead ed
ĠH indi
ĠAth let
«à¸į à¸´à¸ĩ
¨à¸¹à¸Ļà¸ ¢à¹Įà¸
ind u
_ th
Ġ19 82
Ġn aturally
ab l
ĠáĢ Ł
Ġà®¤ à¯Ĥ
ĠDat abase
Ġ13 3
Ġ000 0
aj ian
Ġwh ilst
Ġw ake
Ġp it
r aga
Ġwil ayah
ĠBr ain
í ķ
ĠS ites
å¸ ®
Ġtext ure
Ġc áº¥u
Ľà¸ģà¸£à¸ ĵà¹Įà¸
Ġà¸Ĺà¸ ±à¹īà¸ĩ
ª à¸£
è¯ Ģ
Ġm igr
Ġbro ke
xt ures
Ġ= âĢĿ
gr aduate
Ġà®ķ à®¾à®£
à¹ĥà¸ª à¹Ī
atin um
ĠC ad
ÃĶ ÃĤ
ny ata
Ġens uring
Ġbe bas
Ġattribut es
ĠJ et
m etic
1 15
Ġmin ister
ĠTh eme
ore t
Ġkeput usan
Ġi i
Ġdiss ertation
é ¼
Ġlegis l
ĠCons umer
is ional
Ġang ka
Ġthumb s
Ġman if
Ġch á»¯
Ġ14 6
Ĥ ¬
Ġro yal
Ġd c
ĠH AR
Ġth áº£o
Ġpen is
ĠAdvent ure
Ġè¡ Į
áĢķ áĢ¹
Ġl Ã¡
à¤ ¿
Ġt á»ĳc
ĠB ags
Ġcred its
inc iple
ĠF eel
Ġ( /
à¸Ļà¸µ à¹Īà¸
à¯Īà®ķà®³ à¯Ī
ĠUt ah
áĢķ áĢ²
Ġn ang
Ġag greg
ĠInclud es
Ġ19 78
Ġs uy
ĠM ua
Ġà®®à¯ģà® ´
u atan
H TML
Ġæİ ¨
ĠJ ro
¢à¸²à¸ §
Ġg ender
ĠStrateg y
ĠPart ners
áŀ¶áŀŁ áŁĭ
Ġm iá»ģn
Ġconnect ing
as aran
Ġà®ª à®´
Ġstrong ly
Ġm oon
AN Y
Ġkh á»Łi
ĠS ure
Ġst ages
ĠTo o
ĠG ree
Ġmer ah
ag h
Ġt argets
ĠUlt imate
ĠHous ing
it ate
n ews
j ior
Ġabus akim
ĠY oga
Ġ{ -
Ġgrant ed
ĠM ORE
ĠBand ung
Ġadian jior
Ġad abang
ĠOp ens
vr f
Ġhad ir
åħ¨ åĽ½
Ġu jar
ĠDes ktop
ĠN okia
å· ¦
Ġdiv Classes
ch arg
ex p
3 D
ĠS q
ĠDo ors
Ġf ho
Ġb att
hat ikan
Ġäº İ
ĠJun i
Ġne ither
int ang
à®¤à¯įà®¤ à¯ģ
Ġmen uju
· à¹īà¸Ńà¹Ģà¸
ew here
ĠR idge
f vgr
Ġà®µà®¾à® Ļà¯įà®ķ
Ġse ctors
ĠQ verpgbel
ĠAn na
æ¡ ¥
be vrf
Ġobl ig
ĠReg istration
Ġtind akan
Ġch est
Ġbut tons
Ġtr áº£i
Ġaf raid
ĠSn ap
ĠAuthor ity
ĠH K
Ĭà¸²à¸ ķà¸´à¸
Ġhigh lights
Ġcon clusion
à¸Ńà¸£à¹Įà¸ ķ
N et
ĠC av
Ġng Ã´i
ĠPro perties
qu et
Ġ14 7
Ðµ ÑĤ
ĠæīĢ ä»¥
Ġla id
ĠKent ucky
ĠB ird
Ġáģ ģáģ
é¦ Ļæ¸¯
Ġstudy ing
R I
ĠNether lands
Ġtrad er
b f
Ġà¸ ®
ĠD ak
Ġ ä¹Ĳ
att an
Ġtr ash
ĠL am
U F
14 9
ĠStat ement
ĠCan vas
éĥ¨ åĪĨ
30 4
Ġ125 rem
anya an
ľ à¹Īà¸²à¸Ļ
ĠP ra
à¸£à¸ ±
ªà¸±à¸ ¡à¸
A IN
Ġrespons ive
áŀ» áŀģ
itt ers
èį Ĳ
1 18
ĠCare er
ĠAn ne
àº ¸
Ġcop ies
ĠV ancouver
ĠOp port
Ġà®ķà¯Ĥ à®Łà¯įà®Ł
k om
Ġut m
Ġprot est
Ġleg it
çŁ Ń
R S
Ġfa ult
ĠBet ween
Ġà¸ª à¸´à¸Ļà¸
Ġevery body
ĠáĢ¡ áĢŀ
Ġfre el
çĸ Ĺ
Ġthous and
ĠSpecial ist
åľ ³
ate ful
ĠB rew
Ġinspect ion
Ġent ries
Ġcon e
ĠSec ara
ĠP atch
Ù ĥ
ĠFlow er
àº ª
pl ing
_ A
Ġms g
Ġexam ination
St ore
Ġti ada
Ġc inta
ĠPr incess
ic ide
Ġ3A null
áĢ¬áĢ¸áĢ ¡
22 5
Ġres ident
Ġlarg ely
ĠLead ership
B ack
Ġà®µ à®¿à®µ
Ġv u
Ġdiagn osis
Ġfac ed
Ġc ement
Ġå Ķ
ªà¸³à¸Ħà¸ ±à¸į
ad ise
ĠâĢ¦ âĢ¦âĢ¦âĢ¦âĢ¦
ĠK ay
æĿ¥ çļĦ
ĠBand ar
Ġcontract s
ĠPend idikan
ĠMor gan
ä¸Ģ æŃ¥
_ type
Ġ20 21
Ġ; }
à®¿à®² à®¿à®°à¯ģà®¨à¯įà®¤à¯ģ
Ġbit coin
éĶ Ļ
i q
Ġut k
Ġpow ers
Ġmemb utuhkan
Ġar gu
ĠL lc
Ġà¹Ģ à¸Ńà¸
ĠBah asa
èį £
Ġdeliver ing
Ġt s
Ġvot ed
Ġv Æ°á»£t
áŀŁ áŁĴáŀŁ
ad der
ĠL ost
éĥ½ æĺ¯
«à¸¥ à¹Īà¸²
r in
ĠV itamin
ĠP usat
Ĭ à¸Ńà¸ļ
resh old
ĠIll ustr
epher d
Ġse es
Ġco ating
Ġb ull
áĢĦ áĢ·
Ķà¸²à¸§à¸Ļà¹Įà¹Ĥà¸«à¸¥à¸ Ķ
ĠV ice
çĶµ è¯Ŀ
Ġfr ames
ĠH ab
ĠArchitect ure
Ġà¸Ĺà¸ ±à¹īà¸ĩà¸
ĠTok yo
ĠDefin ition
à¸£à¸§à¸ Ī
Ġé ľ
é¢Ħ æµĭ
Ġæ¸ ħ
Ġro d
Ġhop es
Ġf est
ĠReg ular
çĶµ å½±
æī ĺ
Ġsubstant ially
Ġter nyata
Ġch arm
ĠV ision
ľà¹Īà¸²à¸Ļà¸ ¡à¸²
ĠÐ ´
dd _q
ĠJ ump
à¹ģà¸£à¸ ģà¸
Ġåķ Ĩ
b oy
Ġsh elf
Ġk in
à¸Ļà¸ ±à¸ģ
T able
Ġak ibat
ER T
Ġvis itor
ĠR V
ÃĲ ÃĲ
ļà¸±à¸ ķà¸£
Ġpenggun aan
Ġp ok
ĠW y
Ġ9 th
ak mur
Ġng á»Ŀ
ĠEn s
ªà¸´ à¸Ļ
ual a
Ġl ung
ĠY OUR
ĠTer ima
Ġm ild
Ġcer emony
ĠPub Med
áŁģ áŀħ
Ġopin ions
Ġhe y
ĠH our
ĠPolit ics
ĠOper ations
ŀà¸²à¸£à¹Įà¸ Ĺà¹Ģà¸
Ġth ao
Ġmax im
Ġar bit
à¸Ńà¸¢à¸¹à¹Ī à¹ĥà¸Ļà¸
Ĺà¸³à¸ ĩà¸²à¸Ļà¸
Ġadjust able
Ġ[ ...]
ra il
Ġqu en
Ġmarket place
ĠT empat
ĠN y
ĠN ga
ï »¿
Ġsent ence
Ġáŀ ĨáŁĴáŀĵáŀ¶áŁĨ
20 12
Ġstr ange
im ore
g ian
Ġqu Ã¡n
Ġ11 th
Ġ28 0
ķà¹Īà¸ ³
Ġdivid ed
g iving
Ġ15 4
ĠFrank lin
Ġ( (
Ġnh á»Ŀ
à¯Īà®¯ à®¿à®©à¯į
x 4
Ġà¹Ģà¸ Ĥà¹īà¸²à¸
Ġc ul
Ġà¸Īà¸ ±à¸ĩà¸«à¸§à¸±à¸
ĠDevelop er
yl on
ie v
ĠæĽ °
ĠOrgan ic
ch en
ĠKnow ledge
áŀ¶áŀ ī
se e
ĠWh eels
ĠCons um
aw aran
Ġmengikut i
Ġch amber
ĠE NG
ank a
Ġæ° ĳ
ĠPl ug
ĠPh im
ĠN M
¥ à¹Īà¸Ļà¸
Ġs amp
ä½ĵèĤ² åľ¨çº¿
Ġdescrib es
ĠM ode
Ġstrong er
ĠD utch
ĠCharl otte
ª à¸Ļà¸²à¸
urr ency
ĠTest ing
Ġ ie
ļà¸²à¸ ĩ
Ġmen urun
Ġloc ks
Ġle ase
ĠFl u
ĠI b
Ġgia i
ĠD á»±
Ġ2 19
éĸ ĭ
Ġ à¸Ńà¸¢à¹Īà¸²à¸ĩ
åº Ħ
Ġs outhern
ep s
Ġl oyal
c f
Ġåħ ±
Ġmemb uka
Ġe u
ĠSt adium
Ġ ãģ
áŁĢ áŀı
its ub
Ġseb esar
Ġrele ases
Ġ19 81
å¾ Į
us ic
ors hip
Ġber ita
ĠF t
ĩà¸´ à¸Ļà¹Ģà¸
æĦ ¿
ilm akmur
AR A
Ġpend apat
Ġad ilmakmur
Ġà®ļà¯Ĩà®¯ à®²
Ġà®Ĩ à®¤
Ġà¸Īà¸ °
ĠR ew
åŃ¦ æł¡
à¹ģà¸ «à¸Ļ
áĢ± áĢĢ
Ġz oom
ast ed
ĠC ord
ĠDet roit
ĠÄĳ áº©y
20 1
d ul
G L
Ġph a
Ġ10 24
Ħà¸£ à¸Ńà¸ļà¸
ĠSh ip
ĠF ishing
ĠAl uminum
Ĥà¹īà¸²à¸ ĩà¸
ut ing
Ġl iá»ģn
Ġequ ally
à¹Ĥà¸Ĺà¸£à¸ ¨à¸±à¸ŀà¸
T B
ĠJan e
IC H
Ġlo ose
Ġcompl iment
ĠD apat
à¯ģà®µ à®°
Ġwant ing
G V
Ľà¸±à¸įà¸ «à¸²à¸
Ġqu een
Ġber man
ĠR ules
ĠT uhan
ĠPh ill
r ite
Ġg otten
ĠG ot
ĠG iven
pe ed
Ġst amp
yth on
asil itas
Ġáŀĳ áŁħ
Ġs ulit
en ame
Ġà®¨ à®¿à®°
Ġessential ly
ĠC ounter
Ġloss es
ĠR D
à®ķ à¯ģ
j et
IT ED
åĨ ²
áŀĦáŁĴáŀ Ĥ
Ġb reat
Ġar my
ĠN ash
é ĳ
ir ates
Ġnu Ã´i
à¯ĭ à®°
ĠáĢ» áĢĸáĢħáĢ¹áĢ
Ġtemperature s
z ed
Ġestim ates
Ġà¸ķ à¹Īà¸Ń
Ġà¸ Łà¸
ĠCOM P
i am
_ H
Ĭà¸²à¸ §à¸
Ġmist ake
Ġk aya
Ġ">< /
Ð½ Ð¸
leup on
Ġpil ot
Ġhope fully
aw i
Ġscient ists
Ġreply __
Ġsh ade
Ġb un
Ġ áº¥n
em ed
Ġhy brid
à®¾à®³ à®°à¯į
ĠKh u
ªà¸§à¸ ¢
Ġun defined
ĠH unter
Ġwh olesale
Ġ15 th
op ic
Ġà®ķ à®¤
Ġs ans
ĠX box
ĠTrad itional
Ġ6 40
Ġæµ ł
Ġchem istry
à¯Ĭà®° à¯ģ
Ġsim ult
Į æľĽ
Ġà¸ŀà¸£à¸µà¹Ģà¸¡à¸µà¸¢ à¸£à¹Į
ĠA BS
Ġsm ell
Ġemploy ers
Ġc atal
à¯ģà®¤ à®¾à®©à¯į
l r
Ġå ĸ
ĠW ard
ĠAff airs
j ian
Ġ18 th
Ġword press
Ġpharm acy
ĠM K
ĠAssoci ate
Ġå¤§åıĳ å½©ç¥ŀ
Ġn urs
Ġdemonstr ate
Ġ2019 å¹´
_ D
d on
77 4
Ġengine ers
Ġclick ing
Ġp iano
Ġman ip
ĠTh iáº¿t
fer ences
Ġc ats
ĠX e
Ġtex ts
ĠSched ule
Ġ16 9
Ġvin yl
ĠChampions hip
Ġanal ytics
ķáĢ« áĢĲáĢļáĢ¹
çŃ ĳ
§ à¸µà¸
ON D
Ġacquis ition
ĠCh art
Ġ2 99
Ġ/"> <
Ġo lah
Ġf ake
ĠThe ater
Ĭà¸ ·à¹Īà¸Ń
Ĥ àºŃ
ĠAd apter
ķ à¸£à¸²à¸
Ġveget ables
Ġag ed
Ġto ys
Ġsp are
Ġne utral
Ġb áº¿p
ĠC ao
Ĥ à¸Ń
Ġà¹ģà¸ Ĺà¸ĩà¸ļà¸Ńà¸¥
Ġà®İ à®¨à¯įà®¤
Ġbo ots
i w
Ġpass es
Ġop pon
ĠMor ris
Ì£ i
Ĩ à¸
æ ¾
r q
_ ROOM
ļà¸²à¸ ¥à¸
Ġt rem
Ġdrop down
ĠTO P
ä½ ³
ļà¸²à¸ ¢à¸
Ãµ i
auc et
T ravel
Ġflex ibility
Ġb rew
Ġatt itude
Ġal u
Ġsubsequ ent
Ġsubm ission
Ġpray er
ĠUp per
ĠHer itage
Ĺà¸µà¹Īà¸ ªà¸¸à¸Ķà¸
Ġtest im
Ġphotograph s
iz a
Ġà¸ªà¸ ¸à¸
àº²àº į
viron ments
à¯ģà®µ à®¤à¯ģ
Ġinj ured
Ġinf lamm
Ġdep os
ep age
Ġsuper b
Ġlá» Ĺi
il ation
ĠB ench
un i
ĠRel ig
§ à¸µ
Ġà®ķà®° à¯ģà®¤à¯įà®¤
ĠElement ary
éģ ĩ
Ġà¸ŀ à¸´à¸
Ġins et
ĠUl asan
en ang
ŀà¸´à¹Īà¸¡à¹Ģà¸ķà¸´à¸ ¡
ĠCar pet
' );
ĠM AT
Ġ2 90
ĠOb s
ĠX ML
Ġfab ulous
Ġcelebr ation
ĠAl ong
ik er
ĸ à¸Ńà¸Ļ
Ġscen es
Å© i
¡à¸²à¸ ķà¸£à¸
ag re
Ġæ¹ ĸ
Ġappl iances
ĠL ower
ģà¸²à¸ ¢à¸
ĠáĢ ¥
ĠH ip
Ġprincip al
Ġc itation
ĠIt u
ĠCB D
Ġ19 79
Ġsu ara
à®¿à®°à¯ģà®ķà¯įà®ķ à®¿à®±
Ã² i
itzer land
Ġun ited
Ġop posed
j al
20 13
12 6
Ġillustr ated
ĠHamil ton
Ć Ć
anch ise
æĺ¯ ä»Ģä¹Ī
Ġw ing
ĠP OST
Ã Ľ
Ġinstitut ion
Ġover night
Ġcal m
åĪĽ æĸ°
ĠOr lando
Ġlast ing
à®¾à® ¸
av irus
D D
å·ŀ å¸Ĥ
k le
Ġl áº½
Ġcol ours
ĠUn known
ĠEv alu
ĠA er
al ore
ĠW idth
Ġ2 75
Ġpr ints
Ġadopt ed
ĠCh airs
à®¿à®ķà¯įà®ķ à¯Ī
apt ers
Ġbar code
ad akan
Ġth iá»ĩu
ľ à¹īà¸²à¸
Ġç Ł³
ĠV iá»ĩc
let ed
Ġexpand ed
Ġdocument ation
ĠSw iss
ĠSt ores
ĠD omin
è ¿½
ģà¸²à¸£à¸ ĵà¹Į
ĠOr th
itsub ishi
Ģ è¡Į
Ġb enda
æĹ¶ ä»£
Ġká» ·
Ġkey words
ĠCal cul
emp ts
Ġtw in
Ġd iversity
ĠHow ard
Ġà®İà®©à¯įà®ª à®¤
ç ĭĹ
v c
back s
Ġtw ist
Ġas al
Ġremov ing
Ġdesign ers
ĠB isa
is ure
Ġà®¤à¯Ĩà®° à®¿à®¯
lass es
Ġ ud
ĠTra ff
c os
ĠJust in
ĠB id
è° ±
Ġabadi jaya
ry s
p apers
ĠL isa
Ġcalcul ated
ĠR P
ĠO UT
race let
ĠSet iap
ĠG uru
ew ise
ach ing
Ġà®µ à®¿à®´
ĠN V
Y X
Ġ19 77
à®¿à® £
ªà¸³ à¹Ģà¸£à¹ĩà¸
ĠÃ ²
Ad ded
à¸£à¸¹à¹īà¸ ªà¸
Ġà®¤ à®ķ
Ġunc ert
ĠAc ademic
Ġprov ision
ĠPre tty
h and
con nect
Ġé ¾Ļ
Ġl os
Ġg ained
ĠK á»³
å¿« ä¹Ĳ
Ĭà¹Īà¸§à¸ ¢à¹Ģà¸
Ġ18 5
Ġd áº¡y
à³ ģ
Ġpekerja an
Ġla undry
ĠDev ice
åĽ °
ugg ed
Ġvari ation
ĠSU V
é¢Ĩ å¯¼
Re g
Ġwer en
å ´
ä¸Ń å¤®
ĠT Ãłi
ĠNot ebook
ĠCas ual
ĠW ah
r ence
Ġà®ªà¯ĭ à®©à¯įà®±
Ġs d
Ġcal on
ĠG U
ĠD ent
Þ ©
Ġk adang
ĠK L
Ġsem iconductor
ay anan
' #
Ġn ike
Ġgener ating
Ĭà¸µà¸ ŀ
Ġde h
ĠSER V
t i
ĠH end
ol s
Ġk eter
Ġf en
åĲ ¦
T w
åĢŁ æ¬¾
Ġf u
ĠJon athan
Ġd os
áĢĶ áĢ¾
Ġà®Ĵ à®©à¯įà®±
Ġemp at
ĠON E
ĠCon vert
Ġ19 76
Ġact or
p at
Ġà¸ ģà¸±à¸ļ
Ġs our
Ġberman faat
ĠBook mark
Ġs á»£
ĠDef ense
Ġ14 2
og ram
ab an
Ġä½ ¿
Ġà¹ Ĵ
Ĺà¸£à¸ ĩà¸
Ġreach ing
ĠLog in
ĠBe at
è¡ £
20 2
kan s
_ r
Ġd uduk
Ìģ ng
il angan
ane ously
éĢ Ļ
æĽ ¾
ost rip
Ġà¸« à¹īà¸Ńà¸ĩ
Ġn áº·ng
Ġ' /
éĺ ¿
æ»ļ çĲĥ
Ġ0175 32
Ġperiod s
Ġc Ã¡n
à®¿à®© à®°à¯į
ģà¸´à¸ Ķà¸
Ġà®¨ à®©à¯įà®±
åį ĸ
ar th
ĠAnsw ers
Ġà¸« à¹īà¸Ńà¸ĩà¸
Ġtopnav__log ostrip
Ġthick ness
Ġsej umlah
Ġmenj adikan
à®¯ à¯į
out ique
12 7
Ġun limited
Ġlou nge
Ġintrodu ce
ĠW oman
ĠG em
Ġexecut ion
ab s
Ġblog ger
Ġven ue
Ġs Ã³c
Ġj ug
¥à¸ĩà¸Ĺà¸ ¸à¸Ļ
w orld
p ir
g b
ach i
Ġàº ª
Ġod ds
Ġb aking
ģà¸²à¸£à¸ Īà¸±à¸Ķà¸
ĠMult iple
Ġput s
Ġpil ih
Ġh unt
Īà¸³à¸Ļà¸ §à¸Ļà¸
Ġexpl oring
al ty
Ġakt if
Ġthere by
Ġdip l
è´ ¸
ĠCor ner
à®¿à®¯ à®®à¯į
Ġà®¤à¯ĩ à®µ
Ġs ought
ĠT ank
Ġra ising
Ġn iá»ĩm
Ġgu ides
ĠB ila
ĠAf ghan
à®¿à®¤ à¯į
ĠOpt im
ĠGi Ã¡o
Ġst em
Ġnew est
12 2
ĠSt orm
Ġr anging
ĠD ial
¹à¸ Ľ
Ġp ec
Ġobject ives
ĠDev ices
od er
Ġpr ide
çĸ «
Ġjust ify
ĠP ant
Ġ) |
alam ang
Ġ20 6
Ġjack et
Ġsudden ly
Ġf ade
ap ur
Ġnetwork ing
up e
N C
H ow
Ġb áº£ng
ack er
Ġà¸ ļà¸²à¸Ħà¸²à¸£à¹Īà¸²
ĠB angkok
aks ud
Ġsens it
Ġb ands
Ġ* /
æĵ į
æ´ ŀ
Ġà®µ à®¾à®°
Ġf ancy
ĠE aster
Ġn utrition
Ġgamb ling
Ġexam ine
é «
áŁ ¢
ª à¹Ģà¸
ª à¸Ńà¸ĩ
Ġenerg i
R ed
k ipun
¡à¸²à¸ģà¸¡à¸²à¸ ¢
Ġarrest ed
Ġposit if
Ġunivers al
Ġres ervation
Ġhard er
Ġdan a
Ġsek al
ĠPal ace
Ľà¸±à¸įà¸ «à¸²
ĠP ag
ĠAnd y
ĠáĢĢ áĢº
Ġfin est
Ġab it
Ġáŀł áŀ¾áŀĻ
ĠWhat s
ĠPh ase
Ġse eds
à¯ģà®Ł à¯įà®Ł
ath ers
áŀ» áŀĢ
erh ana
om atic
á»į t
¥à¸²à¸ ¢à¸
ĵ à¸µà¸
Ġopt imal
Ġcoach ing
ĠZ en
ĠTeach er
ĠH ands
áŁĴáŀ ī
l ined
ĠMen j
ĠRec overy
Ã¨ s
L V
ĠPear l
ch ain
Ġà®ļ à®Łà¯įà®Ł
Ġh ill
eral d
ĠçĶµ åŃĲ
Ġà®¤à¯Ĭ à®´
ĠVer izon
ĠTransport ation
US 7
ĠBel t
Ġinvest ments
Ġbang et
ĠD odge
Ġreg ards
Ġcontribut ion
ĠÂ² Â»
Ġrem odel
20 5
Cal endar
olog ists
igh th
Ġappar ently
ĠWall paper
Â ¦
or o
Ġbet a
ĠN asional
ugg est
ĠÄĲ o
Ġste ering
ĠS olution
ĠÃĵ ÃĲ
çĻ» éĻĨ
orm al
Ġdial og
ific ent
Ġag enda
ĠS ud
Ð° ÑĤ
Ġà®µ à®²
Ġs ih
Ġfire place
ĠSt ew
à¹īà¸Ļà¹Ģà¸¥à¸·à¸Ńà¸Ķà¸Ĥ à¸Ńà¸Ķ
Ġà¸ «à¸Ļ
am ine
Ġconsult ants
ĠCo le
Ġvac c
Ġn áº¡n
ĠM Ã£
s ch
att y
Ġn iÃªn
ant ara
ĠAl am
ĠMo ore
ĠComp on
and ungan
ĠF E
Ġ20 3
Ġtu ition
Ġinvol ve
ĠTeach ing
ĠNh Æ°
33 3
Ġc ad
¢à¸ ĩà¸
Ġrespond ed
Ġfast est
Ġ19 5
åħ¥ åı£
áŁ ¡áŁ
Ġtrust ed
Ġpenj ual
pe g
ĠAb b
Ġchild hood
Ġà¸ķ à¹īà¸Ńà¸ĩà¸
36 9
Ġap artments
à¹ģà¸Ķà¸ ĩ
r ac
Ġup ang
ph ot
Ġtr Ã¬
Ġl áº¡c
ĠCo al
ĠC rown
1 88
Ġg ay
m c
US D
Ġcomp ound
ĠLab el
y u
l ar
ĠB ukan
«à¸ķà¸ ¸
ä¼ļ è®®
å¤§åıĳ å¿«ä¸ī
áºµ n
à®¨à¯įà®¤ à®¿à®°
as ian
ªà¸ ķà¹Į
Ġà¸§à¸´à¹Ģà¸Ħà¸£à¸²à¸°à¸«à¹Įà¸ ļà¸Ńà¸¥
Ġal asan
Ġdownload ed
Ġsing aw
Ġbant uan
ĠS ah
rit is
Ġv ice
Ġadil uhur
Ġab and
ĠS ne
ĠD al
end ment
Ġmount ains
ĠGard ens
ĠCe iling
çİ° åľ¨
áĢ¸áĢ Ĳ
K B
ķà¹Īà¸Ń à¹Ħà¸Ľ
Ġcap ac
Ġadian k
Ġadiank oting
ĠG am
Ġ/ -
Ġè® °
Ġpen elitian
Ġg race
Ġabeuk leupon
Ġabeukleupon leup
Ġabeukleuponleup en
ĠåĪ ĺ
Ġaim s
çĬ ¶
oot ing
ir u
ĠDeal er
å®Į æĪĲ
m al
éļ ı
Ġb Ã¡nh
ĠPo ints
ç§ »
S hop
ĠG ur
æĢ ¥
¥à¸´à¸ ģà¸
26 4
Ġ24 8
other apy
l ie
ĠLo ading
Ġ7 25
ŀà¸²à¸£à¹Įà¸Ĺà¹Ģà¸ ¡à¸Ļà¸
Ġj et
Ġb áºŃt
ĠDownload s
ĠC ake
ĠT ap
Ġinstr uments
ĠWorks heets
ĠL O
à¸Ļ à¹īà¸Ńà¸¢
ĠOlymp ic
Ġ18 7
mar ks
ious ly
Ġh ell
Ġf ence
ĠSp ect
Ġt Ã³c
ĠM itch
ĠHealth y
åĨħ å®¹
Ġn ick
Ġker eta
Ġgh ost
à®¾à®Ł à¯ģ
pe k
Ġstrateg i
Ġmist akes
å¾ ģ
Ĺà¸ ¨à¸
Ġm ich
ĠP osition
áºµ ng
ĠPit ts
Ġex it
ub uh
ķà¸ ¸
Ġr aya
ĠA kan
ath on
Ġâ Ŀ
Ġter ima
Ġ udah
à¹ Ħ
ĠJenn ifer
à®¾à®µ à®¿à®²à¯į
Ġrom antic
ab ar
à®¿à®ķ à®´
b ah
Ġph á»ķ
Ġp izza
ĠSa udi
Ġtak ut
Ġorganis ation
ä»ĭ ç»į
ĠQu ang
ĠL Ãłm
" );
Ġso al
Ġplug in
Ġresol ve
Ġl um
ĠF eder
Ġ% }
Ġr up
Ġle mon
ĠTai wan
ĠB erm
çİ¯ å¢ĥ
13 2
Ġpel anggan
à¹Ģà¸Ķ à¹ĩà¸ģ
Ġen forcement
éļ ľ
«à¸ ¢à¸¸à¸
åĭ Ļ
Ġà¸¡à¸ ·à¸Ńà¸
Ġà®ļà¯Ĩà®¯à¯įà®¤ à¯ģ
Ġoper ational
Ġ4 G
Ī à¸Ļ
Ġa qu
Ġexper iments
ĠWonder ful
qu o
Ġï Ĥ
áĢŀ áĢ¬
Ġsoph istic
en u
Īà¸£à¸´à¸ ĩà¸
ĠN ursing
à¸Ļà¸ °
Ġtr act
Ġcharg ing
ĠRasul ullah
C ategory
ķà¸´à¸ Ķ
Ġconstruct ed
å®ĺç½ĳ çĻ»å½ķ
Ġvirt ually
Ġch op
ĠW ang
ðŁ ĺ
Ã³ t
ĠÄĲ áº£ng
Ġorganis asi
Ġl atter
Ġimpl ant
Ġfarm ers
ĠL T
ĠG ord
Ġm Æ¡
áŁĴáŀļáŀ ¾
±à¹īà¸ ĩà¹Ģà¸
at ang
«à¸¡à¸²à¸ ¢à¹Ģà¸
66 0
Ġsur at
ĠS ell
E r
Ġout line
à» Ħ
à¯Īà®ķà¯įà®ķ à¯ģà®®à¯į
U ND
S l
S D
Ġw at
áŀĵ áŀ»
ens ional
c 0
Ġg reet
Ġ els
ed In
Ġpend ek
Ġown ership
aw are
Ġà®° à¯Ĥ
17 5
Ġle wat
Ġ3 40
Ġà¸ª à¸´à¸ĩà¸
ĠL inh
Ġrecommend ation
å¾Ī å¤ļ
M T
å° ļ
ox y
Ġvac uum
Ġsubs cription
ĠL ihat
i u
Ġà®® à¯ģà®ķ
å® Ī
ãģ Ĺ
Ãİ Âª
im ination
Ġâ ķ
Ġse hat
ĠM ouse
à¸Ńà¹Ģà¸ ¡
Ġsh irts
ĠNe g
à®¤à¯įà®¤ à®¿à®±à¯įà®ķà¯ģ
Ġç ©
av an
ĠH ans
à¹Ħà¸¥ à¸Ļà¹Į
Ġm esti
ĠPubl isher
en ic
b ags
Ġunex pected
ĠRes erve
Ġc áº§m
ĠConc rete
àº²àº ĩ
Ġà¸ķà¸²à¸£à¸²à¸ ĩ
« à¸£
te en
Ġå ¢
w ah
is l
Ġk r
Ġiniti ative
Ġå· ´
Ġfollow ers
ĠArs enal
anc ement
ĠÄĳ á»ĳc
Ġh ood
ĠCl aim
ĠA id
åį ´
ĠN ich
ĠN D
ĠAr c
ing an
Ġcontribut ions
ĠPlay ers
ªà¸²à¸ §à¸
ĠDemocr atic
Ġcor on
amb a
ĠG orgeous
Ġt iket
Ġbathroom s
Ġl uyá»ĩn
Ġencour aged
ĠAd vis
H C
19 8
ĠP ure
Ġ ere
ann ah
A h
Ĥ à¸Ļà¸²à¸
áĢ¸áĢ ¡
Ù ĭ
ªà¸²à¸ §
Ġt uy
ĠBasket ball
uj uan
Ġst ir
Ġloc ate
ĠM ale
Ø ¹
Ġeng aging
Ġb uk
Ġspecific ations
ĠÄĲ iá»ĩn
ĠSur abaya
Ġ? )
Ġparam eter
Ġfulf ill
Ġcontrol ling
æĿ ¾
Ġmix ing
Ġlu as
Ø ©
AA AA
Ġnh iá»ħm
Ġ19 2
ĠB ert
¨ à¸£à¸©à¸
air y
ĠComp ar
å¤§ å®¶
Ġæ³ ķ
ĠTem ple
àº į
Ġfin ancing
ĠAr g
Ġth Ãºc
à¯ģà® Ļà¯įà®ķà®³à¯į
ay aran
ĠK un
à¹ģà¸ķà¹Īà¸ ¥à¸°à¸
Ġka um
ãĤ ĭ
gr oup
U CT
Ġth erap
Ġdis order
Ġaddition ally
ĠL ace
re tt
per m
w y
ĠEx terior
es i
ĠGu arant
ĠåĲ ī
Ġdem i
ĠGu itar
ª à¸£à¸´à¸¡à¸
Ġcl uster
Ġkh áº¯c
at ih
Ġper caya
Ġf onts
Ġà¸ Ħà¸¸à¸ĵ
Ġà®Ĩ à®£à¯įà®Ł
Ġselect ing
Ġ` .
ĠD ew
à¸´ à¹Į
ĠgiÃ¡ m
ĠComp aq
áŁĴáŀļáŀ» áŀĺ
¥à¸¹à¸ģà¸ Ħà¹īà¸²
d iv
Ġexhib ition
ĠSever al
ang t
Ġgun akan
Ġè ĳ
ĠC ours
Ġ: {
j as
ang el
Ġcur ve
Ġbreak s
Ġç½ĳ ä¸Ĭ
Ġac res
Ġl oud
Ġair s
ĠOut standing
ĠAm y
ĠE co
Ġh alamang
ĠCle veland
ĠBr ing
Ĭ à¸Ļà¸´à¸
Ġmis alnya
ĠPhys ical
ik u
cap ing
ateg ori
Ġparticip ation
ĠSch olars
à¹Ĥà¸Ľà¸£ à¹ģà¸ģà¸£à¸
ŀà¸£ à¹īà¸Ńà¸¡
ĠB esar
ĠS usan
Ġ3 45
um m
Ġvolunte er
Ġvis a
Ġcur sor
Ġdig it
Ġb atteries
ãģ Ħ
Ġä»ĸ ä»¬
Ġfin ishing
Ġc rafts
aw ei
ģà¸²à¸ «à¸¥
Ġdis aster
ĠH eb
n ed
Ġå ²
ĠTyp es
Ġà®µ à®¿à®ļ
Ġs ob
Ġp ound
Ġres erve
Ġ4 20
ĠÄĲ Äĥng
áĢ¬ áĢĦáĢ¹
ĠáĢ Ħ
v ard
Ġáŀĺ áŀ·áŀĵ
ribut es
Ġh endak
al in
Ġregul atory
åħ¶ ä»ĸ
Ġstat ist
ĠAr th
çĽ Ľ
à¸£à¸²à¸¢à¸ ¥à¸°à¹Ģà¸Ńà¸µà¸¢à¸
es h
áŀĵ áŁĴáŀĳ
-- -
ĠFriend ly
à®¿à®¨à¯įà®¤ à¯ģ
au an
Ġx áº¿p
Ġd Ã¡ng
ĠProte in
æ¸¸æĪı ä¸ĭè½½
35 7
ĠâĤ «
áŀĲ áŀ¶
em ia
å¹ ķ
Ġper dagangan
åł ´
ªà¸ °
Y S
å¤ĸ åĽ´
ķ à¸£à¸µ
ĠIndivid ual
Ġstud ied
ĠSc ar
ĠF ee
o in
me ga
ast ing
ar uh
Ġprof its
Ġder ived
áĢ±áĢ ŀáĢ¬
Ĺà¸µà¹Īà¸ Ķà¸µà¸
ĠAl f
¥à¸ ¹à¸
Ġund ang
u ar
ĠPubl ishing
w ung
Ġamp eld
Ġampeld ento
00 000
Ġï¼ģ âĢĿ
G T
ĸ áŀ»
Ġkomp onen
ĠH anya
à¸£à¸²à¸ĩà¸§à¸±à¸ ¥
Ġà®ª à®Łà¯įà®Ł
Ġà®ª à®¿à®Ł
Ġpriv ile
Ġfit ur
ĠH ours
ĠCop per
adi ent
Ġä¸ ĸ
Web site
Ġburn ing
ĠWalk er
ĠMov ing
à¹Īà¸§ à¹Ĥà¸¡à¸
ļà¸¹ à¸£à¸
q q
Ġsis wa
ĠPro p
ĠC AD
à®Ļà¯įà®ķà®³ à¯ģà®ķà¯įà®ķà¯ģ
raul ic
à¸² à¸Ļà¸µ
Ġa an
Ġp y
p ace
ch es
Ķà¸±à¸ļà¸ Ĺà¸µà¹Ī
ĠKem udian
p ower
Ġè¯ ´
ĠFre el
â Ħ¢
à¯Ĥ à®°à¯į
Ġic ons
ĠD ish
ĠB ou
ol ok
Ġà®®à®ķà¯įà®ķ à®³à¯į
ĠPerm alink
Ġsh ips
Ġm ama
ãĢ ĳ
ĠáŀĲ áŀ¶
Ġbas ement
ĠT emp
P lay
å© ļ
é¦ Ļ
èİ ±
æł· çļĦ
áŀĢáŀĺáŁĴáŀ ĺ
Ġrem ained
Ġbr ake
ĠP ix
áŀĳ áŁħ
om ic
ģà¸¥ à¹Īà¸²à¸§à¸
Ġhand ler
Ġw ard
Ġt ahan
à®ªà¯įà®ª à¯ģ
rol led
Ġscreen ing
Ġmat rix
Ġnor thern
Ġbeach es
łà¸¹à¸ ¡à¸´à¸
Ġen _
Ġun lock
Ġdes c
ĠS ession
ĠB ee
Ġ8 px
Ġ(" #
Ġmeny atakan
ĠL ion
az ed
Ġorient ed
ĠM ile
ab ling
Ġl bs
Ġdesign ing
angh ai
ĠG rove
Ùİ Ø§
Ġspons ored
Ġf itted
ĠBenef its
ĠUS 200
ä¸Ń æĸĩ
chn ology
Ĺà¸µà¸ ¢à¸
C ar
ĠT itan
Ġcont rovers
AD A
ĠAr ound
ç´ §
Ġdim ension
ĠIN FO
Ĺ à¸£à¸²à¸
Ġåı Ī
ĠH ook
f oot
ON S
ļà¸£à¸´à¸ «à¸²à¸£à¸
åº ı
iz ations
Ġob j
Ġexp ense
ĠC arn
PT O
l ings
ju ana
Ġæ° ´
Ġsem oga
Ġ19 50
Ġwall paper
ĠBr un
m od
Ġæ ¥
Ġtherm al
Ġè ĥ
Ġç¾İ åĽ½
Ġc el
Ġinst agram
ĠFl ight
ĠEx erc
Īà¸²à¸ģà¸ ģà¸²à¸£à¸
Pro perty
ĠT W
ĠPr incip
_ N
ĠS ugar
s earch
aceut ical
ĠAl low
æĭ ¬
à¤¿ à¤
Ġh 2
ĠS eller
crib ed
Ġsign ing
Ġkas us
Ġconsequ ences
æĽ °
à¹Ģà¸Ń à¸²
Ġth inks
æĿ Ł
ig g
US 6
Ġä½ľ èĢħ
Ġi T
Ľà¸£à¸°à¸ Īà¸³à¸
ĠP ing
ŀ áĢ°
Ġsah am
Ġ19 74
å¤ĩçĶ¨ ç½ĳåĿĢ
ul on
Ġprefer ably
Ġ4 60
in ite
es ai
ĠéĻ Ī
Ġd t
Ġcap ability
Ġà®ļ à¯Ģ
à®¾à®µ à®¿à®©à¯į
Ġsleep ing
ĠS á»±
Ġs oup
Ġconnect or
Ġcol ored
ĠH á»ĵng
å½± åĵį
f ers
Ġwel coming
Ġh oney
etah uan
Ġl ag
Ġadj acent
Ġ" ==
19 4
Ġä¸ĭ ä¸Ģç¯ĩ
å· ®
Ġå¨ ģ
ĠSek olah
ĠPh D
à®¿à® Ļ
Ġalgorith m
Meta Price
ĠBru ce
ĠåĨ ħ
ĠãĢĳãĢĲï¼ļãĢĳãĢĲ âĢľãĢĳãĢĲ
à®¿à®© à®¾à®°à¯į
19 5
14 5
Ġh Ãłi
¹à¸ ¥
ib s
Ġà®® à®¾à®±à¯įà®±
Ġstop s
Ġd w
áĤ Ĭ
Ġsur ge
Ġmin um
Ġ, âĢ¦
ic ut
ģà¸ µ
ÃŃ t
Ġus ia
Ġprocess ed
Ġr s
à¸£à¸ ¸à¸
f d
enn e
áŀļáŀ ĬáŁĴáŀĭ
ĠR EC
à¹Ī à¸Ńà¸¢à¸
ab arat
Ġsurv ival
ĠV AT
ç Ģ
30 3
Ġå¾ Ī
ĠAl an
ĠN as
ĠCh u
Ġvolunte ers
Ġsett le
Ġcru ise
Ġb áº¡c
à¹ĥà¸ķ à¹īà¸
c ks
Ġà®Ĩ à®ļ
ĠPhil ip
ĠCol our
àº± àºĻàº
ķà¸£ à¸²
Ġord inary
Ġdisc overy
ĠBen z
à¯ģà®£ à¯įà®Ł
Ġh unting
å¹´ çļĦ
à¹ģà¸ ªà¸
ĠInd ustries
Ħà¸Ńà¸ ¡à¸ŀà¸´à¸§
Ġl g
éĽ ·
¢à¸´ à¹Īà¸ĩà¸
a 0
ĠT áºŃp
ĠR ice
ĠFant asy
ĠB og
Ġà®ªà¯Ĩ à®°à®¿à®¯
ĠL or
ag aan
Ġcreat ivity
Ġart ificial
ĠP s
ĠS id
å¼Ģ å±ķ
à³ Ĩ
Ġhome own
Ġd uties
Ġappl ies
ä¹ĭ æĺŁ
Ġim aging
Ġab ilities
ĠÄĳ Ã¨n
Ġh Æ°Æ¡ng
ab ung
ĠH IV
å° ģ
22 2
Ġk ew
ĠWeek ly
Ġ3 70
Ġind ustri
Ġd aya
as ions
çĸ ĳ
æľ ĭ
Ġatt ractions
16 7
Ġf s
Ġbal anced
ĠL ind
áĢ» áĢĸ
Ġatt empts
ĠT A
ĠArt ikel
Ġ= &
Ġt am
Ġmeas uring
ĠR EL
ĠQue ens
Ġ3 75
à¸Ńà¸·à¹Īà¸Ļ à¹Ĩ
Ġcomp rom
ĠAbd ul
æľº æŀĦ
imp an
Ġà¸Ħ à¸Ļà¸
Ġr i
ĠCond itions
ĠAn c
Ī à¸µ
ä¸ ´
ªà¸Ļ à¹ĥà¸Ī
Ġà¸Ńà¸ ±à¸Ļà¸
Ġint ention
Ġamong st
ĠN an
ukt ur
ĠCl imate
Ł à¸´à¸
Ĺ à¸²à¸Ļ
Ġwrit es
Ġsaf ely
ĠW orth
áŀĬ áŁĤáŀĽ
ĠA H
Ġ14 th
Ġindu ced
Ġannoun ce
Ġse am
Ġm ai
idh arma
ĠZ ip
â ķ
Î ·
Ľà¸¥à¸µà¹Īà¸ ¢à¸Ļà¸
Ġimpress ed
Ġ6 66
à¸Ńà¸ ģà¹Ģà¸
Ġcons olid
Ġa ceh
áĢĽ áĢ¾áĢŃ
ic ara
R ead
22 9
Ľà¸±à¸ Īà¸Īà¸¸à¸
ĠO B
id ity
Intern ational
Ġrestr ictions
Ġli ability
Ġï¿½ï¿½ï¿½ï¿½ï¿½ï¿½ï¿½ ï¿½ï¿½ï¿½ï¿½
Ġà¹Ģà¸ģà¸¡à¸ ªà¹Įà¸
Ġcoc ok
ĠS or
ĠChrist opher
çł´ è§£
Ġstruct ural
åŃ© åŃĲ
ķà¸±à¸§ à¹Ģà¸Ńà¸ĩ
Ġdel ivers
ĠT es
áĢ±áĢ ·
à¸Ńà¹Ģà¸¡ à¸£à¸´à¸
Ġà¹Ĥà¸Ķà¸ ¢à¹Ģà¸
ĠRes erved
áĢ¬áĢ¸áĢ Ľ
Ġpers ist
Ġmor al
Ġà®ħà®°à®ļ à¯ģ
Ġt ong
Ġflo od
Ĭ à¸Ńà¸ļà¸
ĠRes idential
ĠChem ical
¡à¸ «
al agi
ĠH á»įc
Ġ- .
f ix
Ġrel i
ĠTr ends
ul os
ad ia
ĠSw itzerland
ĠC áº§n
Ġà®ķ à®¾à®Łà¯įà®Ł
Ġch Ã¢u
ĠK awasaki
çĭ ¬
Ġà®¤ à¯Ģà®°
Ġtent unya
Ġpregn ancy
Ġchá»© a
Ġw aters
Ġcolle agues
ĠIslam ic
ä¼ ¤
## ##
Ġem as
ĠChar acter
ous es
æł ĳ
hes ive
Down load
Ġver ify
Ġn ose
ĠEx hib
ç´ Ŀ
Ġtal ented
Ġt ugas
ĠAltern atively
Ġsal ad
ªà¸ ¹à¹Īà¸
Ġe Book
ĠN ur
M on
Ġtax able
ĠT ing
urr ent
Ġt Ãłu
Ġrank ing
Ġcon j
u in
Ġm ud
ĠH atch
à¹ģà¸Ľà¸ ¥à¸
Ġà¹Ģà¸ ¥à¸
Ġt ennis
Ġsah abat
ĠTr Æ°á»Ľc
Ġf ed
Ġadiars abarat
ĠDes ember
onom y
Ġlaw yers
Ġabung sur
Ġabungsur apati
ĠDr ivers
H igh
Cont act
ĠDr ink
ĩà¹Ģà¸ ģà¸
Ġà®µà¯Ĩà®³ à®¿à®¯
Ġwor n
Ġad idharma
Ġabi antu
Ġabiantu wung
Ġs ne
ĠRab u
ogn itive
Ġst itch
Ġh ospitals
ank er
Ġpoint ed
å§Ķ åĳĺ
ÃŃ a
§à¸ļà¸ Ħà¸¸à¸
Ġt á»Ļi
B o
ĠG I
Ġà¸ģà¸ ³à¸
ĠSpe aker
ĠL IM
Ġp am
æ §
iz ard
Ġinc ent
em et
áŁĴáŀ Ĥ
ĠFind ing
§à¸´à¸ Ĭà¸²à¸
f an
c ia
app y
ŀà¸·à¹īà¸Ļà¸ Ĺà¸µà¹Īà¸
Ġà®ªà®ķ à¯ģà®¤
Ġins ights
ĠSyr ia
ĠB Ãªn
Ġpr ize
Ġmanufact ured
åįķ ä½į
M ap
Ġè¯ ¥
Ġà¸ŀà¸£ à¹īà¸Ńà¸¡
Ġfeatured _image
ook ie
_d ap
Ġç ł
Ġsure ly
Ġhor r
ĠT Y
įà¸µà¹Īà¸Ľà¸ ¸à¹Īà¸Ļ
ä¸ª äºº
ĠR I
red ited
m aster
Ġken y
ĠPre view
out ube
\ \
Ġà¹ģà¸ªà¸Ķà¸ ĩà¸£à¸²à¸Ħà¸²
Ġc áº¯t
è¯ķ åĲ¬
à¹ģà¸¡ à¹Īà¸
az rag
Ġåı Į
ĠAp abila
ĠR io
re p
ŀ à¹Ģà¸Ķà¸
Ġèħ ¾è®¯
ĠS ect
Ħà¸ ĵà¸°à¸
Ġpl ates
ĠDes a
Ġ: ''
áŀ¼ áŀħ
¡à¸Ļà¸ ¸à¸©à¸
ol as
Ġar row
ĠOr acle
ĠG ad
Ġ ê
Ġjro fvgr
Ġfvgr f
Ġfho z
Ġd ear
à¹ĥà¸ª à¹Īà¸
ĠS occer
Ġè ī
Ġpartic les
ĠM ob
çĻ» åħ¥
áŁĴáŀļ áŀ¶áŀĶáŁĭ
łà¸²à¸¢ à¹ĥà¸Ļà¸
ĠVin yl
ĠP OL
Ġà®®à¯ĩà®² à¯ģà®®à¯į
à¹Ħà¸Łà¸ Łà¹īà¸²
f ollow
Ġj aringan
Ġl as
empl oy
Ġ ā
Ġdefin isi
áŀ¶áŀ Ĥ
verse as
lu eng
ŀ à¸Ń
Ġun usual
Ġmach inery
Ġabah lueng
ĠAg ustus
Ġdik enal
ĠRes ult
Ġ17 8
D W
ĠAd s
iv ic
Ġs oci
ĠE SP
ĠSte ven
Ġident ifying
à ´
ĠP ont
ĠL odge
áŀĢ áŀ¶áŀļ
v ant
ish op
çļĦ åĲĹ
G rid
15 5
ĠExpl ore
Ù į
Ġ; )
Ġà¸Ĥà¸ ±à¹īà¸Ļ
æĶ¯ æĮģ
Ġdeterm ination
ĠT ours
ĠPl aza
ĠBr ush
äºĨ è§£
en o
br idge
Ġnav wrap
Ġ> \
åľ Ī
» áĢĸ
or p
ĠçĢ ¹
Ġà®ªà®¿à®° à®¤
ĠÂ¹ Â«
è´ µ
ªà¸±à¸ ¡à¸ŀà¸
et erm
Ġç ¡
Ġus a
Ġdiagram s
Ġwork er
ĠUt ara
³à¹Ģà¸ ł
Łà¸£à¸µ à¹Ģà¸Ħà¸£à¸Ķà¸´à¸ķ
ĠW O
ĠDel ta
âĢ İ
à¯įà®ª à¯ģ
Ġm all
unj ungi
Ġhor izontal
ĠN Z
ĠAny one
ins i
Ġexplan ation
ĠProject s
ĠDist ance
was her
Ġt iles
Ġter lebih
Ġcigare ttes
è½ ®
èµļ éĴ±
Ġsl ides
Ġoxy gen
ĠA RE
Ġmak l
ĠEss ays
Ġ4 K
umin ium
Ġmeasure ments
åĳ ¢
ct ic
T O
Ġdry er
Ġcon ce
ĠEx ternal
Ġ25 63
Ġ17 9
áĤıáĢ½ áĢĦáĢ¹áĢ·
ahan kan
Ġà¹Ģà¸ Ĥà¹īà¸²
Ġw ider
Ġadm it
iv ia
ah o
ĠÄĲ áº§u
æĸ ¼
Ġph Ãª
Ġmen ulis
Ĥ à¹īà¸Ń
Ġmem inta
f ree
Ġpel bagai
ĠMc G
ĠDress es
ç» §
ç¶ ĵ
áĢĦáĢº áĢ¸
Ù ī
åľ° æĸ¹
Ġad idas
à¹Ħà¸Ķà¹īà¸Ńà¸¢ à¹Īà¸²à¸ĩà¸
Ġl anding
Ġà®ļà¯Ĭ à®©à¯įà®©
Ġsel amat
Ġelimin ate
èĥ½ åĬĽ
ang sung
Ġé ¸
ĠåĨ į
Ġwork place
Ġmolec ular
ĠE gg
èį ī
ĠT ables
ĠQu arter
ĠF irm
á»¥ p
ather ine
Ġse hari
Ġres mi
iz able
Ħ à¸£à¸²à¸
Ġy ahoo
Ġqu áº£ng
Ġbeautiful ly
Ġadministr ative
Ġä¸ ´
Ġcompet e
Ġc uba
ĠProble m
ĠHe aven
iap kan
Ġken apa
ĠBeb erapa
ĠÂ· Â¨
Ġengine er
13 8
Ġth Äĥm
ç¤ ¼
¡ à¸Ńà¸ĩà¸
Ġr Äĥng
ĠW AR
à¯ĩ à®±à¯įà®±
ŀà¸ ¸à¸
Ġal k
Ġ15 3
lo ve
ĠK ate
¡ à¸´à¸Ļà¸
Ġm uka
ĠN OW
osp el
Ġpromot ing
Ġh alaman
åĵ Ī
ill o
ĠLaur a
S ign
AM A
ı ng
Ġåį ³
Ġdr um
ĠSem oga
ĠLo ans
ª à¹Īà¸ĩà¹Ģà¸
Ġvend or
çŃ Ķ
30 8
æį ķé±¼
ig ma
ĠW ait
èĪ ĩ
b ird
ĠTrans form
ĠMad ison
ĠC BS
Ġè¿ ĳ
ĠC rafts
Ġaddress ed
è¿ĺ æĺ¯
ir able
Īà¸ ¶à¸ĩà¸
Ġhe aven
ĠC ass
ut in
Ġwin ners
Ġart istic
ĠT it
Ħ à¸²à¸£à¸
Ġsen ang
ĠL ik
ĠÐ °
Ġl iver
à¹Ģà¸Ļà¸ ·à¹īà¸Ńà¸
Ġprint able
Ġoper ators
Ġs ir
Ġà®µà®° à¯ģà®®à¯į
ĠM os
O UT
Ġà¸Ĥ à¹Īà¸²à¸§à¸
Ġemph as
20 4
ĠCl ay
Ġ2 65
Ġ13 th
re ading
Ġpes erta
Ġe h
Ġ4 40
Ï ĥ
Ġwish es
Ġspect rum
Ġc rown
å¤© å¤©æ°Ķ
Ġex clus
ĠE leg
ĠiP od
Ġen vironments
ĠC ute
Ġ22 9
es p
Ġx ong
Æ ł
F I
Ġpix els
ä»¥ åıĬ
à¹ģà¸Ĺ à¸Ļà¸
emb angkan
Ġà¸ Ħà¸£à¸
Ġne uro
áĢ¯áĢŃ áĤĶ
Æ¯ á»
Ľà¸£à¸°à¸ ģà¸²à¸¨
Īà¸¸à¸ Ķà¸
ĥ à®ª
áŁĤ áŀļ
à¹Ħà¸Ķà¹īà¹Ģà¸ ĩà¸´à¸Ļ
Ł à¸Ńà¸£à¹Įà¸
Ġ}} @
Ġ`. `
Ġk illing
ĠMc K
ŀà¸´ à¹Īà¸¡
ĠåĪ©æĿ¥ ag
ĠâĢĭ áŁĶ
ĠFlow ers
è´£ ä»»
e ves
Ġj an
Ġdiscuss ions
ĠP enc
ĠåĮ ħ
Ġáŀĳ áŀ¸
Ġst imul
ĠP ine
man agement
Ġshap es
Ġrece ives
d ings
Ġá» ŀ
Ġp unch
Ġcompos ite
ĠSe ats
ĠMen y
Ġinvest or
ĠPr ia
å¨±ä¹Ĳ å¹³åı°
fer red
G O
§ à¸£à¸£à¸
iv ate
17 4
ĠçĽ® åīį
Iá» Ĩ
18 5
ĠCh en
à¸Ń à¹Īà¸Ńà¸Ļ
Ġà¸ ¢à¸²à¸
Ġth reshold
Ġpr inciple
ĠJ azz
è Ĺ
Ġà®® à®¾à®£
Ġofficial ly
Ġak o
em ade
Ġs áºµn
Ġlim a
Ġindic ator
Ġdec line
ĠKam is
Ġl ai
áŁĤ áŀĵ
æ³ °
Ġà®µ à®¯
E K
łà¸²à¸ Ħà¸
Ĺà¸µà¹Īà¸ Ħà¸¸à¸ĵà¸
Ġå® ĺ
Ġs empat
ĠM yst
Ġb g
Ġant ique
Ð½ Ñĭ
rop a
Ġä¸ ª
Ġp ing
åıĳ çĶŁ
quis ite
Ġà¸ªà¸ Ľ
ĠTh er
en h
and al
Ġclos ure
Ġbehav iour
Ġb ra
ĠIn k
Ġà®ħà®²à¯įà®² à®¤à¯ģ
ŀà¸²à¸£à¹Įà¸Ĺà¹Ģà¸¡à¸Ļà¸ Ĺà¹Įà¸
īà¸ŀà¸²à¸ °à¸
Ġç ¤
Ġautom ated
éĽ ¨
Ķà¸ ±à¸ĩ
Ġwor ried
Ġpredict ions
Ġker as
Ġch á»Ŀ
Ġab road
ater al
365 bet
à®µ à®¿à®²à¯į
c b
Ĥ à¹Īà¸²à¸§
Ġele kt
Ġab ail
áĢ±áĢ ¡
Ġteng ok
Ġg á»ĳc
Ġab arab
Ġabarab ir
ĠÃĸ ÃĲ
Ġst im
Ġout doors
Ġadiw arno
çĥ Ī
le ans
en au
ĠKe h
ĠG race
ĠFl ag
Ġattach ment
áŀĺáŁĴáŀĶ áŀ¸
ph ony
ĠRes ist
ĠM ungkin
ĠBL ACK
pr ises
Ġm uk
Ġch ime
áŀĦáŁĴáŀ Ģ
am anya
ĠS ad
è´¨ éĩı
à®¿à®¯ à®¾
14 4
Ġåħ Ń
ober ts
Ġ! ==
Ġå® ģ
ĠGr atis
Ļ áĢ½
lect ric
10 11
Ġj en
Ġæķ Ļ
ĠStart ing
ä¸» è¦ģ
umb uhan
ir aja
Ġà®µ à®¾à®¯
Ġ9 90
M M
Ġć ć
Ġhand y
m w
Ġb ing
ĠâĢ ł
Ġcompl aint
à¸Ļà¸´à¸ ¢à¸¡
Ġá»ķ n
Ġt Æ°Æ¡i
Ġsc ulpt
Ġk ering
Ġ,,, ,
rol ler
Ġto xic
æ ¾³éĹ¨
30 5
åħ³ ç³»
Ġng Äĥn
Ġh Ã´n
æĶ¿ çŃĸ
ģà¸±à¸ļà¸ ģà¸²à¸£à¸
Ġà®ªà®¾à®° à¯įà®ķà¯įà®ķ
ĠPh Ã³
Ġ() )
ĠTe en
ĠAssess ment
i ro
Ġpur ple
ĠL ok
ĠL anc
Ġj ohn
ac co
Ġrot ate
æĿ ±
ĠRe fr
Ġåİ »
Ġprospect s
Ġp interest
Ġex ch
ĠTable t
Ġ22 event
and ise
ak ter
Ġh Ã¡t
ĠOcc up
å®īåįĵ app
Ġmes h
Ġéĵ ¶
Ġsubst ance
ĠUn its
Īà¸³à¸ «à¸Ļ
ĠG ov
ĠF iction
Ġ> .
Ġkom puter
Ġsusp ension
Ġ13 1
åıĳ çİ°
ag ia
Ġà®¨à®¿à®± à¯ģà®µ
Ġpar ks
ĠTr end
A m
Ġsc oring
ĠR ust
Ġ16 th
Ġà¸ «à¸Ļà¹īà¸²à¸
Ġsh oe
Ġk ah
Ġau ction
ĠSum mit
à¹Ĭà¸ ģà¸
Ġà®ļà¯Ĩ à®²
Ġ17 th
¸ à¹Īà¸ĩ
Ġpand angan
à¹ģà¸ ķà¸ģà¸
Pro v
AY A
ungkin an
ub ungan
b ps
Ap plic
Ġpurch ases
Ġhit am
Ġg onna
Ġber arti
ric ts
art en
Ġel der
Ġè¢ «
Ġbr on
ĠNot ice
ĩ à¹Īà¸²à¸¢à¸
Ġle an
ĠK uala
áŀİ áŁĴáŀ
àº «
Ġà¸ ĩà¸
Ġ\", \"
ĠAdjust able
çĿ £
¥ à¹ĩà¸ģ
Ġe in
int endo
ļà¸£à¸´à¸©à¸±à¸ Ĺà¸
ĠPre c
ĠC odes
Ġà¸ Ħà¸§à¸²à¸¡
Ġport ions
ul as
Ġ16 3
ph oto
Ġgather ing
Ġclass ified
yn e
p ay
Time out
Ġsem uanya
Ġ17 6
è¿ °
Ġconsult ation
ĠBack ground
å¥ ¥
Ġæī ĵ
Ġpubl ishing
Ġ18 2
Ġtamb ahan
Ġpast e
Ġant ar
ĠLen ovo
r il
ch ild
Ġprodu cer
fl ix
B ET
Ġà®µ à®¿à®²
Ġvent ure
ĠA le
Ġden y
Ġà®İ à®£à¯įà®£
Ġdetect ed
ĠLou nge
Ġvict ims
Ġn ations
Ġn ampak
w ith
èĪ ¬
ari um
Ġà¹Ģà¸ Īà¹īà¸²à¸
Ġinvest ing
¥à¸·à¸Ńà¸ Ķ
Ġemerg ing
EE E
Ġwild life
Ġ17 4
ĠD á»ĭch
Ġ< =
à¹ģà¸ ĸà¸
ĠConsult ing
à®¿à® ¨
y ek
Ġà¸Ļà¸Ńà¸ģà¸ Īà¸²à¸ģ
Ġn ap
ĠMean while
Ð¾Ð »
$ $
Ġinst antly
ac les
Ġ21 6
urr ay
icy cle
ª à¸µà¸¢à¸
Ġsp o
Ġf ut
ĠUp on
Ad v
Ġà®ķà¯ģà®´ à®¨à¯įà®¤
Ġcyl inder
ĠF ont
ĠD N
17 8
Ġtour ist
is or
ķà¸£à¸ ĩ
Ġs amping
imp i
ger ak
W idget
ĠS áº£n
å¨±ä¹Ĳ åľº
25 4
Ġn ie
Ġg rav
ĠS IM
Ġl áº¯m
Ġ20 7
ģà¸¥à¸ ¸à¹Īà¸¡à¸
aw al
Ġà®µà¯Ģ à®Łà¯įà®Ł
Ġsett lement
ĠT weet
unicip al
Ĺà¸µà¹Īà¸ Ķà¸µ
Ġachie vement
Ġfavor ites
at on
Ġpick ing
Ġpart ial
ç» Ŀ
is ine
G F
ĠExpl orer
ham dul
Ġdef ensive
ĠSt age
gr ade
Ġad int
Ġ5 12
Ġ'' ;
Ġ ąĆĈ
Ġtumb uh
Ġkem enangan
ĠN utrition
ĠM ut
à¸Ńà¸²à¸ Ī
ill ion
w atch
Ġadis ana
ĠM ul
ĠH orn
ĠÄĲ á»ĳi
Ġsem asa
d 0
22 6
Ġult ra
ä¼ ¼
ep er
Ġwhere as
ĠCollection s
ic one
Ġà®Ĩà®ķ à®¿à®¯
ĠS atu
Ðµ Ð»
ªà¸ ķà¸´à¸
Ġadint engah
ĠK os
ĠK ath
m ans
j em
Ġf ired
ĠA UT
Ġs amb
ĠJ a
åĨ ·
st airs
Ġtr ib
Ġth Æ°á»Ľc
Ġconsist ently
Ġas ks
ĠD il
ĠO sc
ic it
Ġà¸ķ à¹Ī
Ġde leg
Ġprem ier
ĠW V
ĠM au
éĻ Ħ
Ġà®¤ à®Ł
Ġtr Ãºc
Ġterd iri
Ġbe kas
ier ra
ĠåĪ©æĿ¥ åĽ½
ĠG ib
«à¸Ļà¸ ±à¸ģ
Ġsp okes
Ġ14 3
ent h
a us
Ġé» ĳ
ĠUS PTO
str ong
D oc
Ġutil ized
Ġaud it
z an
Ġà¹Ģà¸£à¸ ·à¹Īà¸Ńà¸ĩ
ĠPar ks
ĠM EN
af ood
Ġs ementara
Ġhe ater
Ġh áº¡ng
ä½ĵèĤ² app
itut ional
eks i
ĠÄĲá»ĭ a
Ġfant asy
ĠL it
Ġ18 3
Ġà¸Ļà¸ ±à¸ģà¸
Ġà®µ à®Ł
Ġscen ario
Ġab und
ĠFR AME
Ġtwe et
ĠM X
ĠDise ase
Ġwal ks
Ġcook ed
ĠRev olution
łà¸±à¸ ¢à¸
ĸ à¸²à¸¡à¸
Ġé ª
Â² Â»
ol itan
AK E
Ġpeace ful
Ġh ier
Ġbr ick
ĠX S
F rom
Ġkont r
ĠM ortgage
Ġà®ķà¯ĩ à®Łà¯įà®Ł
à¯Ģ à®¤
Ġph Ãºc
IC ES
Ġswitch ing
Ġfil ing
ĠAnal yst
h d
Ġrepres enting
ĠCl ip
Ġtr ao
Ġt á»Ļc
ĠD D
Ġ4 px
éĢ Ĥ
ç§ Ĵ
ab atan
Ġà¸ģà¸£à¸ ¸à¸ĩà¹Ģà¸Ĺà¸ŀà¸
Ġo ak
Ġmed i
2 b
Ġè Į
Ġsat unya
Ġrepl ied
ĠN ut
Â¡Â ±
IR G
ĠUn like
ant ikan
om ach
av ed
Ġà¹ģà¸ ĸà¸
ĠAd ams
ĠGu id
oust ic
irt o
à¹Ģà¸ķ à¸Ńà¸£à¹Įà¸
Ġacknow led
ĠâĨ ĳ
à®¿à®° à¯ģà®ªà¯įà®ª
Ġst ats
Ġb b
ĠBas eball
ag ang
24 7
Ġs á»¯a
æľ Ŀ
áŁģ áŀĦ
ar so
ester ol
ķ à¸´à¹Ģà¸
ĠLo ad
Ġrot ation
Ġm ont
ĠB ug
wid gets
i asa
Ġload s
ĠIn j
Ġheart s
h y
d ana
Ġcour ts
áĢ¸áĢ ľ
Ġb ÃŃ
ur at
à¯ģà®ķà®³ à¯Ī
Ġc aut
Ġscholars hip
ĠO L
f ile
Ĺ à¸£à¹Į
ĠF ans
ĠCh ron
Ġ00 pm
éĬ Ģè¡Į
l ies
ĠÃĬ Ãĩ
Ġpol ar
Ġoff ense
ĠAp pe
Ġpen ulis
Ġg aya
ĠR oberts
ĠO thers
ĠCoup on
Ġ20 9
Ġsurround ed
«à¸¡à¸ Ķà¸
Ġinc orrect
ĠSur at
è¿ Ŀ
à¹Ģà¸¡à¸ ·à¹Īà¸Ń
l en
Ġse vent
à¹ģà¸ Łà¸
Ġj ad
Ġadip uro
ĠBalt imore
Ġhere in
Ġgr ain
ĠCon vention
Ġà®ķ à¯ģà®°
Ġbe ef
dh ua
00 5
Ġç§ ĳ
Ġà®ª à¯ģà®ķ
ĠHe ights
Ġcomb at
Ġadolang dhua
Ġéļ ı
ĠRequ ire
à¹ģà¸ ļ
Ġà¸ Īà¸±à¸Ķà¸
°à¹ģà¸Ļ à¸Ļà¸
20 8
Ġrepresent ation
Ġng Æ°Æ¡i
Ġarch ive
ĠB Ãł
Ġradi ation
Ġadequ ate
à®µ à®©à¯į
Ġh orses
ĠGraph ics
Ġpro hib
Ġp aano
Ġadmin ister
ĠT ul
ĠInc ome
ĠB ureau
ĠA ustr
ric a
og s
æ¦ ľ
Ġt anya
Ġa ka
à¸£à¸µà¸ ¡à¸
yn c
ign ed
Ġsh ield
Ġh uj
ĠN ations
ĠBr anch
è ľ
à¯ĭ à®ļ
Ġà®µ à®¿à®¤
ĠNh a
Ġ ug
Ġmoist ure
ĠRuss ell
èĪ ŀ
ç» ĥ
ĠL Ã¢m
ĠF isher
ĠC el
ĠPro b
ĠL az
ĠFranc is
Ð¾Ð ´
±à¸ļà¸ ªà¸Ļà¸
ry pt
Ġay ah
ĠAl pha
Ġl iv
Ġclub s
áĢ¬ áĢĢáĢ¹
«à¸¥à¸ ·à¸Ń
Tr ans
Ġinterview s
Ġad it
Ġr ab
Ġv Ã©
ĠV PN
d ie
Ġl áº¡
Ġà¹Ģà¸Ľ à¸´à¸Ķà¸
Ġhá»ĵ ng
ĠKep ala
Ġ3 G
il ty
æ¢ ¦
on ce
ĠáŀĢ áŀĺáŁĴáŀ
Ġà®® à®¾à®µ
ĠMex ican
at uh
ĠS cript
ĠNe v
ĠF if
ro ck
W F
V ideo
¥ àº°
Ġs isi
ĠMot o
c ons
H P
Ġw aves
ĠG ulf
áĢ±áĢ¬ áĢĦáĢºáĢ¸áĢ
et o
' ).
ĠM AS
ĠCert ification
Ġparticip ating
Ġm alah
ĠI bu
è¡ ¥
Ļ áĢ½áĢ¬
am ul
Ġconsult ing
ir ational
Ġà¸ģ à¹Īà¸Ńà¸Ļà¸
Ġgr ateful
Ġb on
ĠCapt ain
Ġte kan
Ġst ood
Ġgard ens
á»ĩ t
Ð¾Ð ¼
Ħà¸§ à¸£
ĠP OS
ell ation
F ile
Ġ] );
sh ine
B uy
çı ¾
à¹ģà¸Ļà¸° à¸Ļà¸³à¸
_ 3
Ġcontract or
à¯Ĭ à®³à¯įà®³
um ar
Ġthá»ĭ t
à¯įà®µ à¯ģ
em al
Ġbers ifat
ĠF B
áŀ¾ áŀĺáŁĴáŀĶáŀ¸
ĠáĢ Ŀ
Ġproduct ivity
Ġc Ã¡nh
it ra
Ġpr widgets
ĠSeb uah
Ġm ature
j ack
Ġà®¤ à®¯
ĠEffect s
Ġl aut
à¥ ĩ
ind ers
Ġin cl
Î º
Ġç ¨
Ġà¹Ģà¸Ļà¸ ·à¹Īà¸Ńà¸ĩà¸
åĲ ¯
urn a
ĠF er
æ± ł
Æ°á»Ŀ n
Ġà¹Ģà¸Ĭ à¹ĩà¸Ħ
éĢī æĭ©
rol og
_ text
Ġpopular ity
Ġ à¸²à¸
áĢľ áĢ²
à¹Ģà¸ģà¸´à¸ Ķ
34 4
Ġemot ions
ĠM iles
ĠFlo oring
l aw
Ġgl obe
å¨±ä¹Ĳ å®ĺç½ĳ
Ħà¸ ¸à¹īà¸¡à¸
ĠPow der
Ġt áº§m
Ġcooper ation
à¹ģà¸ģ à¹Ī
ĠRec ipe
ĠLibrary System
Re quest
Ġdis orders
Ġelection s
Ï Ĥ
Ġw ajib
Ġth ro
Ġd iesel
ĠPD T
Ġp icks
ĠHawai i
à¹ģà¸ŀà¸ Ĺà¸¢
ĠO D
Ġannounc ement
Ġvari ables
ĠCo ordin
uk ar
ĠIm ag
ĠF ern
Ġf itting
ph alt
Ġwe ird
Ġprec ious
ĠV R
Ġ( *
Ġu003c p
ĠL ots
à¯įà®ķà®³ à¯Ī
Ġtable ts
Ġclos et
ĠK TM
à¸£à¸§à¸ ¢
ĠåĽ ŀ
ĠH av
ĠDe an
ÌĢ nh
ĠW ays
Ġ":" (
ĠMain e
ĭ à¸µà¸
Ġt xt
Ġsuff ered
Ġlett ing
Ġco i
Ġtour ism
Ġ16 2
à¸²à¸ ģà¹Ģà¸
T ag
Ġvict im
ĠW ear
à¹Ģà¸Ĺ à¹Īà¸²
E mail
ila ian
Ġprov isions
Ġà¸Ĥ à¸Ļà¸²à¸Ķ
Ġkn ee
áĢĻáĢ¾ áĢ¬
à®© à¯įà®®
f in
áĢĽ áĢ½
ĠåŃ Ĳ
Ġv iÃªm
ĠWay ne
Ġæ¾³éĹ¨ ç½ĳæĬķ
Ġà®¨ à®¾à®®à¯į
Ġoff ensive
ĠM t
be at
Ġpregn ant
Ġiniti atives
Ġfew er
Ġ":[ {"
ott a
éĵ¶ è¡Į
65 5
ouch er
ĠæĪ ĸ
Ġth áº³ng
ĠSat ellite
ĠD A
IC AL
ĺà¸¸à¸£à¸ ģà¸´à¸Īà¸
ĠEag le
Ġ iv
èģ ļ
à¹Ĭ à¸²
aint y
16 9
Ġthorough ly
Ġ19 73
Ġwor ship
ĠPart icip
Ġoff line
ib awah
Û Į
32 3
ĠRecomm end
Ġspect acular
ĠC inc
¡à¸²à¸ģà¸ Ĥà¸¶à¹īà¸Ļ
in as
Ĥà¸Ńà¸ĩ à¹Ģà¸£à¸²
Ġå¿ ħ
Ġd irt
ĠPol and
ĠLead er
ĠCl os
Ġ5 D
Ġt ires
ĠK ol
Ġà¸ª à¹Īà¸ĩà¸
Ġy Ãªn
ish ment
M odel
å¼Ģ åıĳ
b ers
ļà¸ ¥
Ġsurv ive
Ġp ond
ĠI Q
oth ers
áĢĻáĢ¾ áĢ¯
ĠRE AD
Ġ2 s
à¹Ģà¸ª à¸Ļ
¨à¸£à¸©à¸ Ĳà¸
16 3
Ġupload ed
ĠFem ale
Ġ- (
Ķà¸´à¸ ¡
ĠH amp
ä¸į åĲĮ
ãģ §
Ġd á»¯
ĠSte am
hat ian
Ġå¥ ³
Ġà®ķà¯Ĭ à®Łà¯ģà®¤à¯įà®¤
Ġà¸Ħ à¸²à¸ªà¸´à¹Ĥà¸Ļà¸
ĠN az
omp son
ĠÄĳÃ³ n
ĠInform asi
Ĺà¹Īà¸Ńà¸ĩà¹Ģà¸Ĺà¸µà¹Īà¸ ¢à¸§
Ġl id
ĠC isco
Ġà¸ ĸà¸
Ġt ire
Ġc od
ĠSur face
ªà¸²à¸ «à¸
ĠSen in
yar ikat
99 0
ĠKar en
à¸£à¸ ¡
17 9
ĠáĢŀ áĢŃ
Ġn um
áŁĴáŀ ¢
à®³ à¯Ī
à® ¹
Ġspecial ists
Ġcustom ized
ĠN áºµng
En t
Ġind ah
ĠValent ine
áŀ· áŀŁ
Ġlaw n
Ġthe ater
Ġdil ihat
Ġann oy
Ġaccommod ate
ĠP ener
æİ¨ èįĲ
à¹Ģà¸ Īà¹īà¸²à¸
ett i
M AN
Ġum at
à®µ à®¿
Ġs áº¯p
Ġsep anjang
14 6
ķà¸ ±à¸Ļ
ĠR aya
ĠGl en
Ġ14 1
cl ass
èĥ Į
æ´ ĭ
writ ing
C omm
---------------- ----------------
Ġà¸ ĸà¸¹à¸ģà¸
à®© à®¾à®²à¯į
iá»ĩ ng
ķà¸ ¹
Ġcons ent
Ġà¹Ģà¸ ļ
20 7
Ġdownload s
ĠMay or
ing at
Ġber upa
áĢļáĢ¹áĢ ľ
Ĺà¸£à¸±à¸ ŀà¸
æİ Ī
à¸£ à¸Ńà¸ļà¸
13 9
Ľà¸£à¸°à¸ ģà¸±à¸Ļà¸
ĠS aw
ĠInvent ory
łà¸²à¸© à¸²à¸
Ġsh ed
Ġhand ed
H R
Ġab uan
ĠK amu
ĠC atalog
ĠB inary
Ġ; "
qu er
g us
f b
Ġpak et
ĠL akes
Ġstrugg ling
Ġch ic
ĠTh Æ°Æ¡ng
áģ ½
uw ih
ĠRich mond
ĠDe fault
Ġabs ence
å «
Ind ex
ĠBeh av
Ġs Ã´ng
Ġarrang ements
ĠPh Ã¡t
ke um
er iks
Ġqual ify
Ġprevent ion
Ġdi atas
ĠU b
åı ¬
Ġart work
ĠPer iod
o os
ĠPrint ing
enc er
ann ers
áĢ±áĢ¬ áĢ·
Ġjun ior
Ġc ir
_ g
ĠGree ce
è® ¢
' ,
å½© äºīéľ¸
ubl in
av ail
Ġrob ust
epat ong
Ġç ĸ
Ġà®¨ à®¿à®ķà®´
Ġl adies
Ġdemonstr ated
Ġco zy
Ġbur uk
Ġalu epatong
ĠA kt
Ġ23 2
for ward
Īà¸±à¸ ģà¸£à¸
ĠEmp ire
n c
17 7
kans as
Ġadip asir
Ġadik arso
Ġad imulyo
A 2
Ġpem impin
ĠØ ¹
Ġcontract ors
ĠInnov ation
Ġ16 6
ch et
æ³ ī
Ħà¸ ¹à¹Ī
Ġd ess
Ġadit irto
à¹Ħà¸Ķà¹ī à¸£à¸±à¸ļ
à¹Ģà¸ §
ID S
Ġget js
ern al
Ġpert anyaan
20 9
Ġà¸ķ à¸²à¸¡à¸
Ġrem arkable
Ġk isah
ĠS ang
ĠK il
ĠCost a
U Z
Ġhe ated
oun ces
åĪ ļ
Ġæ¾ ¶
Ġfeed ing
ĠArgent ina
é¡ ¶
ie u
25 6
Ġvess el
ĠOper ating
Ġseb aik
Ġ( âĢľ
Ġagre ements
rows er
qu es
Ġsome body
ĠHe ating
ere k
Ġposs ibilities
is odes
ich t
13 3
Ġhapp iness
áŀ¾ áŀĢ
Ġåı¯ ä»¥
Ġdist ingu
ĠPat ents
fa atkan
Ġst er
Ġas h
ĠC Æ¡
áŀ¶áŀ ľ
Ġground s
å¯¼ èĪª
W V
16 4
ĠDel uxe
ĠB isnis
åĽ¾ çīĩ
ĠJ aw
ĠAct ivity
ken al
ij ing
ĸ áĢ¼
ĠRE EL
å° į
à¯Ĩà®²à¯įà®² à®¾à®®à¯į
Ġà¸ªà¸²à¸¡à¸²à¸£à¸ ĸà¸
Ġ1 rem
Ġ á»§y
on al
Ĥ Þ°
ĠCustom ers
Ġdead line
ĠCl oth
er als
Ġ5 55
à®¿à® Ļà¯įà®ķ
Ġpul sa
Ġ0175 37
å¾® ä¿¡
à¸´à¸ Ķà¹Ģà¸
áĢ¥ áĢ¹áĢ
ªà¸±à¹Īà¸ĩà¸ ĭà¸·à¹īà¸Ń
amin ate
ĠC t
Ġ à¹Ħà¸Ľà¸
Ġpass enger
ĠActiv ities
© à¸²à¸
im o
Ġro ots
Ġmount ing
Ġd h
ĠCov id
à¹ĥà¸ķ à¹ī
ons umsi
ĠL OL
ĠH Ã¬nh
à¹Ĥà¸Ľà¸£ à¹Ĥà¸¡à¸
ĪâĸĪâĸ ĪâĸĪâĸ
ĠD ah
ĠClin ic
à¸£à¸´à¸ ¡
Ġà®ļà¯Ĩ à®©à¯įà®±
Ġst arter
ĠBe g
ort ion
Ķ à¹ĩà¸ģ
ĠB ant
ç °
ven ues
________________ ________________
40 4
Ġo ct
Ġk áº»
ä¹Ł æĺ¯
roph y
Ġsing ing
ĠRemov al
ĠM ills
áŀŁ áŀĺ
Ġoppos ition
Ġexpl o
Ġdep artments
ĠCar ib
áĢ¬ áĢĶ
Ġwork out
Ġsing er
ĠPain ting
Ġà¸ªà¸¥à¹ĩà¸Ńà¸ķ à¸Ńà¸Ńà¸Ļà¹Ħà¸¥à¸Ļà¹Į
Ġsens ors
Ġdesign ated
ĠSwed en
Ã µÃ
¡à¸ ·à¹Īà¸Ńà¸
Ġgran ite
à¹ģà¸ Ħà¹Ī
Ġadil uwih
ol in
ek at
ak il
Ġexpl os
rell a
Ġ18 00
áŁĴáŀĽ áŀ½áŀĵ
áº¹ n
ĠCh Ãºa
Ġ4 10
ash ed
Ġrepresent atives
Ġkn ife
Ġdis ebabkan
áĢ» áĢģ
ĸ à¸Ļ
Ġpemb angunan
ĠF u
±áĢĲáĢ¬ áĢ·
ĠST R
acc arat
Ĺ à¸´
ĠPer k
ĠHer o
æĽ´ å¤ļ
A vailability
in asi
ĠáĢ¡ áĢħ
F ull
Ġenjoy able
Ġc af
gant ung
Ġà¹ ĳ
Ġresult ed
Ġperk embangan
ĠColumb us
åĮ» éĻ¢
I j
Ġw ifi
ĠR ena
Ġm ens
Ġb áº§u
ĠP ull
Ġbi ological
ĠPat ri
ĠCy ber
Ġ ugg
ort on
IT ION
Ġà¸ªà¸ ¥à¹ĩà¸Ńà¸ķà¸
Ġf er
à®¾à® ´
Â¡Â ¢
çĶ ²
à¯ĩà®¯ à¯ĩ
Ġintern ship
Ġform ats
ĠAll iance
áĢķáĢ« áĢĲáĢļáĢº
ack ing
Ġpul ak
O pt
ĸ à¹īà¸²à¸
Ġåıĳ å¸ĥ
ĠI gn
áŀĶ áŁĭ
AS I
20 6
Ġdeep er
Ġ9 50
Ħà¸´à¸ Ķ
Ġtr á»ĵng
Ġn est
Ġair enau
ĠN ative
aint iff
ĠCon cept
Ġexerc ises
áĢ¼ áĢĶáĢ¹áĢ
©à¸ łà¸²à¸
30 6
Ġmin s
Ġab a
¡à¸²à¸ģà¸ ģà¸§à¹Īà¸²
F e
Ľ à¸£à¸±à¸ļ
ĠB ahkan
Ġten aga
umn i
Ġv ine
ĠT os
Âº Ãį
Ġa ug
ĠHy undai
ĠDiffer ent
Ġm erg
Ġleg acy
Ġassoci ate
Ġprote ins
Ġmeng k
ĠG ay
Ġpers en
ĠPar liament
è§Ĥ çľĭ
K T
Ķà¸ ·à¸Ńà¸Ļà¸
al at
ļà¸Ńà¸¥à¸ §à¸±à¸Ļà¸Ļà¸µà¹ī
Ġvot ing
Ġdevelop ments
Ġad im
ĠV IP
Ġn k
Ġa ver
Ġp id
Ġan th
ĠW ol
ÃĶ NG
Ġchar ity
Ġsec ured
Ġh aha
Ġad on
B 1
Ġà®īà®° à¯ģà®µ
Ġref ers
ĠV IN
ĠT ed
ah im
17 6
Ī à¸Ńà¸
ĠSing h
áĢľ áĢ¯áĢķáĢ¹áĢ
ap es
Ġinter actions
ĠL C
ĠH oney
Ġmem astikan
ĠCru ise
¥ à¹Įà¸
Ġç ¹
Ġáŀı áŁĴáŀļáŀ¼áŀľ
ĠB art
áŀļáŀ ĶáŀŁáŁĭ
er ian
à¹Ģà¸£à¹ĩà¸ §à¸
ing le
Ġlock ed
Ġd ub
utt le
ub eng
g k
19 6
Ġà®¯ à®¾à®°
ĠI v
ĠF al
æ£ ®
Part ner
Ġà®¨ à®¾à®Łà¯įà®Ł
Ġrare ly
Ġkeku atan
Ġing at
Ġ16 7
Ġ- $
resp ons
Ġà®ªà¯ĭ à®¤à¯ģ
åªĴ ä½ĵ
Ġv ay
2 a
ilt ers
_ 4
Ġà®µ à®ļ
ĠProt ect
ĠGh ost
ĠD PR
Ġ" }.
13 6
ĠW S
ĠF ight
ac u
15 4
Ġç Ŀ
Ġse ating
Ġh ence
ĠR ED
u asa
Īà¸°à¹Ģà¸ Ľà¹ĩà¸Ļ
Ġl áº¯p
ĠNav igation
j ala
Ġçº ¢
uly am
il angkan
12 1
Ġadim ulyam
Ġadimulyam ulyo
ĠA UD
Å ¡
30 9
Ġc á»Ń
Ġmil ik
Ġback ed
ĠFa ith
áŀ· áŀĢ
ĠØ ¨
val ue
Ġtrans formation
Ġdeep ly
èĭ¹æŀľ APP
Ĺà¸ Ķà¸¥à¸Ńà¸ĩ
ĠNe igh
Ġh itting
ĠSom ething
Ġ... ................................
æľ Ĺ
åĵ ¥
ro be
Ġ17 2
Ġáģ į
amul ya
Ħà¸ ±à¸
Ġà¹ģà¸¥ à¹īà¸§
T ech
Ġ19 69
áĢ¯ áĢĲáĢº
k ing
OR Y
ĠCirc le
Ġå¿ ĥ
ĠBarb ara
ĠAn ch
Ġtr unk
ĠSte ering
ĠP B
ĠLib erty
ĠD uration
22 3
Ġp ear
ĠT all
ĠRequ ired
ot or
Ġåĩ¯ æĹ¶
Ġt ours
ĠR ivers
ç³» åĪĹ
P I
Ġst ruck
ic ular
Ġ> =
50 5
ĠæĬ Ĭ
áĤĢáĢĢ áĢ®áĢ¸áĢ
y b
Ġà¹Ģà¸ ¡
ĠLOV E
ĠIss ues
is d
U U
St yle
Ķ à¸²
ĠD uty
Ġ26 9
et ak
Ġk iá»ĩm
ĠS ame
ĠB AR
imul ya
any on
F E
Ġunivers e
Ġtr ucks
Ġembed ded
ĠSpec ific
ĠSe ven
ĠB D
¡à¸ ±à¹Īà¸Ļ
Ġprov ed
ĠJ asa
áŁĴáŀĵ áŀ¶áŀĢáŁĭ
Ġcomp ass
ĠAlb um
éĢ ı
Ġà¸ľà¸ ¥à¸´à¸
udd in
or ph
Ġvend ors
Ġover come
Ġcur riculum
Ġman ually
çļ ®
ĠP izza
ĠGover nor
ĠBro ther
ud ep
Ġex amin
Ġ04 165
ch ing
æīĭæľºçīĪ ä¸ĭè½½
irm ingham
Ġà®ļ à®ķ
Ġloc ally
Ġinv ite
ĠRes olution
ĠK ia
Ġèĩ ³
Ġà®ĩ à®³
Ġt áº¯c
Ġad apter
ĠH ang
ĠL inda
sp an
Ġà®ĩ à®©à¯įà®±à¯ģ
Ġfff ff
Ġens ures
éĢī 5
áĢŃ áĢĻáĢ¹áĢ
24 5
Ġsex ual
ĠMar ie
ĠL em
ĠE nh
æľĭ åıĭ
Ãī Ãı
§à¹ĩà¸ļà¹Ħà¸ĭà¸ ķà¹Įà¸
łà¸²à¸¢ à¹ĥà¸Ļ
Ġà¸Ńà¸ ¢à¸
ĠC AS
ĠBr id
Ġà¸§à¸±à¸Ļ à¸Ļà¸µà¹ī
ĠS OL
æŃ£ åľ¨
æİ ¢
ĠSel asa
k au
Ġmeng atasi
22 8
Ġà®¤ à®¿à®Łà¯įà®Ł
ĠÄĲ Æ°á»£c
ĠB apt
Ġ2 D
áŁ Į
§à¸±à¸ ķà¸
ĠPav ilion
å® ľ
13 7
Ġen emy
ĠMp 3
æıĲ æ¬¾
Ĥ à¸Ńà¸
ĠVac ation
Ġperform ances
ĠDoll ar
ĠBr ass
Ġ ig
Ġt ied
Ġnut ri
Ġfacilit ate
Ġabeuk ting
Ġabeukting keum
ĠTog ether
ĠPh áº¡m
ĠF el
Ġ* %
§ à¸£à¹Į
Ľ à¸£à¸´à¸
Ġdisappoint ed
ĠS ET
ĠPul sa
Ġclos est
ĠTan pa
ĠHu gh
Ġ3 C
à¯ĭ à®Ł
¥ à¹Īà¸²à¸
ob ati
Ġm iá»ĩng
Ġels ewhere
Ġab band
à¹Īà¸² à¸Ļà¹Ģà¸
ģà¸İà¸ «à¸¡à¸²à¸¢
ĠHistor ical
¹à¸ ¥à¸
ibat ang
Ġng áº¯n
Ġadv ised
ĠT ob
çĶ¨ æĪ·
Ġpl umbing
Ġjud gment
Ġinter f
çģ µ
eterm ined
Ġà®® à®¾à®¨
Ġp d
Ġh ilang
Ġadiw erna
Ġab ote
æľī ä¸Ģ
Ġad imulya
Ġa eks
ĠD it
åĪ ĺ
à¹ģà¸ģ à¹Īà¸
ary amulya
Ġadik aryamulya
ĠK or
Book ing
Ħà¸ ¹à¹Īà¸
ĠåĽł ä¸º
Ġabote ubeng
Ġabband erang
Ġabbanderang nge
Ġab ulos
Ġabulos ibatang
ĠAdvert ising
Ġ25 th
Ġ) "
èµ· æĿ¥
jak ulon
Ġadire jakulon
Ġab iant
Ġabiant ubuh
Ġabiantubuh baru
æĶ¿ æ²»
åĿ Ĺ
umb s
ĠU plo
è¿Ļ äºĽ
Ġathlet es
ĠPh áºŃt
Ġa wa
ĠPend ant
Ġcollection This
ach er
Ġelectro de
ĠForm er
Ħ à¸Ńà¸Ļ
à¹Ģà¸¡à¸ ·à¹Īà¸Ńà¸
et e
Ġm d
ĠEconom ics
èĽ ĭ
ĠK end
è¾ ĳ
ew are
Ġpush ed
Ġnom or
yl l
ac ements
qu ire
Ġtow er
Ġspecial ized
Ġsol ving
ĠG ET
à¸Ļà¸²à¸ Ħà¸¡
Fl ags
Ġprodu ces
ĠRead er
Ġfen omena
sh ot
Ġsem ula
Ġret ro
ĠBuy ing
Ġ2 d
Ġfrequ ent
ĠCra ig
Ġà¹ģà¸ ľ
Ġcampaign s
ĠJ i
ĠiT unes
Ġar c
Ġap t
Ġà¸ĸ à¹īà¸²
ĠN eb
if iers
ĠÄĲ á»
Ġeffect iveness
Ġref resh
ĠMot ion
angk ah
G C
Ġsome how
ipp i
E l
ĠMot ors
emet ery
Ġindic ating
ĠF X
Ġw ound
Ġnic ely
ĠDat uk
os ystem
ĠL uck
æĻº èĥ½
Ġcheck out
inn ati
ĠéĿ ¢
Ġcheap est
çİ ī
æµ ª
w agen
Ġà®ļ à®¾à®°
Ġn urse
L A
Ġl ar
æłĩ åĩĨ
ew a
bor ough
ĠTrack ing
ĠS udah
ĠGo ing
Ġsem ester
Ġà¸Ľ à¸µà¸
Ġà®ħ à®ª
Ġexp anding
ĠChair man
Ġà¸ģà¸ ±à¸Ļà¸
Ġre vers
Ġh id
Ġf iscal
«à¸¥à¸ ±à¸ģ
ĠNEW S
Ġ077 885
AT CH
Ġmybook Added
à¸£ à¹īà¸Ńà¸Ļ
y on
U X
ĠÂ· Â¢
Ġmybook Remove
ĠP ST
ĠK W
Ġ() );
ĠY outube
Ġk i
hamdul illah
Ħà¸ §à¸ļà¸Ħà¸¸à¸
Ġp ie
ĠâĢ ¹
Ġwar rant
Ġj avascript
Ġdism iss
Ġalue udep
Ġmed ian
±áĢ Ĩ
áĢŁ áĢ¬
id ad
Ġad iraja
ĠJac ob
Ġ à¹ĥà¸«à¹īà¹Ģà¸
áĢ¸áĢ ħ
ļà¸ Ĺ
Ġsh aft
Ġ19 72
n angka
Ġn omin
Ġelect ronics
Ġadian nangka
N EW
ĠâĢĿ )
Ġpen et
ĠG ra
ĠâĢ¦ âĢĿ
Ġwis dom
Ġsophistic ated
Ġs ud
Ġprec ise
Ġpint u
ĠB eng
Ðº Ð°
ph y
ļà¸£à¸´ à¹Ģà¸§à¸
Ġsuggest ion
ĠL ate
ĠK in
Ġà®¨à¯Ģ à®Ļà¯įà®ķà®³à¯į
erv es
Ġter asa
Ġaim ed
Ġ[ ]
ĠSeb ab
Æ°á»£ u
1 a
è³ ĩ
Ġch ampion
Ġber apa
à®¿à®°à¯ģà®ķà¯įà®ķ à¯ģà®®à¯į
ĠåŁ İ
Ġpod cast
Ġcolumn s
Ġber w
aw ak
OS E
K A
èĦ ±
ING S
ä¼ ĳ
Ġterr ible
ĠB orn
ĠB aker
à¯ģà®¤ à¯ģ
up id
Ġä¸ ĵ
Ġmotiv ation
Ġmeng el
ĠS AP
ĠA TM
©à¸łà¸²à¸ Ħà¸¡
Ġå £
Ġexperi encing
Ġadjust ed
§à¸´à¸ Īà¸±à¸
ĠÄĲ áº·t
ins ip
_m essage
ĠS EM
am as
AY S
Ġdij ual
åľ¨çº¿ è¯ķåĲ¬
ater i
s us
ĠV erm
ĠM inggu
ĠJack et
vo id
pos ition
à¯ģà®¤à¯įà®¤ à¯ģà®µ
rough t
ĠPitts burgh
Ġ25 00
Ġaccompl ished
ĠL um
abil itation
ĠDin ner
æĶ¹ éĿ©
Ġngh iÃªm
Ġmak ers
ĠUkrain e
ĠPort al
Ġpo etry
Ġæĸ ¹
ĠG ate
Ġ0175 34
Ġo s
Ġbr anding
Ġanaly ze
ĠOr leans
ĠK R
à¹Ģà¸Ķ à¸´à¸Ļà¸
angk ap
88 9
Ĥà¸ ķà¸
Ġsh ipped
Ġm Ãª
ĠSe j
à¸£à¸²à¸ Ĭ
¥ à¸´
u ce
is b
ĠR OM
Ġ23 1
«à¸²à¸ ¢
Ġà¸ «à¸
ĠN ord
ĠHer bal
ĠBer k
áŁĨ áŀĶ
ĠNe uro
Ġ02039 5
å® ¿
Ġmen entukan
Ġm arch
ĠB achelor
é¡ »
Ġà®ħ à®ķ
Ġt ao
Ġinter vention
Ġg ang
Ġdapat kan
Ġà®¨ à®®à¯įà®ª
Ġmem akai
Ġham mer
åĬĽ çļĦ
Ġt ension
ĠEl ite
Ġlab els
Ġanal og
ĠM AC
ĠDa erah
ãģ Ł
2 d
Ġtrans aksi
Â¡Â ¾
36 4
Ġth a
Ġ23 5
çĶµ è§Ĩ
read s
ash es
Ġberj aya
ĠT iá»ĥu
Ġso Ã¡t
Ġn l
Ġback yard
ªà¸²à¸ ¢
oth y
lo ver
Ġsel esai
ort ed
15 9
ĠCh an
ĠC arm
Ġà¸ªà¸ĸ à¸²à¸Ļà¸
Ġz aman
Ġmic rowave
ĠU PD
éĻ µ
Ĺ à¹īà¸Ńà¸ĩà¸
Ĥà¸Ńà¸ĩà¸ ģà¸²à¸£à¸
Ġ22 product
å®¶ ä¹Ĳ
ĭà¸ ¶à¹Īà¸ĩà¸
Ġch iáº¿u
Ġï¿½ï¿½ï¿½ï¿½ï¿½ï¿½ï¿½ ï¿½ï¿½
ŀà¸¹à¸ Ķà¸
Ġfac ial
jay o
ĠáĢĴ áĢ«
Ġcompet itors
ĠH unting
Ġ18 6
åĪĨ åĪĨå½©
B usiness
à¹ ķ
A ut
19 7
Ġà®¤à¯Ĩà®°à®¿à®µ à®¿à®¤à¯įà®¤
Ġ19 8
áº ¬
Ġcrush ers
Ġabung jayo
ĠW ave
ĠS ustain
å®ŀ çİ°
ĠåĲĮ æĹ¶
ĠConnect icut
ç§ ĺ
Ġà¹Ģ à¸£à¸´
Ġphot ographer
ĠContract ors
«à¸¥à¸ §à¸ĩà¸
est on
ĠLaw rence
W E
Ġb iz
Ġse o
ĠPart nership
Ġ à¸Ļà¸´à¸
comm unic
Ġl Æ°Æ¡ng
Ġint ense
Ġb arg
ĠWood en
ur angan
is ely
M in
AN C
Ġb á»©c
ĠAC C
çĪ ¶
ud io
ch t
à¹ģà¸« à¹Īà¸ĩ
Ġæ¾³éĹ¨ çľŁéĴ±
ĠL adies
__ widget
Ġindivid u
ĠH unt
ĠC ater
or ong
Ġl yrics
Ġ15 1
Ġn m
ĠN elson
à¸´à¸ ķà¸
¡à¸²à¸ģà¸ Ĺà¸µà¹Īà¸ªà¸¸à¸Ķ
Ġvot ers
Ġlight weight
Ġfr idge
å° ½
ĠSab tu
ĠInt elligence
Ġæľ ª
ĠRec ently
ĠO re
w eb
ĠR A
ĠQu Ã½
ĠA aron
Ġ40 1
é¡ į
æīĭæľº app
eriks aan
Ġmeng eluarkan
Ġcontainer Class
ok us
Ġà¸Ńà¸ ±à¸ĩà¸ģà¸¤à¸©
ir anya
Ġà®® à¯ģà®ķà¯įà®ķ
ĠA AC
ĠĈ Ĉ
ĠSh anghai
K 3
ĠAd m
± à¹Īà¸ĩ
§à¸ ¢
ult an
al ia
Ġres in
Ġint ensity
ĠAlb ert
Ġ18 4
ªà¸ ķ
ract ive
85 6
Ĩà¸ ©à¸
åħ¨ å¤©
rol ling
ĠZ ero
ob atan
b atu
Ħà¸£à¸ ·à¸Ńà¸
Ġconvert ed
ĠSur v
Ġçļ ĩ
ĠSt yl
ĠR az
à¸Ńà¸Ńà¸ģà¸ ¡à¸²
ter jun
W A
Ľà¸¥à¸Ńà¸Ķà¸ łà¸±à¸¢
Ġkim ia
Ġentert aining
Ġair terjun
ĠT iger
ĠSel amat
à®©à¯įà®© à¯Ī
N ot
Ġsk etch
Ġc ottage
ĠFre edom
áĢ ĩ
Ġbab ies
éªĹ å±Ģ
OW ER
Ġs s
Ġmind s
ĠB ai
Ľà¸£à¸°à¸ ªà¸´à¸Ĺà¸ĺà¸´à¸
Ġà®ļà¯Ĩ à®²à¯įà®²
Ġincorpor ated
Ġemp ower
ers ion
25 5
Ġprw_ rup
Ġprw_ ib
Ġmodule List
Ġem issions
Ġe bay
ĠE li
å¹² éĥ¨
ĠH arm
Ġmeny el
ĠSubm itted
ĠB ent
p d
W hat
Ġpost age
ģà¸²à¸£ à¹ģà¸Ĥà¹Īà¸ĩà¸Ĥà¸
Ġè¯ ·
Ġ30 pm
ĠRe uters
ĠPower ed
ĠTur k
ç¡ Ģ
Ġsed erhana
Ġen z
¼ åĲĪ
èĴ Ļ
p k
Ľ à¹Į
Ġà®īà®³à¯įà®³ à®¤à¯ģ
ĠÄĳ ÃŃch
Ġchrist mas
Ġbranch es
Ġ. /
Â¡Â °
áŀ·áŀħ áŁĴáŀħ
M R
Ġdib eri
à¹ĥà¸«à¹īà¸ ģà¸±à¸ļà¸
uy en
Ġà®° à®¾à®ľ
Ġoper ates
Ġà¹Ģà¸ŀ à¸£à¸²à¸°
ĠThe ory
ĠInclud ed
ĠIntegr ated
ĠG ig
Ġà¸Ĭ à¸´
Ġvan ity
Ġphys ician
ĠOut let
amb ahkan
ä¹ İ
ourn als
ģà¸²à¸«à¸¥ à¸µ
Ġexc el
Ġdecor ating
Ġb other
ĠSk ip
ĠMo z
à®¤ à®¾à®²à¯į
Ġsh ades
ĠUn iform
è¨ Ń
ack et
Ħà¸¸à¸ĵà¸ łà¸²à¸ŀ
Ġéĩį åºĨ
Ġà¸¥ à¹īà¸²à¸Ļà¸
ĠPalest in
ç« ¥
ĠCirc uit
áŁģ áŀıáŁĴáŀı
à¹Īà¸§à¸ ¡à¸
Ġgr adient
éĵ¾ æİ¥
åĪ ¤
ians emal
ĠÄĲ áº·c
Ġpen alty
ĠGi áº£i
ep i
E ff
Ġdrop s
Ġb ell
ĠTraff ic
ĠI EEE
ĠD ust
ĠV á»ģ
Ġpag k
ĠPublic ation
çĪ Ĩ
Ġst raw
ĠR oot
br anding
åĩ ı
áĢ¬áĢ¸áĢ Ĳ
Ĺà¸µà¹Ī à¸Ļà¸µà¹Ī
ĠâĢ¦ ..
ç» ©
à¹Ģà¸Ĺ à¹īà¸²
ļ à¸´à¸Ļà¸
Ġtrial s
ĠEmploy ment
Ġ à¹Ĥà¸£à¸ĩà¸
éľ ²
emb le
ĠInst ant
Ġpre ced
Ġplay off
Ġimm une
ĠMin imum
ĠDown town
re c
bro ok
V S
Ġab iansemal
ĠC yl
Ġ- ----
ĠÄĳo Ã¡n
Ġ< <
Ġpay day
ĠPet ers
Ġà®¨ à®¾à®³
ĠK esehatan
è¾ ħ
ä¸Ĭ æµ·
Ġà¹Ģà¸Ľ à¸´à¸Ķ
ĠO g
bat angt
Ġâ Ħ
Ġab uran
Ġaburan batangt
Ġaburanbatangt ebo
Ġab abi
ĠTh an
Ġdam ages
ĠSpec ifications
ump ur
f 8
æ¨¡ å¼ı
ãĤ Ĵ
unt u
Ġà¹Ģà¸ Ħà¸£à¸·à¹Īà¸Ńà¸ĩ
ĠGuy s
Ġunder lying
Ġjug ak
ĠUs ually
ĠAssoci ates
t n
D ire
áŀ¶áŀ ĳ
à¹Ģà¸ ¥à¸·à¸Ńà¸ģà¸
ar en
Ġgi Ã³
ĠKey words
ĠC itation
us c
ist on
88 6
Ġsand wich
Ġmanufact ure
ĠH Ãłng
Ġ17 3
à¹Ħà¸ ŀ
I ANG
Ġgovern ments
Ġgen es
70 7
ŀà¸ ¤à¸
Ġf_ use
Ġf_use _dap
ĠDr ama
ķà¸±à¸Ķà¸ ªà¸´à¸Ļ
ĠSe x
Ġlabor atory
Ġbear ings
áĤıáĢ½ áĢħáĢ¹áĢ
à¸Ńà¹Ģà¸ Ĭ
Ġà¸ «à¸±à¸§à¸
Ġsp acing
ĠT ot
ĠWorks heet
ĠPlan et
ŀà¸Ļà¸ ±à¸ģà¸
ĠåĽ ¾
Ġauthor ized
Ġh áº¡nh
Ġ19 00
Ġimplement ing
Ġgr ants
Ġdecl ared
¢à¸ ģà¸
Ġrest oration
V E
ĠEst im
¥à¸¹à¸ģà¸ Ħà¹īà¸²à¸
ĠPem erintah
EN CE
22 4
Ġit ulah
Ġemot ion
ĠPart ner
å· ¨
Ġtah ap
fr om
ĠAp par
yth m
it utes
Ġæ ½
Ġm b
Ġcou ples
ĠT engah
Ġd Element
80 5
ĠPRO D
ĠBrook lyn
in ner
Ġsimult aneously
Ġpersonal ized
ĠTh ompson
ĠRol ler
ĠD ictionary
å§ Ĳ
ot ation
ĠTre as
ch eck
ĵ à¸²
Ġch er
ĠL uke
«à¸§à¸ ¢
ol ak
ĠA ston
Ġm á»ĳi
Ġkh á»ĳi
Ġd ys
ĠB od
à¸Ńà¸ļà¸ Ħà¸¸à¸ĵà¸
ah as
60 6
Ġå ĺ
ĠS ya
ĠB 00
[...]
