{"ĵ": 0, "d": 1, "ĥ": 2, "ę": 3, "T": 4, "ħ": 5, "º": 6, "õ": 7, "á": 8, "Y": 9, "»": 10, "W": 11, "v": 12, "R": 13, "!": 14, "¶": 15, "ă": 16, "N": 17, "«": 18, "ĭ": 19, "è": 20, "5": 21, "ö": 22, "[": 23, "Û": 24, "f": 25, "ą": 26, "Ê": 27, "{": 28, "J": 29, "Ħ": 30, "\"": 31, "ı": 32, "É": 33, "ð": 34, "t": 35, "¨": 36, "ë": 37, "Ì": 38, "£": 39, "Ò": 40, "Á": 41, ";": 42, "L": 43, "Ï": 44, "ĸ": 45, "Ģ": 46, "ċ": 47, "%": 48, "M": 49, "}": 50, "Ł": 51, "Z": 52, "8": 53, "Ĥ": 54, "i": 55, "Ŀ": 56, "Ý": 57, "e": 58, "Ğ": 59, "@": 60, "Ī": 61, "ĩ": 62, "A": 63, "®": 64, "Ĝ": 65, "Ĭ": 66, "ï": 67, "æ": 68, "Ç": 69, "Ñ": 70, "4": 71, "|": 72, "ē": 73, "°": 74, "w": 75, "m": 76, "ô": 77, "u": 78, "þ": 79, "ñ": 80, "Ø": 81, "ĝ": 82, "?": 83, "P": 84, "S": 85, "¯": 86, "Ė": 87, "Ù": 88, "\\": 89, "Ĕ": 90, "2": 91, "ŀ": 92, "²": 93, "´": 94, "·": 95, "h": 96, "¹": 97, "¢": 98, "ļ": 99, "Ë": 100, "O": 101, "Q": 102, "Ĉ": 103, "3": 104, "0": 105, "ý": 106, "/": 107, ")": 108, "ä": 109, "Ä": 110, "ø": 111, ",": 112, "q": 113, "Ó": 114, "ď": 115, "§": 116, "r": 117, "n": 118, "b": 119, "Ð": 120, "ò": 121, "V": 122, "1": 123, "µ": 124, "Ô": 125, "D": 126, "Ą": 127, "*": 128, ">": 129, "ÿ": 130, "Â": 131, "j": 132, "c": 133, "û": 134, "Ļ": 135, "ĉ": 136, "Ĳ": 137, "¦": 138, "½": 139, "C": 140, "ĳ": 141, "å": 142, "ü": 143, "Ġ": 144, "g": 145, ":": 146, "À": 147, "È": 148, "č": 149, "à": 150, "×": 151, "¬": 152, "ù": 153, "Ć": 154, "Ă": 155, "ì": 156, "7": 157, "=": 158, "ī": 159, "į": 160, "6": 161, "x": 162, "ā": 163, "Į": 164, "l": 165, "Ĺ": 166, "Æ": 167, "ġ": 168, "]": 169, "Í": 170, "Î": 171, "¾": 172, "U": 173, "H": 174, "±": 175, "Ā": 176, "G": 177, "¿": 178, "Ö": 179, "o": 180, "¡": 181, "â": 182, "ã": 183, "`": 184, "B": 185, "Ü": 186, "(": 187, ".": 188, "$": 189, "9": 190, "³": 191, "Ċ": 192, "&": 193, "Ē": 194, "í": 195, "Ĩ": 196, "Č": 197, "ç": 198, "I": 199, "©": 200, "k": 201, "ć": 202, "Ľ": 203, "Ú": 204, "ķ": 205, "ó": 206, "y": 207, "_": 208, "^": 209, "î": 210, "¤": 211, "Ã": 212, "¸": 213, "<": 214, "Ě": 215, "ě": 216, "ģ": 217, "ß": 218, "¼": 219, "İ": 220, "ê": 221, "a": 222, "F": 223, "¥": 224, "ĺ": 225, "ė": 226, "Ĵ": 227, "ĕ": 228, "Õ": 229, "ª": 230, "~": 231, "Đ": 232, "K": 233, "s": 234, "'": 235, "+": 236, "Ę": 237, "X": 238, "ğ": 239, "Å": 240, "z": 241, "ľ": 242, "-": 243, "ú": 244, "p": 245, "E": 246, "÷": 247, "#": 248, "é": 249, "Ķ": 250, "đ": 251, "ł": 252, "Þ": 253, "Ń": 254, "Ď": 255, "à¸": 256, "Ġt": 257, "an": 258, "in": 259, "er": 260, "à®": 261, "Ġ.": 262, "Ġa": 263, "Ġs": 264, "Ġ,": 265, "on": 266, "Ġth": 267, "en": 268, "Ġc": 269, "re": 270, "at": 271, "à¹": 272, "or": 273, "Ġb": 274, "es": 275, "Ġp": 276, "Ġm": 277, "it": 278, "ar": 279, "Ġw": 280, "Ġthe": 281, "al": 282, "Ġd": 283, "is": 284, "ou": 285, "ing": 286, "Ġf": 287, "à¯": 288, "Ġh": 289, "ed": 290, "Ġ-": 291, "Ġo": 292, "Ġan": 293, "áĢ": 294, "á»": 295, "le": 296, "ic": 297, "as": 298, "ĠS": 299, "Ġin": 300, "om": 301, "Ġn": 302, "Ġto": 303, "ĠT": 304, "ion": 305, "Ġand": 306, "Ġl": 307, "Ġ1": 308, "ĠA": 309, "Ġof": 310, "Ġ2": 311, "ĠC": 312, "el": 313, "Ġ:": 314, "il": 315, "ent": 316, "ĠI": 317, "ĠP": 318, "à¯į": 319, "à¸²": 320, "et": 321, "am": 322, "ro": 323, "âĢ": 324, "ĠM": 325, "à¸Ļ": 326, "Ġg": 327, "us": 328, "áº": 329, "Ġy": 330, "áŀ": 331, "ĠB": 332, "à¸£": 333, "ct": 334, "ĠâĢ": 335, "Ġre": 336, "un": 337, "Ġk": 338, "id": 339, "em": 340, "Ġà®": 341, "ad": 342, "ch": 343, "ay": 344, "Ġ(": 345, "ot": 346, "ol": 347, "ĠD": 348, "à¸Ń": 349, "Ġv": 350, "Ġe": 351, "im": 352, "à¯įà®": 353, "ak": 354, "st": 355, "Ġ)": 356, "ĠR": 357, "ur": 358, "ng": 359, "ĠH": 360, "à¹Ģ": 361, "ig": 362, "à¹Ī": 363, "Ġ0": 364, "ow": 365, "Ġà¸": 366, "à¸²à¸": 367, "ut": 368, "ĠF": 369, "ang": 370, "Ġfor": 371, "ĠW": 372, "ĠTh": 373, "ve": 374, "ul": 375, "Ġ/": 376, "Ġ20": 377, "Ġyou": 378, "ag": 379, "Ġis": 380, "Ġon": 381, "ĠL": 382, "à¸£à¸": 383, "ir": 384, "à¹Ģà¸": 385, "ĠN": 386, "ãĢ": 387, "ce": 388, "ers": 389, "ation": 390, "ly": 391, "à¹ī": 392, "Ġbe": 393, "Ġ\"": 394, "à¸Ļà¸": 395, "Ġst": 396, "ap": 397, "à¸Ńà¸": 398, "ith": 399, "ĠG": 400, "Ġ3": 401, "ģà¸": 402, "ĠÄ": 403, "Ġch": 404, "ĠE": 405, "Ġ'": 406, "ah": 407, "à¯ģ": 408, "ter": 409, "Ġr": 410, "th": 411, "ab": 412, "Ġcom": 413, "à®¿": 414, "um": 415, "Ġtr": 416, "ĠO": 417, "Ġwith": 418, "Ġwh": 419, "ĠÄĳ": 420, "ac": 421, "od": 422, "ver": 423, "if": 424, "Ġï": 425, "Ġit": 426, "Ãł": 427, "os": 428, "Ġthat": 429, "à®¿à®": 430, "Ġse": 431, "ĩà¸": 432, "ik": 433, "Ġ201": 434, "Ġal": 435, "ä¸": 436, "Ġpro": 437, "est": 438, "ew": 439, "ĠK": 440, "qu": 441, "ĠThe": 442, "Ħà¸": 443, "ill": 444, "Ġå": 445, "Ġcon": 446, "ess": 447, "Ġ5": 448, "up": 449, "ĠJ": 450, "ate": 451, "ĠIn": 452, "Ġ4": 453, "and": 454, "00": 455, "Ġat": 456, "ip": 457, "ain": 458, "Ġor": 459, "Ġas": 460, "igh": 461, "à¸µ": 462, "op": 463, "ĠãĢ": 464, "±à¸": 465, "ĠÂ": 466, "ist": 467, "..": 468, "ore": 469, "Ġj": 470, "à¯ģà®": 471, "our": 472, "ant": 473, "¿½": 474, "iv": 475, "ere": 476, "Ã¡": 477, "ĠU": 478, "out": 479, "Ġare": 480, "ec": 481, "Æ°": 482, "oc": 483, "eng": 484, "ud": 485, "ep": 486, "art": 487, "Ġfr": 488, "Ġsh": 489, "ok": 490, "Ġ|": 491, "ure": 492, "ia": 493, "end": 494, "ĠV": 495, "ĠâĢĻ": 496, "áŁ": 497, "à®¾": 498, "oun": 499, "ort": 500, "Ġï¼": 501, "ity": 502, "à¹Īà¸": 503, "ĠÃ": 504, "Ġad": 505, "à¸´": 506, "ment": 507, "Ġex": 508, "à®¾à®": 509, "ost": 510, "ive": 511, "ave": 512, "Ġæ": 513, "Ġ;": 514, "ine": 515, "ies": 516, "ust": 517, "Ġby": 518, "ld": 519, "og": 520, "ight": 521, "ib": 522, "Ġwe": 523, "uk": 524, "ice": 525, "¡à¸": 526, "Ġthis": 527, "ect": 528, "Ġun": 529, "all": 530, "pl": 531, "ard": 532, "Ġ6": 533, "ub": 534, "iá»": 535, "Ġyour": 536, "res": 537, "¥à¸": 538, "Ġle": 539, "ack": 540, "Ġfrom": 541, "ear": 542, "Ġus": 543, "äº": 544, "ome": 545, "ial": 546, "ong": 547, "ĠSt": 548, "ell": 549, "ĠCh": 550, "à¹Ħà¸": 551, "age": 552, "à¹ģà¸": 553, "ra": 554, "Ġwas": 555, "Ġab": 556, "Ġ7": 557, "Ġhave": 558, "Ġdi": 559, "ãĢĲ": 560, "Ġcan": 561, "ªà¸": 562, "ide": 563, "ast": 564, "Ġ9": 565, "Ġï¼Į": 566, "Ġ?": 567, "Ġ8": 568, "Ġph": 569, "ĳãĢĲ": 570, "ĠY": 571, "nh": 572, "Ġ=": 573, "à¹īà¸": 574, "Ġnot": 575, "à¯įà®ķ": 576, "Ġnh": 577, "Ġ!": 578, "Æ°á»": 579, "gh": 580, "¢à¸": 581, "Ġqu": 582, "ï¿½": 583, "per": 584, "Ġde": 585, "ook": 586, "emb": 587, "se": 588, "ya": 589, "Ġsp": 590, "Ġyang": 591, "Ġpl": 592, "Ġhe": 593, "are": 594, "§à¸": 595, "ction": 596, "ind": 597, "à®°": 598, "able": 599, "Ġper": 600, "áº¡": 601, "à¹Į": 602, "iz": 603, "ĠAn": 604, "ff": 605, "áº¿": 606, "Ķà¸": 607, "av": 608, "ĠãĢĳãĢĲ": 609, "Ã´": 610, "ail": 611, "kan": 612, "à¸´à¸": 613, "Ġ...": 614, "à¹ĥ": 615, "à¯Ī": 616, "Ġwill": 617, "Ġ10": 618, "ian": 619, "one": 620, "ob": 621, "åı": 622, "Ġwor": 623, "à®¤": 624, "Ġ&": 625, "Ġáŀ": 626, "ould": 627, "à¯įà®¤": 628, "Ĺà¸": 629, "Ġall": 630, "Ãª": 631, "Ġç": 632, "Ġ%": 633, "ue": 634, "Ġkh": 635, "áĢ¹": 636, "ach": 637, "àº": 638, "ļà¸": 639, "ite": 640, "Ġdo": 641, "Ġ19": 642, "orm": 643, "Ġng": 644, "Ġ#": 645, "tt": 646, "Ġdan": 647, "Ġap": 648, "ai": 649, "Ġgo": 650, "ļĦ": 651, "der": 652, "Ã³": 653, "°à¸": 654, "áº£": 655, "ĠâĢľ": 656, "å®": 657, "ated": 658, "Ġà¹Ģà¸": 659, "Ġcomp": 660, "Ġcont": 661, "ally": 662, "ans": 663, "ung": 664, "ĠáĢ": 665, "Ġup": 666, "Ġres": 667, "cc": 668, "Ġ$": 669, "Ġne": 670, "Ġim": 671, "ary": 672, "port": 673, "ks": 674, "à¹Ĥ": 675, "ition": 676, "ĠRe": 677, "ov": 678, "ich": 679, "Ġcl": 680, "her": 681, "çļĦ": 682, "ign": 683, "Ġme": 684, "ug": 685, "ry": 686, "Ĺà¸µ": 687, "Ġhas": 688, "æľ": 689, "ie": 690, "ame": 691, "Ġpr": 692, "ound": 693, "Ġar": 694, "Ġsa": 695, "ake": 696, "ari": 697, "du": 698, "á»Ļ": 699, "ass": 700, "20": 701, "ts": 702, "ire": 703, "ous": 704, "ree": 705, "Ġso": 706, "Ġ\":": 707, "Ġout": 708, "ough": 709, "Ġbut": 710, "Ġï¿½": 711, "ens": 712, "ĠAl": 713, "ish": 714, "à®©": 715, "¸à¸": 716, "ĠâĢĭ": 717, "eb": 718, "ime": 719, "Ġx": 720, "Ġmen": 721, "áº¥": 722, "åħ": 723, "aw": 724, "ace": 725, "own": 726, "Ġman": 727, "ase": 728, "å¤": 729, "act": 730, "Ġte": 731, "ģà¸²": 732, "iew": 733, "Ġmore": 734, "Ã¢": 735, "áĢ¹áĢ": 736, "Ġ200": 737, "erv": 738, "ï¿½ï¿½": 739, "à¸µà¸": 740, "à®Ł": 741, "®à¯į": 742, "ge": 743, "ĠSh": 744, "ile": 745, "ark": 746, "Īà¸": 747, "ick": 748, "Ġdis": 749, "amp": 750, "Ġ12": 751, "fer": 752, "Ĵáŀ": 753, "ont": 754, "á»ĳ": 755, "Ġè": 756, "Ġber": 757, "ence": 758, "so": 759, "ents": 760, "ance": 761, "iá»ĩ": 762, "Ġmy": 763, "ä»": 764, "pt": 765, "uy": 766, "Ġ]": 767, "//": 768, "ical": 769, "áŁĴáŀ": 770, "ord": 771, "Ġter": 772, "Ġ11": 773, "à¹ĥà¸": 774, "«à¸": 775, "áĢ¬": 776, "ther": 777, "Ġà®ª": 778, "ttp": 779, "form": 780, "Ġ[": 781, "ĠWh": 782, "ions": 783, "cl": 784, "åĪ": 785, "Ġone": 786, "ĠâĢĵ": 787, "Ġag": 788, "ays": 789, "ult": 790, "à®³": 791, "reat": 792, "ĠTr": 793, "ĠIt": 794, "Ġ://": 795, "Ġam": 796, "Ġhttp": 797, "ations": 798, "Ġen": 799, "au": 800, "ŀà¸": 801, "int": 802, "à¸£à¸µ": 803, "lo": 804, "Ġke": 805, "ike": 806, "ress": 807, "áŀ¶": 808, "à¹Ĥà¸": 809, "Ã¬": 810, "Ġ\\": 811, "Ãªn": 812, "ä¹": 813, "ond": 814, "ķà¸": 815, "ount": 816, "ft": 817, "gr": 818, "Ġ}": 819, "Ġro": 820, "Ġabout": 821, "Ġint": 822, "Ġour": 823, "Ġthey": 824, "ual": 825, "Ġà®ķ": 826, "ink": 827, "ĠPro": 828, "ory": 829, "ery": 830, "Ã´ng": 831, "ings": 832, "ors": 833, "Ġnew": 834, "ç½": 835, "Æ¡": 836, "à¯įà®ª": 837, "ĠCom": 838, "Ġtheir": 839, "Ġ{": 840, "ert": 841, "ih": 842, "Ġget": 843, "ĀĀ": 844, "Ġif": 845, "Ġé": 846, "ķà¯įà®ķ": 847, "ĠUn": 848, "à®²": 849, "Ġwhich": 850, "ely": 851, "ata": 852, "Ġ15": 853, "ose": 854, "á»§": 855, "ĠâĢĿ": 856, "ĠAnd": 857, "ĠWe": 858, "Ġgr": 859, "ara": 860, "áĢ¸": 861, "ä½": 862, "Ġtime": 863, "Ġcol": 864, "áºŃ": 865, "pe": 866, "ĠThis": 867, "Ġ>": 868, "áĢº": 869, "Ġsu": 870, "ĠÄĳá»": 871, "à¯Īà®": 872, "ood": 873, "Ġvá»": 874, "Ġpre": 875, "ç½ĳ": 876, "ĠAs": 877, "Ġyear": 878, "xt": 879, "ru": 880, "nya": 881, "ĠQ": 882, "à¹Īà¸²à¸": 883, "à¯įà®Ł": 884, "ĠvÃł": 885, "tern": 886, "ek": 887, "à¸Ńà¸ĩà¸": 888, "vel": 889, "áĢ¯": 890, "æĸ": 891, "ĠAr": 892, "Ġà®µ": 893, "ater": 894, "Ġ\",": 895, "Ġunt": 896, "Ġ01": 897, "Ġ00": 898, "arg": 899, "áŀ¶áŀ": 900, "Ġsc": 901, "Ġbl": 902, "Ġany": 903, "Ġev": 904, "line": 905, "ese": 906, "Ġdes": 907, "Ġpart": 908, "à¹ĩ": 909, "ÃŃ": 910, "ock": 911, "åľ": 912, "áĢŃ": 913, "ons": 914, "ada": 915, "Ġalso": 916, "ool": 917, "ĠAd": 918, "ild": 919, "te": 920, "áº§": 921, "oy": 922, "Ġwork": 923, "ĠOn": 924, "Ġ+": 925, "Ġrec": 926, "ĠãĢĤ": 927, "Ġfe": 928, "Ġà®®": 929, "enc": 930, "à¸Ńà¸ĩ": 931, "æĹ": 932, "ember": 933, "urn": 934, "Ġapp": 935, "à¯ĩ": 936, "anc": 937, "Ġà®ħ": 938, "lect": 939, "åĽ": 940, "Ġwho": 941, "10": 942, "umb": 943, "ade": 944, "Ġacc": 945, "ri": 946, "Ġ18": 947, "ĠPh": 948, "áĢĢ": 949, "Ġmeng": 950, "Ġoff": 951, "Ġhis": 952, "ĠHe": 953, "Ġkn": 954, "Ġsome": 955, "any": 956, "Ġlike": 957, "æĪ": 958, "engan": 959, "ates": 960, "mer": 961, "ull": 962, "Ġ).": 963, "iáº¿": 964, "Ġ25": 965, "Ġover": 966, "ath": 967, "Ã¡c": 968, "Ġ14": 969, "ement": 970, "Ġthere": 971, "ĠlÃł": 972, "row": 973, "Ġi": 974, "Ġà®¤": 975, "Ġ13": 976, "very": 977, "åĲ": 978, "Ġother": 979, "ices": 980, "Ġwhen": 981, "Ġ16": 982, "âĢĿ": 983, "ĠYou": 984, "Ġ22": 985, "åĬ": 986, "ating": 987, "irst": 988, "å¹": 989, "Ĺà¸µà¹Īà¸": 990, "ĠAp": 991, "Ġthan": 992, "à®µ": 993, "akan": 994, "yst": 995, "ove": 996, "Æ°á»Ŀ": 997, "Ġneed": 998, "Ġind": 999, "aj": 1000, "Ġthem": 1001, "ax": 1002, "Ġà®ļ": 1003, "à¸£à¸²à¸": 1004, "ĠNew": 1005, "à¹Įà¸": 1006, "ĠFor": 1007, "low": 1008, "Ġthá»": 1009, "duct": 1010, "elp": 1011, "à¹ĩà¸": 1012, "view": 1013, "åį": 1014, "use": 1015, "AN": 1016, "air": 1017, "Ġco": 1018, "Ġpe": 1019, "Ġmay": 1020, "Ġuntuk": 1021, "à®¿à®²": 1022, "Ġdengan": 1023, "à¯ģà®®à¯į": 1024, "Ġjust": 1025, "uc": 1026, "ģà¸²à¸£à¸": 1027, "__": 1028, "Ġ30": 1029, "±áĢ": 1030, "Ġä¸": 1031, "Ġwould": 1032, "les": 1033, "Ġtá»": 1034, "Ġsup": 1035, "old": 1036, "Ġfun": 1037, "Ġà¹ģà¸": 1038, "Ġbeen": 1039, "ama": 1040, "Ġwhat": 1041, "app": 1042, "¹à¸": 1043, "Ġbr": 1044, "Ġmem": 1045, "Ľi": 1046, "´à¸": 1047, "Ľà¸": 1048, "áģ": 1049, "Ġem": 1050, "áĢĦ": 1051, "ER": 1052, "eth": 1053, "æĺ": 1054, "Ġno": 1055, "ict": 1056, "Ġhad": 1057, "itt": 1058, "çī": 1059, "Ġadd": 1060, "áº¥t": 1061, "à®¿à®¯": 1062, "clud": 1063, "Æ°á»£": 1064, "çĶ": 1065, "Ĭà¸": 1066, "alam": 1067, "·à¹Ī": 1068, "ĠPr": 1069, "Ġà®ĩ": 1070, "Ġ*": 1071, "Łà¸£à¸µ": 1072, "Ġini": 1073, "ĠCl": 1074, "áº¡i": 1075, "Äĥ": 1076, "Ġbet": 1077, "Ġ17": 1078, "Ġserv": 1079, "day": 1080, "ash": 1081, "Ġwere": 1082, "ning": 1083, "è¿": 1084, "±à¸Ļà¸": 1085, "Ġcho": 1086, "Ġback": 1087, "Ġprov": 1088, "ics": 1089, "Ġhow": 1090, "ĠBl": 1091, "ystem": 1092, "ĠEx": 1093, "uh": 1094, "å½": 1095, "ject": 1096, "³à¸": 1097, "iss": 1098, "Ġset": 1099, "Ãº": 1100, "à¯Ĩ": 1101, "Ġits": 1102, "à¸£à¸±à¸": 1103, "áĢ¸áĢ": 1104, "ĠcÃ³": 1105, "Ġcá»§": 1106, "ee": 1107, "Ġâ": 1108, "asi": 1109, "ful": 1110, "olog": 1111, "Ġbec": 1112, "IN": 1113, "Ġcá»§a": 1114, "à¸£à¸°à¸": 1115, "65": 1116, "ments": 1117, "Ġmin": 1118, "Ġtw": 1119, "fter": 1120, "ĠÄĲ": 1121, "ale": 1122, "à¹īà¸²à¸": 1123, "aya": 1124, "ific": 1125, "ank": 1126, "Ġop": 1127, "io": 1128, "æī": 1129, "ĠSp": 1130, "æĿ": 1131, "ĠFr": 1132, "ey": 1133, "Ġ2017": 1134, "Ã£": 1135, "ner": 1136, "¨à¯įà®¤": 1137, "red": 1138, "oth": 1139, "à¹Īà¸²": 1140, "ize": 1141, "Ġfirst": 1142, "iness": 1143, "az": 1144, "Ġhá»": 1145, "Ġhelp": 1146, "ature": 1147, "Ġuse": 1148, "ww": 1149, "Ġ),": 1150, "Ġsec": 1151, "Ġinto": 1152, "à¹īà¸²": 1153, "à¹Ħà¸Ķ": 1154, "Ġinter": 1155, "ower": 1156, "Ġà®¨": 1157, "als": 1158, "Ġinclud": 1159, "è®": 1160, "Ġ,\"": 1161, "Ġpost": 1162, "ubl": 1163, "atch": 1164, "ople": 1165, "å°": 1166, "Ġstr": 1167, "Ġhigh": 1168, "Ġgi": 1169, "Ġlook": 1170, "Ġpos": 1171, "Ġcomm": 1172, "13": 1173, "Ġ\",\"": 1174, "äºº": 1175, "ĠPl": 1176, "Ġonly": 1177, "vo": 1178, "Ġher": 1179, "ise": 1180, "ĠâĢ¦": 1181, "Ġ24": 1182, "ading": 1183, "ĠãĢģ": 1184, "ªà¯įà®ª": 1185, "ork": 1186, "Ġmake": 1187, "ĠX": 1188, "Ġ2019": 1189, "cr": 1190, "ple": 1191, "ç»": 1192, "Ġcons": 1193, "Ġdown": 1194, "uly": 1195, "Ġrel": 1196, "å·": 1197, "usiness": 1198, "è½": 1199, "Ġtrans": 1200, "rol": 1201, "12": 1202, "rough": 1203, "à®£": 1204, "ä¼": 1205, "Ġ\":\"": 1206, "ener": 1207, "--": 1208, "á»ĭ": 1209, "Ġsaid": 1210, "Ġu": 1211, "Ġ..": 1212, "à¸Ńà¸Ļ": 1213, "ľà¸": 1214, "Ĺà¸µà¹Ī": 1215, "pert": 1216, "Ħà¸£à¸": 1217, "Ġvery": 1218, "ipt": 1219, "à®®": 1220, "áº¯": 1221, "Ã¬nh": 1222, "ities": 1223, "Ġsub": 1224, "ily": 1225, "14": 1226, "ĠIf": 1227, "Ġknow": 1228, "30": 1229, "Ġmu": 1230, "Ġbo": 1231, "px": 1232, "à¯įà®±": 1233, "à®±": 1234, "ĠUS": 1235, "ĠTe": 1236, "ets": 1237, "rit": 1238, "Ġmod": 1239, "we": 1240, "Ġdr": 1241, "è¯": 1242, "Ġwell": 1243, "ĠDe": 1244, "ĠMar": 1245, "Ġact": 1246, "50": 1247, "ause": 1248, "ĠLe": 1249, "à¯ĭ": 1250, "Ġgood": 1251, "ange": 1252, "ĠInd": 1253, "å¸": 1254, "ational": 1255, "ss": 1256, "Ġà®İ": 1257, "ph": 1258, "Ġ2018": 1259, "ting": 1260, "ä¸Ģ": 1261, "Ã¢n": 1262, "ĠPost": 1263, "Ġpeople": 1264, "erm": 1265, "ton": 1266, "ĠZ": 1267, "ix": 1268, "ious": 1269, "Ġwww": 1270, "Ġloc": 1271, "....": 1272, "Ġass": 1273, "Ġbu": 1274, "Ġbel": 1275, "Ġreg": 1276, "Ġmost": 1277, "ular": 1278, "Ġweb": 1279, "ģà¸²à¸£": 1280, "oh": 1281, "Ġsm": 1282, "ĠAll": 1283, "alah": 1284, "els": 1285, "Ġdec": 1286, "ible": 1287, "Ġ100": 1288, "ied": 1289, "adi": 1290, "load": 1291, "ages": 1292, "its": 1293, "ited": 1294, "Ġatt": 1295, "ĠGr": 1296, "19": 1297, "Ġtop": 1298, "èµ": 1299, "Ġinv": 1300, "Ġrem": 1301, "Ġac": 1302, "Ġunder": 1303, "åıĳ": 1304, "ivers": 1305, "fore": 1306, "Ġevery": 1307, "Ġcar": 1308, "ON": 1309, "±à¸Ļ": 1310, "iá»ģ": 1311, "formation": 1312, "Ġthrough": 1313, "á»¯": 1314, "Ġ000": 1315, "á»±": 1316, "88": 1317, "ility": 1318, "Ġty": 1319, "wn": 1320, "Ġdif": 1321, "erson": 1322, "ĠCol": 1323, "ļáŀ": 1324, "å¼": 1325, "amb": 1326, "Ġwant": 1327, "à¯įà®ķà®³": 1328, "ife": 1329, "áĢĲ": 1330, "Ġ07": 1331, "áĢŃáĢ¯": 1332, "ĀĀĀĀ": 1333, "Ġdari": 1334, "°à¹Ģà¸": 1335, "Ġinst": 1336, "Ã²": 1337, "ĠÂ»": 1338, "gan": 1339, "ĠWith": 1340, "ļà¸Ńà¸": 1341, "Ġmak": 1342, "ract": 1343, "Ġed": 1344, "Ġbest": 1345, "éĹ": 1346, "ouse": 1347, "Ġent": 1348, "Ġmemb": 1349, "Ġstud": 1350, "pect": 1351, "Ġright": 1352, "eld": 1353, "eck": 1354, "Ġins": 1355, "Æ°á»£c": 1356, "åŃ": 1357, "land": 1358, "æĬ": 1359, "Ġbas": 1360, "Ġve": 1361, "¡à¸²à¸": 1362, "Ġgreat": 1363, "Ġmed": 1364, "ĠBe": 1365, "Ġseb": 1366, "Ġtwo": 1367, ");": 1368, "ric": 1369, "Ġsee": 1370, "ĸà¸": 1371, "Ġ21": 1372, "AT": 1373, "Ġafter": 1374, "arket": 1375, "Ġ23": 1376, "Ġfind": 1377, "ĠQu": 1378, "à®¤à¯įà®¤": 1379, "ys": 1380, "Ġlist": 1381, "Ġdata": 1382, "ience": 1383, "oup": 1384, "Ġpo": 1385, "Ġart": 1386, "Ġmas": 1387, "elf": 1388, "Ġ50": 1389, "à®¿à®°": 1390, "ï¼": 1391, "Ġthese": 1392, "Ġinc": 1393, "Ġbook": 1394, "Ġhome": 1395, "å¿": 1396, "ative": 1397, "á»¥": 1398, "Ġfl": 1399, "chn": 1400, "áĢķ": 1401, "66": 1402, "AR": 1403, "Ġnow": 1404, "idak": 1405, "á»©": 1406, "à®®à¯į": 1407, "à®¿à®²à¯į": 1408, "Ã©": 1409, "ita": 1410, "ĠTo": 1411, "Ġsystem": 1412, "à¹Ħà¸¡": 1413, "ĠMan": 1414, "15": 1415, "17": 1416, "á»Ļt": 1417, "Ġà¸ªà¸": 1418, "Ġplay": 1419, "ĠcÃ¡c": 1420, "gram": 1421, "arm": 1422, "Ġproduct": 1423, "ĠInvo": 1424, "inh": 1425, "18": 1426, "§à¸²à¸": 1427, "æĺ¯": 1428, "Ľà¹ĩ": 1429, "ikan": 1430, "Ġret": 1431, "à®ķ": 1432, "alth": 1433, "Ġmon": 1434, "rap": 1435, "let": 1436, "US": 1437, "ĠRep": 1438, "ĠSe": 1439, "ana": 1440, "Ġval": 1441, "ble": 1442, "Ġsch": 1443, "Ġrequ": 1444, "arn": 1445, "Ġcur": 1446, "åĨ": 1447, "Ġdet": 1448, "ars": 1449, "à¯Ĭ": 1450, "à®¿à®©": 1451, "angan": 1452, "Ġform": 1453, "velop": 1454, "ĠRes": 1455, "à®¾à®°": 1456, "Ġtak": 1457, "à®¤à¯ģ": 1458, "Ġpol": 1459, "æ¸": 1460, "earch": 1461, "Ġwhere": 1462, "Ġcould": 1463, "éĢ": 1464, "ĠkhÃ´ng": 1465, "cess": 1466, "Ġspec": 1467, "ĠBr": 1468, "Ġ2016": 1469, "ĠSo": 1470, "ka": 1471, "áĢĻ": 1472, "Ġfin": 1473, "Ġdalam": 1474, "EN": 1475, "ient": 1476, "éĩ": 1477, "Ġyears": 1478, "áĢ¼": 1479, "ode": 1480, "Ãły": 1481, "Ġfil": 1482, "Ġshould": 1483, "ward": 1484, "Ġway": 1485, "Ġday": 1486, "æ³": 1487, "Ġfree": 1488, "Ġob": 1489, "Ġser": 1490, "uring": 1491, "å¤§": 1492, "åº": 1493, "Ã¹": 1494, "ua": 1495, "Ġfunction": 1496, "ç«": 1497, "60": 1498, "ional": 1499, "hip": 1500, "anya": 1501, "à¸Ļà¸µ": 1502, "Ġaut": 1503, "over": 1504, "Ġmany": 1505, "umber": 1506, "ä¸ĭ": 1507, "ĠÄĳÆ°á»£c": 1508, "ĠHow": 1509, "çĽ": 1510, "á»Ł": 1511, "Ġonline": 1512, "Ġshow": 1513, "Ġstart": 1514, "Ġdesign": 1515, "iá»ĩn": 1516, "à¸Ļà¹Ģà¸": 1517, "Ġsim": 1518, "Ġsur": 1519, "ina": 1520, "ĠOr": 1521, "75": 1522, "ustom": 1523, "ident": 1524, "Ġopt": 1525, "à¹ĥà¸«": 1526, "Ġthen": 1527, "åĽ½": 1528, "ES": 1529, "à¯Īà®¯": 1530, "22": 1531, "áº·": 1532, "ene": 1533, "vail": 1534, "Ġimp": 1535, "Ġshe": 1536, "ern": 1537, "ĠCon": 1538, "åľ¨": 1539, "Æ°Æ¡": 1540, "Ġexper": 1541, "å®ĺ": 1542, "apat": 1543, "iÃªn": 1544, "he": 1545, "get": 1546, "ĩà¹Ģà¸": 1547, "ior": 1548, "ateg": 1549, "99": 1550, "ukan": 1551, "70": 1552, "Ġdid": 1553, "dition": 1554, "Ġeven": 1555, "Ġpres": 1556, "à¯ģà®ķà¯įà®ķ": 1557, "Ġhere": 1558, "à®¯": 1559, "Ġ28": 1560, "ier": 1561, "Ġeff": 1562, "ollow": 1563, "Ġinformation": 1564, "ins": 1565, "áº§n": 1566, "Ġsuch": 1567, "OR": 1568, "ĠIs": 1569, "16": 1570, "åĮ": 1571, "åİ": 1572, "Ġ<": 1573, "Ġbecause": 1574, "Ġtidak": 1575, "Ġgu": 1576, "Ġà¸ª": 1577, "çİ": 1578, "24": 1579, "à¯ģà®¤": 1580, "Ġlo": 1581, "å±": 1582, "áĤ": 1583, "Æ°á»Ľ": 1584, "ott": 1585, "Ġend": 1586, "éĻ": 1587, "Ġ26": 1588, "ĠSc": 1589, "Ġbusiness": 1590, "Ġ09": 1591, "Ġ2013": 1592, "Ġtrong": 1593, "led": 1594, "ĠEn": 1595, "Ġhand": 1596, "itch": 1597, "Æ°á»Ŀi": 1598, "Ġrep": 1599, "Ġdon": 1600, "áĢĶ": 1601, "Ġlong": 1602, "man": 1603, "Ġbefore": 1604, "Ħà¸§à¸²à¸": 1605, "alk": 1606, "Ġused": 1607, "äºĨ": 1608, "way": 1609, "áĢĦáĢ¹áĢ": 1610, "Ġdiffer": 1611, "Ġread": 1612, "Ġdep": 1613, "à¹īà¸Ńà¸": 1614, "ures": 1615, "Ġmuch": 1616, "Ġngh": 1617, "ģà¸£à¸": 1618, ").": 1619, "Ġå¤": 1620, "reen": 1621, "ump": 1622, "Ĥà¸": 1623, "è¡": 1624, "à¹ĥà¸Ļà¸": 1625, "Ġdef": 1626, "orn": 1627, "Ġcall": 1628, "Ġ08": 1629, "room": 1630, "Ġï¼ļ": 1631, "ues": 1632, "ather": 1633, "Ġ2012": 1634, "áĢ±áĢ": 1635, "Ġsk": 1636, "áº¡n": 1637, "Ġmá»Ļt": 1638, "other": 1639, "áŀĵ": 1640, "áŀĢ": 1641, "å½©": 1642, "ĩà¸´": 1643, "ĠNo": 1644, "Ġ@": 1645, "ives": 1646, "ĠDes": 1647, "plic": 1648, "ublic": 1649, "ĠHome": 1650, "Ġfam": 1651, "Ġáģ": 1652, "olut": 1653, "å¾": 1654, "¡à¸µà¸": 1655, "90": 1656, "ĠInvoice": 1657, "Ġ02": 1658, "ital": 1659, "af": 1660, "Ġz": 1661, "å¥": 1662, "Ġ27": 1663, "80": 1664, "Ġvá»Ľi": 1665, "atan": 1666, "Ġthink": 1667, "à¹Īà¸Ļ": 1668, "ms": 1669, "leh": 1670, "æĹ¶": 1671, "Ġvis": 1672, "ology": 1673, "25": 1674, "Ġcr": 1675, "ox": 1676, "Ġprovid": 1677, "iá»ĥ": 1678, "iving": 1679, "çº": 1680, "Ġsl": 1681, "ä¸Ń": 1682, "ex": 1683, "vailable": 1684, "à»": 1685, "à®Łà¯įà®Ł": 1686, "Ġlast": 1687, "ven": 1688, "ines": 1689, "à®Ļ": 1690, "emp": 1691, "Ġ--": 1692, "ason": 1693, "Ġï¿½ï¿½ï¿½": 1694, "à®¾à®©": 1695, "Ġà¹Ĥà¸": 1696, "è§": 1697, "ĠPM": 1698, "Ġext": 1699, "Ġair": 1700, "·à¸Ńà¸": 1701, "Ġown": 1702, "ja": 1703, "istr": 1704, "æľī": 1705, "Ġpen": 1706, "AL": 1707, "icle": 1708, "áŀĦ": 1709, "à¹Ħà¸Ķà¹ī": 1710, "ĠDr": 1711, "à¹Īà¸ĩà¸": 1712, "ĠComp": 1713, "34": 1714, "ĠCont": 1715, "Ġdisc": 1716, "è´": 1717, "Ġagain": 1718, "Ġ=\"": 1719, "iá»ģu": 1720, "Æ°Æ¡ng": 1721, "ality": 1722, "Ġakan": 1723, "lease": 1724, "Ġ29": 1725, "Ġmade": 1726, "oot": 1727, "ator": 1728, "Æ°á»Ŀng": 1729, "¥à¸°à¸": 1730, "Ġperson": 1731, "asa": 1732, "Ġ2015": 1733, "att": 1734, "Ġtake": 1735, "Ġcre": 1736, "ļà¸²à¸": 1737, "read": 1738, "Ġitu": 1739, "ding": 1740, "erg": 1741, "Ķà¸´à¸": 1742, "vent": 1743, "åĩ": 1744, "á»į": 1745, "Ġsign": 1746, "æĿ¥": 1747, "rect": 1748, "Ġpar": 1749, "rop": 1750, "ao": 1751, "åĪĨ": 1752, "Ġdoes": 1753, "ames": 1754, "Ãłng": 1755, "æľº": 1756, "áº£i": 1757, "Ġ2014": 1758, "Ġcle": 1759, "ļà¸Ńà¸¥": 1760, "ĭà¸": 1761, "à®¨à¯įà®¤": 1762, "ush": 1763, "Ãłnh": 1764, "ĠNe": 1765, "ga": 1766, "35": 1767, "ĠAm": 1768, "Ġinf": 1769, "±à¸ĩà¸": 1770, "á»ĩ": 1771, "lection": 1772, "ĠMay": 1773, "ĠâĢĶ": 1774, "Ġcent": 1775, "áĢ½": 1776, "ware": 1777, "Ġprof": 1778, "ulyo": 1779, "Ġ40": 1780, "à¸£à¸´à¸": 1781, "ï¼Į": 1782, "iqu": 1783, "Ġgl": 1784, "ideo": 1785, "áº£n": 1786, "Ġexp": 1787, "Īà¸²à¸": 1788, "ually": 1789, "å®¶": 1790, "Ġeach": 1791, "Ġworld": 1792, "ield": 1793, "ĠThere": 1794, "Ġbeing": 1795, "ones": 1796, "Ġ_": 1797, "Ġmel": 1798, "Ġdevelop": 1799, "ä¿": 1800, "ows": 1801, "ĠPer": 1802, "aint": 1803, "Ġprogram": 1804, "ĠngÆ°á»Ŀi": 1805, "Ġ03": 1806, "ĠBut": 1807, "Ġak": 1808, "aut": 1809, "ium": 1810, "ruct": 1811, "Ġpada": 1812, "Ġreview": 1813, "yn": 1814, "AS": 1815, "ized": 1816, "çľ": 1817, "imulyo": 1818, "11": 1819, "40": 1820, "ced": 1821, "Ġprocess": 1822, "Ġho": 1823, "Ãłn": 1824, "ĠÂ£": 1825, "ĠDec": 1826, "df": 1827, "ann": 1828, "Ã¡ch": 1829, "ote": 1830, "à®¾à®ķ": 1831, "ä¸į": 1832, "ider": 1833, "cept": 1834, "à®°à¯į": 1835, "arch": 1836, "Ãłi": 1837, "á»¯ng": 1838, "ĠPre": 1839, "à¯Ģ": 1840, "pr": 1841, "áĢ·": 1842, "agi": 1843, "ants": 1844, "Ġclass": 1845, "Ġ04": 1846, "Ġusing": 1847, "ĠCar": 1848, "otel": 1849, "ism": 1850, "39": 1851, "empl": 1852, "Ġngud": 1853, "Ġngudimulyo": 1854, "ami": 1855, "arge": 1856, "uan": 1857, "Ġfollow": 1858, "Ġgener": 1859, "ram": 1860, "èĢ": 1861, "Ġreally": 1862, "less": 1863, "32": 1864, "¥à¸²à¸": 1865, "áº§u": 1866, "å¹³": 1867, "æ°": 1868, "Ġ05": 1869, "à®¿à®±": 1870, "ĠAb": 1871, "ral": 1872, "Ľà¸£à¸°à¸": 1873, "Ġview": 1874, "unity": 1875, "omm": 1876, "ED": 1877, "ron": 1878, "imes": 1879, "ati": 1880, "yl": 1881, "ä¹Ĳ": 1882, "ĠnhÆ°": 1883, "à¯įà®ļ": 1884, "Ġsem": 1885, "isa": 1886, "Ġcontent": 1887, "æ¸¸": 1888, "ĠEng": 1889, "á»ĵ": 1890, "ĠIm": 1891, "ently": 1892, "Ġ.,": 1893, "Ġwid": 1894, "Ġ199": 1895, "und": 1896, "ena": 1897, "áĢ²": 1898, "Ġdel": 1899, "Ġ2011": 1900, "·à¸Ń": 1901, "¶à¸": 1902, "ĠWhat": 1903, "Ġservice": 1904, "Ġleft": 1905, "Ġsom": 1906, "ĠÂ·": 1907, "¡à¸²": 1908, "77": 1909, "ody": 1910, "Ġroom": 1911, "ince": 1912, "Ġmonth": 1913, "ç¥": 1914, "ģà¸±à¸": 1915, "Ġplace": 1916, "site": 1917, "ness": 1918, "ĠSch": 1919, "ween": 1920, "yle": 1921, "Ġsit": 1922, "èĤ": 1923, "Ġcour": 1924, "à¸£à¸µà¸": 1925, "ĠCo": 1926, "à®ªà¯įà®ª": 1927, "±à¹īà¸": 1928, "Ġcustom": 1929, "aining": 1930, "Ġthose": 1931, "ĠFree": 1932, "Ġavailable": 1933, "Æ°á»Ľc": 1934, "Ġsupport": 1935, "uga": 1936, "Ã¢y": 1937, "Ġel": 1938, "ĵà¸": 1939, "ĥ½": 1940, "Ġchild": 1941, "à¹īà¸Ļà¸": 1942, "Ġcount": 1943, "à®ļ": 1944, "Ġlife": 1945, "æµ": 1946, "ä¸Ĭ": 1947, "ling": 1948, "Ã´i": 1949, "IT": 1950, "cript": 1951, "ĠDi": 1952, "§à¸´à¸": 1953, "Ġhim": 1954, "Ġra": 1955, "åı°": 1956, "ĠÄĳá»Ļ": 1957, "Ġà®İà®©": 1958, "è½½": 1959, "atu": 1960, "atur": 1961, "Ġpur": 1962, "ĠJun": 1963, "áºŃn": 1964, "ĠJan": 1965, "ĠSep": 1966, "ute": 1967, "à¯ģà®ķ": 1968, "Ġmarket": 1969, "ĠAM": 1970, "łà¸²à¸": 1971, "ĠBy": 1972, "æīĭ": 1973, "ĠMy": 1974, "ross": 1975, "Ġcolor": 1976, "Ġmer": 1977, "ika": 1978, "ĠFl": 1979, "uss": 1980, "Ġbar": 1981, "áŁĭ": 1982, "aving": 1983, "å¯": 1984, "play": 1985, "inal": 1986, "æķ": 1987, "ĠAmer": 1988, "Ġaround": 1989, "Ġ);": 1990, "rist": 1991, "ren": 1992, "Ġ\\/": 1993, "ping": 1994, "Ġimport": 1995, "alu": 1996, "Ġjob": 1997, "Ġnet": 1998, "Ġà®ī": 1999, "çĲ": 2000, "æĸ¹": 2001, "ĠSup": 2002, "à¹ĥà¸Ĭ": 2003, "åĿ": 2004, "ĠDo": 2005, "Ġnumber": 2006, "ats": 2007, "ams": 2008, "áº¿n": 2009, "ĠServ": 2010, "38": 2011, "å¹´": 2012, "Ġcare": 2013, "Ġide": 2014, "Ġwhile": 2015, "à¯Ĥ": 2016, "Ġ06": 2017, "oci": 2018, "iáº¿t": 2019, "á»ķ": 2020, "ency": 2021, "Ġdifferent": 2022, "à¸Ńà¸²à¸": 2023, "Ġbetween": 2024, "78": 2025, "ccess": 2026, "Ġatau": 2027, "Ġcor": 2028, "IC": 2029, "Ġadv": 2030, "Ġeng": 2031, "æł": 2032, "áĢħ": 2033, "Ĥà¸Ńà¸ĩà¸": 2034, "Ġmet": 2035, "Ġrun": 2036, "Å©": 2037, "Ġsame": 2038, "Ġnhá»¯ng": 2039, "Ġthough": 2040, "ety": 2041, "lex": 2042, "ĠCent": 2043, "ĠRo": 2044, "Ġ.âĢĿ": 2045, "Ġlot": 2046, "book": 2047, "ource": 2048, "ĠComm": 2049, "ahan": 2050, "ample": 2051, "Ġ35": 2052, "ĠÐ": 2053, "¨à¸": 2054, "ished": 2055, "ber": 2056, "ories": 2057, "á»Ń": 2058, "à¸Ńà¸£": 2059, "ĠâĢĺ": 2060, "Ã¡n": 2061, "Ġadalah": 2062, "Ġweek": 2063, "Ġvar": 2064, "à¸²à¸Ļà¸": 2065, "ces": 2066, "ired": 2067, "ethod": 2068, "ä¸ĭè½½": 2069, "Ġvari": 2070, "ĠCan": 2071, "ali": 2072, "áºŃt": 2073, "ãĢĳãĢĲ": 2074, "ails": 2075, "Ġopen": 2076, "çĻ": 2077, "asy": 2078, "æŃ": 2079, "Ġprice": 2080, "Ġpay": 2081, "æĶ": 2082, "Ľà¹ĩà¸Ļà¸": 2083, "ittle": 2084, "Ġfeature": 2085, "Ġtechn": 2086, "ips": 2087, "Ġmov": 2088, "ards": 2089, "aan": 2090, "iversity": 2091, "nect": 2092, "Ġcap": 2093, "à®¿à®Ł": 2094, "Ġoffer": 2095, "ll": 2096, "Ġsecond": 2097, "ĠMe": 2098, "ends": 2099, "Ġline": 2100, "ways": 2101, "Ġgoing": 2102, "Ġjuga": 2103, "ĠAmeric": 2104, "AM": 2105, "of": 2106, "ĠThey": 2107, "Ġkep": 2108, "IS": 2109, "å¤©": 2110, "ĠAt": 2111, "Ġreturn": 2112, "ley": 2113, "ĠNov": 2114, "pos": 2115, "Ġtype": 2116, "Ġitem": 2117, "Ġpdf": 2118, "ĠMed": 2119, "à¹īà¸Ļ": 2120, "áŀĺ": 2121, "æŀ": 2122, "ĠArt": 2123, "ym": 2124, "ults": 2125, "Ġsize": 2126, "áĢ®": 2127, "Ġll": 2128, "raph": 2129, "Ġname": 2130, "Ġfound": 2131, "Ġsearch": 2132, "Ġrest": 2133, "ĠDis": 2134, "Ġpeng": 2135, "Ġmenj": 2136, "uck": 2137, "áŀ·": 2138, "áĢĽ": 2139, "aper": 2140, "ĠÄĳÃ£": 2141, "Ġboth": 2142, "Ġsay": 2143, "Ġ2020": 2144, "à®©à¯į": 2145, "à¯įà®²": 2146, "Ġcontrol": 2147, "Ġsmall": 2148, "Ġhead": 2149, "Ġresp": 2150, "Ġgame": 2151, "ĠUs": 2152, "27": 2153, "Ġà¸Ħ": 2154, "Ġhttps": 2155, "com": 2156, "ÃŃnh": 2157, "Ġlove": 2158, "à®¾à®²": 2159, "Ġstill": 2160, "co": 2161, "outh": 2162, "oss": 2163, "min": 2164, "ĠÄĳá»ĥ": 2165, "Ġorgan": 2166, "agement": 2167, "ĴĮ": 2168, "à¹Ĩ": 2169, "å®ĺç½ĳ": 2170, "ĠNE": 2171, "Ġlight": 2172, "Ġ}.": 2173, "Ġorder": 2174, "Ġ2010": 2175, "45": 2176, "Äĥng": 2177, "Ħà¸¸à¸": 2178, "anh": 2179, "Ġcurr": 2180, "con": 2181, "à¸Ļà¹Į": 2182, "Ġtoo": 2183, "Ġäº": 2184, "Ġfri": 2185, "Ġphot": 2186, "áº¿t": 2187, "ml": 2188, "anding": 2189, "Ġfamily": 2190, "aran": 2191, "ever": 2192, "ĩà¸´à¸Ļà¸": 2193, "Ġtest": 2194, "Ġdirect": 2195, "Ġold": 2196, "à®´": 2197, "atic": 2198, "áĢĬ": 2199, "Łà¸": 2200, "enn": 2201, "å¼Ģ": 2202, "Ġreal": 2203, "aik": 2204, "ved": 2205, "à¸Ńà¸¢": 2206, "Ġdev": 2207, "Ġà¸ŀ": 2208, "Ġada": 2209, "ĠåĪ": 2210, "Ġthá»ĥ": 2211, "à¸Ļà¸²à¸": 2212, "Ġsite": 2213, "ä½ĵ": 2214, "Ŀi": 2215, "Ġconf": 2216, "be": 2217, "ĠMore": 2218, "Ġplan": 2219, "36": 2220, "ĠGo": 2221, "à¹īà¸Ńà¸ĩà¸": 2222, "æİ": 2223, "ĠApr": 2224, "Ġcompany": 2225, "aim": 2226, "Ġåħ": 2227, "oney": 2228, "ĠOff": 2229, "ç§": 2230, "reak": 2231, "Ġà¸Ĺà¸": 2232, "ĠPol": 2233, "ĠInc": 2234, "Ġarea": 2235, "à¯įà®ķà®³à¯į": 2236, "á»ĳi": 2237, "ger": 2238, "ĠAnda": 2239, "Ġschool": 2240, "Ġå¤§": 2241, "Ġtext": 2242, "ids": 2243, "Ġoper": 2244, "à¯ģà®µ": 2245, "æĢ": 2246, "çīĮ": 2247, "ĀĀĀĀĀĀĀĀ": 2248, "sp": 2249, "Ġreport": 2250, "åĳ": 2251, "ID": 2252, "à¹Ħà¸¥": 2253, "itor": 2254, "à®¿à®ķ": 2255, "à®ķà¯įà®ķ": 2256, "Ġfull": 2257, "bih": 2258, "ands": 2259, "Ġput": 2260, "thing": 2261, "Ġwr": 2262, "æĸ°": 2263, "Ġbased": 2264, "ains": 2265, "ours": 2266, "ibr": 2267, "Ġhapp": 2268, "EL": 2269, "Ġwater": 2270, "iver": 2271, "«à¸Ļ": 2272, "ĠâĢ¢": 2273, "æ²": 2274, "orth": 2275, "udah": 2276, "ĠNg": 2277, "éĹ¨": 2278, "Ġpower": 2279, "ģà¹Ģà¸": 2280, "ds": 2281, "Ĺà¸¢": 2282, "áº©": 2283, "ales": 2284, "ĠNh": 2285, "Ġfact": 2286, "work": 2287, "ctions": 2288, "Ġquest": 2289, "ision": 2290, "OM": 2291, "Ġà®Ĩ": 2292, "ĠKh": 2293, "de": 2294, "Ġintern": 2295, "ĠAg": 2296, "iring": 2297, "Ġfew": 2298, "Ġdays": 2299, "Ġproject": 2300, "Ġincluding": 2301, "Ġ45": 2302, "Ġposs": 2303, "aff": 2304, "ĠPosted": 2305, "28": 2306, "æĭ": 2307, "ĠEm": 2308, "ĠPart": 2309, "Æ¡n": 2310, "Ġ()": 2311, "à®£à¯įà®Ł": 2312, "ined": 2313, "iri": 2314, "ĠMin": 2315, "Ġtry": 2316, "ified": 2317, "Ġbi": 2318, "ĠWhen": 2319, "éĿ": 2320, "Ġ60": 2321, "Ġhealth": 2322, "Ġcheck": 2323, "ty": 2324, "003": 2325, "Ġà¸ķ": 2326, "Ã¹ng": 2327, "agram": 2328, "gal": 2329, "ograph": 2330, "Ġiss": 2331, "Ġlevel": 2332, "ĠcÃ´ng": 2333, "áŀŁ": 2334, "Ġthree": 2335, "Ġ31": 2336, "Ġang": 2337, "Ġcost": 2338, "±à¸ģà¸": 2339, "Ġant": 2340, "ino": 2341, "¡Â": 2342, "Ġlink": 2343, "Ġmus": 2344, "elah": 2345, "ä¼ļ": 2346, "Ġbisa": 2347, "Ġla": 2348, "åĴĮ": 2349, "ĠOct": 2350, "Ġproble": 2351, "Ġpass": 2352, "Ġ(\"": 2353, "000": 2354, "Ġnext": 2355, "à¹ĥà¸«à¹īà¸": 2356, "Ġeffect": 2357, "perty": 2358, "Ġbuy": 2359, "Ġduring": 2360, "ists": 2361, "à®¿à®¤": 2362, "Ġkeep": 2363, "ĠIntern": 2364, "ĠGl": 2365, "wa": 2366, "Ġprot": 2367, "Ġï¿½ï¿½": 2368, "Ġperform": 2369, "ĠDown": 2370, "Ġbuild": 2371, "RE": 2372, "iá»ĩt": 2373, "agai": 2374, "Ġimportant": 2375, "ç«Ļ": 2376, "Ġbáº¡n": 2377, "Ġ.\"": 2378, "åŁ": 2379, "Ġinterest": 2380, "33": 2381, "ĠFeb": 2382, "Ġteam": 2383, "å¹³åı°": 2384, "Ġexperience": 2385, "Ġequ": 2386, "omen": 2387, "ľà¸¹": 2388, "ased": 2389, "à¸£à¸±à¸ļà¸": 2390, "à¸Ńà¸Ńà¸Ļ": 2391, "áĢ±": 2392, "Ġrece": 2393, "hor": 2394, "ply": 2395, "Ġet": 2396, "44": 2397, "**": 2398, "Ġsing": 2399, "ĠRed": 2400, "áº½": 2401, "á»ĳng": 2402, "ĠAug": 2403, "AC": 2404, "áŁĨ": 2405, "Ġlittle": 2406, "á»Ļi": 2407, "par": 2408, "ªà¸¸à¸": 2409, "Ġgroup": 2410, "Ġsel": 2411, "Ġwon": 2412, "api": 2413, "áĢļ": 2414, "ering": 2415, "Ġwidth": 2416, "Ġmeny": 2417, "ĠAut": 2418, "Ġpage": 2419, "Ħà¸§à¸²à¸¡à¸": 2420, "Ġbed": 2421, "Ġposition": 2422, "é¢": 2423, "Ġdownload": 2424, "Ġwithout": 2425, "Ġess": 2426, "olid": 2427, "æ¬": 2428, "à¸Ńà¸Ńà¸Ļà¹Ħà¸¥": 2429, "á»ī": 2430, "âĢ¦": 2431, "ĠAss": 2432, "Ġbetter": 2433, "åĵ": 2434, "ĠGu": 2435, "Ġ99": 2436, "ne": 2437, "........": 2438, "Ġservices": 2439, "Ġest": 2440, "Ġwebsite": 2441, "áŀĶ": 2442, "Ġdisplay": 2443, "ense": 2444, "26": 2445, "ĠRece": 2446, "Ġmust": 2447, "bo": 2448, "Ġsure": 2449, "Ġear": 2450, "à¹īà¸§à¸": 2451, "itle": 2452, "ify": 2453, "apa": 2454, "aterial": 2455, "ĠWor": 2456, "Ã½": 2457, "si": 2458, "uf": 2459, "ope": 2460, "à¸²à¸£": 2461, "Ġdapat": 2462, "áŀ»": 2463, "ĠRec": 2464, "à¹ĩà¸Ńà¸": 2465, "Ġ,âĢĿ": 2466, "Ġpartic": 2467, "áĢľ": 2468, "Ġaccess": 2469, "Ġref": 2470, "Ġbig": 2471, "ET": 2472, "æ£": 2473, "å¿«": 2474, "Ġfeel": 2475, "áŁģ": 2476, "Ġthu": 2477, "Ġanda": 2478, "by": 2479, "Ġhal": 2480, "áŁĴáŀļáŀ": 2481, "áĢŀ": 2482, "ury": 2483, "ĠnÃły": 2484, "atter": 2485, "ĠYour": 2486, "à²": 2487, "Ġtá»«": 2488, "ared": 2489, "obile": 2490, "à¹Ħà¸¡à¹Īà¸": 2491, "Ľà¸£à¸": 2492, "Ġä»": 2493, "ential": 2494, "29": 2495, "Ġthings": 2496, "ring": 2497, "ĠOf": 2498, "ument": 2499, "----": 2500, "Ġvideo": 2501, "ĠáĢ¡": 2502, "Ġfac": 2503, "ãģ": 2504, "ugg": 2505, "Ġdem": 2506, "arga": 2507, "Ã¡i": 2508, "ocial": 2509, "Ġåı": 2510, "Ġsw": 2511, "Ķà¹Ģà¸": 2512, "Ġalways": 2513, "à¹Īà¸Ļà¸": 2514, "____": 2515, "Ġpop": 2516, "Ġlead": 2517, "Ġelect": 2518, "uro": 2519, "put": 2520, "âĢĭ": 2521, "Ġhá»į": 2522, "Ġ('": 2523, "Ġmá»": 2524, "ĠOne": 2525, "Ġprodu": 2526, "Ĥà¸Ńà¸ĩ": 2527, "rem": 2528, "Ġhard": 2529, "å¸Ĥ": 2530, "à¹Īà¸§à¸": 2531, "Ġmil": 2532, "In": 2533, "ĠTer": 2534, "Ġ2009": 2535, "à¹Īà¸ĩ": 2536, "Ġhouse": 2537, "à¸Ļà¸µà¹ī": 2538, "Ã¡ng": 2539, "ĠSm": 2540, "ING": 2541, "ĠBar": 2542, "Ġlá»": 2543, "br": 2544, "à¹Ħà¸Ķà¹īà¸": 2545, "vious": 2546, "Ġago": 2547, "ªà¸´": 2548, "ogle": 2549, "Ġwithin": 2550, "«à¸¥à¸": 2551, "Ã¡t": 2552, "son": 2553, "Ġapplic": 2554, "Ġwind": 2555, "¡à¹Ģà¸": 2556, "Ġsek": 2557, "Ġtu": 2558, "éģ": 2559, "ission": 2560, "ĠUp": 2561, "cent": 2562, "åħ¬": 2563, "Ġpat": 2564, "ibut": 2565, "Ġquality": 2566, "ags": 2567, "urs": 2568, "iÃª": 2569, "áŀı": 2570, "ĠTH": 2571, "à¸µà¸¢": 2572, "ķà¸±à¸": 2573, "è¡Į": 2574, "Ġ$(": 2575, "ĠUniversity": 2576, "Äĥm": 2577, "ĠPhot": 2578, "Īà¸°à¸": 2579, "ala": 2580, "37": 2581, "Ġcome": 2582, "Ġlebih": 2583, "æ³¨": 2584, "à¸£à¸£à¸": 2585, "ler": 2586, "ills": 2587, "æ±": 2588, "85": 2589, "ĠIN": 2590, "ister": 2591, "à¸µà¸¢à¸": 2592, "Ġkita": 2593, "Ġmere": 2594, "Ġorg": 2595, "ights": 2596, "éĺ": 2597, "Ġur": 2598, "ability": 2599, "Ġincre": 2600, "¦ģ": 2601, "ething": 2602, "åľ°": 2603, "Ġgrow": 2604, "oint": 2605, "Ġpublic": 2606, "Ġimage": 2607, "ĠÄĳáº¿n": 2608, "Ġcert": 2609, "ivid": 2610, "Ġid": 2611, "à®¿à®©à¯į": 2612, "á»ĳc": 2613, "eter": 2614, "Ġblog": 2615, "ä½ľ": 2616, "IG": 2617, "à¸Ńà¸Ļà¸": 2618, "Ġmethod": 2619, "å¨": 2620, "Ġgiá»": 2621, "ĠChrist": 2622, "ķà¸´à¸": 2623, "ĠNews": 2624, "Ġpast": 2625, "ases": 2626, "fect": 2627, "lege": 2628, "ĠCor": 2629, "Ġwin": 2630, "ªà¸²à¸": 2631, "Ġvalue": 2632, "Ġsaya": 2633, "çĶŁ": 2634, "ĠOnline": 2635, "Ġu003": 2636, "à¤": 2637, "Ġcontin": 2638, "à¹ģ": 2639, "à¸²à¸Ļ": 2640, "¥à¸°": 2641, "por": 2642, "Ġmedia": 2643, "áºŃp": 2644, "ane": 2645, "emplate": 2646, "Ġanother": 2647, "ves": 2648, "ror": 2649, "ĠBlack": 2650, "iron": 2651, "Ġprovide": 2652, "ength": 2653, "Ġproducts": 2654, "ĠInst": 2655, "Ġ!!": 2656, "Ġvá»ģ": 2657, "ĠThat": 2658, "Ġlu": 2659, "iáº¿n": 2660, "sw": 2661, "Ġ',": 2662, "ä¸ļ": 2663, "eel": 2664, "ait": 2665, "Ġæľ": 2666, "ention": 2667, "¥à¹ĩà¸Ńà¸": 2668, "Ġpresent": 2669, "Ġlooking": 2670, "OS": 2671, "Å©ng": 2672, "Ġexc": 2673, "âĸ": 2674, "ĠShe": 2675, "Ġkhi": 2676, "åĪ°": 2677, "Ġaddition": 2678, "ique": 2679, "à®¿à®ķà¯įà®ķ": 2680, "eed": 2681, "á»©c": 2682, "ately": 2683, "Ġgive": 2684, "Ġker": 2685, "Ġorang": 2686, "ift": 2687, "à¯įà®³": 2688, "áŀĽ": 2689, "ftware": 2690, "Ġprom": 2691, "Ġkey": 2692, "alse": 2693, "ĠOur": 2694, "ructure": 2695, "ĠAir": 2696, "èĩ": 2697, "Ġappro": 2698, "ume": 2699, "aur": 2700, "§à¹Īà¸²": 2701, "áĢ¬áĢ¸áĢ": 2702, "alan": 2703, "Ġspecial": 2704, "Ġmight": 2705, "ground": 2706, "vers": 2707, "è¾": 2708, "ille": 2709, "Ġtrue": 2710, "UR": 2711, "ĠReview": 2712, "æĪı": 2713, "æ´": 2714, "ization": 2715, "Ã¡o": 2716, "Ġinvest": 2717, "pg": 2718, "Ġli": 2719, "Ġshop": 2720, "Ġless": 2721, "ä¸º": 2722, "Ġmill": 2723, "Ġ32": 2724, "åī": 2725, "64": 2726, "ploy": 2727, "Ġpoint": 2728, "apt": 2729, "ebut": 2730, "à®ª": 2731, "ĠlÃłm": 2732, "ental": 2733, "Ġlet": 2734, "ä¸ª": 2735, "Ġlog": 2736, "Ġable": 2737, "Ġstand": 2738, "Ġ){": 2739, "ending": 2740, "95": 2741, "à®¾à®¤": 2742, "Ġbah": 2743, "Ġters": 2744, "Ġoleh": 2745, "uman": 2746, "ream": 2747, "Ġsomething": 2748, "Ġport": 2749, "à¯įà®µ": 2750, "cription": 2751, "apan": 2752, "ĠNEW": 2753, "joy": 2754, "iá»ĩu": 2755, "Ġlaw": 2756, "«à¸Ļà¸": 2757, "acy": 2758, "ohn": 2759, "Ġá»Ł": 2760, "áĢ«": 2761, "ape": 2762, "Ġà®ļà¯Ĩ": 2763, "áº¥y": 2764, "Ġsince": 2765, "à¯ģà®®": 2766, "èĤ²": 2767, "çīĪ": 2768, "artment": 2769, "ĠNot": 2770, "sh": 2771, "Ġele": 2772, "Ġmain": 2773, "Ġbro": 2774, "Ġstat": 2775, "éĽ": 2776, "ically": 2777, "ĠMod": 2778, "¡à¸µ": 2779, "à®²à¯į": 2780, "ĠÄĳÃ³": 2781, "IL": 2782, "Ġtáº¡i": 2783, "Ġshort": 2784, "Ġfood": 2785, "ĠSer": 2786, "Ġ34": 2787, "ç¾": 2788, "à¹ĥà¸Ļ": 2789, "éĴ": 2790, "Ĺà¸²à¸": 2791, "·à¹Īà¸Ńà¸": 2792, "Ġcáº£": 2793, "Ġcase": 2794, "gin": 2795, "ä¸ĩ": 2796, "Ġgia": 2797, "uat": 2798, "Ġconnect": 2799, "ĠHigh": 2800, "¾³": 2801, "lish": 2802, "Ġgot": 2803, "æīĭæľº": 2804, "æ¸¸æĪı": 2805, "inc": 2806, "Â¬": 2807, "Ġai": 2808, "ences": 2809, "Ġmember": 2810, "ĠFrom": 2811, "back": 2812, "å·¥": 2813, "Ġcover": 2814, "ãĥ": 2815, "Ġlang": 2816, "lu": 2817, "Ġes": 2818, "ĠCount": 2819, "Ġconst": 2820, "ĠBook": 2821, "§à¹Īà¸²à¸": 2822, "OT": 2823, "Ġdá»¥": 2824, "Ġche": 2825, "Ġnull": 2826, "à®¾à®Ł": 2827, "Ġtoday": 2828, "68": 2829, "ecial": 2830, "self": 2831, "Ġ80": 2832, "ĠEd": 2833, "Ġconsider": 2834, "áĢģ": 2835, "Ġnear": 2836, "Ġwrit": 2837, "isi": 2838, "ived": 2839, "Ġdoc": 2840, "à¹ģà¸¥à¸°à¸": 2841, "ourn": 2842, "ģà¸²à¸": 2843, "áº±": 2844, "Ġexpl": 2845, "Ġsáº½": 2846, "Ġann": 2847, "??": 2848, "Ġanal": 2849, "à¹Ħà¸Ĺà¸¢": 2850, "74": 2851, "ĠOut": 2852, "à¸Ńà¸Ńà¸Ļà¹Ħà¸¥à¸Ļà¹Į": 2853, "Ġmarg": 2854, "icro": 2855, "Ġfont": 2856, "ustr": 2857, "æĥ": 2858, "Ġfalse": 2859, "à¸£à¸±à¸ļ": 2860, "Ġresearch": 2861, "µÃ": 2862, "ĠAddition": 2863, "çĶ¨": 2864, "Ġtah": 2865, "Ġà¸Ńà¸": 2866, "à¯įà®©": 2867, "ĠWeb": 2868, "ule": 2869, "Ġdig": 2870, "ober": 2871, ",\"": 2872, "ĠView": 2873, "ret": 2874, "áĢ¶": 2875, "©à¸": 2876, "ising": 2877, "era": 2878, "æĹ¥": 2879, "Ġflo": 2880, "ķà¹Ī": 2881, "anyak": 2882, "Ġmereka": 2883, "hing": 2884, "ped": 2885, "Ġpm": 2886, "ĠDownload": 2887, "Ġnever": 2888, "Ġmult": 2889, "ģà¹ĩà¸": 2890, "åĩº": 2891, "asan": 2892, "ĠDesign": 2893, "lete": 2894, "ĠCity": 2895, "à¯ģà®¤à¯įà®¤": 2896, "ï¿½ï¿½ï¿½ï¿½": 2897, "Ġlocal": 2898, "ota": 2899, "OL": 2900, "Ġside": 2901, "Ġaff": 2902, "à¹ĥà¸Ĭà¹īà¸": 2903, "áŀ¸": 2904, "çĤ": 2905, "Ġ//": 2906, "unic": 2907, "áĢĦáĢº": 2908, "Ġaway": 2909, "Part": 2910, "Äĥn": 2911, "ãĢĤ": 2912, "Ġstyle": 2913, "à¯ģà®Ł": 2914, "Ġturn": 2915, "à¸£à¸²à¸Ħ": 2916, "Ġask": 2917, "Ġstate": 2918, "med": 2919, "Ĭà¸±": 2920, "Ġ2008": 2921, "Ã²ng": 2922, "raw": 2923, "ĠnhÃł": 2924, "ĠCal": 2925, "ç½ĳç«Ļ": 2926, "Ġevent": 2927, "ination": 2928, "iven": 2929, "Ð¾": 2930, "ĠSec": 2931, "Ġbit": 2932, "ained": 2933, "ĠTop": 2934, "Ġsang": 2935, "aster": 2936, "AP": 2937, "idd": 2938, "ĠmÃł": 2939, "lah": 2940, "olution": 2941, "åħ¨": 2942, "ĠcÅ©ng": 2943, "oo": 2944, "Ġ365": 2945, "55": 2946, "ably": 2947, "Ġactiv": 2948, "Ġà¸ģà¸": 2949, "ording": 2950, "ints": 2951, "é¡": 2952, "ĠBer": 2953, "Ġheight": 2954, "Ð°": 2955, "à®²à¯įà®²": 2956, "79": 2957, "ĠReg": 2958, "Ġresults": 2959, "ĠÄĳá»ĭ": 2960, "Ġpad": 2961, "ference": 2962, "ĠNam": 2963, "Ġlow": 2964, "áĢ»": 2965, "Ġ,.": 2966, "á»ģ": 2967, "St": 2968, "ots": 2969, "ĠApril": 2970, "Ġselect": 2971, "Ġhaving": 2972, "Ġfile": 2973, "Ġproperty": 2974, "unch": 2975, "fort": 2976, "Ġchange": 2977, "ĭçīĮ": 2978, "Ġcal": 2979, "Ġè¿": 2980, "Ġprofess": 2981, "irt": 2982, "ĠBest": 2983, "ä¾": 2984, "áº«": 2985, "Ġht": 2986, "Ġstore": 2987, "Ġmoney": 2988, "69": 2989, "Ġhist": 2990, "Ġlarge": 2991, "ĠSk": 2992, "¾³éĹ¨": 2993, "ĠæĪ": 2994, "Ġunderst": 2995, "Ġmargin": 2996, "ĠTw": 2997, "obal": 2998, "Ġnon": 2999, "Ġà¸Ħà¸": 3000, "Ġpem": 3001, "à®Ļà¯įà®ķ": 3002, "fa": 3003, "ufact": 3004, "ĠSept": 3005, "Ġå®": 3006, "ĠRead": 3007, "ird": 3008, "Ġkar": 3009, "åĿĢ": 3010, "crib": 3011, "ining": 3012, "Ġchar": 3013, "ĠBo": 3014, "Ġà¹Ģ": 3015, "Ġmaking": 3016, "Ġworking": 3017, "ini": 3018, "21": 3019, "à¹Ĥà¸£à¸": 3020, "ĠWind": 3021, "Ġchang": 3022, "Ðµ": 3023, "Ġarr": 3024, "à¹Ģà¸¥": 3025, "Ġchildren": 3026, "Ġmaterial": 3027, "Ġmend": 3028, "çº¿": 3029, "ĠvÃło": 3030, "AD": 3031, "ĠMen": 3032, "Ġperm": 3033, "Ġterm": 3034, "¥à¸ĩà¸": 3035, "iki": 3036, "Ġà®ĩà®°": 3037, "ĠSun": 3038, "Ġeasy": 3039, "ĠMarch": 3040, "ĠhÃłng": 3041, "Ġupd": 3042, "Ġsays": 3043, "æĮ": 3044, "order": 3045, "ĠtrÃªn": 3046, "Ġnhiá»ģu": 3047, "Ġmeet": 3048, "Ġlay": 3049, "åŃ¦": 3050, "çł": 3051, "åĢ": 3052, "è¦ģ": 3053, "uff": 3054, "áŀ¶áŀĵ": 3055, "Ġ39": 3056, "iful": 3057, "cer": 3058, "Ġvisit": 3059, "áĢ°": 3060, "èģ": 3061, "Ġblock": 3062, "EC": 3063, "ised": 3064, "Ġut": 3065, "Ġåĩ": 3066, "§à¸±à¸": 3067, "ĠUnited": 3068, "áĢĢáĢ¹áĢ": 3069, "à¹Ħà¸¡à¹Ī": 3070, "Ġlain": 3071, "pro": 3072, "Ġstay": 3073, "Ġpict": 3074, "Ġ70": 3075, "ether": 3076, "ĠPar": 3077, "Ġláº¡i": 3078, "Ġ90": 3079, "éķ": 3080, "ype": 3081, "Ġ36": 3082, "uary": 3083, "æ£ĭçīĮ": 3084, "çŃ": 3085, "irc": 3086, "itchen": 3087, "Ġ38": 3088, "aps": 3089, "aling": 3090, "Ħà¸£": 3091, "ĠáŀĶ": 3092, "Ġhar": 3093, "Ġimpro": 3094, "anks": 3095, "¡à¸ŀà¸": 3096, "Ã¨": 3097, "gi": 3098, "Ġstudents": 3099, "Ãło": 3100, "agn": 3101, "ĠJohn": 3102, "à®±à¯įà®±": 3103, "Ĥà¸²à¸": 3104, "æĬķ": 3105, "áº·t": 3106, "Ġvers": 3107, "Ìģ": 3108, "ĠKe": 3109, "do": 3110, "Ħà¸£à¸Ķà¸´à¸": 3111, "Ġ44": 3112, "anj": 3113, "ĠJune": 3114, "ocus": 3115, "±ä¹Ĳ": 3116, "Ġsá»ĳ": 3117, "Ġ48": 3118, "Ġfour": 3119, "åĬł": 3120, "Ġbox": 3121, "ä»¥": 3122, "Ġenjoy": 3123, "ĠWell": 3124, "ION": 3125, "Ġinclude": 3126, "Ġbag": 3127, "nment": 3128, "Ġclean": 3129, "li": 3130, "ides": 3131, "Ġlim": 3132, "ĠMon": 3133, "urity": 3134, "ula": 3135, "iá»ĩc": 3136, "åŃĲ": 3137, "icy": 3138, "©æĿ¥": 3139, "uit": 3140, "áº¥p": 3141, "å¤ļ": 3142, "Ġæ¾³éĹ¨": 3143, "ended": 3144, "Ġpack": 3145, "ĠDep": 3146, "Īà¸±à¸": 3147, "reet": 3148, "Ġcondition": 3149, "Ġfore": 3150, "Ġcontact": 3151, "vert": 3152, "autiful": 3153, "ĠInter": 3154, "áº»": 3155, "Ġvol": 3156, "ĠReceipt": 3157, "ively": 3158, "Ġpract": 3159, "Ġemploy": 3160, "Ġ500": 3161, "ĠSet": 3162, "aring": 3163, "à¹ĥà¸«à¹ī": 3164, "èĥ½": 3165, "Ġstep": 3166, "Ġbott": 3167, "ila": 3168, "Ġdist": 3169, "Ġ55": 3170, "ĠPat": 3171, "23": 3172, "ĠArch": 3173, "¢à¸²à¸": 3174, "Ġà®Ĵ": 3175, "Ġåį": 3176, "Ġtool": 3177, "çĲĨ": 3178, "Ġtimes": 3179, "Ġbody": 3180, "Ġmaj": 3181, "Ġpot": 3182, "ĠÄĳáº§u": 3183, "Ġkind": 3184, "ĠnÃ³": 3185, "Ġdip": 3186, "ĠOp": 3187, "uter": 3188, "ouch": 3189, "ÃĲ": 3190, "áº£o": 3191, "ibrary": 3192, "Ġagainst": 3193, "ĠBusiness": 3194, "Ġsaf": 3195, "Ġsuccess": 3196, "ĠStud": 3197, "å®ī": 3198, "ĠgiÃ¡": 3199, "ä¸ī": 3200, "Ġallow": 3201, "side": 3202, "Ġna": 3203, "Ġsever": 3204, "àº²": 3205, "thers": 3206, "Ġca": 3207, "«ĺ": 3208, "éĥ": 3209, "Ĭà¸²à¸": 3210, "áŁĦ": 3211, "Ġdib": 3212, "Ġmot": 3213, "ä¹ĭ": 3214, "áº¹": 3215, "Ġ49": 3216, "aces": 3217, "Ġtable": 3218, "Ġchá»ī": 3219, "ä¹Ī": 3220, "Ġul": 3221, "Ġseem": 3222, "ilt": 3223, "Ġorig": 3224, "Ġtrav": 3225, "Ġå¤§åıĳ": 3226, "Ġsend": 3227, "onesia": 3228, "ĠJuly": 3229, "Ġstructure": 3230, "«à¸²à¸": 3231, "ĠAcc": 3232, "enef": 3233, "ĠSouth": 3234, "irl": 3235, "ÃĬ": 3236, "aman": 3237, "áŁĤ": 3238, "Ġdiv": 3239, "ification": 3240, "ĠAlso": 3241, "Ġcourse": 3242, "Ġå°": 3243, "ĠPark": 3244, "ç®": 3245, "ief": 3246, "áĢĦáĢ¹áĢ¸": 3247, "redit": 3248, "yr": 3249, "EM": 3250, "Ġáģĭ": 3251, "ĠTra": 3252, "viron": 3253, "conom": 3254, "ĠCr": 3255, "Ġer": 3256, "Ľà¸£": 3257, "ST": 3258, "ĠSystem": 3259, "Ġmar": 3260, "Ġnews": 3261, "Ġnháº¥t": 3262, "ĠThese": 3263, "µà¸": 3264, "oll": 3265, "¥à¹ĩà¸Ńà¸ķ": 3266, "ony": 3267, "áŀ¾": 3268, "ĠSeptember": 3269, "Ġbá»ĭ": 3270, "Ġlab": 3271, "å¨±ä¹Ĳ": 3272, "unt": 3273, "Ġbreak": 3274, "ĠáŀĢ": 3275, "ĠÄĳá»ĵ": 3276, "utes": 3277, "Ġ2007": 3278, "à¹Īà¸ĩà¹Ģà¸": 3279, "Ġperfect": 3280, "Ä©": 3281, "yd": 3282, "Ġshare": 3283, "àºĻ": 3284, "ļà¸²à¸Ĺ": 3285, "Īà¸²à¸ģà¸": 3286, "oes": 3287, "mm": 3288, "Ãºng": 3289, "ĠGet": 3290, "Ġalong": 3291, "Ġlik": 3292, "Ġdá»¥ng": 3293, "Ġexample": 3294, "«à¸£à¸": 3295, "ĠHotel": 3296, "ä½ĵèĤ²": 3297, "Ġ....": 3298, "Ġbackground": 3299, "ĠWorld": 3300, "à¹Ģà¸ģà¸": 3301, "ĠSw": 3302, "è®¡": 3303, "Ġsatu": 3304, "ten": 3305, "ND": 3306, "ĠSchool": 3307, "Ġhtml": 3308, "Ġsá»±": 3309, "ager": 3310, "à¸£à¸§à¸": 3311, "ĠnÄĥm": 3312, "Ġ37": 3313, "ðŁ": 3314, "ĠPres": 3315, "įà¸": 3316, "Ġfollowing": 3317, "è·": 3318, "Ġhiá»ĩn": 3319, "Ġwhy": 3320, "Ķà¸µ": 3321, "Ġtreat": 3322, "áº¯c": 3323, "ieve": 3324, "ÃŃch": 3325, "ĠÄĳá»Ļng": 3326, "ctor": 3327, "Ġtot": 3328, "±à¸ĩ": 3329, "urance": 3330, "Ġnight": 3331, "Ġæĺ": 3332, "ection": 3333, "ĠÂŃ": 3334, "ĠEl": 3335, "Ġneeds": 3336, "gun": 3337, "æĻ": 3338, "iter": 3339, "Ġkel": 3340, "ead": 3341, "ĠFin": 3342, "kat": 3343, "ĠHar": 3344, "à¸Ńà¸¢à¹Īà¸²à¸": 3345, "à¹Īà¸§": 3346, "Æ°á»£ng": 3347, "Ġindivid": 3348, "ĠTechn": 3349, "{\"": 3350, "itive": 3351, "Ġmenjadi": 3352, "ĠJanuary": 3353, "ĠSub": 3354, "·à¹Īà¸Ńà¸ĩà¸": 3355, "Ġsebagai": 3356, "inya": 3357, "Ġpun": 3358, "67": 3359, "Cl": 3360, "§à¹ĩà¸": 3361, "à¸Ńà¸¢à¸": 3362, "adingin": 3363, "ured": 3364, "Ã¢u": 3365, "Ġaiadingin": 3366, "Ġà¸Łà¸£à¸µ": 3367, "ĠNovember": 3368, "ged": 3369, "ĠAugust": 3370, "Ġrecord": 3371, "Ã¡nh": 3372, "Ġexpect": 3373, "urther": 3374, "Ġ33": 3375, "akukan": 3376, "áŀĻ": 3377, "ĠST": 3378, "æĪĲ": 3379, "à®¿à®µ": 3380, "Ġmax": 3381, "akt": 3382, "ĠAc": 3383, "Ġrequire": 3384, "Ġlearn": 3385, "==": 3386, "ĠNorth": 3387, "Ġworks": 3388, "cel": 3389, "Ġbeh": 3390, "200": 3391, "Ġcreat": 3392, "ĠPe": 3393, "à¹ģà¸¥": 3394, "çİ°": 3395, "ĠMarket": 3396, "à®³à¯į": 3397, "Ġgover": 3398, "Ġengine": 3399, "łà¸": 3400, "Ġmeans": 3401, "ĠHealth": 3402, "ĠngÃły": 3403, "à¹ģà¸£à¸": 3404, "áº·c": 3405, "ĠState": 3406, "Ġpossible": 3407, "89": 3408, "ä¿¡": 3409, "á»±c": 3410, "alt": 3411, "à¯ģà®±": 3412, "è½¦": 3413, "ask": 3414, "Ġ020": 3415, "Ġviá»ĩc": 3416, "Ġaku": 3417, "Ġsocial": 3418, "Ġinstall": 3419, "Ġthing": 3420, "omes": 3421, "ĠMus": 3422, "Ã¡p": 3423, "ĠFebru": 3424, "84": 3425, "Ġtrad": 3426, "rew": 3427, "idup": 3428, "avor": 3429, "Ġpel": 3430, "Ġcell": 3431, "ĠAmerican": 3432, "ester": 3433, "Ġcurrent": 3434, "çĶµ": 3435, "ĥn": 3436, "ungan": 3437, "aging": 3438, "Ġåľ": 3439, "Ġbers": 3440, "ulation": 3441, "éĩĳ": 3442, "Ġtersebut": 3443, "uyÃªn": 3444, "bar": 3445, "ĠOctober": 3446, "ĠNow": 3447, "Ġ').": 3448, "Ġoption": 3449, "Ã²n": 3450, "ĠPrice": 3451, "çľŁ": 3452, "âĢĭâĢĭ": 3453, "èĪ": 3454, "Ġvi": 3455, "ĠTemplate": 3456, "achine": 3457, "ĠAdd": 3458, "á»ı": 3459, "ources": 3460, "ĠNEWPart": 3461, "à®¾à®°à¯į": 3462, "å°ı": 3463, "Ġbanyak": 3464, "ĠthÃłnh": 3465, "ĠVal": 3466, "ĠGe": 3467, "Ġkem": 3468, "Ġdate": 3469, "ç¥¨": 3470, "ãĤ": 3471, "Ġtyp": 3472, "ĠSur": 3473, "Ġq": 3474, "Ġket": 3475, "ustry": 3476, "Ķà¹īà¸§à¸": 3477, "à¹īà¸Ńà¸ĩ": 3478, "Ġlov": 3479, "eral": 3480, "Ġrecomm": 3481, "oon": 3482, "ģà¸±à¸ļà¸": 3483, "Ġhá»įc": 3484, "Ġpháº£i": 3485, "Ġtelah": 3486, "±c": 3487, "esar": 3488, "inks": 3489, "æľĢ": 3490, "ĠåĲ": 3491, "augh": 3492, "ĠSim": 3493, "Ġmonths": 3494, "Ġhot": 3495, "Ġà®ħà®µ": 3496, "ampai": 3497, "Ġmess": 3498, "Ħà¸¸à¸ĵà¸": 3499, "Ġcard": 3500, "ĠthÃ¬": 3501, "æ¯": 3502, "áº¡o": 3503, "Ġáŀĵ": 3504, "Ãºc": 3505, "Ġfocus": 3506, "Ġdone": 3507, "Ġhours": 3508, "Ġarticle": 3509, "ç¨": 3510, "áĢĶáĢ¹áĢ": 3511, "uj": 3512, "æĦ": 3513, "ball": 3514, "ĠPD": 3515, "à®©à¯įà®±": 3516, "áº±ng": 3517, "ani": 3518, "vironment": 3519, "Ġemail": 3520, "Ġtax": 3521, "ites": 3522, "ĠTrans": 3523, "ĠGod": 3524, "Ġspecific": 3525, "imal": 3526, "isk": 3527, "Ġcenter": 3528, "Ġspace": 3529, "icial": 3530, "Ġkepada": 3531, "Ġconc": 3532, "âĢľ": 3533, "Ġpersonal": 3534, "ĠGi": 3535, "Ġuser": 3536, "Ġsale": 3537, "Ġlocation": 3538, "æı": 3539, "ilar": 3540, "Ġstory": 3541, "Ġä½": 3542, "Ġsol": 3543, "ck": 3544, "Ġsum": 3545, "Ġsudah": 3546, "ĠDire": 3547, "Ġpers": 3548, "à¸Ńà¹Ģà¸": 3549, "Ġocc": 3550, "Ġfield": 3551, "Ġcreate": 3552, "Ġà®ªà¯ĭ": 3553, "Ġ75": 3554, "Ġresult": 3555, "ĠâĢº": 3556, "ĠWill": 3557, "ĠDay": 3558, "ĠAng": 3559, "Ġsed": 3560, "gether": 3561, "ľà¸¹à¹īà¸": 3562, "Ġfriend": 3563, "æ³ķ": 3564, "urch": 3565, "Ġproblem": 3566, "Ġtogether": 3567, "ĠæĹ": 3568, "udi": 3569, "Ġwatch": 3570, "Ġta": 3571, "ĠAfter": 3572, "Ġsingle": 3573, "Ġpriv": 3574, "Ġcity": 3575, "ĠçĶ": 3576, "à®¿à®¤à¯įà®¤": 3577, "astic": 3578, "à®¾à®©à¯į": 3579, "Ġneg": 3580, "Ġleast": 3581, "Ġoptions": 3582, "áĢ¡": 3583, "Ã´n": 3584, "ĠBel": 3585, "à¸²à¸£à¸": 3586, "acebook": 3587, "£p": 3588, "Ġaw": 3589, "str": 3590, "now": 3591, "Ġquy": 3592, "Ġ><": 3593, "inter": 3594, "Ġclear": 3595, "ender": 3596, "raft": 3597, "omp": 3598, "Ġbad": 3599, "Ġlive": 3600, "å¥½": 3601, "ny": 3602, "à¯ģà®³": 3603, "Ġda": 3604, "à¸Ńà¸ļà¸": 3605, "ĠReply": 3606, "Ġstudy": 3607, "ĠService": 3608, "ĠInt": 3609, "æľĪ": 3610, "éĥ¨": 3611, "orts": 3612, "à¸Ļà¸±": 3613, "á»ĭch": 3614, "Ġcountry": 3615, "Ġbenef": 3616, "Ġberb": 3617, "Ġcut": 3618, "Ġtin": 3619, "ĠProduct": 3620, "Ġtitle": 3621, "Ġ54": 3622, "ĠRem": 3623, "ĠGoogle": 3624, "uture": 3625, "osp": 3626, "Ġcomment": 3627, "Ã¢m": 3628, "Ġquick": 3629, "elling": 3630, "äº¬": 3631, "Ġteach": 3632, "ancial": 3633, "Ġuntil": 3634, "Īà¸²à¸ģ": 3635, "Æ¡i": 3636, "Ġfre": 3637, "à¹ĥà¸«à¸": 3638, "ĠDecember": 3639, "ris": 3640, "ensive": 3641, "Ġcertain": 3642, "ĠáĢ±áĢ": 3643, "Ġeduc": 3644, "Ġpurch": 3645, "Ġspan": 3646, "aid": 3647, "Ġcommunity": 3648, "§à¸±à¸Ļ": 3649, "Ġseason": 3650, "åģ": 3651, "ke": 3652, "ç½ĳåĿĢ": 3653, "à®¾à®²à¯į": 3654, "ians": 3655, "æĪ·": 3656, "Ġgetting": 3657, "Ġauthor": 3658, "aking": 3659, "Ġclos": 3660, "ĠCle": 3661, "ready": 3662, "icon": 3663, "iá»ĥm": 3664, "åľº": 3665, "itas": 3666, "ville": 3667, "ster": 3668, "face": 3669, "Ġstop": 3670, "Ġdevelopment": 3671, "ħn": 3672, "ett": 3673, "Ġansw": 3674, "aks": 3675, "ĠAct": 3676, "Ad": 3677, "Ġaccount": 3678, "ĠWed": 3679, "±à¹īà¸ĩ": 3680, "ele": 3681, "ä¹Ł": 3682, "Ġtem": 3683, "ĠAre": 3684, "Ġfoot": 3685, "ival": 3686, "iá»ģn": 3687, "Ġident": 3688, "±à¹īà¸ĩà¸": 3689, "ĠJust": 3690, "RO": 3691, "omb": 3692, "Ġ95": 3693, "«à¸¡à¸": 3694, "ĠBu": 3695, "èī": 3696, "ĠEuro": 3697, "ĠÂ°": 3698, "Ġoffers": 3699, "rown": 3700, "Ġfar": 3701, "Ķà¸´à¸¡à¸ŀà¸": 3702, "sc": 3703, "Ķà¸¥": 3704, "Ġ:#": 3705, "perti": 3706, "ĠÄĳi": 3707, "Ġkami": 3708, "Ġmakes": 3709, "Ġdevice": 3710, "Ġmajor": 3711, "resh": 3712, "orage": 3713, "ural": 3714, "à¸Ńà¸£à¹Į": 3715, "ysis": 3716, "atural": 3717, "ances": 3718, "ruction": 3719, "Ġpan": 3720, "ĠPlease": 3721, "Ġdiagram": 3722, "ouble": 3723, "ries": 3724, "Ã¡y": 3725, "Ġindividual": 3726, "ole": 3727, "Ġrepl": 3728, "å·ŀ": 3729, "Ġdia": 3730, "ķà¸²à¸": 3731, "oud": 3732, "Ġoften": 3733, "anies": 3734, "åĬ¨": 3735, "ĠFebruary": 3736, "Ġpress": 3737, "ĠGener": 3738, "ili": 3739, "å§": 3740, "aph": 3741, "Ġnam": 3742, "áŀļáŀ": 3743, "Ġseveral": 3744, "ilities": 3745, "ĠnÆ°á»Ľc": 3746, "ĠMal": 3747, "¥à¸´à¸": 3748, "bet": 3749, "éĻħ": 3750, "à¯ģà®¨à¯įà®¤": 3751, "áº¯t": 3752, "Ġbelow": 3753, "Ġelse": 3754, "IM": 3755, "kin": 3756, "Ġmusic": 3757, "áŁĴáŀĵ": 3758, "ategory": 3759, "Ġbal": 3760, "ership": 3761, "Ľà¹ĩà¸Ļ": 3762, "Ġnav": 3763, "å®ĺæĸ¹": 3764, "Ġemb": 3765, "irm": 3766, "Ġing": 3767, "ĠIndonesia": 3768, "kt": 3769, "Ġcu": 3770, "ĠÂ®": 3771, "ĠWhite": 3772, "à¹Ħà¸Ľ": 3773, "wards": 3774, "áº¡t": 3775, "Ġhotel": 3776, "roid": 3777, "Ġæĸ": 3778, "ļà¸£à¸´à¸": 3779, "áĢ²áĢ·": 3780, "æĸĩ": 3781, "uyá»ĩ": 3782, "ç¤": 3783, "acter": 3784, "LE": 3785, "Ġdim": 3786, "imate": 3787, "ĠåĽ": 3788, "Ġ59": 3789, "ĠClass": 3790, "Ġcollection": 3791, "Ġtiáº¿": 3792, "ĠtÃ´i": 3793, "itter": 3794, "Ġweight": 3795, "¢à¹Ģà¸": 3796, "ĠHouse": 3797, "Ġever": 3798, "ĠDon": 3799, "gu": 3800, "Ġ\\\"": 3801, "áĤĶ": 3802, "éĴ±": 3803, "Ġà®ķà¯Ĭ": 3804, "board": 3805, "Ġbottom": 3806, "ought": 3807, "Ġberk": 3808, "Ġclick": 3809, "à¹īà¸§": 3810, "ĠÂ¡Â": 3811, "Ġaddress": 3812, "oring": 3813, "ĠDel": 3814, "Ġham": 3815, "Ġblack": 3816, "å»": 3817, "ĠWest": 3818, "Ġalready": 3819, "365": 3820, "Ġenough": 3821, "Ġwalk": 3822, "ĠStr": 3823, "ä»¬": 3824, "Ľà¸¥": 3825, "Ġtent": 3826, "awa": 3827, "ĠCenter": 3828, "62": 3829, "ĠáŀŁ": 3830, "iap": 3831, "ored": 3832, "ux": 3833, "Ġabove": 3834, "aha": 3835, "ÌĢ": 3836, "ĠCounty": 3837, "Ġred": 3838, "á»ģn": 3839, "ipment": 3840, "Ġpadding": 3841, "çĤ¹": 3842, "ĠIS": 3843, "Ġwar": 3844, "ĠRel": 3845, "duc": 3846, "ĠOb": 3847, "iod": 3848, "Ð¸": 3849, "ube": 3850, "Ġcomb": 3851, "Ġkal": 3852, "ĠAS": 3853, "à¸´à¹Ģà¸": 3854, "Ġparticular": 3855, "é£": 3856, "à¹īà¸²à¸Ļà¸": 3857, "åı¯": 3858, "Ġabs": 3859, "à¹Ħà¸Ľà¸": 3860, "Ġcode": 3861, "³à¸«": 3862, "Ġreviews": 3863, "ç¥ŀ": 3864, "áŁĩ": 3865, "ĠHowever": 3866, "Ġdocument": 3867, "Ġtim": 3868, "ĠSu": 3869, "Ġseperti": 3870, "aby": 3871, "Ġprint": 3872, "à¸Ńà¸Ńà¸": 3873, "áº©m": 3874, "61": 3875, "áĢĢáĢº": 3876, "ç¾İ": 3877, "ither": 3878, "áº¥n": 3879, "åİ¿": 3880, "Ġtrack": 3881, "UN": 3882, "Ġàº": 3883, "é«ĺ": 3884, "ola": 3885, "ui": 3886, "Ġsau": 3887, "á»Ļc": 3888, "Ġå¹": 3889, "Ġquan": 3890, "49": 3891, "Ġdeal": 3892, "Ľà¸£à¸°à¹Ģà¸": 3893, "Ġni": 3894, "AG": 3895, "ĠRet": 3896, "ĠChina": 3897, "Ġminutes": 3898, "Ġdidn": 3899, "Ġsangat": 3900, "Ġcamp": 3901, "Ġcalled": 3902, "31": 3903, "k10": 3904, "æĽ": 3905, "áº«n": 3906, "áŀĳ": 3907, "Ġdetails": 3908, "Ġ0113": 3909, "Ġà¸ļà¸Ńà¸¥": 3910, "Ġwall": 3911, "ĠåĪ©æĿ¥": 3912, "ĠÂ¹": 3913, "ĠAust": 3914, "ires": 3915, "Ġactually": 3916, "Ġothers": 3917, "Ġsáº£n": 3918, "Ġ();": 3919, "Ġ0175": 3920, "Ġ2006": 3921, "uhan": 3922, "Ġscreen": 3923, "ements": 3924, "åĲĪ": 3925, "ĠTV": 3926, "ĠPower": 3927, "Ġmind": 3928, "Ġimages": 3929, "Ġhost": 3930, "ĠElect": 3931, "ķà¹īà¸Ńà¸ĩà¸": 3932, "ĠMc": 3933, "Ġmodel": 3934, "alleng": 3935, "Ġhá»£p": 3936, "Ġwhite": 3937, "å¿ĥ": 3938, "ĩà¸²à¸Ļà¸": 3939, "ĠShop": 3940, "Ġmean": 3941, "Ġphone": 3942, "UT": 3943, "ipping": 3944, "à¹Ĥà¸¡à¸": 3945, "ĠØ": 3946, "ihat": 3947, "ĠchÃŃnh": 3948, "ests": 3949, "ĠCollege": 3950, "åĬĽ": 3951, "Ġ):": 3952, "åīį": 3953, "\\\"": 3954, "asing": 3955, "ĠProf": 3956, "Ġpert": 3957, "Ġtalk": 3958, "Ġlagi": 3959, "Ġleg": 3960, "à¯Īà®ķ": 3961, "à¯ģà®ķà¯įà®ķà¯ģ": 3962, "arkan": 3963, "Ġborder": 3964, "amin": 3965, "ables": 3966, "ķà¸£": 3967, "ecut": 3968, "à¹Ģà¸£à¸": 3969, "Ġrange": 3970, "Ġfront": 3971, "ĠLoc": 3972, "ening": 3973, "ĠBro": 3974, "ĠSl": 3975, "ĠÂ«": 3976, "Ch": 3977, "verage": 3978, "Ġfa": 3979, "Ġclaim": 3980, "ÃĶ": 3981, "idge": 3982, "Ġbecome": 3983, "ĠnhÃ¢n": 3984, "atest": 3985, "Ġfeatures": 3986, "amu": 3987, "à¹ģà¸ļà¸": 3988, "ªà¸¸à¸Ķ": 3989, "ĠGreat": 3990, "CH": 3991, "Ġstrong": 3992, "Ġï¼ī": 3993, "ĀĀĀĀĀĀĀĀĀĀĀĀĀĀĀĀ": 3994, "ĠWindows": 3995, "Id": 3996, "ĠFil": 3997, "çĻ»": 3998, "Ġclose": 3999, "Ġxu": 4000, "Ġmemil": 4001, "ĠĈ": 4002, "ENT": 4003, "à¸²à¹Ģà¸": 4004, "ses": 4005, "Ġmanagement": 4006, "ĠServices": 4007, "iting": 4008, "à¸Ńà¸£à¹Įà¸": 4009, "ĠSel": 4010, "ĠÄĳá»ĭnh": 4011, "ĠåĮ": 4012, "¸à¸ķà¸": 4013, "ĠâĨ": 4014, "eks": 4015, "¹à¸ģà¸": 4016, "ij": 4017, "Ġcop": 4018, "na": 4019, "Ġens": 4020, "aga": 4021, "Ġplease": 4022, "Ġdil": 4023, "Ġåĩ¯": 4024, "ģà¸²à¸£à¹Ģà¸": 4025, "Ġtahun": 4026, "åĲİ": 4027, "Ġjpg": 4028, "à¸´à¸Ļà¸": 4029, "Ġbeautiful": 4030, "çķ": 4031, "ĠYork": 4032, "èĩª": 4033, "ĠCons": 4034, "Ġbath": 4035, "ĠHere": 4036, "Ġwriting": 4037, "à¸µà¹Īà¸": 4038, "Ġopport": 4039, "Ġà¹ģà¸¥à¸°à¸": 4040, "Ġtravel": 4041, "Ġessay": 4042, "Ġcirc": 4043, "cial": 4044, "Ġdoing": 4045, "arget": 4046, "AB": 4047, "Ġkes": 4048, "áŀ¼": 4049, "uka": 4050, "Ġ300": 4051, "Ġurl": 4052, "Æ°a": 4053, "86": 4054, "Ġ47": 4055, "Ġ42": 4056, "Ġpick": 4057, "Ġkarena": 4058, "áº£ng": 4059, "áĢ¾": 4060, "Ġmillion": 4061, "icles": 4062, "sel": 4063, "à®¾à®µ": 4064, "è¶": 4065, "ä¸»": 4066, "Ġcomes": 4067, "¢à¸Ļ": 4068, "iture": 4069, "Ġäºļ": 4070, "éķ¿": 4071, "Ġsil": 4072, "è°": 4073, "ma": 4074, "äºļ": 4075, "iple": 4076, "ye": 4077, "iti": 4078, "ĠâĤ": 4079, "Ġhold": 4080, "ĠÄĳá»ģ": 4081, "AY": 4082, "Ġà®İà®©à¯įà®±": 4083, "...": 4084, "ha": 4085, "Ġcomplet": 4086, "Ġjo": 4087, "87": 4088, "anced": 4089, "ĠFe": 4090, "IP": 4091, "ĠEnglish": 4092, "ĠhÆ¡n": 4093, "Ġpara": 4094, "áĢ±áĢ¬": 4095, "Ġà¸Ļ": 4096, "Ġnetwork": 4097, "Ġmom": 4098, "æĪĳ": 4099, "Ġreason": 4100, "Ãĭ": 4101, "ĠViá»ĩt": 4102, "ĠStates": 4103, "OW": 4104, "Ġfit": 4105, "ci": 4106, "itted": 4107, "áĢĸ": 4108, "ķà¹Īà¸": 4109, "èĭ": 4110, "Ġkho": 4111, "Ġacross": 4112, "Ġprovided": 4113, "Ì£": 4114, "Ġmenc": 4115, "Ġà¸Īà¸": 4116, "ĠÂ£Â¬": 4117, "Ġpaper": 4118, "åŁİ": 4119, "ĠForm": 4120, "Ġcompet": 4121, "Ġknown": 4122, "Ġmaint": 4123, "åĮº": 4124, "ĠDet": 4125, "ison": 4126, "Ġsinh": 4127, "±à¸ļà¸": 4128, "ĠGood": 4129, "ĠæĿ": 4130, "Ġmatch": 4131, "ĠÃ£": 4132, "Ġçľ": 4133, "aily": 4134, "duk": 4135, "ĠmÃ¬nh": 4136, "á»¥c": 4137, "ÑĤ": 4138, "éĤ": 4139, "Ġcao": 4140, "Ĥà¹īà¸²à¸": 4141, "Ġdik": 4142, "ench": 4143, "ibility": 4144, "ĠNational": 4145, "Ġå½": 4146, "Ġà®ħà®¤": 4147, "lev": 4148, "Ġnghiá»ĩ": 4149, "uyá»": 4150, "Ãĸ": 4151, "Ġtemp": 4152, "arat": 4153, "à¹Ĥà¸Ļ": 4154, "Ġgames": 4155, "Ġpemb": 4156, "Ġstrateg": 4157, "ĠChe": 4158, "áŀĸ": 4159, "Ķà¸´à¸¡à¸ŀà¸±à¸Ļà¸": 4160, "ĠJul": 4161, "Ġenc": 4162, "etic": 4163, "äºİ": 4164, "ps": 4165, "¡à¸²à¸£à¸": 4166, "ĠPort": 4167, "_c": 4168, "ŀà¸Ļà¸": 4169, "Ġæī": 4170, "Ġquestions": 4171, "Ġenerg": 4172, "ĠOver": 4173, "Ġmanual": 4174, "ĠÂ±": 4175, "Ġmanufact": 4176, "OD": 4177, "Ġeverything": 4178, "ÃĴ": 4179, "á»ĳt": 4180, "Ġ.)": 4181, "Ġhari": 4182, "Ġfeed": 4183, "ba": 4184, "Ġcontr": 4185, "Ġà®ļà¯Ĩà®¯": 4186, "Ġcomplete": 4187, "ĠID": 4188, "Ġdoesn": 4189, "ÃĢ": 4190, "Ġanak": 4191, "Ġthought": 4192, "Ġdit": 4193, "Ķà¸¥à¸Ńà¸ĩ": 4194, "Ġmobile": 4195, "Ġsource": 4196, "ĠPlay": 4197, "ĠáŁ": 4198, "Ġincludes": 4199, "ĠHot": 4200, "ainer": 4201, "è¿Ľ": 4202, "angk": 4203, "¥à¸ĩà¸Ĺà¸": 4204, "ĠMich": 4205, "Ġsound": 4206, "ĠWar": 4207, "Ġçİ": 4208, "icult": 4209, "IR": 4210, "åĵģ": 4211, "å°±": 4212, "æŀľ": 4213, "Ġapplication": 4214, "Ġvia": 4215, "ĠCH": 4216, "ĠÄĳá»ĵng": 4217, "ĠLa": 4218, "Ġdat": 4219, "Ġ\").": 4220, "usher": 4221, "éĶ": 4222, "Ġà¸ģ": 4223, "uran": 4224, "Ġquestion": 4225, "Ġcou": 4226, "ĠEurope": 4227, "ĠÂ½": 4228, "Ġsoftware": 4229, "ney": 4230, "±à¸ļ": 4231, "Ġ65": 4232, "idence": 4233, "Ġà¹Ĥà¸Ľà¸£": 4234, "Ġfriends": 4235, "ĠÂ³": 4236, "wood": 4237, "ÂµÃ": 4238, "Ġeconom": 4239, "Ġfuture": 4240, "ĠInternational": 4241, "Ġnorm": 4242, "ipe": 4243, "aki": 4244, "fr": 4245, "Ġonce": 4246, "ï¼ĮãĢĳãĢĲ": 4247, "cle": 4248, "åı¸": 4249, "ĠSan": 4250, "umah": 4251, "Ġä¸Ń": 4252, "Ġmeas": 4253, "Ġadmin": 4254, "à¹Ģà¸£": 4255, "ients": 4256, "ĠBed": 4257, "ĠÂ¼": 4258, "63": 4259, "Ġflow": 4260, "åĮĸ": 4261, "ķà¸±à¸§": 4262, "aged": 4263, "Ġdiscuss": 4264, "Ġrespons": 4265, "Ġcomments": 4266, "Ġib": 4267, "ĠNet": 4268, "iá»ĥu": 4269, "Ġrelated": 4270, "ĠÃĹ": 4271, "ĠGold": 4272, "erc": 4273, "inary": 4274, "à®¾à®¯": 4275, "ishing": 4276, "ades": 4277, "Ġ2005": 4278, "Ġyet": 4279, "Ġdefin": 4280, "Ġpubl": 4281, "Ġprovides": 4282, "°à¹Ģà¸ļ": 4283, "atis": 4284, "Ġpoints": 4285, "iet": 4286, "Ġdá»±": 4287, "Ġtheo": 4288, "ĠJo": 4289, "åĪĴ": 4290, "ĠæĪĳ": 4291, "Ġindustry": 4292, "ĠSil": 4293, "ĠRob": 4294, "ĠáĢĢ": 4295, "Ł¥": 4296, "ĠnÃªn": 4297, "airs": 4298, "ĠAP": 4299, "oph": 4300, "Ġheart": 4301, "Ġrepres": 4302, "Ġfiles": 4303, "Ġcam": 4304, "Ġmembers": 4305, "Ġterb": 4306, "¥à¸·à¸Ńà¸": 4307, "pm": 4308, "ĠcÆ¡": 4309, "ģà¸±à¸Ļ": 4310, "urniture": 4311, "Ġstarted": 4312, "tr": 4313, "Ġrequired": 4314, "à¯įà®®": 4315, "mas": 4316, "Ġ43": 4317, "á»ĳn": 4318, "Ġprob": 4319, "¦Ĥ": 4320, "Ġà¸ģà¸²à¸£à¸": 4321, "ĩà¸²à¸Ļ": 4322, "ĠãĢĳãĢĲï¼ĮãĢĳãĢĲ": 4323, "é¦": 4324, "ĠáĢĻ": 4325, "ĠcÃ²n": 4326, "Ķà¸µà¸": 4327, "Ġsá»Ń": 4328, "Æ°á»Ł": 4329, "¡à¸±à¸": 4330, "Ġï¼Ī": 4331, "ĠãĢĳ": 4332, "arden": 4333, "Ĥà¸¶": 4334, "èĢħ": 4335, "Ġmá»Ľi": 4336, "ĠcÃ¡ch": 4337, "for": 4338, "éģĵ": 4339, "Ġmark": 4340, "Ġ57": 4341, "lam": 4342, "Ġwonder": 4343, "Ġsimple": 4344, "akes": 4345, "Ġtháº¿": 4346, "Ġdue": 4347, "Ġ41": 4348, "å¯¹": 4349, "ima": 4350, "ĠMet": 4351, "Ġinfo": 4352, "Ġtet": 4353, "Ġcompanies": 4354, "Ġwindow": 4355, "ĠSing": 4356, "Ġgovernment": 4357, "Ġperiod": 4358, "ĠPC": 4359, "éĿ¢": 4360, "Ġ~": 4361, "ledge": 4362, "Ġtotal": 4363, "Łà¸¸à¸ķà¸": 4364, "ĠList": 4365, "ĠDav": 4366, "Ġhistory": 4367, "Ġliving": 4368, "èµĦ": 4369, "Ġdiff": 4370, "ĠSee": 4371, "ĠBack": 4372, "à¹Ģà¸Ľà¹ĩà¸Ļà¸": 4373, "Ġfilm": 4374, "Ġbegin": 4375, "erta": 4376, "ĠRoom": 4377, "illed": 4378, "Ġobject": 4379, "Ġcook": 4380, "urr": 4381, "æ°ĳ": 4382, "iment": 4383, "angg": 4384, "ĠSearch": 4385, "Ãı": 4386, "ica": 4387, "Ġgiven": 4388, "Ġ58": 4389, "Ġbul": 4390, "iá»ĥn": 4391, "Ġhope": 4392, "Ġsens": 4393, "ĠtrÆ°á»Ŀng": 4394, "åįļ": 4395, "AA": 4396, "Ġseries": 4397, "oman": 4398, "Ġinvol": 4399, "ĠMr": 4400, "ģà¸©": 4401, "Ġfurther": 4402, "ç»ı": 4403, "¥¿": 4404, "Ġredu": 4405, "ĠHer": 4406, "å½©ç¥¨": 4407, "Ġsuper": 4408, "ĸà¸¶à¸": 4409, "edia": 4410, "ators": 4411, "Ñģ": 4412, "Ġdeterm": 4413, "ÑĢ": 4414, "Ĺäº¬": 4415, "ĠGroup": 4416, "ĠIns": 4417, "áŀħ": 4418, "ford": 4419, "orang": 4420, "adem": 4421, "áº¡nh": 4422, "åķ": 4423, "áº¿u": 4424, "Ġideas": 4425, "ĠPen": 4426, "Ġ46": 4427, "áŁĴáŀļ": 4428, "ĠSome": 4429, "æº": 4430, "Ġ64": 4431, "Ġwiring": 4432, "ĠSte": 4433, "å®ŀ": 4434, "ĠAC": 4435, "Æ°á»Łng": 4436, "éľ": 4437, "Ġráº¥t": 4438, "Ġcomfort": 4439, "Ġthá»Ŀi": 4440, "Ġåľ¨": 4441, "æıĲ": 4442, "Ġåĩ¯åıĳ": 4443, "å½ķ": 4444, "arter": 4445, "Ġsection": 4446, "most": 4447, "Ġmengh": 4448, "Ph": 4449, "Ġcomputer": 4450, "Ġbaik": 4451, "Ġcommunic": 4452, "Ġtechnology": 4453, "çĲĥ": 4454, "Ġä¸Ģ": 4455, "ĠFirst": 4456, "Ġsecara": 4457, "Ġetc": 4458, "Ġprofessional": 4459, "ANG": 4460, "¾Ļ": 4461, "ellent": 4462, "AK": 4463, "imum": 4464, "Ġwomen": 4465, "Ġappear": 4466, "Ġthá»©": 4467, "à¹Īà¸¡à¸": 4468, "æ¶": 4469, "Ġnice": 4470, "ĆĈ": 4471, "omain": 4472, "Ġitems": 4473, "Ġperformance": 4474, "aret": 4475, "Ġoffice": 4476, "Ġfast": 4477, "ĠÃ´": 4478, "ĠMicro": 4479, "nes": 4480, "ĠhÃ¬nh": 4481, "à®Ļà¯įà®ķà®³": 4482, "ham": 4483, "ĠáĢŀ": 4484, "Ġbuilding": 4485, "plement": 4486, "á»©ng": 4487, "ĠIndia": 4488, "à¸µà¸¢à¸Ļà¸": 4489, "Ġcommon": 4490, "Ġrefer": 4491, "Ġsitu": 4492, "Ġà¸ĭà¸": 4493, "ĠLo": 4494, "Ġrate": 4495, "ä»£": 4496, "angkan": 4497, "azing": 4498, "Ġcame": 4499, "ington": 4500, "come": 4501, "åĪ©": 4502, "ģà¸¥": 4503, "åħĥ": 4504, "ules": 4505, "ĠII": 4506, "ĠProgram": 4507, "ĠPDF": 4508, "ogn": 4509, "iction": 4510, "Ġthá»±c": 4511, "ĠthÃ´ng": 4512, "Ġà¸Ķà¸": 4513, "ĠThanks": 4514, "ĠLaw": 4515, "Ġvs": 4516, "äºĭ": 4517, "áĢĬáĢ¹áĢ": 4518, "Ġmiss": 4519, "Ġstaff": 4520, "Ġexam": 4521, "¹à¹Ī": 4522, "Ãģ": 4523, "ĠLight": 4524, "ples": 4525, "pa": 4526, "à¹īà¸Ńà¸¡à¸": 4527, "à¹Ģà¸£à¸µà¸": 4528, "Ġbring": 4529, "iÃªu": 4530, "ĠDan": 4531, "Ġà®ªà¯Ĩ": 4532, "Ġsugg": 4533, "Ð½": 4534, "iff": 4535, "Ġà¹Ģà¸Ķà¸´à¸¡à¸ŀà¸±à¸Ļà¸": 4536, "Ġyoung": 4537, "Ġà®°": 4538, "Ġhanya": 4539, "Ġ52": 4540, "atal": 4541, "ĠSport": 4542, "Ġsemua": 4543, "ĠGreen": 4544, "Ġà¹Ģà¸¥": 4545, "Ġà¸Ĺà¸Ķà¸¥à¸Ńà¸ĩ": 4546, "Ġveh": 4547, "ģà¸±à¸ļ": 4548, "è¿Ļ": 4549, "word": 4550, "ĠVol": 4551, "Ġflex": 4552, "ĠTable": 4553, "Ġearly": 4554, "ĠSale": 4555, "Ġassist": 4556, "ĠðŁ": 4557, "Ġself": 4558, "à¸Ńà¸ļ": 4559, "ida": 4560, "AH": 4561, "47": 4562, "Ġtell": 4563, "Ġvarious": 4564, "ving": 4565, "Ġenvironment": 4566, "enced": 4567, "Ġlarg": 4568, "Ĺà¸³": 4569, "à®¿à®Łà¯įà®Ł": 4570, "umer": 4571, "Ġsent": 4572, "ÃĤ": 4573, "ĠNext": 4574, "Ġsimilar": 4575, "à¹īà¸²à¸Ļ": 4576, "UL": 4577, "aul": 4578, "ecess": 4579, "Ġsubject": 4580, "adu": 4581, "ĠUK": 4582, "Ĭà¸±à¹Īà¸Ļ": 4583, "Ħà¸£à¸Ķà¸´à¸ķ": 4584, "áĢħáĢ¹áĢ": 4585, "vis": 4586, "ĠEst": 4587, "å®ļ": 4588, "Ġlength": 4589, "Ġtraining": 4590, "Ġdistr": 4591, "ĠAustral": 4592, "unya": 4593, "Ħà¸§à¸²à¸¡": 4594, "åĽ½éĻħ": 4595, "48": 4596, "à®¾à®³": 4597, "á»ķi": 4598, "Ġnone": 4599, "ĠAf": 4600, "ĠÄĳiá»ģu": 4601, "Ġnak": 4602, "rodu": 4603, "onse": 4604, "Ġà¸Ľ": 4605, "åħ¥": 4606, "Ġ&&": 4607, "PS": 4608, "ges": 4609, "Ġwent": 4610, "èĬ": 4611, "ķà¸£à¸": 4612, "ä»¶": 4613, "gg": 4614, "ĠOther": 4615, "ĠHo": 4616, "ĠFore": 4617, "¾å®¶": 4618, "allery": 4619, "ĠLab": 4620, "ĠRE": 4621, "fully": 4622, "Ĺà¸³à¸": 4623, "Ġcustomers": 4624, "ĠMot": 4625, "IV": 4626, "Ġgen": 4627, "ression": 4628, "izing": 4629, "Ġhuman": 4630, "otes": 4631, "Ġmor": 4632, "ĠEv": 4633, "Ġ56": 4634, "Ùİ": 4635, "Ġfive": 4636, "go": 4637, "Ġdrive": 4638, "cast": 4639, "è¿ĩ": 4640, "Ġoriginal": 4641, "Ġissues": 4642, "ĠFind": 4643, "lement": 4644, "Ġapa": 4645, "Ġlater": 4646, "ĠAnt": 4647, "ension": 4648, "Ġesp": 4649, "Ġà®µà®°": 4650, "ģà¸¡à¸": 4651, "å±ķ": 4652, "ĩà¸´à¸Ļ": 4653, "Ġfavor": 4654, "ĠBuy": 4655, "iece": 4656, "ĠÂ´": 4657, "ĠFull": 4658, "Ġdeg": 4659, "·à¹Īà¸Ń": 4660, "áŁĴáŀı": 4661, "Ġunderstand": 4662, "Ġreading": 4663, "ĠWord": 4664, "Ġmiles": 4665, "Ġu003e": 4666, "Ġassoci": 4667, "Ġamong": 4668, "ĠWork": 4669, "Ġwood": 4670, "ees": 4671, "Ġdeb": 4672, "ĠIB": 4673, "Ġtaking": 4674, "à¸Ļà¸µà¹īà¸": 4675, "igure": 4676, "åĨĮ": 4677, "Ġà¸£à¸": 4678, "ĠOF": 4679, "Ġaud": 4680, "Re": 4681, "Ġà¸Ĥ": 4682, "ĠCompany": 4683, "Ġsal": 4684, "tty": 4685, "Ġmenu": 4686, "ĠPrint": 4687, "zz": 4688, "Ġevents": 4689, "å±±": 4690, "éĥ½": 4691, "ĠCustom": 4692, "Ġká»": 4693, "head": 4694, "Ġoil": 4695, "Ġchalleng": 4696, "Ġeither": 4697, "Ġ:\"": 4698, "ography": 4699, "light": 4700, "Ġpercent": 4701, "å®¢": 4702, "èĲ": 4703, "Ġpolit": 4704, "Ġidea": 4705, "Ġtook": 4706, "Ġspe": 4707, "Ġextra": 4708, "Ġwhether": 4709, "ÃĪ": 4710, "Ġphys": 4711, "åĬ¡": 4712, "Ġfall": 4713, "ĠçļĦ": 4714, "ikut": 4715, "ided": 4716, "Ãĥ": 4717, "Ġprotect": 4718, "Ġunit": 4719, "ĠPage": 4720, "Ġseen": 4721, "à®¾à®®": 4722, "itting": 4723, "here": 4724, "Ġaction": 4725, "ĠCO": 4726, "Ġreach": 4727, "Ġsen": 4728, "ĠAbout": 4729, "Ġuk": 4730, "æľ¬": 4731, "Ġà®Ĵà®°": 4732, "Ġbagi": 4733, "ĠWater": 4734, "Ġscr": 4735, "Ġwhole": 4736, "Ġamount": 4737, "Ġdrop": 4738, "Ġæµ": 4739, "à®³à¯įà®³": 4740, "Ġsystems": 4741, "Ġadded": 4742, "Ġáŀĺ": 4743, "lin": 4744, "åĽ¾": 4745, "Ġneeded": 4746, "aker": 4747, "Ġà¸£": 4748, "ming": 4749, "ĠChar": 4750, "clus": 4751, "á»įn": 4752, "ĠSen": 4753, "äº§": 4754, "Ġstock": 4755, "uyá»ĩn": 4756, "Ġharga": 4757, "ĠTHE": 4758, "me": 4759, "å»º": 4760, "box": 4761, "oker": 4762, "à¸Ļà¸´à¸": 4763, "çĽŁ": 4764, "åĲį": 4765, "ĠBlue": 4766, "imb": 4767, "á»£": 4768, "59": 4769, "ĠSE": 4770, "Ġhalf": 4771, "ĠMem": 4772, "val": 4773, "uage": 4774, "imp": 4775, "Ġpopular": 4776, "Ġfilter": 4777, "Ġautom": 4778, "Ġrecommend": 4779, "Ġissue": 4780, "Ġting": 4781, "à®¿à®ªà¯įà®ª": 4782, "Ġaccording": 4783, "anan": 4784, "Ġwait": 4785, "ĠUnt": 4786, "hi": 4787, "æĬ¥": 4788, "ze": 4789, "phone": 4790, "Ġsomeone": 4791, "ounc": 4792, "Ġrequest": 4793, "Ġcrit": 4794, "ĺà¸": 4795, "ecially": 4796, "nd": 4797, "Ġdam": 4798, "Ġcult": 4799, "Ġ51": 4800, "ĠReal": 4801, "áº¡ng": 4802, "Ġà®µà¯ĩ": 4803, "Ġpas": 4804, "}.": 4805, "Ġversion": 4806, "±à¸įà¸": 4807, "Ġ\"]": 4808, "Ġfire": 4809, "æľŁ": 4810, "Â£": 4811, "ĠÃĬ": 4812, "Ġpeny": 4813, "isc": 4814, "§à¹ĩà¸ļ": 4815, "Ġcredit": 4816, "though": 4817, "ooth": 4818, "ĠKing": 4819, "Ġç»": 4820, "urg": 4821, "Ġ2004": 4822, "ĠThank": 4823, "±à¸ģ": 4824, "reg": 4825, "ĠCour": 4826, "ums": 4827, "anch": 4828, "mercial": 4829, "uel": 4830, "ondon": 4831, "Ġenergy": 4832, "ĠkhÃ¡ch": 4833, "Ãĩ": 4834, "Īà¸£à¸´à¸": 4835, "IA": 4836, "Ġses": 4837, "Ġsaat": 4838, "ĠlÃ½": 4839, "upakan": 4840, "áĢ¬áĢ¸": 4841, "æģ": 4842, "è®¡åĪĴ": 4843, "olutions": 4844, "Ġ2000": 4845, "åħ³": 4846, "ĠColor": 4847, "Ġpotential": 4848, "Ġcustomer": 4849, "Ġkitchen": 4850, "ession": 4851, "ĠÃĶ": 4852, "ç´": 4853, "Īà¸°": 4854, "Ġtan": 4855, "Ġsubm": 4856, "ĠCheck": 4857, "ç¬": 4858, "ĠSP": 4859, "å¾Ĺ": 4860, "itten": 4861, "NG": 4862, "ļà¸Ńà¸¥à¸": 4863, "Ġcara": 4864, "Ġill": 4865, "Ġvá»¥": 4866, "Ġharus": 4867, "Ġä¸į": 4868, "Ġsus": 4869, "Ĭà¹Īà¸§à¸": 4870, "éĹ´": 4871, "Ġà¸ŀà¸": 4872, "roll": 4873, "Ġsales": 4874, "ĠMac": 4875, "Ġlocated": 4876, "ĠcÃ¹ng": 4877, "à¯ģà®ªà¯įà®ª": 4878, "Ġå¼": 4879, "Ġinform": 4880, "ĠLet": 4881, "«à¸¥": 4882, "áŀ½": 4883, "¢à¸Ļà¸": 4884, "ĠFacebook": 4885, "Ġtarget": 4886, "âĢ¦âĢ¦": 4887, "Ġkm": 4888, "aa": 4889, "ban": 4890, "Pr": 4891, "Ġcáº¥p": 4892, "Ġfinancial": 4893, "éĩĮ": 4894, "ĠVideo": 4895, "Ġface": 4896, "irth": 4897, "my": 4898, "Ġ$('": 4899, "istration": 4900, "Ġmove": 4901, "................": 4902, "åĳĺ": 4903, "58": 4904, "ç©": 4905, "76": 4906, "Ġanything": 4907, "lim": 4908, "ĠâĤ¬": 4909, "ores": 4910, "bor": 4911, "ĠLong": 4912, "Ġà¸ªà¹Īà¸ĩà¹Ģà¸": 4913, "ĠBlog": 4914, "Ġrespect": 4915, "åħ¬åı¸": 4916, "ĠEr": 4917, "ĠShow": 4918, "ĠSize": 4919, "Ġbelieve": 4920, "ĠBi": 4921, "Ġ53": 4922, "ĠviÃªn": 4923, "Ġà¹Ģà¸Ķà¸´à¸¡à¸ŀà¸±à¸Ļà¸Łà¸£à¸µ": 4924, "Ġmo": 4925, "æ³¨åĨĮ": 4926, "¥à¸ĩà¸Ĺà¸°à¹Ģà¸ļ": 4927, "æŃ£": 4928, "Ġmachine": 4929, "é¾Ļ": 4930, "cul": 4931, "________": 4932, "ĠSem": 4933, "Ġareas": 4934, "Ġqua": 4935, "04": 4936, "åº¦": 4937, "ĠDevelop": 4938, "Ġbud": 4939, "Ġquite": 4940, "ĠHD": 4941, "ĠnhÆ°ng": 4942, "ued": 4943, "hop": 4944, "Ġsle": 4945, "ered": 4946, "\\/": 4947, "ĠLast": 4948, "ĩà¸´à¸Ļà¸ļà¸²à¸Ĺ": 4949, "çŃī": 4950, "ĲáĢ¬": 4951, "Ġxe": 4952, "gy": 4953, "çľĭ": 4954, "çĿ": 4955, "Ġbert": 4956, "à»Ī": 4957, "å¤ĸ": 4958, "åľ¨çº¿": 4959, "ĩà¸´à¸Ļà¸ļà¸²à¸Ĺà¹Ħà¸Ĺà¸¢": 4960, "Ġinternet": 4961, "ĠPay": 4962, "ĠInf": 4963, "ried": 4964, "apter": 4965, "Ġroad": 4966, "Ġpain": 4967, "Ġindex": 4968, "æµ·": 4969, "Ġrelations": 4970, "oke": 4971, "Ġhay": 4972, "Ġinsurance": 4973, "Ġà¸ļ": 4974, "á»«": 4975, "ªà¸²à¸¡à¸²à¸£à¸": 4976, "ĠData": 4977, "ĠAL": 4978, "soft": 4979, "çĦ": 4980, "100": 4981, "Ġmemiliki": 4982, "Ġà¹Ĥà¸Ķà¸": 4983, "éĢļ": 4984, "Ġproblems": 4985, "Ġà®ĩà®¨à¯įà®¤": 4986, "æ°´": 4987, "Ġ`": 4988, "!!": 4989, "Ġcharacter": 4990, "áº¥u": 4991, "Ġfix": 4992, "Ġglobal": 4993, "Ġprim": 4994, "ĠÄĳang": 4995, "sy": 4996, "çłģ": 4997, "ĠCare": 4998, "áŀĩ": 4999, "Ġ\".": 5000, "ĠáŀĬ": 5001, "Ġà¸Ĺà¸µà¹Īà¸": 5002, "asino": 5003, "¹à¹Īà¸": 5004, "Ġthird": 5005, "Ġ}#": 5006, "Ġpháº©m": 5007, "Ġready": 5008, "Ġball": 5009, "ĠAmerica": 5010, "to": 5011, "ĠPeng": 5012, "Ġ</": 5013, "Ġhaml": 5014, "ĠtrÃ¬nh": 5015, "iday": 5016, "æĬĢ": 5017, "enting": 5018, "acity": 5019, "à¹īà¸Ń": 5020, "Ġbaru": 5021, "ude": 5022, "Ġsun": 5023, "Ġï¿½ï¿½ï¿½ï¿½ï¿½": 5024, "Ġsecurity": 5025, "Ġsi": 5026, "atform": 5027, "Ġbrand": 5028, "Ġboleh": 5029, "unj": 5030, "not": 5031, "yp": 5032, "ĠTO": 5033, "ĠÂ²": 5034, "ĠEvery": 5035, "à¯ĩà®°": 5036, "Ġach": 5037, "hib": 5038, "Ġanh": 5039, "Ġsignific": 5040, "Ġdu": 5041, "ĠEngine": 5042, "ners": 5043, "enar": 5044, "73": 5045, "ises": 5046, "à¸£à¸²à¸°à¸": 5047, "ĠAtt": 5048, "anda": 5049, "Ġsimply": 5050, "ĠlÃªn": 5051, "ªà¯į": 5052, "ÙĦ": 5053, "ä¿Ŀ": 5054, "set": 5055, "ĠnÃ³i": 5056, "river": 5057, "à¯Īà®ķà¯įà®ķ": 5058, "Ġtre": 5059, "àº²àº": 5060, "ĠhÃłnh": 5061, "ĠmÃ¡y": 5062, "ihan": 5063, "field": 5064, "iddle": 5065, "Ġà¸¥": 5066, "Ġdescrib": 5067, "Ġkids": 5068, "olf": 5069, "ĠArticle": 5070, "Ġbiáº¿t": 5071, "itut": 5072, "ĠAdditionally": 5073, "--------": 5074, "ened": 5075, "Ħà¸£à¸·à¹Īà¸Ńà¸ĩà¸": 5076, "Ġpark": 5077, "ashion": 5078, "Ġdecor": 5079, "istic": 5080, "Ġwords": 5081, "Th": 5082, "ĠMer": 5083, "æį": 5084, "Ġ\">": 5085, "Ġbill": 5086, "Ġword": 5087, "Ġsqu": 5088, "Ġbank": 5089, "ĠkhÃ¡c": 5090, "ĠReport": 5091, "itu": 5092, "ĠWhile": 5093, "ĠMel": 5094, "Ġchoose": 5095, "Ġprivate": 5096, "Ġgold": 5097, "á»ĵi": 5098, "ĠInternet": 5099, "ĠTod": 5100, "ĠIde": 5101, "Ġfinal": 5102, "just": 5103, "ĠSal": 5104, "ournal": 5105, "Ġnecess": 5106, "Ġentire": 5107, "Ġespecially": 5108, "Ġindic": 5109, "Ġprevious": 5110, "Ġmag": 5111, "ĠAccess": 5112, "urt": 5113, "Ġadditional": 5114, "Ĺà¸²à¸ĩà¸": 5115, "ĠPal": 5116, "Ġsave": 5117, "itation": 5118, "ĠMaret": 5119, "Ġspeed": 5120, "áŁħ": 5121, "Ġma": 5122, "Ġposted": 5123, "ĠOffice": 5124, "æ¬¾": 5125, "asil": 5126, "igation": 5127, "akit": 5128, "Ġsuggest": 5129, "Ġexist": 5130, "uge": 5131, "TM": 5132, "Ġay": 5133, "Ġsoon": 5134, "Ġpag": 5135, "adio": 5136, "Ġalign": 5137, "à®¿à®´": 5138, "Ġdifficult": 5139, "á»ĩnh": 5140, "å£": 5141, "ker": 5142, "ungkin": 5143, "iá»ħn": 5144, "Ġplant": 5145, "Ġbutton": 5146, "Ġsama": 5147, "åįĹ": 5148, "Ġbooks": 5149, "hir": 5150, "ĠResearch": 5151, "ĠTime": 5152, "Ġmerupakan": 5153, "ĠphÃ¡t": 5154, "Ġvo": 5155, "Ġapproach": 5156, "ĠHol": 5157, "ģà¸´à¸": 5158, "à¯ģà®³à¯įà®³": 5159, "è£": 5160, "ĠphÃŃ": 5161, "itar": 5162, "ģà¸¥à¸": 5163, "ĠlÆ°á»£ng": 5164, "ĠFam": 5165, "ĠJe": 5166, "ĠDisc": 5167, "ycl": 5168, "TC": 5169, "sa": 5170, "Ġnatural": 5171, "Ãį": 5172, "ffee": 5173, "Ġbeber": 5174, "áĢĢáĢŃáĢ¯": 5175, "ado": 5176, "à¸£à¸²à¸Ħà¸²à¸": 5177, "ĠStreet": 5178, "Ġeducation": 5179, "åĲĮ": 5180, "ĠchÃºng": 5181, "§à¸±à¸Ļà¸": 5182, "Ġcáº§n": 5183, "Ġkeh": 5184, "Ġcand": 5185, "ronic": 5186, "Ġfail": 5187, "Ġ85": 5188, "ĠWall": 5189, "ĠYear": 5190, "Ġpred": 5191, "áº¯n": 5192, "Ġmodern": 5193, "arang": 5194, "é©": 5195, "á»ĵng": 5196, "Ġstandard": 5197, "Ġconsult": 5198, "Ġwide": 5199, "Ġ02039": 5200, "ľà¸¥à¸": 5201, "ĠnÄĥng": 5202, "Â»": 5203, "ĠSum": 5204, "iles": 5205, "è§Ħ": 5206, "ikasi": 5207, "urah": 5208, "Ġeas": 5209, "Ġdar": 5210, "ku": 5211, "Â¡Â": 5212, "pose": 5213, "72": 5214, "ĠnÃło": 5215, "ĠÎ": 5216, "ĠÂ©": 5217, "«à¸¡à¸²à¸": 5218, "ĠJob": 5219, "Ġ},": 5220, "Ġà¹ģà¸¥à¸°": 5221, "Ġbus": 5222, "Ġeditor": 5223, "áĤı": 5224, "unities": 5225, "Ã³a": 5226, "áº£m": 5227, "bel": 5228, "Ġphotos": 5229, "å¿«3": 5230, "Ġbeberapa": 5231, "à¹Īà¸²à¸Ļà¸": 5232, "ĠRoad": 5233, "Ġround": 5234, "Ġpicture": 5235, "atory": 5236, "ĠÃ½": 5237, "Ġage": 5238, "ĠEar": 5239, "ĠFlor": 5240, "ĠClick": 5241, "Ġlá»Ľ": 5242, "Ġparty": 5243, "ivery": 5244, "Ġeveryone": 5245, "Ġmessage": 5246, "Ġdog": 5247, "bon": 5248, "è¿Ĳ": 5249, "Ġregard": 5250, "ext": 5251, "abin": 5252, "ĠLondon": 5253, "aced": 5254, "Ġinte": 5255, "Ġyourself": 5256, "Ġarch": 5257, "Ġauto": 5258, "ahkan": 5259, "ĠCam": 5260, "Ġdoor": 5261, "ĠManagement": 5262, "ä½į": 5263, "Ãİ": 5264, "Ġexperi": 5265, "yt": 5266, "ĠAnn": 5267, "Ġcreated": 5268, "Ġusers": 5269, "ĠTR": 5270, "ĠWood": 5271, "Ãĵ": 5272, "Ġunique": 5273, "æ¡": 5274, "bl": 5275, "Ġdetail": 5276, "Class": 5277, "Ġsites": 5278, "Ġloss": 5279, "Ġlower": 5280, "Ġwrite": 5281, "éĵ": 5282, "ref": 5283, "ĠTags": 5284, "elebr": 5285, "Ġmembuat": 5286, "Ġparts": 5287, "Ġ2003": 5288, "Ĺà¸µà¸": 5289, "Ð¾Ð": 5290, "gress": 5291, "Ġalmost": 5292, "ĠáĢľ": 5293, "ä»ĸ": 5294, "Ġ\":{\"": 5295, "Ãķ": 5296, "ĠCorpor": 5297, "à®°à¯įà®ķà®³": 5298, "¥à¸ĩà¸Ĺà¸°à¹Ģà¸ļà¸µà¸¢à¸Ļà¸": 5299, "ĠKey": 5300, "éħ": 5301, "Ġincrease": 5302, "Ġremov": 5303, "à®ªà¯įà®ªà®Ł": 5304, "à®¤à¯įà®¤à®¿à®²à¯į": 5305, "ĠPet": 5306, "ona": 5307, "īà¸": 5308, "ªà¸³à¸«": 5309, "Ġlatest": 5310, "éļ": 5311, "Ġapply": 5312, "ĠMost": 5313, "Ġå¾": 5314, "iding": 5315, "ero": 5316, "Ġtreatment": 5317, "door": 5318, "Ġstorage": 5319, "Ġpretty": 5320, "Ġ==": 5321, "ague": 5322, "Ġdesigned": 5323, "Ġhear": 5324, "ĠáĢĲ": 5325, "Ġinside": 5326, "Ġbedroom": 5327, "ĠPR": 5328, "za": 5329, "Ġcool": 5330, "áŀľ": 5331, "ķà¸´": 5332, "Ġtrying": 5333, "Ġgirl": 5334, "ĠçľŁ": 5335, "ĠWomen": 5336, "Ġload": 5337, "Ġimpact": 5338, "aka": 5339, "Ġgeneral": 5340, "è¡¨": 5341, "ĠÄĳÃ¢y": 5342, "Ġprobably": 5343, "Ã¤": 5344, "ĠCA": 5345, "Ġinput": 5346, "Ġ150": 5347, "IB": 5348, "hat": 5349, "ĠPhil": 5350, "Ġà¹Ĥà¸Ľà¸£à¹Ĥà¸¡à¸": 5351, "used": 5352, "áŀĬ": 5353, "ĠKar": 5354, "Pro": 5355, "à¸´à¸Ķà¸": 5356, "Ġhowever": 5357, "¡à¸²à¸ģà¸": 5358, "Ġofficial": 5359, "Ġdire": 5360, "Ġà¸¡à¸": 5361, "Ġkeb": 5362, "éĩį": 5363, "ķà¹Į": 5364, "áĢ®áĢ¸áĢ": 5365, "Ġsaja": 5366, "Ġtaken": 5367, "Ġpet": 5368, "da": 5369, "łà¸²à¸ŀà¸": 5370, "icient": 5371, "à¹ĥà¸Ī": 5372, "Ġpend": 5373, "aven": 5374, "ĠMake": 5375, "Ĺà¸¸à¸": 5376, "çĻ»å½ķ": 5377, "Ġentry": 5378, "TS": 5379, "Ġ::": 5380, "ĠæŃ": 5381, "acing": 5382, "àºĻàº": 5383, "ĠnháºŃn": 5384, "Ġbahwa": 5385, "à®°à¯įà®ķà®³à¯į": 5386, "Ġforward": 5387, "ĠtÆ°": 5388, "Ħà¸¸à¸ĵ": 5389, "ĠOpt": 5390, "ģà¸£à¸°à¸": 5391, "ĠÂ¶": 5392, "ĠMov": 5393, "è·¯": 5394, "chan": 5395, "Ġsell": 5396, "uments": 5397, "Ġè¿Ļ": 5398, "Ġland": 5399, "ĠPublic": 5400, "ãĢģ": 5401, "ounts": 5402, "ospital": 5403, "weet": 5404, "Ġmáº·t": 5405, "Ġhappy": 5406, "td": 5407, "à¹Ģà¸Ķ": 5408, "Ġà¸ªà¹Īà¸ĩà¹Ģà¸ĩà¸´à¸Ļà¸ļà¸²à¸Ĺà¹Ħà¸Ĺà¸¢": 5409, "Ġequipment": 5410, "Ġaltern": 5411, "Ġrisk": 5412, "åł": 5413, "Ġrestaur": 5414, "ĠAssoci": 5415, "umn": 5416, "ĠSuper": 5417, "ĠSa": 5418, "medi": 5419, "action": 5420, "Ġdah": 5421, "iling": 5422, "Ġà¹Ģà¸¡à¸": 5423, "ĠãĢĲ": 5424, "å¼ı": 5425, "uah": 5426, "ĠGeneral": 5427, "rows": 5428, "ĠSeb": 5429, "ellow": 5430, "à¹Ĥà¸£à¸ĩ": 5431, "Ġanalysis": 5432, "Ġprices": 5433, "itional": 5434, "Ġknowledge": 5435, "äºĮ": 5436, "ĠJack": 5437, "83": 5438, "Ġep": 5439, "aca": 5440, "Ġà¸¥à¸ĩà¸Ĺà¸°à¹Ģà¸ļà¸µà¸¢à¸Ļà¸": 5441, "ĠtrÆ°á»Ľc": 5442, "Ġcháº¥t": 5443, "},": 5444, "Ġsuppl": 5445, "Ġbá»Ļ": 5446, "Ġrunning": 5447, "Ġshows": 5448, "Ã³ng": 5449, "itan": 5450, "orge": 5451, "Ġchanges": 5452, "ĠHis": 5453, "è¯´": 5454, "ĠBank": 5455, "Ġful": 5456, "Ġtouch": 5457, "æĬķæ³¨": 5458, "BS": 5459, "ç®¡": 5460, "Ġcoming": 5461, "Ġhigher": 5462, "åĬłçĽŁ": 5463, "ĠÂ¾": 5464, "Ġboard": 5465, "çī¹": 5466, "Ġcontract": 5467, "bs": 5468, "Ġ400": 5469, "Ġsn": 5470, "Ġdraw": 5471, "ael": 5472, "ament": 5473, "Ġà¸¥à¸ĩà¸Ĺà¸°à¹Ģà¸ļà¸µà¸¢à¸Ļà¸Łà¸£à¸µ": 5474, "epat": 5475, "ĠPlan": 5476, "Ãºt": 5477, "ĠPack": 5478, "oles": 5479, "Ġu003c": 5480, "ĠUntuk": 5481, "ounter": 5482, "Ġ,,": 5483, "Ġfloor": 5484, "Ġ\")": 5485, "à¸£à¸²à¸Ħà¸²": 5486, "ĠMag": 5487, "Ġisn": 5488, "Łà¸¸à¸ķà¸ļà¸Ńà¸¥": 5489, "à®®à¯įà®ª": 5490, "Ġmix": 5491, "à¹Ĥà¸Ķà¸": 5492, "Ã§": 5493, "ĠUnder": 5494, "ĠSpe": 5495, "had": 5496, "å¥ĸ": 5497, "Ġweeks": 5498, "ki": 5499, "IF": 5500, "Ġge": 5501, "ĠLog": 5502, "Ġsignificant": 5503, "Ġia": 5504, "ĠHand": 5505, "è®¾": 5506, "Ãªu": 5507, "ç¨ĭ": 5508, "Ġaverage": 5509, "Ġpages": 5510, "Ġmga": 5511, "press": 5512, "Ġcoll": 5513, "ĠEduc": 5514, "ĠDig": 5515, "Ġinch": 5516, "à¸Ļà¹īà¸": 5517, "ĠInformation": 5518, "ĠExcel": 5519, "ĠBay": 5520, "LC": 5521, "Ġtold": 5522, "Ġnormal": 5523, "Ġlikely": 5524, "Ġsolid": 5525, "82": 5526, "arning": 5527, "Ġdigital": 5528, "ĠMor": 5529, "ĠDem": 5530, "Ġviews": 5531, "ÃĦ": 5532, "ĠCap": 5533, "list": 5534, "à¯ģà®°": 5535, "OC": 5536, "rup": 5537, "ĠRest": 5538, "ĠLibrary": 5539, "ĠAnal": 5540, "Ġnghiá»ĩp": 5541, "à¹ĥà¸«à¸¡": 5542, "åįķ": 5543, "ĠAny": 5544, "Ġtá»±": 5545, "atients": 5546, "Ġ69": 5547, "à¹ģà¸¥à¹īà¸§": 5548, "Ġsepar": 5549, "Ġyg": 5550, "Ġsong": 5551, "ĠEast": 5552, "oto": 5553, "_s": 5554, "¤à¸": 5555, "Ġbuilt": 5556, "Ġtour": 5557, "Ġmedical": 5558, "ĠAND": 5559, "lood": 5560, "gunakan": 5561, "è¥¿": 5562, "¢à¸§à¸": 5563, "à¸Ńà¸µà¸": 5564, "Ġgar": 5565, "Ġoutside": 5566, "ä¸İ": 5567, "omet": 5568, "èĢģ": 5569, "à¸£à¸²à¸¢à¸": 5570, "Ġrumah": 5571, "æĺİ": 5572, "Ġpath": 5573, "Ġamp": 5574, "Ġimg": 5575, "aku": 5576, "æĥħ": 5577, "Ġusually": 5578, "Ġreceived": 5579, "Ġaccept": 5580, "áºŃy": 5581, "ĠApp": 5582, "à¹ĥà¸Ĭà¹īà¸Łà¸£à¸µ": 5583, "ĠSoftware": 5584, "UM": 5585, "tain": 5586, "56": 5587, "ĠYes": 5588, "ĠWash": 5589, "ĠReviews": 5590, "icks": 5591, "aja": 5592, "æīĭæľºçīĪ": 5593, "Ġrecent": 5594, "ĠExt": 5595, "ç³": 5596, "iforn": 5597, "ĠEss": 5598, "à¸´à¸ĩà¸": 5599, "ĠComments": 5600, "Ġprior": 5601, "Ġà¸Ļà¸": 5602, "ĠUSD": 5603, "Ġband": 5604, "Ġjika": 5605, "ĠdÃ¢n": 5606, "Ġà¸Ĺà¸Ķà¸¥à¸Ńà¸ĩà¹ĥà¸Ĭà¹īà¸Łà¸£à¸µ": 5607, "áº¡ch": 5608, "thern": 5609, "Âº": 5610, "ĠCanada": 5611, "è²": 5612, "ĠChristmas": 5613, "elt": 5614, "Ġicon": 5615, "ĠLife": 5616, "ĠSampai": 5617, "Ġbesar": 5618, "Ġmarketing": 5619, "æĶ¿": 5620, "Ġworth": 5621, "ico": 5622, "oul": 5623, "Ġways": 5624, "Ġcurrently": 5625, "Ġdescription": 5626, "ĠUpd": 5627, "Ġbay": 5628, "åı£": 5629, "à¹Īà¸²à¸Ļ": 5630, "Ġsym": 5631, "èµ°": 5632, "ĠÃī": 5633, "ĠFriday": 5634, "Ġ');": 5635, "ªà¸Ķà¸": 5636, "ivity": 5637, "áŀİ": 5638, "une": 5639, "Ġchoice": 5640, "Ġ3A": 5641, "oma": 5642, "ĠÂ¸": 5643, "Ġintegr": 5644, "ema": 5645, "elum": 5646, "ipp": 5647, "rey": 5648, "Ġxuáº¥t": 5649, "à¹Ħà¸Ķà¹īà¹Ģà¸": 5650, "Ġgrowth": 5651, "izes": 5652, "avy": 5653, "ĠCommunity": 5654, "01": 5655, "Ġcompl": 5656, "à¸²à¸ģ": 5657, "arta": 5658, "Ġà¹Ĥà¸Ľà¸£à¹Ĥà¸¡à¸Ĭà¸±à¹Īà¸Ļ": 5659, "å¢": 5660, "Ġcrusher": 5661, "ĠGerm": 5662, "Ġmasih": 5663, "vey": 5664, "posed": 5665, "ĠIr": 5666, "ĠSM": 5667, "à¹Īà¸²à¸ĩà¸": 5668, "gn": 5669, "Ġresponse": 5670, "Ġmount": 5671, "Ġensure": 5672, "Ġfeatured": 5673, "Ġund": 5674, "áĢĲáĢ¹áĢ": 5675, "Ġkáº¿t": 5676, "kn": 5677, "³à¸Ļà¸": 5678, "Æ°á»Ľng": 5679, "áŀ¶áŀļáŀ": 5680, "oms": 5681, "Ġhit": 5682, "¾áĢĢ": 5683, "Ġparticip": 5684, "71": 5685, "ĠUl": 5686, "Ġincluded": 5687, "Ġprep": 5688, "Ġ][": 5689, "Ãī": 5690, "54": 5691, "ĠInv": 5692, "Ġà¸ªà¸¥à¹ĩà¸Ńà¸ķ": 5693, "ªà¸¹à¸": 5694, "ĠvÃ¬": 5695, "Ġà¸ĸ": 5696, "æºĲ": 5697, "à¸²à¸ªà¸´": 5698, "ocks": 5699, "oliday": 5700, "Ġpul": 5701, "ĠWhy": 5702, "ĠCD": 5703, "¶à¹Īà¸ĩà¸": 5704, "Ã¼": 5705, "Ġgian": 5706, "ĭĹ": 5707, "ifornia": 5708, "áŁĴáŀĽ": 5709, "Ġæĸ°": 5710, "TER": 5711, "Ġphp": 5712, "à®¾à®®à¯į": 5713, "ĠCop": 5714, "Ġhour": 5715, "Ġestab": 5716, "Ġple": 5717, "æĢİ": 5718, "Ġwanted": 5719, "BC": 5720, "Ġinsp": 5721, "ĠUSA": 5722, "Ġprograms": 5723, "Ġground": 5724, "ilan": 5725, "ŀà¸·à¹Īà¸Ńà¸": 5726, "ĠCard": 5727, "åķĨ": 5728, "Ġcollege": 5729, "Ġkinh": 5730, "istem": 5731, "iers": 5732, "venue": 5733, "81": 5734, "Ġdeliver": 5735, "à¸£à¸¹": 5736, "Ġgreen": 5737, "ĠBeach": 5738, "oub": 5739, "á»Ĺ": 5740, "Ħà¸¡": 5741, "ĠSpecial": 5742, "ĠPan": 5743, "ĠIP": 5744, "ĠÄĳiá»ĥm": 5745, "Ġná»¯": 5746, "Ćć": 5747, "à®¾à®Łà¯įà®Ł": 5748, "aries": 5749, "Ľà¸£à¸°à¹Ģà¸Ĺà¸": 5750, "éĽĨ": 5751, "Ġjobs": 5752, "Ġtrading": 5753, "selves": 5754, "ĠÃĵ": 5755, "Ġrelationship": 5756, "Ġlearning": 5757, "Ġchá»§": 5758, "çģ": 5759, "Ġexact": 5760, "á»įi": 5761, "à¸£à¹īà¸²à¸": 5762, "icing": 5763, "Ġphoto": 5764, "ĠOpen": 5765, "ological": 5766, "åĪ¶": 5767, "áº¯ng": 5768, "áº¹p": 5769, "ĠÂ¿": 5770, "ĠèĢ": 5771, "Ġtypes": 5772, "Ġtown": 5773, "Ġsix": 5774, "äº¤": 5775, "ulu": 5776, "Ġtakes": 5777, "ston": 5778, "Ġanyone": 5779, "èµĽ": 5780, "ĠÃģ": 5781, "iger": 5782, "Ġhair": 5783, "Ġ></": 5784, "ĠSH": 5785, "ĠÞ": 5786, "ç²": 5787, "Ġamazing": 5788, "Ġum": 5789, "Ġáŀ¢": 5790, "itions": 5791, "ging": 5792, "å°Ĩ": 5793, "Ġà®ı": 5794, "ĠtÃ¢m": 5795, "Ġà¸Ń": 5796, "ceed": 5797, "ĠType": 5798, "áĢ¯áĢŃ": 5799, "å¿«ä¸ī": 5800, "endent": 5801, "Ġcollect": 5802, "ĠStep": 5803, "Ġmatter": 5804, "ĠLook": 5805, "Ġresource": 5806, "Ġrather": 5807, "Ãºp": 5808, "«à¸£à¸·à¸Ń": 5809, "Ł³": 5810, "Ġlooks": 5811, "Ġkat": 5812, "ÃĨ": 5813, "Qu": 5814, "ĠTim": 5815, "Ġ120": 5816, "ĠHist": 5817, "Ãªm": 5818, "·à¹Īà¸Ńà¸ĩ": 5819, "Ãļ": 5820, "wner": 5821, "ĠSign": 5822, "Ġabsolut": 5823, "nov": 5824, "Ġdest": 5825, "elcome": 5826, "Ġrole": 5827, "illa": 5828, "Ġbáº£o": 5829, "ĠFood": 5830, "æĹ¶å½©": 5831, "çĪ": 5832, "ĠCre": 5833, "Ġproduction": 5834, "ĠAfric": 5835, "«à¸Ļà¹īà¸²à¸": 5836, "Ġtentang": 5837, "Ġguy": 5838, "ĠphÃ²ng": 5839, "Ġexcellent": 5840, "Ġhon": 5841, "ĠåĮĹäº¬": 5842, "ĠJapan": 5843, "upun": 5844, "Ġcontinue": 5845, "æ¬¡": 5846, "Ġmac": 5847, "Name": 5848, "ģàº": 5849, "Ġmass": 5850, "éĢŁ": 5851, "Ġà®µà¯Ĩ": 5852, "Ġbukan": 5853, "Ġrepresent": 5854, "Ġprevent": 5855, "Ġeasily": 5856, "åĭ": 5857, "istry": 5858, "Ġcouple": 5859, "ĠNY": 5860, "áº£nh": 5861, "illing": 5862, "Ġerror": 5863, "94": 5864, "Ġban": 5865, "áŀ¶áŀĢ": 5866, "ĠHead": 5867, "Ġskills": 5868, "iga": 5869, "Ġáŀĳ": 5870, "è¢": 5871, "ares": 5872, "Ġmakan": 5873, "ĠgÃ¬": 5874, "áĢĨ": 5875, "ĠChild": 5876, "Ġthá»ĭ": 5877, "ĲáĢ¼": 5878, "Ġ>>": 5879, "raz": 5880, "ĠFIG": 5881, "ĠÃĴ": 5882, "ĠControl": 5883, "ĠDepartment": 5884, "Ĺà¸±à¹īà¸ĩà¸": 5885, "Ġtá»ĳt": 5886, "Ġlonger": 5887, "Ġtáº¿": 5888, "Ġupon": 5889, "Ġ||": 5890, "Ġreceive": 5891, "ªà¸¥à¹ĩà¸Ńà¸ķ": 5892, "Ġà®¨à®Ł": 5893, "ĠãĢĭ": 5894, "à®¿à®ļ": 5895, "Ġattr": 5896, "****": 5897, "OP": 5898, "Ġatas": 5899, "Ġthiáº¿t": 5900, "ĠOh": 5901, "éª": 5902, "$(": 5903, "Ġbáº±ng": 5904, "ĠMark": 5905, "Ġalue": 5906, "à¹Īà¸²à¸¢à¸": 5907, "band": 5908, "ĠStar": 5909, "euk": 5910, "Ġ250": 5911, "ori": 5912, "Ġprefer": 5913, "ĠAndroid": 5914, "ĠPrevious": 5915, "à¹Ģà¸ª": 5916, "older": 5917, "à®©à¯įà®©": 5918, "Ġsett": 5919, "ĠtoÃłn": 5920, "Ġpurchase": 5921, "azon": 5922, "åºĹ": 5923, "Ġrat": 5924, "Ġrepair": 5925, "Ġhá»Ļi": 5926, "ĠIT": 5927, "Ġdin": 5928, "que": 5929, "Ġsendiri": 5930, "ĠVe": 5931, "Ġmendapat": 5932, "Ġngo": 5933, "Ġregular": 5934, "Ġï¿½ï¿½ï¿½ï¿½ï¿½ï¿½ï¿½": 5935, "ĠBas": 5936, "Ġ''": 5937, "Ġplus": 5938, "ĠâĢĿ.": 5939, "ĠShare": 5940, "à»ī": 5941, "ĠDate": 5942, "usi": 5943, "Ġanswer": 5944, "Ġbase": 5945, "Ġtháº¥y": 5946, "ago": 5947, "Ġsubst": 5948, "ĠMo": 5949, "è´¹": 5950, "ĠLine": 5951, "Ġmap": 5952, "æĲ": 5953, "Ġappl": 5954, "Ġà¹Ģà¸ĩà¸´à¸Ļà¸": 5955, "Ġtiáº¿p": 5956, "ĠPubl": 5957, "à®ªà¯įà®ªà®Łà¯įà®Ł": 5958, "ken": 5959, "ĠÄĳÆ°á»Ŀng": 5960, "Ġpictures": 5961, "áº¡c": 5962, "Ġremove": 5963, "ĠThen": 5964, "ĠUse": 5965, "Ġasked": 5966, "çİ©": 5967, "ĠÄĳá»ĳi": 5968, "Ġmenggunakan": 5969, "æķĻ": 5970, "NA": 5971, "ĠLear": 5972, "à®Łà¯ģà®¤à¯įà®¤": 5973, "ĠHal": 5974, "Ġabeuk": 5975, "aktu": 5976, "usan": 5977, "Ġdeep": 5978, "ĠMusic": 5979, "ĠCho": 5980, "Ġmail": 5981, "ĠçĻ": 5982, "ici": 5983, "à¯Īà®¯à®¿à®²à¯į": 5984, "ancy": 5985, "race": 5986, "Ġhiá»ĩu": 5987, "odes": 5988, "ĠÃĥ": 5989, "Ġà¸ķà¸": 5990, "Ĥà¹īà¸²": 5991, "áŀ¶áŁĨ": 5992, "Ġcannot": 5993, "èµ·": 5994, "Ġrecogn": 5995, "Ãµ": 5996, "Ġ2002": 5997, "Sh": 5998, "ĠDef": 5999, "åĬ¿": 6000, "Ġpractice": 6001, "Ġè¯": 6002, "Ġterms": 6003, "pk10": 6004, "Ġopportunity": 6005, "ĠOrgan": 6006, "à¸Ńà¸Ķ": 6007, "ĠtÃ¡c": 6008, "Ġplatform": 6009, "Ġtiá»ģn": 6010, "Ġcompon": 6011, "ĠProject": 6012, "Ġstudent": 6013, "amm": 6014, "Ġsafe": 6015, "ĠItal": 6016, "Ġnothing": 6017, "Īà¸±à¸Ķà¸": 6018, "idupan": 6019, "Ġpolicy": 6020, "ĠCOM": 6021, "Ġcáº§u": 6022, "å²": 6023, "é»": 6024, "Ġguide": 6025, "attle": 6026, "Ġà®¤à¯Ĭ": 6027, "Ġtá»ķ": 6028, "à¯Īà®¤à¯įà®¤": 6029, "ģà¸±à¸Ļà¸": 6030, "ĠMill": 6031, "antu": 6032, "ĠAllah": 6033, "Ġmultiple": 6034, "ĠLove": 6035, "anger": 6036, "Ġms": 6037, "ĠáĢķ": 6038, "ĠSales": 6039, "ĠNumber": 6040, "Ġå¯": 6041, "irit": 6042, "è¨": 6043, "Ġshown": 6044, "Ġéĩ": 6045, "ĠRedir": 6046, "ĠBig": 6047, "Ġste": 6048, "ĠÙ": 6049, "æľį": 6050, "Ġà®Ĵà®°à¯ģ": 6051, "rom": 6052, "ĠMult": 6053, "Ġseems": 6054, "aves": 6055, "áĢķáĢ«": 6056, "sych": 6057, "Ġadm": 6058, "áĢĦáĢ¹": 6059, "åĨħ": 6060, "ĠáģĬ": 6061, "«à¸±à¸": 6062, "ĠEqu": 6063, "add": 6064, "ĠFre": 6065, "Ġà®ķà¯Ĥ": 6066, "acement": 6067, "Ġproduk": 6068, "ĠMond": 6069, "åıĬ": 6070, "The": 6071, "asc": 6072, "Ġ:-": 6073, "ĠSol": 6074, "acks": 6075, "è§Ĩ": 6076, "ĠtÃ¬nh": 6077, "åı·": 6078, "ĠTag": 6079, "Ġserta": 6080, "Ġten": 6081, "Ġgas": 6082, "ĠAustralia": 6083, "Ìī": 6084, "Ġthroughout": 6085, "Ġpatients": 6086, "ĠVis": 6087, "ľà¸¹à¹ī": 6088, "cm": 6089, "à®¸": 6090, "åħĭ": 6091, "ĠtÃŃnh": 6092, "Ġpil": 6093, "Ġconcern": 6094, "Ġwish": 6095, "Ġactivities": 6096, "Ġheld": 6097, "ŀà¸Ļà¸±à¸Ļà¸": 6098, "Ġskin": 6099, "Ġloáº¡i": 6100, "ews": 6101, "Ġmaka": 6102, "ociety": 6103, "Ġfresh": 6104, "fast": 6105, "Ķà¸²à¸": 6106, "ĠMP": 6107, "ros": 6108, "Ġvá»ĭ": 6109, "ĠPresident": 6110, "ĠPriv": 6111, "ä¸ľ": 6112, "_id": 6113, "Ġadi": 6114, "ĠWal": 6115, "Ġplans": 6116, "uth": 6117, "Ã¥": 6118, "ĠRock": 6119, "Ġå¥": 6120, "Ġkata": 6121, "Ġsched": 6122, "ĠPerson": 6123, "ļà¸±à¸": 6124, "omin": 6125, "ette": 6126, "ategories": 6127, "ĠCalifornia": 6128, "æĴ": 6129, "ĠMount": 6130, "ura": 6131, "Ġ')": 6132, "à¸´à¸Ļ": 6133, "Ġquáº£": 6134, "ĠCall": 6135, "ĠBrit": 6136, "Ġsolution": 6137, "Ġ2C": 6138, "ĠMobile": 6139, "áģ¾áĢĢ": 6140, "ĠDavid": 6141, "oys": 6142, "æ»": 6143, "Ġtáº¡o": 6144, "ĠPhoto": 6145, "æĦı": 6146, "à¸£à¹Įà¸": 6147, "çĽ´": 6148, "ĠÃ¢": 6149, "ªà¸´à¸": 6150, "itely": 6151, "ops": 6152, "Ġáŀĸ": 6153, "ĠÄĳo": 6154, "Ġcause": 6155, "unia": 6156, "·à¹īà¸Ńà¸": 6157, "engk": 6158, "Ġsr": 6159, "aturday": 6160, "ira": 6161, "à¸Ļà¸Ħ": 6162, "Ġcheap": 6163, "Ġupdate": 6164, "ĠÃĸ": 6165, "Ġactive": 6166, "LS": 6167, "Ġeffective": 6168, "Ġrele": 6169, "Ġleave": 6170, "Ġmang": 6171, "yar": 6172, "áĢĶáĢº": 6173, "à¹ĥà¸Īà¸": 6174, "Ġpool": 6175, "áĢļáĢ¹áĢ": 6176, "á»Ńa": 6177, "Ġvehicle": 6178, "ĠGover": 6179, "ĠWatch": 6180, "attery": 6181, "Īà¸£à¸´à¸ĩ": 6182, "bit": 6183, "Ġbehind": 6184, "Ġwed": 6185, "uyá»ĥn": 6186, "à®¿à®®": 6187, "istics": 6188, "ĠIndian": 6189, "Ġsaw": 6190, "Ġhá»ĩ": 6191, "à¸Ńà¸Ķà¸": 6192, "57": 6193, "ault": 6194, "Ġsurface": 6195, "Ġsyn": 6196, "æĹ¶æĹ¶å½©": 6197, "ªà¹Īà¸§": 6198, "Ġbáº£n": 6199, "Ġnay": 6200, "Ġ':": 6201, "43": 6202, "ĠGame": 6203, "à¹ģà¸ģ": 6204, "ĠÃĤ": 6205, "ĠFun": 6206, "æ¯Ķ": 6207, "ĠRuss": 6208, "Ġ\":[": 6209, "ĠFeature": 6210, "ĠON": 6211, "à¹ĥà¸Ĭà¹ī": 6212, "§à¸´à¸ĺ": 6213, "Ġà®ħà®°": 6214, "Ġmi": 6215, "Ġsalah": 6216, "46": 6217, "ĠFamily": 6218, "Ġcontainer": 6219, "Ġenter": 6220, "ç³»": 6221, "hood": 6222, "42": 6223, "Ġswitch": 6224, "áŀļ": 6225, "Ķà¹īà¸§à¸¢à¸": 6226, "¡à¸Ļà¸": 6227, "Ġcross": 6228, "erap": 6229, "Ġvac": 6230, "Ġć": 6231, "ĠGlobal": 6232, "ĠBag": 6233, "udd": 6234, "orial": 6235, "Ġà¸§": 6236, "iance": 6237, "à®Ļà¯įà®ķà®³à¯į": 6238, "Ġmotor": 6239, "Ø§": 6240, "Ġï¼Ł": 6241, "Ġï¿½ï¿½ï¿½ï¿½": 6242, "ĠTechnology": 6243, "CE": 6244, "jak": 6245, "Ġcategory": 6246, "çĿĢ": 6247, "Ġcharg": 6248, "Ġmovie": 6249, "ĠÃŃ": 6250, "Ġfriendly": 6251, "Ġprem": 6252, "à¹ģà¸¥à¸°": 6253, "ÆĴ": 6254, "à®±à¯įà®ķ": 6255, "ĠTax": 6256, "áĢķáĢ¹áĢ": 6257, "ĠTex": 6258, "ĠPress": 6259, "ocol": 6260, "Ġmaterials": 6261, "Ġwritten": 6262, "ipped": 6263, "Ġà®®à¯ģà®": 6264, "Phone": 6265, "la": 6266, "Ġ79": 6267, "ĠÃ´ng": 6268, "Ġpush": 6269, "Ġà¹Ģà¸Ħà¸£à¸Ķà¸´à¸ķ": 6270, "Ġrout": 6271, "aysia": 6272, "Ġsubs": 6273, "à¹Īà¸²à¸ĩ": 6274, "Ġmes": 6275, "Ġver": 6276, "ĠGar": 6277, "Ļà¯įà®ķ": 6278, "Ġplayer": 6279, "Ġtur": 6280, "à¯Īà®µ": 6281, "áĢ³": 6282, "esis": 6283, "ĠâĨĴ": 6284, "Ġsmart": 6285, "annel": 6286, "ŀà¸´": 6287, "Ġhai": 6288, "éĻ¢": 6289, "Ġremember": 6290, "ugs": 6291, "Ġkom": 6292, "Ġsuff": 6293, "ĠgiÃºp": 6294, "Ġmelakukan": 6295, "ĠGM": 6296, "ĠBath": 6297, "áĢļáĢ¹": 6298, "ĠáĢĽ": 6299, "Ġexcept": 6300, "Ġglass": 6301, "ajar": 6302, "Ġtransform": 6303, "gen": 6304, "TR": 6305, "Ġbathroom": 6306, "Þ¦": 6307, "æĢİä¹Ī": 6308, "Ġà¹Ħà¸¡à¹Īà¸": 6309, "Ġà¸Ĺà¸µà¹Ī": 6310, "Ġinner": 6311, "ĠToday": 6312, "à¸£à¸£à¸¡à¸": 6313, "Ġhelpful": 6314, "çī©": 6315, "ĠLtd": 6316, "Ġmoment": 6317, "ŀà¸´à¸": 6318, "Ġstar": 6319, "ĠMS": 6320, "Ġren": 6321, "perature": 6322, "Ġnational": 6323, "ç±": 6324, "Ġagre": 6325, "erve": 6326, "Ġrev": 6327, "ĠMedia": 6328, "à³": 6329, "Ġclients": 6330, "Ġprojects": 6331, "Ġinternational": 6332, "à¹Ģà¸Ļà¸": 6333, "ĠHP": 6334, "irus": 6335, "Ã®": 6336, "Ġvariety": 6337, "ĠIB_": 6338, "Ġextrem": 6339, "ideos": 6340, "ĠEnter": 6341, "Ġï¼ģ": 6342, "change": 6343, "awan": 6344, "Ġgun": 6345, "ĠMicrosoft": 6346, "Ġtrip": 6347, "Ġked": 6348, "orks": 6349, "Ġ});": 6350, "Ġproviding": 6351, "à¹Ģà¸ķ": 6352, "41": 6353, "Ġconditions": 6354, "Ġhom": 6355, "ĠWin": 6356, "baru": 6357, "itect": 6358, "oe": 6359, "Ġstatus": 6360, "itial": 6361, "ç»ĵ": 6362, "Ġtools": 6363, "akat": 6364, "_d": 6365, "umin": 6366, "ĠEducation": 6367, "apers": 6368, "Ġterj": 6369, "AND": 6370, "Ġsummer": 6371, "Ã¬m": 6372, "Ġkec": 6373, "TA": 6374, "ĠIsland": 6375, "hingga": 6376, "Ġrequirements": 6377, "empt": 6378, "Ġà¹ģà¸Īà¸": 6379, "ªà¹Į": 6380, "ĠPosts": 6381, "ĠFri": 6382, "Ġ2001": 6383, "Ġcareer": 6384, "ĠItem": 6385, "Æ°u": 6386, "Ġà¹Ģà¸ĩà¸´à¸Ļà¸Łà¸£à¸µ": 6387, "éĺ³": 6388, "itute": 6389, "èį": 6390, "éĩı": 6391, "Ġleading": 6392, "Ġ(){": 6393, "ĠPhotos": 6394, "Ġdouble": 6395, "amsung": 6396, "æ±Ł": 6397, "åİ»": 6398, "«à¹ĩ": 6399, "emplates": 6400, "à¹Ĭà¸": 6401, "Ġtal": 6402, "ĠDirect": 6403, "Ġpháº§n": 6404, "å¤ĩ": 6405, "Ġè®": 6406, "ĠSC": 6407, "ĠStand": 6408, "ava": 6409, "Ġlabel": 6410, "à¯įà®£": 6411, "Ġtips": 6412, "Ġlanguage": 6413, "Ĥà¸¶à¹īà¸Ļ": 6414, "Ġclient": 6415, "Ġplayers": 6416, "ederal": 6417, "Ġlate": 6418, "0000": 6419, "more": 6420, "Ġdaily": 6421, "Ġ97": 6422, "âĢĭâĢĭâĢĭâĢĭ": 6423, "Ġcorrect": 6424, "Ġmorning": 6425, "ĠFire": 6426, "ĠAdv": 6427, "Ĭà¸¸à¸": 6428, "ĠAD": 6429, "ĠSaturday": 6430, "ĠLou": 6431, "Ġimplement": 6432, "ĠÄĥn": 6433, "Ġdry": 6434, "ald": 6435, "Ġrecently": 6436, "Ġdá»ĭch": 6437, "Ġpattern": 6438, "Ġà¸ŀà¸Ļà¸": 6439, "à¥": 6440, "ąć": 6441, "«à¸¥à¸²à¸": 6442, "ĠÄĳáº¹p": 6443, "Ġresources": 6444, "àºĩ": 6445, "ca": 6446, "oper": 6447, "ĠBet": 6448, "Ġhref": 6449, "ĠCÃ´ng": 6450, "ĠbÃ¡n": 6451, "Ġhá»ĵ": 6452, "osed": 6453, "Ġ!!!": 6454, "bu": 6455, "Ġtay": 6456, "çĽ®": 6457, "ĠSunday": 6458, "Ġearn": 6459, "anti": 6460, "ĠTravel": 6461, "Ġhous": 6462, "ĠGal": 6463, "Ġmm": 6464, "«à¸£à¸·à¸Ńà¸": 6465, "Ġ1000": 6466, "Ħà¸²à¸£": 6467, "asons": 6468, "»áĢķ": 6469, "à¸£à¹Į": 6470, "çĥ": 6471, "Ġpressure": 6472, "å¸Ī": 6473, "Ġimm": 6474, "Ġaffect": 6475, "æīĢ": 6476, "Ġtub": 6477, "ģà¸³à¸": 6478, "Ġdecision": 6479, "Ġability": 6480, "Ġones": 6481, "ĠClub": 6482, "Ġbuat": 6483, "ĠSeries": 6484, "ĠCentral": 6485, "ĠthÃ¡ng": 6486, "itte": 6487, "Ġdegree": 6488, "ĠCamp": 6489, "é¤": 6490, "ĠÄĳiá»ĩn": 6491, "Ġtho": 6492, "ĠMad": 6493, "Ġmention": 6494, "à®¾à®£": 6495, "ireless": 6496, "Ġregister": 6497, "ĠDistr": 6498, "ĠBoard": 6499, "åĽ¢": 6500, "aign": 6501, "à¯Ĩà®°": 6502, "igr": 6503, "Ġlaunch": 6504, "Ġformat": 6505, "umbers": 6506, "Ġcosts": 6507, "Ġtransfer": 6508, "ĠIslam": 6509, "PR": 6510, "osing": 6511, "GB": 6512, "æĸ¯": 6513, "atives": 6514, "Ġpiece": 6515, "Ġáŀĩ": 6516, "à¯įà®¤à¯įà®¤": 6517, "ĠRich": 6518, "ĠWilli": 6519, "ĠHard": 6520, "¢à¹Į": 6521, "Ġperlu": 6522, "Ġmicro": 6523, "Ġ].": 6524, "Ġ89": 6525, "ky": 6526, "Ġquickly": 6527, "á»Ļng": 6528, "Ħà¸Ļà¸": 6529, "Ġlic": 6530, "Ġaf": 6531, "áŀī": 6532, "ĠKel": 6533, "Ġhoáº·c": 6534, "ilm": 6535, "Ġhighly": 6536, "ĠApple": 6537, "Ġshall": 6538, "ĠStart": 6539, "Ġcer": 6540, "ĠArchive": 6541, "Ġhor": 6542, "ĠUN": 6543, "Ġà¸¢": 6544, "é¢ĺ": 6545, "ĠFlo": 6546, "oga": 6547, "ĠEp": 6548, "è§£": 6549, "Ġchá»©c": 6550, "«à¸Ļà¹īà¸²": 6551, "Ġsuit": 6552, "ĠAR": 6553, "Ġsupply": 6554, "łà¸±à¸": 6555, "Ġdeath": 6556, "Ġanim": 6557, "Ġà¸¢à¸": 6558, "ĠKitchen": 6559, "Ġintrodu": 6560, "Ĭà¸µà¸": 6561, "iber": 6562, "Ġqual": 6563, "æĹĹ": 6564, "alink": 6565, "place": 6566, "uration": 6567, "Ġfrequ": 6568, "Ġmeeting": 6569, "åŀ": 6570, "áº©n": 6571, "Ġsafety": 6572, "ĠWr": 6573, "Ġtapi": 6574, "ĠSD": 6575, "á»Łi": 6576, "Ġèµ": 6577, "Ġmat": 6578, "Ġcelebr": 6579, "à¹Ĥà¸¥à¸": 6580, "ropri": 6581, "å·¥ä½ľ": 6582, "áĢĳ": 6583, "Þ¦Þ": 6584, "arant": 6585, "ĠIdeas": 6586, "ĠéĢ": 6587, "à»Ģ": 6588, "Ĺà¸£à¸": 6589, "Ã±": 6590, "Ġfavorite": 6591, "mp": 6592, "Ġkhu": 6593, "à¹ģà¸Ļà¸": 6594, "ĠProv": 6595, "isme": 6596, "Ġ3D": 6597, "uang": 6598, "ĠMonday": 6599, "Ġproper": 6600, "à¹Ĥà¸£à¸ĩà¹ģà¸£à¸": 6601, "ĠNor": 6602, "De": 6603, "ĠCorporation": 6604, "ç¼": 6605, "ĠOrig": 6606, "Ġdise": 6607, "estern": 6608, "çĻ¾å®¶": 6609, "Ġæľī": 6610, "ĠphÃ¡p": 6611, "Ġfurniture": 6612, "Ġey": 6613, "ĠTwo": 6614, "Ġimprove": 6615, "ĠthÆ°á»Ŀng": 6616, "ĠBuild": 6617, "anta": 6618, "ĠSand": 6619, "Ġkamu": 6620, "æ·": 6621, "Ġrelease": 6622, "åįģ": 6623, "Ġletter": 6624, "log": 6625, "Ġfab": 6626, "àº°": 6627, "atin": 6628, "ĠKn": 6629, "auty": 6630, "Ġà¸Ī": 6631, "Ġpublished": 6632, "Ġkehidupan": 6633, "Ġdating": 6634, "inding": 6635, "Ġblue": 6636, "Ġå·": 6637, "Â¹": 6638, "ecutive": 6639, "awah": 6640, "Ġnecessary": 6641, "esome": 6642, "ĠdÃ¹ng": 6643, "ĠEven": 6644, "ĠScience": 6645, "ĠImage": 6646, "Ġinj": 6647, "ĠSaf": 6648, "Ġdistribut": 6649, "§à¸¥": 6650, "ray": 6651, "ĠåĨ": 6652, "ç¦": 6653, "Ġjadi": 6654, "Ġfund": 6655, "Âµ": 6656, "Ġà®ªà®Ł": 6657, "Ġelement": 6658, "ĠPem": 6659, "æµģ": 6660, "Ġtá»Ľi": 6661, "ynam": 6662, "Ġba": 6663, "atkan": 6664, "men": 6665, "Â¨": 6666, "Ġtag": 6667, "Ġobs": 6668, "Ġkáº¿": 6669, "ĠBox": 6670, "ĠPaul": 6671, "Ġwrap": 6672, "ĠÄĳáº¡i": 6673, "Ġlevels": 6674, "Ġdevices": 6675, "æķ°": 6676, "Tr": 6677, "eli": 6678, "dom": 6679, "Ġconduct": 6680, "Ġstars": 6681, "Ġallows": 6682, "Ġmal": 6683, "53": 6684, "Ġ800": 6685, "áŀĤ": 6686, "Ġmemory": 6687, "Cont": 6688, "Ġregion": 6689, "mark": 6690, "áĢĬáĢº": 6691, "ĠCond": 6692, "Ġje": 6693, "à¸Ńà¸ģà¸": 6694, "Ġà¹ĥà¸Ļà¸": 6695, "ĠModel": 6696, "ĠâĪ": 6697, "fl": 6698, "ĠHelp": 6699, "inta": 6700, "Ġcash": 6701, "ĠPrem": 6702, "Ġtrang": 6703, "ĠAuthor": 6704, "åĲĹ": 6705, "ĠTest": 6706, "Ġgiáº£i": 6707, "ĠÃł": 6708, "ĠStat": 6709, "ĠPH": 6710, "UD": 6711, "ĠFL": 6712, "Ġpull": 6713, "ĠMain": 6714, "Ġsebelum": 6715, "ĠFR": 6716, "bed": 6717, "ĠMeng": 6718, "Ġgiá»Ľi": 6719, "Ġà¸¡": 6720, "Ġinstead": 6721, "Ġ.[": 6722, "Ġbá»ĩnh": 6723, "ulis": 6724, "ĠMat": 6725, "ieved": 6726, "àº±": 6727, "ouncil": 6728, "IK": 6729, "Ġrooms": 6730, "Ġsignal": 6731, "Ġson": 6732, "ĠQuá»ĳc": 6733, "raf": 6734, "Ġchance": 6735, "Ġslow": 6736, "Ġled": 6737, "ĭĹä¸ĩ": 6738, "ĠUt": 6739, "áº§m": 6740, "Ġlá»Ľn": 6741, "çĽ¸": 6742, "ĠAT": 6743, "à¯įà®¯": 6744, "ĠOld": 6745, "Æ°ng": 6746, "Ġbur": 6747, "ĠGen": 6748, "Ġcases": 6749, "CC": 6750, "ĠnhiÃªn": 6751, "èµĮ": 6752, "Ġkali": 6753, "Ġden": 6754, "ĠJames": 6755, "ĠDE": 6756, "ato": 6757, "dd": 6758, "Ġkan": 6759, "Ġbang": 6760, "Ġtrá»ĭ": 6761, "á»įng": 6762, "à¸Ńà¸¢à¹Īà¸²à¸ĩà¸": 6763, "ĠSupport": 6764, "ĠContact": 6765, "ĠMart": 6766, "urer": 6767, "Ġplaying": 6768, "Ã¡m": 6769, "aming": 6770, "ae": 6771, "ĠÂº": 6772, "æĢ»": 6773, "Ġlost": 6774, "96": 6775, "Ġ\");": 6776, "Ġ600": 6777, "áº³": 6778, "å¸ĥ": 6779, "OK": 6780, "Ġserver": 6781, "Ġä¸Ĭ": 6782, "Ġwaktu": 6783, "ĠStock": 6784, "ç§ĳ": 6785, "ĠTerm": 6786, "Ġà¸¥à¸": 6787, "eles": 6788, "inder": 6789, "Ġapplications": 6790, "Ħà¸£à¸Ķà¸´à¸ķà¸": 6791, "Ġselected": 6792, "à¸Ńà¸¢à¹Īà¸²à¸ĩ": 6793, "è®°": 6794, "Ġmid": 6795, "Ġå½©": 6796, "ĠWashington": 6797, "ĠLake": 6798, "Ðº": 6799, "¹à¸ģ": 6800, "Ġmemp": 6801, "Ġpant": 6802, "à¹Īà¸²à¸¢": 6803, "Ġ$(\"": 6804, "Ġ']": 6805, "ĠAud": 6806, "ªà¸Ļ": 6807, "ĠLim": 6808, "Ġdiscover": 6809, "off": 6810, "ĠBen": 6811, "ĠLike": 6812, "Ġberm": 6813, "Ġ88": 6814, "Ĺà¸µà¹Īà¸ªà¸¸à¸Ķ": 6815, "unan": 6816, "Ġexpert": 6817, "çĸ": 6818, "Ħà¸´à¸": 6819, "akarta": 6820, "T00": 6821, "ĠHall": 6822, "osit": 6823, "Ġstarting": 6824, "ĠKer": 6825, "iced": 6826, "overs": 6827, "Ġconsum": 6828, "ĠåŃ": 6829, "Ġchá»įn": 6830, "á»įc": 6831, "lation": 6832, "ģà¹ĩ": 6833, "Ġlif": 6834, "ĠProfess": 6835, "Ġadip": 6836, "áŀ¢": 6837, "erved": 6838, "Ġdirectly": 6839, "Ġsold": 6840, "Ġtrust": 6841, "ĠVer": 6842, "ĠÃį": 6843, "ĠAv": 6844, "Ģâ": 6845, "ĠLand": 6846, "ĠTexas": 6847, "Ġthá»©c": 6848, "à®¤à¯į": 6849, "ĠOR": 6850, "Ġbenefits": 6851, "Ġdefinitely": 6852, "ĠMany": 6853, "ĠHÃł": 6854, "Ġtick": 6855, "lay": 6856, "éĢī": 6857, "Ġmethods": 6858, "àºĶ": 6859, "ÂµÃĦ": 6860, "Ġæ¶": 6861, "Ġcandid": 6862, "èĥ": 6863, "Ġessential": 6864, "Ġadjust": 6865, "ĠBand": 6866, "che": 6867, "Ġcourt": 6868, "áĢ®áĢ¸": 6869, "onda": 6870, "æĭĽ": 6871, "Ġshoes": 6872, "Ġpin": 6873, "ibly": 6874, "Ġà¹": 6875, "Ġgoal": 6876, "Ġtransm": 6877, "ĠÃĪ": 6878, "onus": 6879, "Ġcáº£m": 6880, "ĠiPhone": 6881, "á»Ľ": 6882, "Ġ66": 6883, "ĠDevelopment": 6884, "Ġwonderful": 6885, "06": 6886, "ĠLow": 6887, "_m": 6888, "Ġworked": 6889, "ĠHy": 6890, "Ġsampai": 6891, "enty": 6892, "Ġmua": 6893, "Ġimmedi": 6894, "Ġgives": 6895, "ĠSmall": 6896, "ĀĀĀĀĀĀĀĀĀĀĀĀĀĀĀĀĀĀĀĀĀĀĀĀĀĀĀĀĀĀĀĀ": 6897, "Ġshipping": 6898, "Ġny": 6899, "º«": 6900, "Ġå¸": 6901, "perties": 6902, "ĠÃ¡n": 6903, "Ġà¹Ħà¸": 6904, "ERS": 6905, "down": 6906, "ĠTur": 6907, "ä»Ģ": 6908, "Ġfine": 6909, "Ġtempat": 6910, "Ġ%;": 6911, "hold": 6912, "Ġà®İà®©à¯įà®±à¯ģ": 6913, "ĠAN": 6914, "Ġæ²": 6915, "????": 6916, "Ġannoun": 6917, "æ¨": 6918, "Ġcomfortable": 6919, "ĠPop": 6920, "Ġà¸Ľà¸£à¸°à¸": 6921, "Ġà®ļà¯Ĭ": 6922, "ĠDomain": 6923, "à¸Ļà¸±à¹īà¸Ļ": 6924, "åĽŀ": 6925, "ĠyÃªu": 6926, "Ġcountries": 6927, "Ġbaby": 6928, "Ġassociated": 6929, "ĠcÃ¡i": 6930, "Ġà®Ł": 6931, "ĠTrung": 6932, "èª": 6933, "Ð»": 6934, "ĠPlus": 6935, "ĠDV": 6936, "à®¾à®±": 6937, "Ġtemperature": 6938, "Ġdress": 6939, "ç«¯": 6940, "98": 6941, "ĠApplic": 6942, "Ġcá»©": 6943, "ĠCert": 6944, "æ¼": 6945, "å¼Ģå¥ĸ": 6946, "ATION": 6947, "Īà¸°à¹Ģà¸": 6948, "Ġáº£nh": 6949, "Ġdelivery": 6950, "åĸ": 6951, "Ġ62": 6952, "ĠManager": 6953, "Ġpayment": 6954, "è¢«": 6955, "org": 6956, "ĠPS": 6957, "Ġingin": 6958, "Âª": 6959, "à¹Ģà¸Ĺ": 6960, "Ġpaint": 6961, "ĠSecurity": 6962, "Ġlegal": 6963, "Ġregul": 6964, "Ġgamb": 6965, "house": 6966, "CT": 6967, "AV": 6968, "ursday": 6969, "akers": 6970, "łà¸²à¸ŀ": 6971, "à¯Īà®ªà¯įà®ª": 6972, "áĤķ": 6973, "ĠSports": 6974, "Ġsort": 6975, "Ġseek": 6976, "Ġfair": 6977, "Ġhidup": 6978, "Ġgoes": 6979, "§à¸Ļ": 6980, "ĠSocial": 6981, "ĠtáºŃp": 6982, "ien": 6983, "å±Ģ": 6984, "Ġkelu": 6985, "à¯Īà®¯à¯ģà®®à¯į": 6986, "á»¹": 6987, "ÃĮ": 6988, "æĹ©": 6989, "Ġradi": 6990, "Ġacqu": 6991, "·à¹īà¸Ń": 6992, "ycle": 6993, "Ġà®ķà®Ł": 6994, "Ġxem": 6995, "uesday": 6996, "ĠçĭĹä¸ĩ": 6997, "ªà¸±à¸": 6998, "iá»ĩm": 6999, "Ġsleep": 7000, "rest": 7001, "Ġdoanh": 7002, "abase": 7003, "æĪ¿": 7004, "ªà¸´à¸Ļà¸Ħ": 7005, "sung": 7006, "ĠçĽ": 7007, "Ġberh": 7008, "itary": 7009, "à¸£à¸°à¸ļà¸": 7010, "ls": 7011, "æ°Ķ": 7012, "ĠOper": 7013, "endar": 7014, "Ġult": 7015, "Ġneigh": 7016, "Ġsense": 7017, "nesday": 7018, "Ġ72": 7019, "ĠMichael": 7020, "ĠFlorida": 7021, "ĠGallery": 7022, "å§Ķ": 7023, "}}": 7024, "æ¹": 7025, "ķà¹Īà¸Ńà¸": 7026, "PT": 7027, "äºĽ": 7028, "èİ": 7029, "Ġmis": 7030, "ĠMedical": 7031, "Ġsebuah": 7032, "BA": 7033, "à»Ģàº": 7034, "inese": 7035, "æİ¥": 7036, "ĠDigital": 7037, "çĦ¶": 7038, "enis": 7039, "ersey": 7040, "PM": 7041, "Ġ030": 7042, "Ġselection": 7043, "Ġ^": 7044, "ĠWeek": 7045, "Ġbeach": 7046, "ommod": 7047, "prise": 7048, "ĠCourt": 7049, "Ġrates": 7050, "ä»»": 7051, "à¸£à¸µà¸§à¸´à¸": 7052, "Ġà¸Īà¸²à¸ģ": 7053, "Ġáŀļáŀ": 7054, "wan": 7055, "oration": 7056, "Ġconstruction": 7057, "Ġpositive": 7058, "áĢĻáĢº": 7059, "Ġhy": 7060, "ĠáĢħ": 7061, "eless": 7062, "Ġà¸ľà¸": 7063, "Ġà®ĩà®¤": 7064, "ustrial": 7065, "OG": 7066, "Ġ:)": 7067, "aser": 7068, "vement": 7069, "raight": 7070, "nah": 7071, "ounds": 7072, "Ġwrong": 7073, "Ġthá»§": 7074, "ĠquÃ¡": 7075, "unk": 7076, "èī²": 7077, "arah": 7078, "Ġlinks": 7079, "Ġtrade": 7080, "Ġrights": 7081, "oming": 7082, "Ġbeg": 7083, "Ġparents": 7084, "Ġsolutions": 7085, "ĠãĢĬ": 7086, "edic": 7087, "ĠÃ·": 7088, "Ġdark": 7089, "Ġsehingga": 7090, "Ġexpected": 7091, "à¹ģà¸Ļ": 7092, "Ġwarm": 7093, "Ġitself": 7094, "Ġcomplex": 7095, "Ġinteresting": 7096, "elas": 7097, "idden": 7098, "Ġ00Z": 7099, "Ġformer": 7100, "çľŁäºº": 7101, "Ġgraph": 7102, "Ex": 7103, "Ġnature": 7104, "Ġinterested": 7105, "ĠåĬ": 7106, "Ġthinking": 7107, "ĠKal": 7108, "Ġavo": 7109, "Ġlives": 7110, "Â²": 7111, "Ġlimited": 7112, "ĠDev": 7113, "ĠÃĭ": 7114, "Ġ;-": 7115, "eme": 7116, "ĠGrand": 7117, "aste": 7118, "Ġeffects": 7119, "ĠMA": 7120, "ä¹¦": 7121, "ŀà¸£": 7122, "Ġmana": 7123, "ĠCode": 7124, "à¹ĥà¸«à¸¡à¹Ī": 7125, "ĠProt": 7126, "lor": 7127, "Ġchi": 7128, "Ġsistem": 7129, "Ġpros": 7130, "rupt": 7131, "ĠváºŃy": 7132, "Ġhands": 7133, "ulan": 7134, "Ġchu": 7135, "Ġà¹Ģà¸ģà¸¡à¸": 7136, "Ġà®ħà®®": 7137, "áĢ½áĢ¬": 7138, "Ġdir": 7139, "Ġutil": 7140, "Ġmungkin": 7141, "alui": 7142, "¡à¸²à¸ģ": 7143, "Ġprocessing": 7144, "EE": 7145, "ocr": 7146, "ĠBal": 7147, "lic": 7148, "ĠÃİ": 7149, "imately": 7150, "utan": 7151, "Ġsetiap": 7152, "ĠVia": 7153, "áŁī": 7154, "BO": 7155, "pas": 7156, "ĠMalaysia": 7157, "áŀ¶áŀĶ": 7158, "Ġadvant": 7159, "Ġav": 7160, "Ġsoft": 7161, "Ġder": 7162, "à¸Ńà¸²à¸«": 7163, "Ġjud": 7164, "Ħà¸Ļ": 7165, "rical": 7166, "ç¤º": 7167, "93": 7168, "Ġváº«n": 7169, "Ġtetapi": 7170, "Ġprimary": 7171, "Ġhuge": 7172, "ano": 7173, "agon": 7174, "à®¿à®±à®¤à¯ģ": 7175, "ĠLink": 7176, "à¸²à¸ªà¸´à¹Ĥà¸Ļ": 7177, "ĠPA": 7178, "ĠClean": 7179, "Ġä»ĸ": 7180, "Ġà¸§à¸±à¸Ļ": 7181, "Ġà¸Ĭ": 7182, "Ġfully": 7183, "reci": 7184, "ĠcÃ´": 7185, "engah": 7186, "ĠTwitter": 7187, "Ġstrength": 7188, "Ġdirection": 7189, "Ġáŀħ": 7190, "ternal": 7191, "ĠtÃłi": 7192, "Ġgroups": 7193, "ĠMax": 7194, "Ġcuration": 7195, "Ġlayer": 7196, "enance": 7197, "orary": 7198, "aptop": 7199, "Ġfarm": 7200, "æ´»": 7201, "á»Ŀ": 7202, "Ġsomet": 7203, "TH": 7204, "Ġcarry": 7205, "lines": 7206, "Ġmasa": 7207, "Ġmedic": 7208, "ç¤¾": 7209, "Ġsao": 7210, "ĠÂµÃ": 7211, "Ġbirth": 7212, "Ġæ±": 7213, "rd": 7214, "ĠIni": 7215, "Ġdead": 7216, "é¤Ĳ": 7217, "Ã³c": 7218, "akin": 7219, "Ġelectric": 7220, "å¦Ĥ": 7221, "Ġdiri": 7222, "Ġadvert": 7223, "Ġcharge": 7224, "Ĺà¸²à¸ĩ": 7225, "Ġnote": 7226, "ologies": 7227, "Ġshopping": 7228, "Ġsteel": 7229, "Ġsesu": 7230, "à®®à®¾à®ķ": 7231, "Ġrent": 7232, "ĠEnd": 7233, "ĸà¸¶à¸ĩà¸": 7234, "ĠQual": 7235, "abi": 7236, "ä¼ģ": 7237, "Ġmagn": 7238, "Ġlibrary": 7239, "ĠThursday": 7240, "ĠPeople": 7241, "Ġà®ªà®¿à®°": 7242, "Ġsat": 7243, "Ġreply": 7244, "Ġprec": 7245, "Ġ98": 7246, "§à¸Ļà¸": 7247, "à¹Īà¸¡": 7248, "ĠBrown": 7249, "ario": 7250, "Ġconsist": 7251, "ĠMaster": 7252, "onom": 7253, "áŀ¶áŀļ": 7254, "Ġnov": 7255, "opt": 7256, "Ġcommercial": 7257, "ĠNon": 7258, "Ġbroad": 7259, "52": 7260, "Ġmuá»ĳn": 7261, "Ġthanks": 7262, "otal": 7263, "Ġrock": 7264, "Ġliter": 7265, "Ġgets": 7266, "ĠãĢĳãĢĲãĢĤ": 7267, "ä¸ŃåĽ½": 7268, "Ġà®µà®¾à®": 7269, "Ġwedding": 7270, "ĠHi": 7271, "Ġstuff": 7272, "æĤ": 7273, "Ġspl": 7274, "Ġcat": 7275, "ĠAmazon": 7276, "uyá»ģn": 7277, "SH": 7278, "iran": 7279, "rote": 7280, "å°ĳ": 7281, "asuk": 7282, "ibute": 7283, "æł¼": 7284, "Ġdua": 7285, "Ġmah": 7286, "à¸Ļà¹Įà¸": 7287, "ukup": 7288, "Price": 7289, "Ġactivity": 7290, "äºī": 7291, "ĠliÃªn": 7292, "jo": 7293, "Īà¹īà¸²à¸": 7294, "nam": 7295, "Ġresist": 7296, "ĠPaper": 7297, "ĠbÃłi": 7298, "ç¬¬": 7299, "ĠEmail": 7300, "ĠDI": 7301, "oyal": 7302, "ĠFOR": 7303, "ĠAutom": 7304, "atakan": 7305, "èģĶ": 7306, "åİħ": 7307, "à¸Ńà¸¢à¸¹à¹Ī": 7308, "ĠNC": 7309, "OU": 7310, "Ñĥ": 7311, "Ġà¸¡à¸µà¸": 7312, "Ġcart": 7313, "Ġcamera": 7314, "EST": 7315, "Ġmyself": 7316, "ools": 7317, "Ġcommunication": 7318, "ĠWednesday": 7319, "Ġtransport": 7320, "uma": 7321, "Ġsá»ĳng": 7322, "ģà¸§à¹Īà¸²": 7323, "Ġseorang": 7324, "ache": 7325, "edi": 7326, "Ġfinish": 7327, "Ġconvers": 7328, "Ġà¸ģà¸²à¸£": 7329, "eri": 7330, "Ġ68": 7331, "æ¥": 7332, "Ġrot": 7333, "Ġserious": 7334, "Ġhelps": 7335, "ĠTuesday": 7336, "å·²": 7337, "ĠKet": 7338, "ĠAvailable": 7339, "ä½ł": 7340, "ĠHave": 7341, "SS": 7342, "ĠSilver": 7343, "Ġmoving": 7344, "Ġterl": 7345, "Ġhomes": 7346, "Ġcoach": 7347, "à¹Ģà¸¥à¹Īà¸Ļà¸": 7348, "æİ¨": 7349, "Ġkas": 7350, "Ġaspect": 7351, "æĹł": 7352, "à®ªà¯į": 7353, "ta": 7354, "ĠMiss": 7355, "Ġcompletely": 7356, "èĻ": 7357, "Ġtab": 7358, "«a": 7359, "ĠYang": 7360, "ķà¸±à¸§à¸": 7361, "æĪĺ": 7362, "ĠWorks": 7363, "eta": 7364, "Ġattention": 7365, "Ġmechan": 7366, "ĠFound": 7367, "çº§": 7368, "¡à¸·à¸Ńà¸": 7369, "Ġà¹Ģà¸§à¹ĩà¸ļ": 7370, "Ġblood": 7371, "Ġfirm": 7372, "ĠDa": 7373, "áŀģ": 7374, "Ġpi": 7375, "Ġchem": 7376, "ipes": 7377, "Ġà®ľ": 7378, "Ġ110": 7379, "ĠtÄĥng": 7380, "Ġ63": 7381, "ĠMes": 7382, "ĠCover": 7383, "»¿": 7384, "Ġà®ªà¯Ĭ": 7385, "Ġsrc": 7386, "Þ°": 7387, "Ġberl": 7388, "Ġjoin": 7389, "Ġspot": 7390, "Ġgiá»¯": 7391, "ĠProducts": 7392, "92": 7393, "Ġinvolved": 7394, "ĠAuto": 7395, "Ġclub": 7396, "Ġpromot": 7397, "áºŃu": 7398, "mar": 7399, "áŀĺáŁĴáŀ": 7400, "Ġtriá»ĥn": 7401, "ĠMil": 7402, "Ġä½Ĩ": 7403, "âĢĻ": 7404, "Ġappe": 7405, "ķáĢ«": 7406, "áŀ¹": 7407, "Ġ,#": 7408, "à¹Ģà¸Ľà¹ĩà¸Ļ": 7409, "ittee": 7410, "Ġtransition": 7411, "Ġquarter": 7412, "Ġà¹ģà¸ķà¹Īà¸": 7413, "Ġ],": 7414, "ĠSystems": 7415, "aimana": 7416, "Ġinitial": 7417, "ĠÄĳá»ķ": 7418, "resp": 7419, "ni": 7420, "Ġord": 7421, "),": 7422, "æł·": 7423, "Ġheat": 7424, "á»Ŀi": 7425, "appä¸ĭè½½": 7426, "urang": 7427, "ĠNetwork": 7428, "ipts": 7429, "¥à¸°à¹Ģà¸": 7430, "Ã©t": 7431, "éĹ®": 7432, "Ġplanning": 7433, "Ġroll": 7434, "othing": 7435, "rant": 7436, "áº¡m": 7437, "Ã«": 7438, "Ġcry": 7439, "ĠExper": 7440, "ĠSince": 7441, "ĠEuropean": 7442, "åĮĹ": 7443, "uts": 7444, "iner": 7445, "asis": 7446, "à¹ģà¸ļà¸ļ": 7447, "amil": 7448, "Ġsav": 7449, "ulit": 7450, "Ġalb": 7451, "Ġtele": 7452, "Ġ1999": 7453, "ĠCost": 7454, "haps": 7455, "Ġ365bet": 7456, "2019": 7457, "Ġperk": 7458, "ĠDalam": 7459, "Â´": 7460, "Ġhop": 7461, "ĠComment": 7462, "Ġschools": 7463, "ĠMont": 7464, "Ġassess": 7465, "à¸µà¸¢à¸ĩ": 7466, "Ġplaces": 7467, "ĠBec": 7468, "Ġvoc": 7469, "à®¿à®°à¯ģà®¨à¯įà®¤": 7470, "æłĩ": 7471, "à¯įà®¨à¯įà®¤": 7472, "æĽ´": 7473, "Ġgur": 7474, "Ġoutput": 7475, "Ġmaster": 7476, "Ġring": 7477, "ĠId": 7478, "Ġ\";": 7479, "ĠPak": 7480, "Ġà¸Ńà¸Ńà¸Ļà¹Ħà¸¥à¸Ļà¹Į": 7481, "_n": 7482, "Ġexactly": 7483, "Ġ[\"": 7484, "Ġdifference": 7485, "Ġcertainly": 7486, "è¿ĺ": 7487, "anita": 7488, "Ŀà¸²à¸ģ": 7489, "é¡µ": 7490, "Â£Â¬": 7491, "Ġenh": 7492, "å¾Ī": 7493, "åĨĽ": 7494, "key": 7495, "Ġcapt": 7496, "æĥ³": 7497, "åĻ": 7498, "à¹ĩà¸ģ": 7499, "_t": 7500, "ĠÂ¬": 7501, "ĠTeam": 7502, "Ġproced": 7503, "á»ĵn": 7504, "ework": 7505, "encies": 7506, "Ġfight": 7507, "Ġhing": 7508, "ģà¹Ī": 7509, "osis": 7510, "ello": 7511, "æģ¯": 7512, "Ġcm": 7513, "ĠCollection": 7514, "Ġà®ĩà®°à¯ģà®ķà¯įà®ķ": 7515, "¨à¸¶à¸": 7516, "Ġbasic": 7517, "ĠtÃ¬m": 7518, "ora": 7519, "ĠConst": 7520, "Ġhover": 7521, "rid": 7522, "¸à¹Īà¸Ļ": 7523, "Ġkalau": 7524, "ĠCong": 7525, "ĠthÆ°Æ¡ng": 7526, "ªà¸£à¹īà¸²à¸": 7527, "2017": 7528, "Ġæĺ¯": 7529, "ĠAdmin": 7530, "Â¼": 7531, "Ġà®ķà¯ģà®±": 7532, "Ġupdated": 7533, "Ġà®¨à¯Ģ": 7534, "Ġmemang": 7535, "vin": 7536, "à¹Īà¸Ńà¸ĩ": 7537, "ĠDengan": 7538, "Ġmaybe": 7539, "ĠSam": 7540, "Ġà®ªà®¾à®°": 7541, "eller": 7542, "ĸà¸¹à¸ģà¸": 7543, "ĠLive": 7544, "ĠçľŁäºº": 7545, "åįİ": 7546, "Ħà¸£à¸²à¸°à¸": 7547, "ĳâĸ": 7548, "Ġî": 7549, "ropriate": 7550, "eds": 7551, "ļà¸Ļà¸": 7552, "Ġdecided": 7553, "ĠForum": 7554, "Ãħ": 7555, "Ġsand": 7556, "ĠRiver": 7557, "uda": 7558, "à®ļà¯įà®ļ": 7559, "Ķà¹īà¸§à¸¢": 7560, "Ġreported": 7561, "rt": 7562, "ĠMary": 7563, "åıĮ": 7564, "Ġorganization": 7565, "Ĺà¸¸à¸ģà¸": 7566, "Ġmul": 7567, "Ġposts": 7568, "áº³ng": 7569, "Ġáŀı": 7570, "Ã¶": 7571, "ilies": 7572, "ĠRef": 7573, "Ġà¹Ģà¸Ĭ": 7574, "Ġcells": 7575, "Ġcn": 7576, "overy": 7577, "à¹Ģà¸ĭ": 7578, "Ħà¸£à¸²à¸°à¸«": 7579, "onstr": 7580, "Ġthi": 7581, "åºĶ": 7582, "ĠSU": 7583, "ĠCR": 7584, "ä»Ģä¹Ī": 7585, "PA": 7586, "eces": 7587, "å¯¼": 7588, "ĠDrive": 7589, "ĠDescription": 7590, "Ġgiving": 7591, "Ġstress": 7592, "Ġmir": 7593, "ĠKab": 7594, "Ĺà¸ĺ": 7595, "olah": 7596, "é¦ĸ": 7597, "cing": 7598, "ĠGuide": 7599, "ĠChurch": 7600, "åĪĨå½©": 7601, "ĠFrench": 7602, "Ġmemberikan": 7603, "Im": 7604, "Ġ125": 7605, "Ġsah": 7606, "Ġbenar": 7607, "Ġmemper": 7608, "à¹ĥà¸«à¸į": 7609, "Ġgiao": 7610, "à¹ģà¸ļà¸ļà¸": 7611, "Ġemerg": 7612, "ĠBrand": 7613, "Ĵâĸ": 7614, "uch": 7615, "Ġframe": 7616, "Ġtrá»įng": 7617, "standing": 7618, "Ã¦": 7619, "ancing": 7620, "Ġbudget": 7621, "idents": 7622, "ĠÃº": 7623, "èº«": 7624, "ongan": 7625, "Ġbao": 7626, "ä¸Ģä¸ª": 7627, "ªà¸¡à¸": 7628, "ĠGames": 7629, "æĸĻ": 7630, "ĠBill": 7631, "lier": 7632, "ĠTrip": 7633, "Ġà¸Ĺ": 7634, "Ġthemselves": 7635, "amond": 7636, "uses": 7637, "97": 7638, "Ġtra": 7639, "å¾·": 7640, "åģļ": 7641, "ĠDetails": 7642, "Ġhistor": 7643, "FL": 7644, "Ġ0200": 7645, "ĠHill": 7646, "à®£à¯įà®£": 7647, "ķà¹Īà¸Ń": 7648, "Ġstates": 7649, "áĢĻáĢ¹áĢ": 7650, "à¹īà¸Ļà¹Ģà¸": 7651, "à®¿à®²à¯įà®²": 7652, "ĠPass": 7653, "Ap": 7654, "Ġflu": 7655, "Ġláº§n": 7656, "ĠPolicy": 7657, "å½±": 7658, "Ġmetal": 7659, "ĠManufact": 7660, "ĠJika": 7661, "ĠMass": 7662, "Ľà¸£à¸°à¹Ģà¸Ĺà¸¨": 7663, "bal": 7664, "ĠAlex": 7665, "Ġprote": 7666, "ĠFollow": 7667, "à¹Ģà¸£à¸²à¸": 7668, "ĠQue": 7669, "mb": 7670, "issions": 7671, "kit": 7672, "Ġinvent": 7673, "Ġweekend": 7674, "Ġjam": 7675, "Ġpaid": 7676, "iáº¿u": 7677, "Ġpaling": 7678, "Ġencour": 7679, "Ġsetting": 7680, "ĠName": 7681, "ĠHarga": 7682, "Ġevalu": 7683, "Ġsy": 7684, "ĠCross": 7685, "amat": 7686, "arik": 7687, "ģà¸£": 7688, "Ġexpress": 7689, "ĠMO": 7690, "ĠDiagram": 7691, "ĠBur": 7692, "ivil": 7693, "áĢĶáĢ¹áĢ¸": 7694, "Ġsituation": 7695, "Ġcontribut": 7696, "Ġà®¤à®®": 7697, "Ġ61": 7698, "ĠnghÄ©": 7699, "entuk": 7700, "ĠSK": 7701, "éĢģ": 7702, "Ġwindows": 7703, "verpg": 7704, "akah": 7705, "ĠVir": 7706, "ĠÃĨ": 7707, "Ġconsidered": 7708, "Ġthá»ĳng": 7709, "ĠhÃ³a": 7710, "Ġconfig": 7711, "ipada": 7712, "ĸà¸·à¸Ń": 7713, "Ġindep": 7714, "Ġgarden": 7715, "Ġä¹": 7716, "aught": 7717, "Ġå½©ç¥ŀ": 7718, "Ġpurpose": 7719, "ä¸ĵ": 7720, "å°Ķ": 7721, "isions": 7722, "à¹Ģà¸¥à¸": 7723, "Ġtá»ī": 7724, "Ġquot": 7725, "ĠdÆ°á»": 7726, "Ġscience": 7727, "Ġrá»ĵi": 7728, "ÙĬ": 7729, "ĠAk": 7730, "Ġtried": 7731, "à¹Ģà¸¡à¸": 7732, "ĠPT": 7733, "SP": 7734, "ils": 7735, "ĠOnce": 7736, "éĻĲ": 7737, "Ġgrowing": 7738, "Ġmeasure": 7739, "çŁ¥": 7740, "Ġrequires": 7741, "ĠAnh": 7742, "hadap": 7743, "omas": 7744, "éĹ»": 7745, "ĠCL": 7746, "Ġmudah": 7747, "Ħà¸¥": 7748, "ĠâĢĿ,": 7749, "abled": 7750, "Ġtraditional": 7751, "Ġprofile": 7752, "Ġ67": 7753, "Ġuses": 7754, "ingkat": 7755, "EX": 7756, "Ut": 7757, "æīĵ": 7758, "Ġinflu": 7759, "Ġlib": 7760, "Ġdescribed": 7761, "æ¢": 7762, "Ġslot": 7763, "mi": 7764, "Ġgave": 7765, "Ġlá»±c": 7766, "Ġphysical": 7767, "Ġ0770": 7768, "iques": 7769, "Ġsometimes": 7770, "Ġprogress": 7771, "ç»Ł": 7772, "itude": 7773, "Ġcup": 7774, "Ġeat": 7775, "Ġarg": 7776, "mail": 7777, "Ġideal": 7778, "Ġà¸ģà¸£à¸": 7779, "Ġdriver": 7780, "Ġketika": 7781, "flow": 7782, "Ġrelative": 7783, "nis": 7784, "ĠSamsung": 7785, "æ²³": 7786, "ĠÃĲ": 7787, "çīĩ": 7788, "sequ": 7789, "Ġbiá»ĩt": 7790, "é©¬": 7791, "burg": 7792, "à®¿à®©à¯įà®±": 7793, "ĠvÄĥn": 7794, "Ġtrung": 7795, "ĠMap": 7796, "ĠÄĳáº¥t": 7797, "ĠEngland": 7798, "Ġgift": 7799, "Ġek": 7800, "idential": 7801, "Ġcopy": 7802, "ĠPo": 7803, "Ġmother": 7804, "ĠJournal": 7805, "ĠtiÃªu": 7806, "å®¢æĪ·": 7807, "iant": 7808, "Ġfant": 7809, "Ġreference": 7810, "è®º": 7811, "51": 7812, "ĠæĬ": 7813, "unning": 7814, "ĠthÃªm": 7815, "æ²¡": 7816, "ĠCarol": 7817, "Ãĳ": 7818, "mon": 7819, "Ġà®¤à®¿à®°": 7820, "Ġgradu": 7821, "Ġï¼Ľ": 7822, "ä»·": 7823, "Ġberj": 7824, "Ġtowards": 7825, "ption": 7826, "Ġ78": 7827, "ĠDen": 7828, "Â½": 7829, "ĠGovernment": 7830, "Ġstage": 7831, "Ħà¸£à¸Ķà¸´à¸ķà¸Łà¸£à¸µ": 7832, "Ġeasi": 7833, "Ã»": 7834, "CM": 7835, "ĠFit": 7836, "åħ¶": 7837, "Ġ1px": 7838, "Ġwp": 7839, "Ġvan": 7840, "ĠMedic": 7841, "usia": 7842, "eline": 7843, "ĠQuest": 7844, "Ġbehav": 7845, "Ġauth": 7846, "dn": 7847, "Ġcoffee": 7848, "Ġcasino": 7849, "EO": 7850, "Ġafford": 7851, "Ġstick": 7852, "Ġir": 7853, "å®ĺæĸ¹ç½ĳç«Ļ": 7854, "urers": 7855, "à¯ĩà®©à¯į": 7856, "Ġmelalui": 7857, "è£ħ": 7858, "Ġapprox": 7859, "ĠæĽ": 7860, "rete": 7861, "Ġçº": 7862, "ĠArea": 7863, "ªà¸²à¸¡à¸²à¸£à¸ĸà¸": 7864, "Ġstone": 7865, "ĠáŀĤ": 7866, "Ġrespond": 7867, "ĠChinese": 7868, "Ġattach": 7869, "Ćą": 7870, "ĠTips": 7871, "ķà¸²à¸¡à¸": 7872, "Ã¬n": 7873, "Ġcampaign": 7874, "ĠThu": 7875, "áĢħáĢº": 7876, "ĠRp": 7877, "Ġoverall": 7878, "ĠWay": 7879, "Ġpoly": 7880, "ĠEach": 7881, "Ġlalu": 7882, "Ġsports": 7883, "ĠHotels": 7884, "Ġeye": 7885, "Ġagar": 7886, "Ġborn": 7887, "Ġnumbers": 7888, "round": 7889, "Ġpk10": 7890, "ĠSteel": 7891, "ously": 7892, "ĠbÃ¡o": 7893, "Ġgrand": 7894, "ĠLiving": 7895, "ĠLang": 7896, "Ġdunia": 7897, "è¯·": 7898, "çľģ": 7899, "ĠâĢļ": 7900, "Ġfashion": 7901, "Ġhoáº¡t": 7902, "åĶ": 7903, "Ġlock": 7904, "yright": 7905, "REE": 7906, "Ġlines": 7907, "æĮģ": 7908, "áĢļáĢº": 7909, "ĠLED": 7910, "å½ĵ": 7911, "Ġdirectory": 7912, "ĠStore": 7913, "Ġha": 7914, "ï½": 7915, "ĠCup": 7916, "ady": 7917, "Ġ74": 7918, "_p": 7919, "âĢĶ": 7920, "Ġmiddle": 7921, "Ġmonitor": 7922, "Ġspend": 7923, "emat": 7924, "ifications": 7925, "een": 7926, "Ġwasn": 7927, "ĠLead": 7928, "ĠRelated": 7929, "Ġaccur": 7930, "Ġantara": 7931, "Ġsep": 7932, "Ġmedium": 7933, "ĠtÃŃch": 7934, "à¹Ħà¸§": 7935, "Ġinterview": 7936, "èĦ": 7937, "obil": 7938, "Ġinnov": 7939, "Ġà¹Ģà¸ŀ": 7940, "Ġstraight": 7941, "Ġfan": 7942, "Ġoffered": 7943, "Element": 7944, "Ġdeveloped": 7945, "ĠFort": 7946, "Ġautomatic": 7947, "Ġ)(": 7948, "çİ¯": 7949, "Ġprop": 7950, "Ġstring": 7951, "ĠEstate": 7952, "Ġowner": 7953, "å¸¸": 7954, "Ħà¸§à¸²à¸¡à¹Ģà¸": 7955, "Ġfelt": 7956, "Ġnhau": 7957, "àºŃ": 7958, "Ġà®ĩà®°à¯ģà®¨à¯įà®¤": 7959, "áº¯m": 7960, "ĠÄĳÆ¡n": 7961, "åĲĳ": 7962, "§à¸ĩà¸": 7963, "Ġce": 7964, "¥à¸ĩ": 7965, "Ġappreci": 7966, "ĠPhone": 7967, "Ġdoll": 7968, "ķà¹īà¸Ńà¸ĩ": 7969, "Ġlots": 7970, "ĠCase": 7971, "Ġko": 7972, "yan": 7973, "ĠIll": 7974, "ĠInvest": 7975, "Ã³n": 7976, "Ġtiáº¿ng": 7977, "jax": 7978, "åŁº": 7979, "works": 7980, "ĠAh": 7981, "ingk": 7982, "agu": 7983, "ĠCook": 7984, "Ġhotels": 7985, "ĠConnect": 7986, "Ġ77": 7987, "uku": 7988, "à¸´à¹Ģà¸Ħà¸£à¸²à¸°à¸«": 7989, "ĠMa": 7990, "Ġ84": 7991, "ĠMah": 7992, "pet": 7993, "care": 7994, "ĠRam": 7995, "Ġ96": 7996, "Ġà¸Ľà¸": 7997, "cape": 7998, "¶à¹Īà¸ĩ": 7999, "ĠMemb": 8000, "umlah": 8001, "Ġchá»ĭ": 8002, "å¼ĢæĪ·": 8003, "Ġinvestment": 8004, "ervation": 8005, "Ġbersama": 8006, "Ħ¢": 8007, "èµ°åĬ¿": 8008, "useum": 8009, "gas": 8010, "ainan": 8011, "bol": 8012, "ļà¸²à¸Ħà¸²à¸£": 8013, "aughter": 8014, "Ġç½": 8015, "çķĮ": 8016, "icer": 8017, "Ġweather": 8018, "Ġthank": 8019, "ªà¹Īà¸§à¸Ļà¸": 8020, "Ġcorpor": 8021, "INE": 8022, "Â±": 8023, "oom": 8024, "Ġå¿": 8025, "ĠtrÃŃ": 8026, "Ġ1st": 8027, "ĠAccording": 8028, "Ġviol": 8029, "Ġjaw": 8030, "Ġloved": 8031, "ç¯": 8032, "ifts": 8033, "ĠSuppl": 8034, "Ġtinggi": 8035, "ç«ĭ": 8036, "§à¹ĩà¸ļà¸": 8037, "intage": 8038, "Ġ?âĢĿ": 8039, "Ġsatis": 8040, "bat": 8041, "ector": 8042, "ĠParty": 8043, "Ġalternative": 8044, "CD": 8045, "áĢĢáĢ¹": 8046, "Ġà¸ļà¸": 8047, "ears": 8048, "ĠãĢĳãĢĲãĢĤãĢĳãĢĲ": 8049, "Ġupload": 8050, "ĠMotor": 8051, "çı": 8052, "Ġloan": 8053, "áģĢ": 8054, "illage": 8055, "614": 8056, "Ġà¸ªà¸¡à¸±à¸": 8057, "æĴŃ": 8058, "áŁĥ": 8059, "ĠFront": 8060, "ĠHistory": 8061, "atively": 8062, "Ġcards": 8063, "Ġdaripada": 8064, "ĠBaby": 8065, "ĠSpring": 8066, "hr": 8067, "Ġà®®à¯ĩ": 8068, "Ġhum": 8069, "ĠWho": 8070, "ambil": 8071, "Ġcreating": 8072, "Ġanti": 8073, "ĠáŀĽ": 8074, "Ġ\"><": 8075, "Ġà®ķà¯Ĭà®£à¯įà®Ł": 8076, "å¼º": 8077, "van": 8078, "Ġrow": 8079, "Ġincome": 8080, "Ġà¹Ħà¸Ķà¹ī": 8081, "ĠBooks": 8082, "AF": 8083, "ĠSelect": 8084, "Ġdilakukan": 8085, "Ġpoker": 8086, "Ġsuccessful": 8087, "Ġpolitical": 8088, "à¹īà¸Ńà¸¢": 8089, "enda": 8090, "Ġbasis": 8091, "Ġfeet": 8092, "ESS": 8093, "Ġstation": 8094, "ĠFord": 8095, "ĠAssociation": 8096, "ademic": 8097, "Ġindividuals": 8098, "Ġvalues": 8099, "orney": 8100, "ĠTom": 8101, "Ġembod": 8102, "Ġbusinesses": 8103, "va": 8104, "bsp": 8105, "Ġcatch": 8106, "ĠSat": 8107, "erry": 8108, "Ġfigure": 8109, "merce": 8110, "ĠPel": 8111, "ella": 8112, "Ġemployees": 8113, "Ġplayed": 8114, "Ġterd": 8115, "ĠTor": 8116, "leg": 8117, "Ġya": 8118, "Ġclin": 8119, "áŁĴáŀĻ": 8120, "áº§y": 8121, "ÃĹ": 8122, "ception": 8123, "Ġgiá»Ŀ": 8124, "Ġà¤": 8125, "è¿ĳ": 8126, "Ġtanpa": 8127, "IE": 8128, "ĠCara": 8129, "Ġèĩ": 8130, "rome": 8131, "Ġimag": 8132, "Ġmendapatkan": 8133, "ampu": 8134, "Ġhealthy": 8135, "ä¼ł": 8136, "ä¸ĸ": 8137, "05": 8138, "Ġpanel": 8139, "Ġwrote": 8140, "à®¿à®ķà®³": 8141, "áŀ¶áŀı": 8142, "Ġhighest": 8143, "ĠSi": 8144, "ĠKore": 8145, "Ġdamage": 8146, "Ġbrows": 8147, "udian": 8148, "adian": 8149, "ĠáŁĶ": 8150, "¨å¤©": 8151, "é£İ": 8152, "ĠSaya": 8153, "Ġéĺ": 8154, "ĠIng": 8155, "ĠEner": 8156, "Â·": 8157, "Ġrob": 8158, "Ġtrá»Ł": 8159, "Ġhandle": 8160, "ĠWhere": 8161, "Ġunderstanding": 8162, "à¹Ħà¸£": 8163, "Ġexerc": 8164, "Ġpng": 8165, "Ġterhadap": 8166, "Ġsaying": 8167, "áŀ¶áŀĢáŁĭ": 8168, "ĠCreat": 8169, "ef": 8170, "Ġlogo": 8171, "ĠChristian": 8172, "ourney": 8173, "ç§į": 8174, "rain": 8175, "ĠChic": 8176, "Ġ76": 8177, "ªà¸³à¸«à¸£à¸±à¸ļà¸": 8178, "ĠbÃªn": 8179, "Ġtá»¥": 8180, "ªà¸¸à¸Ķà¸": 8181, "ĠBL": 8182, "ĠFoot": 8183, "Ġ$('#": 8184, "Ġà®īà®³à¯įà®³": 8185, "Ġvirt": 8186, "æĶ¶": 8187, "ĠTrump": 8188, "Ġä»¥": 8189, "body": 8190, "wh": 8191, "à¹Ģà¸Ĭ": 8192, "à¹Ħà¸ĭà¸": 8193, "Ħà¸£à¸±à¹īà¸ĩ": 8194, "Ġcontinu": 8195, "ilah": 8196, "ĠMi": 8197, "Ġincreased": 8198, "æŁ": 8199, "ĠMath": 8200, "Ġdáº«n": 8201, "Ġà®¯": 8202, "met": 8203, "Ġeconomic": 8204, "æľ¯": 8205, "áĢĬáĢ¹": 8206, "ĠLeg": 8207, "azine": 8208, "awat": 8209, "Ġváº¥n": 8210, "ĠSmart": 8211, "Ġaward": 8212, "łà¸²à¸©": 8213, "Ġà¹Ģà¸Ľà¹ĩà¸Ļà¸": 8214, "Ġreleased": 8215, "visor": 8216, "Ġregarding": 8217, "ĠÄĳá»ĭa": 8218, "ĠphÆ°Æ¡ng": 8219, "Ġà®µà®¿à®": 8220, "Ġscale": 8221, "à¯ģà®ª": 8222, "By": 8223, "ĠVery": 8224, "Ġrich": 8225, "¨à¸¶à¸ģà¸©": 8226, "ĠRos": 8227, "ĠTour": 8228, "Ġcore": 8229, "åı¯ä»¥": 8230, "Ħà¸Ńà¸": 8231, "áŁĦáŁĩ": 8232, "Ġsteps": 8233, "ander": 8234, "ĠÃ©": 8235, "Â¿": 8236, "Ġpes": 8237, "reek": 8238, "ĠÄĳá»ģu": 8239, "åĻ¨": 8240, "Ġbenefit": 8241, "arily": 8242, "ifying": 8243, "essage": 8244, "ç²¾": 8245, "Ġken": 8246, "ĠWH": 8247, "ĠÂ¡Â£": 8248, "Ġadvice": 8249, "lands": 8250, "Ġ82": 8251, "Ķà¸¹": 8252, "áŀ¶áŀĺ": 8253, "Ġæ°": 8254, "09": 8255, "à¹īà¸Ńà¸¡à¸¹à¸": 8256, "Ĳà¸": 8257, "Ġcukup": 8258, "Ġtopic": 8259, "osure": 8260, "æİĴ": 8261, "2016": 8262, "isher": 8263, "Ġquá»ĳc": 8264, "Ġnegara": 8265, "ĠRev": 8266, "Ġton": 8267, "ä½ķ": 8268, "ĠDirector": 8269, "olar": 8270, "ensi": 8271, "Ġà¸«": 8272, "Ġè´": 8273, "Ġà®µà¯ĩà®£à¯įà®Ł": 8274, "æ¸¯": 8275, "ĠéĻ": 8276, "Ġoperation": 8277, "ĠhoÃłn": 8278, "Ġcuá»Ļc": 8279, "Ġ__": 8280, "ÄĲ": 8281, "Ġrepe": 8282, "Ġconnection": 8283, "utr": 8284, "amar": 8285, "åıĳå±ķ": 8286, "Ġ83": 8287, "Book": 8288, "Ġsquare": 8289, "Ġ86": 8290, "Ġç§": 8291, "Ġgoogle": 8292, "ĠNá»Ļi": 8293, "ĠPers": 8294, "æ®": 8295, "ĠRobert": 8296, "Ġuseful": 8297, "Ġillustr": 8298, "ĠOnly": 8299, "Ġdistance": 8300, "Ġalthough": 8301, "Ġrelax": 8302, "ĠCP": 8303, "gar": 8304, "Ġforce": 8305, "áŀ·áŀĦ": 8306, "ĠTrong": 8307, "ĠÃ£ÆĴ": 8308, "Ġaim": 8309, "Ġ1998": 8310, "Ġxml": 8311, "ĠåĽ½": 8312, "âĢ¦]": 8313, "Ġradio": 8314, "Query": 8315, "ĠProm": 8316, "ĠGarden": 8317, "ĠchÆ°a": 8318, "ĠLu": 8319, "xy": 8320, "à¯įà®°": 8321, "Ġminute": 8322, "åħļ": 8323, "Ġ))": 8324, "Ġculture": 8325, "Ġvict": 8326, "ologi": 8327, "ensions": 8328, "Ġhyd": 8329, "Ġdisease": 8330, "à¸Ńà¸Ńà¸ģà¸": 8331, "Ġtemplate": 8332, "Ġà®¤à®®à®¿à®´": 8333, "ĠPict": 8334, "ĠAlb": 8335, "Ġoffering": 8336, "Ġà¹Ĩ": 8337, "Ġreports": 8338, "Ġpatient": 8339, "ĠUr": 8340, "Ġliá»ĩu": 8341, "ho": 8342, "inger": 8343, "Ġ[âĢ¦]": 8344, "Ġagree": 8345, "han": 8346, "ä¾Ľ": 8347, "ĠsÃ¡ng": 8348, "ĠPRO": 8349, "Ġ365ä½ĵèĤ²": 8350, "Ġcounter": 8351, "ĠContin": 8352, "Ġà®®à¯ģà®Ł": 8353, "Ġcabin": 8354, "à®ķà¯į": 8355, "ĠWrit": 8356, "Ġeffort": 8357, "áŀ»áŀĦ": 8358, "Ġfill": 8359, "aled": 8360, "itors": 8361, "Ġåİ": 8362, "ĠÃĩ": 8363, "Ġhide": 8364, "ĠMD": 8365, "Ġ92": 8366, "zer": 8367, "ç©º": 8368, "Ġcompared": 8369, "ĠEdition": 8370, "ĠUsed": 8371, "unakan": 8372, "isode": 8373, "Ġka": 8374, "ĠCurr": 8375, "ĠDiv": 8376, "ĠSave": 8377, "à¯ĩà®ļ": 8378, "Ġemp": 8379, "Ġcru": 8380, "ĠMarketing": 8381, "à¸£à¸¹à¸": 8382, "Ġmode": 8383, "áģ¿": 8384, "Ġprofession": 8385, "ĠIM": 8386, "Ġäºº": 8387, "ordin": 8388, "ĠSle": 8389, "ĠçĶµ": 8390, "æ±Ĥ": 8391, "Ġkerana": 8392, "Ġbre": 8393, "Ġstream": 8394, "ĠCÃ¡c": 8395, "ĠAff": 8396, "Ġnotice": 8397, "ĠMachine": 8398, "Ġà¸¡à¸µ": 8399, "Ġheard": 8400, "Ġtechnical": 8401, "ĠJos": 8402, "Ġreve": 8403, "Ġpolice": 8404, "á»ħ": 8405, "Ġmach": 8406, "02": 8407, "orrow": 8408, "áĢĦáĢ¹áĢ·": 8409, "Ġorganiz": 8410, "Ġfootball": 8411, "Ġopin": 8412, "ĠExp": 8413, "Ġbáº¥t": 8414, "Ġä¸º": 8415, "ĠFranc": 8416, "where": 8417, "Ġ=\\\"": 8418, "Ġstatement": 8419, "Ķà¸¹à¸": 8420, "ĠInstitute": 8421, "å¹¿": 8422, "Ġinvention": 8423, "ĠDC": 8424, "Ġtham": 8425, "ĠTown": 8426, "usion": 8427, "iah": 8428, "Ġáŀģ": 8429, "ĠExc": 8430, "Ġaccommod": 8431, "Ġextremely": 8432, "è±": 8433, "Ġstories": 8434, "ĠJew": 8435, "´à¸Ļà¸": 8436, "View": 8437, "ONG": 8438, "ŀà¸£à¸": 8439, "uyáº¿n": 8440, "ĠRequ": 8441, "è¾¾": 8442, "ĠlÃºc": 8443, "Ġhappen": 8444, "Ġeyes": 8445, "Ġuns": 8446, "åħį": 8447, "ç¡": 8448, "Ġhab": 8449, "ĠAw": 8450, "ĠEX": 8451, "ĠMas": 8452, "ĠèĢĮ": 8453, "Ġmengen": 8454, "incip": 8455, "Ġdie": 8456, "à¸µà¸ģ": 8457, "antly": 8458, "Ġhang": 8459, "¨à¸²à¸": 8460, "Ġshoot": 8461, "Le": 8462, "Ġattack": 8463, "Ġæķ": 8464, "ĠSek": 8465, "Ġà®ļà¯Ĩà®¯à¯įà®¤": 8466, "Ġwoman": 8467, "Ġstudies": 8468, "Ġbid": 8469, "outer": 8470, "à¹Īà¸Ļà¹Ģà¸": 8471, "esus": 8472, "à¸£à¸¹à¹īà¸": 8473, "##": 8474, "isco": 8475, "ĠSample": 8476, "Ġsecure": 8477, "Ġrules": 8478, "ĠWebsite": 8479, "ç¾¤": 8480, "à®±à¯įà®ª": 8481, "Ġscript": 8482, "Ġguarant": 8483, "ded": 8484, "wise": 8485, "Ġorigin": 8486, "Ġassign": 8487, "¥à¸¹à¸ģà¸": 8488, "ĠBritish": 8489, "èĢĥ": 8490, "Ġtut": 8491, "ĠED": 8492, "éĸ": 8493, "Ġgoals": 8494, "iler": 8495, "Â¶": 8496, "Ġtom": 8497, "vy": 8498, "ĠInn": 8499, "ĠTX": 8500, "Ġchanged": 8501, "ampions": 8502, "ĠTake": 8503, "Ġhingga": 8504, "ĠKim": 8505, "reh": 8506, "Ġà¹Ħà¸¡à¹Ī": 8507, "oran": 8508, "ĠÄĳá»ķi": 8509, "Ġmodule": 8510, "«à¸¥à¸±à¸ĩà¸": 8511, "well": 8512, "çİĭ": 8513, "Ĺà¸µà¹Īà¹Ģà¸": 8514, "Ġstrategy": 8515, "Ġ)-": 8516, "ĠPL": 8517, "Ġapparat": 8518, "ĠIsra": 8519, "Ġtheme": 8520, "Ġslide": 8521, "Ġdemand": 8522, "Ġconnected": 8523, "áº¥m": 8524, "à¸Ńà¸°": 8525, "ĠSqu": 8526, "PL": 8527, "ĠBedroom": 8528, "ĠéĶ": 8529, "·à¸Ńà¸Ļ": 8530, "Īà¸¸à¸": 8531, "Ġcompare": 8532, "Ġpartner": 8533, "icious": 8534, "Utama": 8535, "Ġâĸ": 8536, "ĠDoc": 8537, "ĠUR": 8538, "mary": 8539, "ĠRent": 8540, "à¸£à¸±à¸ģà¸©": 8541, "ÙĨ": 8542, "ĠMethod": 8543, "áĢŃáĢ¯áĤĶ": 8544, "Ġrank": 8545, "ii": 8546, "Ġchurch": 8547, "ĠDomainUtama": 8548, "ĠBul": 8549, "Ġpak": 8550, "look": 8551, "lying": 8552, "Ġunivers": 8553, "åħī": 8554, "Ġbecame": 8555, "ko": 8556, "Ġà¸§à¸´à¸ĺ": 8557, "ĠCouncil": 8558, "µà¹Īà¸": 8559, "ŀà¸²à¸": 8560, "åİŁ": 8561, "Ġalt": 8562, "ģà¸¥à¸²à¸": 8563, "Ġcapital": 8564, "ĠGirl": 8565, "axy": 8566, "Ġå¼Ģ": 8567, "Ġà¸Ħà¸²": 8568, "ios": 8569, "ĠNote": 8570, "é¡¹": 8571, "ĠRecord": 8572, "·à¹īà¸Ļà¸": 8573, "æ´²": 8574, "ilang": 8575, "verpgbel": 8576, "andom": 8577, "Ã²a": 8578, "yles": 8579, "è½¯": 8580, "ç»Ļ": 8581, "Ġarticles": 8582, "Ġtraff": 8583, "ĠBreak": 8584, "arr": 8585, "à¯ģà®®à¯įà®ª": 8586, "wide": 8587, "ĠAlthough": 8588, "Ġthread": 8589, "ĵà¹Įà¸": 8590, "Ġlargest": 8591, "èĳ": 8592, "Ĺi": 8593, "Ã¸": 8594, "time": 8595, "åĬŀ": 8596, "BN": 8597, "Ġngay": 8598, "olic": 8599, "Â¾": 8600, "Ġæŀ": 8601, "inn": 8602, "Ġestate": 8603, "clusive": 8604, "ĠInvoices": 8605, "artments": 8606, "áŁĴáŀŁ": 8607, "aitu": 8608, "lers": 8609, "¢à¸¸à¸": 8610, "ĠTan": 8611, "Ġmatt": 8612, "æ²»": 8613, "Ġexisting": 8614, "Ġproperties": 8615, "Ġ94": 8616, "Ġhá»Ļ": 8617, "Val": 8618, "Ġbegan": 8619, "ĳâĸĳâĸ": 8620, "osition": 8621, "Ġportion": 8622, "Ġà¸ļà¸²à¸Ĺ": 8623, "ras": 8624, "ĠÃķ": 8625, "Ġhospital": 8626, "Ġholiday": 8627, "pite": 8628, "Ġelements": 8629, "ÃŃn": 8630, "Ġ/\"": 8631, "ĠAfrica": 8632, "Ġarrang": 8633, "ĠCool": 8634, "ĠRM": 8635, "à¹ģà¸Ĥ": 8636, "08": 8637, "ĠÃı": 8638, "Ġdefault": 8639, "Ġmulti": 8640, "07": 8641, "Ġopening": 8642, "Þ¬": 8643, "wid": 8644, "estival": 8645, "Â¸": 8646, "Ġmodels": 8647, "Ġberp": 8648, "ĠBR": 8649, "Ġ81": 8650, "Ġreflect": 8651, "arna": 8652, "Ġnation": 8653, "Ġreplace": 8654, "Ġavoid": 8655, "Ġà¸Ļà¸²à¸": 8656, "Ġapartment": 8657, "anjang": 8658, "Ġcold": 8659, "äºĶ": 8660, "ĠngoÃłi": 8661, "è²¸": 8662, "uty": 8663, "Ġá»©ng": 8664, "};": 8665, "Ġip": 8666, "ĠVers": 8667, "Ġapparatus": 8668, "ugar": 8669, "ĠchuyÃªn": 8670, "Ġdriving": 8671, "ĠxÃ£": 8672, "PC": 8673, "ĠéĤ": 8674, "Ġà¸ªà¸²à¸": 8675, "ĠToy": 8676, "Ġconven": 8677, "Ġrestaurant": 8678, "ĴâĸĴâĸ": 8679, "ĠEssay": 8680, "Ġ;&": 8681, "Ġtrail": 8682, "Ġprotection": 8683, "Ġamb": 8684, "æŃ¤": 8685, "Ġhub": 8686, "active": 8687, "Ġlisted": 8688, "uyá»ħn": 8689, "Ġreduce": 8690, "à¸Ļà¹īà¸³à¸": 8691, "ĠDecor": 8692, "ä¸¤": 8693, "ĠÂ§": 8694, "à¯Īà®ķà®³": 8695, "ĠUser": 8696, "ĠEff": 8697, "ying": 8698, "gest": 8699, "osph": 8700, "Ġcars": 8701, "à¸Ńà¸¢à¸¹à¹Īà¸": 8702, "Ġopportunities": 8703, "Ġquant": 8704, "à¹Īà¸²à¸§à¸": 8705, "ĠAccount": 8706, "éį": 8707, "''": 8708, "erah": 8709, "à®¤à¯įà®¤à¯Ī": 8710, "ĠthÃ¢n": 8711, "Ġsq": 8712, "ĠUSB": 8713, "å¥³": 8714, "ĠValley": 8715, "èŃ": 8716, "è¯ķ": 8717, "Com": 8718, "å¤´": 8719, "ĠMex": 8720, "Ġwal": 8721, "ĠMid": 8722, "angka": 8723, "ĠÃĮ": 8724, "Ĺà¸ĩà¸": 8725, "æł¡": 8726, "coming": 8727, "Ġpermalink": 8728, "ĠTre": 8729, "ads": 8730, "áŀĹ": 8731, "·à¹Īà¸Ļ": 8732, "è¶³": 8733, "Ġkons": 8734, "à¸²à¸£à¹Įà¸": 8735, "ĵà¹Į": 8736, "åŀĭ": 8737, "Ġfinally": 8738, "Ġgreater": 8739, "Ġcentral": 8740, "Ġguid": 8741, "ĠWil": 8742, "ĠBall": 8743, "List": 8744, "Ġannual": 8745, "Ġ700": 8746, "ĠWiring": 8747, "Ġthous": 8748, "Ġgt": 8749, "ĠOk": 8750, "à¸£à¸£à¸¡": 8751, "Ġteams": 8752, "Ġsá»Ł": 8753, "Ġok": 8754, "ĠKami": 8755, "Ġbeginning": 8756, "Ġadding": 8757, "ĠSS": 8758, "Ġfuel": 8759, "ĠSource": 8760, "Ġproduce": 8761, "å·±": 8762, "abil": 8763, "ĠModern": 8764, "ĠDress": 8765, "Ġtrain": 8766, "Ġæĺ¨å¤©": 8767, "ĠjQuery": 8768, "§à¸¥à¸²": 8769, "Ġpackage": 8770, "áĢ¯áĢ¶": 8771, "Ġterus": 8772, "enses": 8773, "Ġ87": 8774, "Ġcontains": 8775, "Ġà¹Ģà¸¥à¹Īà¸Ļ": 8776, "Īà¸³à¸": 8777, "asar": 8778, "èĬ±": 8779, "Ġvot": 8780, "undred": 8781, "erl": 8782, "ĠElectric": 8783, "ĠDVD": 8784, "Ġincreasing": 8785, "icken": 8786, "Ġfeeling": 8787, "à¯ģà®ķà®³": 8788, "à®¿à®°à¯ģà®ķà¯įà®ķ": 8789, "Ġthumb": 8790, "Ġdrink": 8791, "91": 8792, "ĠCN": 8793, "Ġtransl": 8794, "ĠPur": 8795, "ĠKem": 8796, "Ġ73": 8797, "las": 8798, "Ġdatabase": 8799, "ĠcÃ¡": 8800, "Ġtráº»": 8801, "En": 8802, "Ġscore": 8803, "Ġdining": 8804, "ĠÄĳÃ¡nh": 8805, "cep": 8806, "Ġsurg": 8807, "Ġgain": 8808, "åĲĦ": 8809, "ĠHu": 8810, "ĠTotal": 8811, "Ġquyáº¿t": 8812, "Ĭà¸·à¹Īà¸Ńà¸": 8813, "«à¸²": 8814, "ĠCON": 8815, "áĢĦáĢºáĢ¸áĢ": 8816, "Ħà¹Īà¸": 8817, "actions": 8818, "Ġfamilies": 8819, "ĠJobs": 8820, "Ġlisting": 8821, "Ħà¸£à¸±à¸ļ": 8822, "Ġcháº¿": 8823, "é¢ĳ": 8824, "Ġä¸ŃåĽ½": 8825, "æĺŁ": 8826, "etah": 8827, "Ġmanager": 8828, "æŁ¥": 8829, "sites": 8830, "ĠéĿ": 8831, "áŀ¶áŀĽ": 8832, "à¸´à¸Ķ": 8833, "Ġráº±ng": 8834, "ĠPerm": 8835, "åħ±": 8836, "Ġæ¯": 8837, "orpor": 8838, "ocket": 8839, "Ġbattery": 8840, "Ġallowed": 8841, "áĢĢáĢ¼": 8842, "ä¼ĺ": 8843, "ķà¸´à¸Ķà¸": 8844, "æŀĹ": 8845, "Ġmasuk": 8846, "ainless": 8847, "Ġsession": 8848, "Ġpernah": 8849, "Ġbuying": 8850, "Ġru": 8851, "ĠSn": 8852, "Ľà¸µ": 8853, "Ġtree": 8854, "ĠMaterial": 8855, "IAN": 8856, "Ġprofit": 8857, "Ġappropriate": 8858, "ĠSmith": 8859, "iable": 8860, "Ġdemonstr": 8861, "Ġtert": 8862, "Ġnáº¿u": 8863, "à¸£à¸µà¸¢à¸": 8864, "ungi": 8865, "Ġå¦Ĥ": 8866, "Ġspring": 8867, "Ġà¸ªà¸´": 8868, "à¯įà®ķà¯įà®ķ": 8869, "Ġvalid": 8870, "Ġsam": 8871, "Ġnbsp": 8872, "Ã£i": 8873, "Ġspent": 8874, "Ġlainnya": 8875, "å¤Ħ": 8876, "ĠFile": 8877, "ĠKen": 8878, "ĠthÃŃch": 8879, "Ġberbagai": 8880, "à¹Ģà¸£à¹ĩà¸": 8881, "ļà¹īà¸²à¸Ļ": 8882, "ĠNH": 8883, "istan": 8884, "\",\"": 8885, "ĠBan": 8886, "Ġgh": 8887, "Ġà¸ŀà¸Ļà¸±à¸Ļ": 8888, "Ġçī": 8889, "Ġmeaning": 8890, "Ġwants": 8891, "ĠEasy": 8892, "èĢĮ": 8893, "Ġbrought": 8894, "áĢ¬áĢĢáĢ¹áĢ": 8895, "Ġwear": 8896, "lished": 8897, "Ġdiet": 8898, "obe": 8899, "Ġol": 8900, "orry": 8901, "ican": 8902, "Ġdrug": 8903, "Ġretail": 8904, "_gr": 8905, "ĠOl": 8906, "à®©à¯įà®±à¯ģ": 8907, "Ġcung": 8908, "ĠResp": 8909, "Ġdij": 8910, "ĠAsia": 8911, "èĮ": 8912, "Ġturned": 8913, "ĠProcess": 8914, "ĸà¸¶à¸ĩ": 8915, "lik": 8916, "Ħà¸¥à¸": 8917, "Ġsurround": 8918, "Ġmata": 8919, "Ġmáº¯t": 8920, "ĠMB": 8921, "ukt": 8922, "Ġaudio": 8923, "ĠEnt": 8924, "Ġagent": 8925, "ĠMaj": 8926, "Ġattempt": 8927, "Ġfig": 8928, "Ġæ³": 8929, "embly": 8930, "ĠWas": 8931, "¢à¹Įà¸": 8932, "Ġeasier": 8933, "Ġcalcul": 8934, "Ġlooked": 8935, "aikan": 8936, "ĠTP": 8937, "Ġà®ķà¯ĭ": 8938, "Ġyaitu": 8939, "ĠLeague": 8940, "ĠTraining": 8941, "Ġoutdoor": 8942, "ľà¸¥à¸´à¸": 8943, "Ġcritical": 8944, "Ġvideos": 8945, "Ġà¹Ĥà¸Ķà¸¢à¸": 8946, "ela": 8947, "Ġstreet": 8948, "Ġfee": 8949, "oba": 8950, "Ġoperating": 8951, "apkan": 8952, "Ġsharing": 8953, "Ġchuyá»ĥn": 8954, "Ġtruly": 8955, "Ġinternal": 8956, "à¹ģà¸¡": 8957, "ĠFrank": 8958, "èģĺ": 8959, "Ġterbaik": 8960, "Ġshot": 8961, "á»±a": 8962, "å®¢æĪ·ç«¯": 8963, "àºµ": 8964, "Ġvolume": 8965, "Ġ??": 8966, "ä¼ģä¸ļ": 8967, "Ġhidden": 8968, "Ġgrade": 8969, "à¹ĥà¸Ļà¸ģà¸²à¸£à¸": 8970, "Ã©p": 8971, "Ġparticularly": 8972, "ĠJakarta": 8973, "Ġoccur": 8974, "Ġfans": 8975, "ıi": 8976, "Ġà¸Łà¸¸à¸ķà¸ļà¸Ńà¸¥": 8977, "Ġsample": 8978, "verse": 8979, "uet": 8980, "ĠSite": 8981, "à®¿à®¨à¯įà®¤": 8982, "Ġsej": 8983, "Ġà®ħà®©": 8984, "},\"": 8985, "Ġhati": 8986, "Ġcast": 8987, "Ġwife": 8988, "ĠVan": 8989, "ĠFurniture": 8990, "ATE": 8991, "ĠExam": 8992, "ĠKids": 8993, "Ġdeals": 8994, "Ġbey": 8995, "Ŀà¸": 8996, "Ġvá»«a": 8997, "ĠFact": 8998, "II": 8999, "Ġ1997": 9000, "áĢ±áĢĶ": 9001, "asional": 9002, "æĶ¾": 9003, "Ġgenerally": 9004, "ĠIts": 9005, "ĠEnergy": 9006, "centr": 9007, "ĠTech": 9008, "Ġlack": 9009, "Ġkerja": 9010, "èĩ³": 9011, "à¯Īà®ªà¯į": 9012, "Ġcompar": 9013, "Þª": 9014, "QU": 9015, "ç»Ħ": 9016, "ilai": 9017, "Ġlarger": 9018, "Ġcit": 9019, "à¹ĩà¸ģà¸": 9020, "abet": 9021, "Ġpp": 9022, "Ġtá»īnh": 9023, "ĠFall": 9024, "Ġjual": 9025, "Ġsouth": 9026, "Ġ01753": 9027, "ĠJesus": 9028, "Ġtahu": 9029, "à¸£à¹Īà¸§à¸": 9030, "Ġbulan": 9031, "ĠPersonal": 9032, "áĢĬáĢ¹áĢ¸": 9033, "Ġ93": 9034, "Ġcontain": 9035, "Ġmelihat": 9036, "igan": 9037, "Ġbillion": 9038, "eph": 9039, "ĠPada": 9040, "Ġbelum": 9041, "Ġlá»ĭch": 9042, "Ġcolumn": 9043, "usus": 9044, "_h": 9045, "ENG": 9046, "Ġbak": 9047, "Ġowners": 9048, "ĠComple": 9049, "ĠBM": 9050, "Ġ900": 9051, "Ġfixed": 9052, "Ġannounced": 9053, "éĢł": 9054, "Ġspirit": 9055, "åıĸ": 9056, "Ġflat": 9057, "Ġimmediately": 9058, "Ġdial": 9059, "áĢ¬áĢĦáĢ¹áĢ¸": 9060, "Â«": 9061, "Ġnames": 9062, "Ġsmooth": 9063, "ĠWedding": 9064, "lan": 9065, "atalog": 9066, "ªà¸ĸ": 9067, "berg": 9068, "ĠchÆ¡i": 9069, "Ġpeace": 9070, "Ġhus": 9071, "ĠVi": 9072, "Ġà®¤à¯Ĩà®°": 9073, "Ġappoint": 9074, "Ġrelev": 9075, "ellig": 9076, "ĠStyle": 9077, "Ġcancer": 9078, "ebab": 9079, "ĠUnivers": 9080, "ucky": 9081, "Ġtraffic": 9082, "åĦ": 9083, "Ġå¤©": 9084, "Ġpal": 9085, "ĠÃĺ": 9086, "ĠExpl": 9087, "à¯Īà®ļ": 9088, "ĠRepair": 9089, "ĠáĢĨ": 9090, "à¸£à¸´": 9091, "Ġná»Ļi": 9092, "unyai": 9093, "ĠFair": 9094, "antic": 9095, "Ġà²": 9096, "ĠHapp": 9097, "OV": 9098, "Ġseg": 9099, "Ġpump": 9100, "ĠMá»¹": 9101, "ĠLos": 9102, "Ġsweet": 9103, "ĠWW": 9104, "Ġà¸£à¸µà¸§à¸´à¸": 9105, "Ġentert": 9106, "Ġ71": 9107, "Ġmasalah": 9108, "Ķà¸±à¸ļà¸": 9109, "using": 9110, "åħĪ": 9111, "=>": 9112, "áº¯p": 9113, "à¹Ģà¸ģà¸´à¸": 9114, "à®¿à®¯à®¿à®²à¯į": 9115, "Ġefficient": 9116, "Ġcourses": 9117, "alaman": 9118, "Ġsport": 9119, "Ġmembantu": 9120, "Ġexperienced": 9121, "To": 9122, "áŀ¶áŀŁ": 9123, "àº»": 9124, "ĠOil": 9125, "imin": 9126, "Ġcomput": 9127, "Ġadvanced": 9128, "à®¾à®ķà¯įà®ķ": 9129, "ąĈ": 9130, "Ġcolors": 9131, "ĠAssist": 9132, "áŀł": 9133, "ĠLevel": 9134, "Ġà¸ªà¸¹à¸": 9135, "ĠLocal": 9136, "áŀ¶áŀĶáŁĭ": 9137, "Ġthreat": 9138, "ĠTemplates": 9139, "ĠAnother": 9140, "nel": 9141, "aten": 9142, "ksi": 9143, "Ġguys": 9144, "Ġà®İà®©à¯įà®©": 9145, "Ġbeyond": 9146, "Ġdoub": 9147, "cribe": 9148, "Ġï»¿": 9149, "xx": 9150, "uling": 9151, "ĠBad": 9152, "éĺŁ": 9153, "Ġdá»±ng": 9154, "Ġlama": 9155, "Ġadvantage": 9156, "Ġreasons": 9157, "ĠProdu": 9158, "¸à¸Ļ": 9159, "áŀ¶áŀĻ": 9160, "ĠRepublic": 9161, "Ġ91": 9162, "áº±m": 9163, "ĠSpec": 9164, "Ġnumer": 9165, "Ġchannel": 9166, "Ġ10px": 9167, "Ġà®ķà¯ĩ": 9168, "åıĹ": 9169, "Se": 9170, "Ġpenting": 9171, "yo": 9172, "Ġà®µà®´": 9173, "Ġresponsible": 9174, "£i": 9175, "ĠNguyá»ħn": 9176, "Ġà®µà®¨à¯įà®¤": 9177, "ĠLov": 9178, "ĠInfo": 9179, "è¯Ŀ": 9180, "Ġlangsung": 9181, "çħ": 9182, "Ġà¹Ģà¸ŀà¸": 9183, "ĠCanc": 9184, "Ġtuá»ķi": 9185, "Ġfinished": 9186, "Ġ0127": 9187, "iquid": 9188, "ĠOrder": 9189, "éľ¸": 9190, "ĠCommunic": 9191, "à¹ģà¸«": 9192, "Ġmasyar": 9193, "Ġactual": 9194, "ĠMir": 9195, "åĪĽ": 9196, "Ġjalan": 9197, "Ġthr": 9198, "ĠHor": 9199, "¥à¸±à¸ĩà¸": 9200, "èĪ°": 9201, "Ġphá»ĳ": 9202, "Ġclasses": 9203, "ĠQuality": 9204, "å¦": 9205, "éħĴ": 9206, "Ġlimit": 9207, "ĠKeep": 9208, "ĠReturn": 9209, "æĿĳ": 9210, "åĽĽ": 9211, "vailability": 9212, "ĠChicago": 9213, "ĠRestaur": 9214, "ĠCS": 9215, "Ġwebkit": 9216, "Ġrecords": 9217, "Ġmasyarakat": 9218, "Ġ2nd": 9219, "Ġahead": 9220, "iau": 9221, "æĮĩ": 9222, "Ġpsych": 9223, "ľà¹Īà¸²à¸Ļà¸": 9224, "GA": 9225, "Ġwelcome": 9226, "Ġ($": 9227, "ĠWalk": 9228, "è½¯ä»¶": 9229, "rings": 9230, "ji": 9231, "Ġprepar": 9232, "Ġkemb": 9233, "ĠiP": 9234, "æĸ°éĹ»": 9235, "Ġhasil": 9236, "chester": 9237, "Ġserve": 9238, "ĠHonda": 9239, "ĠCart": 9240, "Ġtiáº¿t": 9241, "Ġà¸Ńà¸²à¸": 9242, "ĠBecause": 9243, "ĠBá»Ļ": 9244, "ĠVirgin": 9245, "æĲı": 9246, "Ġfem": 9247, "Ġadiars": 9248, "¢à¸±à¸ĩà¸": 9249, "arian": 9250, "Ġalone": 9251, "ĠLin": 9252, "ķà¹Įà¸": 9253, "Ġnearly": 9254, "áŁĴáŀľ": 9255, "é£ŀ": 9256, "Ġinterior": 9257, "uruh": 9258, "pective": 9259, "Ġcompleted": 9260, "Ġé¦": 9261, "MS": 9262, "Ġtask": 9263, "ĠLouis": 9264, "iciency": 9265, "Ġãĥ": 9266, "Ġattract": 9267, "Ġ0732": 9268, "ĠTimes": 9269, "Ġ='": 9270, "Ġtrial": 9271, "Ġshared": 9272, "Ġrace": 9273, "Ġdom": 9274, "Ġlands": 9275, "MA": 9276, "Ġearlier": 9277, "Ġlovely": 9278, "Ġà¹ĥà¸Ļ": 9279, "cean": 9280, "ĠÄĳáº¡o": 9281, "à¹Ģà¸£à¸²": 9282, "town": 9283, "ĠÄĳáº·t": 9284, "ftar": 9285, "Ġobat": 9286, "Ġresume": 9287, "à¹ģà¸ķ": 9288, "Ġsekali": 9289, "ªà¸Ķ": 9290, "Ġ02030": 9291, "Ġä¹Ł": 9292, "Ġpertama": 9293, "Ġ01614": 9294, "à¹ģà¸Ĺ": 9295, "ĠLearn": 9296, "ĠIL": 9297, "æĺĵ": 9298, "ex_": 9299, "ĠAccessories": 9300, "Ġevidence": 9301, "ructions": 9302, "acters": 9303, "åĬ©": 9304, "´à¸Ļ": 9305, "Ġpoor": 9306, "ĠProperty": 9307, "Ġcreative": 9308, "Ġexpand": 9309, "Ġburn": 9310, "Ġalbum": 9311, "Ġbt": 9312, "ĠhÆ°á»Ľng": 9313, "itment": 9314, "atever": 9315, "áº«u": 9316, "æ¡Ī": 9317, "iáº¿m": 9318, "Ġestim": 9319, "Â°": 9320, "erapy": 9321, "§à¸±à¸Ļà¸Ĺà¸µà¹Ī": 9322, "Ġberd": 9323, "·à¸Ńà¸Ļà¸": 9324, "Ġcrush": 9325, "Ġpow": 9326, "Ġakhir": 9327, "ĠkhÃ³": 9328, "Ġforum": 9329, "03": 9330, "usah": 9331, "ĠCast": 9332, "Ġconcept": 9333, "Ġgiáº£m": 9334, "ĠLocation": 9335, "Ġbahan": 9336, "ĠSecond": 9337, "ĠPut": 9338, "Ġcentury": 9339, "ĠProfessional": 9340, "Ġupgr": 9341, "à¸Ļà¸±à¹īà¸Ļà¸": 9342, "Ġjump": 9343, "ĠbÃ¬nh": 9344, "Ġmath": 9345, "emporary": 9346, "Ĺà¸µà¹Īà¸¡à¸µà¸": 9347, "mit": 9348, "ikit": 9349, "ļà¸²à¸Ħà¸²à¸£à¹Īà¸²": 9350, "é¢Ĩ": 9351, "Time": 9352, "Ãĺ": 9353, "azz": 9354, "Ġorganis": 9355, "Ã£y": 9356, "è¯ģ": 9357, "à®µà¯ģà®®à¯į": 9358, "Ġà®ªà®²": 9359, "Ġheader": 9360, "Ġä¸ĭ": 9361, "á»¯a": 9362, "ĠâĢ¦.": 9363, "Ġsá»©c": 9364, "Ġdetermine": 9365, "à¹ĥà¸Ļà¹Ģà¸": 9366, "Ġcircuit": 9367, "ĠBit": 9368, "zh": 9369, "áŁĤáŀĽ": 9370, "Ġmempunyai": 9371, "áĢ¶áĢ¯": 9372, "ĠæľĢ": 9373, "ĠxÃ¢y": 9374, "Ġchallenge": 9375, "åĵª": 9376, "Ġwherein": 9377, "lock": 9378, "interest": 9379, "Ġremoved": 9380, "Ġbreakfast": 9381, "Ġkhá»ı": 9382, "Ķà¸±à¸ļ": 9383, "ĠSab": 9384, "Ġau": 9385, "Ġ,,,": 9386, "ĵà¸ĳ": 9387, "ĠFrance": 9388, "ªà¸²à¸¡à¸²à¸£à¸ĸ": 9389, "Ġrap": 9390, "Æ°á»£t": 9391, "respond": 9392, "Ĥà¸²à¸¢à¸": 9393, "ĠluÃ´n": 9394, "Ġvoice": 9395, "Ġsedang": 9396, "Ġsetelah": 9397, "Ġpresident": 9398, "Ġjenis": 9399, "ĠHa": 9400, "AW": 9401, "Ġfabric": 9402, "ĠÃĢ": 9403, "Ġserved": 9404, "Ġlap": 9405, "Ġvisual": 9406, "abila": 9407, "ĠFi": 9408, "Ġ077": 9409, "ĠTah": 9410, "Ġram": 9411, "den": 9412, "à¹Ģà¸ŀà¸": 9413, "Ġshape": 9414, "«à¸¡": 9415, "áŁĲ": 9416, "ĠShipping": 9417, "Ġparent": 9418, "Ã°": 9419, "ĠGeorge": 9420, "à®¾à®ļ": 9421, "Ġsequ": 9422, "ĠGlass": 9423, "æĦŁ": 9424, "à¸Ńà¸Ńà¸ģ": 9425, "Ĥà¹īà¸Ńà¸¡à¸¹à¸": 9426, "ĠFREE": 9427, "Ġsurv": 9428, "ĠmÃłu": 9429, "ĠCentre": 9430, "Ġà¸ĭà¸¶à¹Īà¸ĩà¸": 9431, "ustain": 9432, "Type": 9433, "ĠáŀĶáŁĴáŀļáŀ": 9434, "æľįåĬ¡": 9435, "ĠTidak": 9436, "à¹ģà¸¥à¹īà¸§à¸": 9437, "à®¾à®°à¯įà®ķà®³à¯į": 9438, "ĠPhys": 9439, "Ġfinding": 9440, "Ġmacam": 9441, "Ġcapacity": 9442, "Ġà®İà®©à¯įà®ª": 9443, "è®®": 9444, "à®¿à®ķà®³à¯į": 9445, "rier": 9446, "à¹Īà¸Ńà¸": 9447, "µà¹Īà¸¢à¸§à¸": 9448, "ĠFeatures": 9449, "Ġà¸§à¸´à¹Ģà¸Ħà¸£à¸²à¸°à¸«": 9450, "Ġselama": 9451, "Ġparam": 9452, "http": 9453, "Ġknew": 9454, "Ġà¹ģ": 9455, "Ġminimum": 9456, "Ġris": 9457, "Ġadik": 9458, "ĠPerform": 9459, "Ġwa": 9460, "Ġdigunakan": 9461, "Ġbonus": 9462, "Ġáŀĵáŀ·áŀĦ": 9463, "ĠDaily": 9464, "Ġrating": 9465, "ĠDuring": 9466, "Ġnghá»ĩ": 9467, "ĠÄĳáº·c": 9468, "èĲ¥": 9469, "ĠváºŃt": 9470, "ĠÃĦ": 9471, "Ġà¸«à¸£à¸·à¸Ń": 9472, "Ġtow": 9473, "Ġbáº¯t": 9474, "Advisor": 9475, "ĠDistrict": 9476, "ĠBre": 9477, "çłĶ": 9478, "åłĤ": 9479, "áº·p": 9480, "áº·ng": 9481, "Ġga": 9482, "Ġnotes": 9483, "Ġmut": 9484, "ĠCat": 9485, "reens": 9486, "Ġmeta": 9487, "à¹Ģà¸Ľ": 9488, "CL": 9489, "åįĵ": 9490, "anjut": 9491, "ĠLLC": 9492, "à®µà¯ĩ": 9493, "ªà¸Ļà¸": 9494, "à¹ģà¸ķà¹Īà¸": 9495, "ĠLE": 9496, "DA": 9497, "Ġsekarang": 9498, "©à¸±à¸": 9499, "ĠVict": 9500, "ĠChildren": 9501, "Ġengineering": 9502, "ĠEconom": 9503, "Ġremain": 9504, "Ġà®ħà®±": 9505, "Ġchair": 9506, "Ġfacilities": 9507, "Ġnor": 9508, "à¯Ģà®°": 9509, "ĠáĢģ": 9510, "ĠWestern": 9511, "odge": 9512, "elle": 9513, "avour": 9514, "ĠAB": 9515, "ķà¹Īà¸²à¸ĩ": 9516, "ĠthuáºŃt": 9517, "Ġelectronic": 9518, "Ġthanh": 9519, "ĠChair": 9520, "ship": 9521, "Ġestablished": 9522, "ihak": 9523, "èĤ¡": 9524, "isnis": 9525, "åĩĨ": 9526, "Ġà¸Ĥà¸": 9527, "è°ĥ": 9528, "olor": 9529, "berry": 9530, "ACK": 9531, "æĹ¶éĹ´": 9532, "ĠPublished": 9533, "Ġmáº¡nh": 9534, "Ġeth": 9535, "áĢ±áĢĽ": 9536, "Ġ**": 9537, "áĢĲáĢº": 9538, "fol": 9539, "fo": 9540, "à¸£à¸²à¸Ĭà¸": 9541, "ĠBang": 9542, "Ġtesting": 9543, "Ġwild": 9544, "áĢĺ": 9545, "Â³": 9546, "ĠCheap": 9547, "afe": 9548, "ĠHuman": 9549, "Ġemot": 9550, "ĠComputer": 9551, "encing": 9552, "åĳĬ": 9553, "áĢ·áĢº": 9554, "una": 9555, "Ġscen": 9556, "á»Ľi": 9557, "Ġnhanh": 9558, "Ġlett": 9559, "Ġinstitut": 9560, "ĵâĸ": 9561, "ĠPlace": 9562, "ĠLi": 9563, "IZ": 9564, "ĠPoint": 9565, "Ġwinning": 9566, "Ĭà¸´à¸": 9567, "Ġhundred": 9568, "urut": 9569, "retch": 9570, "ĠUsing": 9571, "nav": 9572, "Ġmurah": 9573, "à¹Ĥà¸£à¸ĩà¹ģà¸£à¸¡": 9574, "OB": 9575, "Ġå±": 9576, "áĢĲáĢļáĢ¹": 9577, "emap": 9578, "otton": 9579, "uhkan": 9580, "Ľà¹ĩà¸Ļà¹Ģà¸": 9581, "Ġplastic": 9582, "ĠKnow": 9583, "ĠMini": 9584, "ä»İ": 9585, "à¸Ļà¸³": 9586, "Ġoperations": 9587, "Ġmp": 9588, "vgr": 9589, "ste": 9590, "Ġheavy": 9591, "Ġiron": 9592, "ĠnhÃ¬n": 9593, "osa": 9594, "Ġarchitect": 9595, "Ġcream": 9596, "coin": 9597, "Ġdiss": 9598, "_on": 9599, "Ġdedic": 9600, "Sp": 9601, "price": 9602, "Ġcleaning": 9603, "roc": 9604, "All": 9605, "Ġedge": 9606, "Ġbought": 9607, "ikel": 9608, "Ġmá»įi": 9609, "ĠCustomer": 9610, "Ġabsolute": 9611, "áĢķáĢº": 9612, "Ġscient": 9613, "Ġtá»Ń": 9614, "Ġmaintenance": 9615, "Ġimpress": 9616, "çİĩ": 9617, "ĠáĢĶ": 9618, "Ġfactors": 9619, "Ķà¹īà¸²à¸Ļà¸": 9620, "Ġshower": 9621, "á»ķng": 9622, "åĢ¼": 9623, "SE": 9624, "win": 9625, "Ġnhá»ı": 9626, "Ġà®ħà®Ł": 9627, "ĠOK": 9628, "rors": 9629, "å£«": 9630, "ĠNamun": 9631, "ucks": 9632, "bour": 9633, "æĹħ": 9634, "vention": 9635, "Ġdish": 9636, "ĠFigure": 9637, "Ġease": 9638, "ĠDoes": 9639, "Ġà®®à®±à¯įà®±": 9640, "Ġtalking": 9641, "á»ĥ": 9642, "à¸£à¸§à¸¡à¸": 9643, "Ġedition": 9644, "ĠÃ¡": 9645, "adow": 9646, "ju": 9647, "èµ°åĬ¿åĽ¾": 9648, "ĠDR": 9649, "iÃªm": 9650, "Ġbes": 9651, "Ġunits": 9652, "ĠChapter": 9653, "à¸µà¹Īà¸¢à¸": 9654, "asure": 9655, "Ġnya": 9656, "ĠÅ": 9657, "à®²à¯Ī": 9658, "Ġguess": 9659, "stal": 9660, "Ġparking": 9661, "ĠAnalysis": 9662, "Ġbin": 9663, "Ġrub": 9664, "Ġoptim": 9665, "ĠtháºŃt": 9666, "Ġupper": 9667, "Ġäºļæ¸¸": 9668, "Ġvert": 9669, "á»«ng": 9670, "ĠAG": 9671, "Ġ1996": 9672, "ridge": 9673, "ĠCreate": 9674, "ogy": 9675, "Ġmoved": 9676, "Ġà¸ŀà¸£": 9677, "Ġshares": 9678, "à®¿à®±à¯įà®ķ": 9679, "æĭĽèģĺ": 9680, "ä½¿": 9681, "ikes": 9682, "ĠFurther": 9683, "Ġarm": 9684, "ĠMeet": 9685, "ĠStandard": 9686, "Ġslight": 9687, "Ġquyá»ģn": 9688, "ĠbÃ³ng": 9689, "ĠTak": 9690, "Ġç½ĳ": 9691, "ĠCell": 9692, "aded": 9693, "Ġdash": 9694, "à¸Ńà¸±à¸": 9695, "ĠDoor": 9696, "Ġdream": 9697, "Ùĩ": 9698, "eness": 9699, "Ġlá»Ŀi": 9700, "à®©à®°à¯į": 9701, "±à¹Īà¸ĩà¸": 9702, "æĶ¹": 9703, "Þ¨": 9704, "Ġah": 9705, "à¹Ģà¸Ńà¸ĩ": 9706, "ĠFinancial": 9707, "Ġbow": 9708, "ĠPac": 9709, "Ġcouldn": 9710, "mart": 9711, "ports": 9712, "ito": 9713, "Ġtá»¥c": 9714, "Ġeight": 9715, "ķà¸±à¹īà¸ĩ": 9716, "Ġsources": 9717, "Ġnghe": 9718, "ĠPred": 9719, "Mar": 9720, "Ġphá»¥c": 9721, "Ġlux": 9722, "Ġbrain": 9723, "àº§": 9724, "empat": 9725, "ĠFilm": 9726, "æĹĹèĪ°": 9727, "įà¸²à¸": 9728, "Ġbagian": 9729, "Ġpand": 9730, "zy": 9731, "ĠnÆ¡i": 9732, "Ġinventory": 9733, "Ġhimself": 9734, "caya": 9735, "Ġexternal": 9736, "ĠTen": 9737, "Ĭà¸Ļà¸": 9738, "Ġeconomy": 9739, "ĠPul": 9740, "Ġonto": 9741, "Ġ=>": 9742, "uetooth": 9743, "Ġdiscount": 9744, "iration": 9745, "Ġæ¸": 9746, "Ġseat": 9747, "Ľà¸¥à¸²": 9748, "ĠÃ¶": 9749, "ĠTeach": 9750, "Ġseven": 9751, "ĠÄĳÃ¡": 9752, "ĠNeed": 9753, "outhern": 9754, "ĠThomas": 9755, "Ġpieces": 9756, "Ġhaven": 9757, "Ġtrá»£": 9758, "ept": 9759, "ÃŁ": 9760, "Ġà®ħà®°à®ļ": 9761, "Ġguests": 9762, "sole": 9763, "Ġinstr": 9764, "éĽĨåĽ¢": 9765, "ĠSingap": 9766, "ĠAsk": 9767, "arts": 9768, "724": 9769, "Ġmentioned": 9770, "ĠLeave": 9771, "ĠConference": 9772, "Ġbat": 9773, "Ġ({": 9774, "Ġdepartment": 9775, "ĠBah": 9776, "ŀà¸±à¸": 9777, "APP": 9778, "iano": 9779, "Ġfish": 9780, "Ġdirector": 9781, "ĠKom": 9782, "Ġåħ¨": 9783, "ALL": 9784, "Ġwaiting": 9785, "Ĥà¸²à¸¢": 9786, "èĩªå·±": 9787, "Ġmini": 9788, "Ġprotein": 9789, "ģà¸£à¸£à¸¡à¸": 9790, "ĠClear": 9791, "ĠInsp": 9792, "Ġæ¶ĵ": 9793, "anned": 9794, "Ġfather": 9795, "Ġschedule": 9796, "Ġincred": 9797, "Ġproses": 9798, "Ġbá»Łi": 9799, "Ñı": 9800, "ĠJersey": 9801, "TV": 9802, "Ġrain": 9803, "ĠText": 9804, "ĠbÃłn": 9805, "ĠTitle": 9806, "ĠNight": 9807, "lymp": 9808, "can": 9809, "upa": 9810, "ĠãĢĤâĢĿ": 9811, "Ġselling": 9812, "ucle": 9813, "ĠTN": 9814, "ortg": 9815, "Ġ?\"": 9816, "Ġconsultant": 9817, "stract": 9818, "Ġinstance": 9819, "Ġbalance": 9820, "æ£ĭçīĮæ¸¸æĪı": 9821, "Ġdesigns": 9822, "à¹Ģà¸Ĥ": 9823, "Ġthoughts": 9824, "ĠUlt": 9825, "ĠPend": 9826, "ĠPot": 9827, "ĠáĢĴ": 9828, "ista": 9829, "ĠNS": 9830, "ĠLittle": 9831, "Ġtherefore": 9832, "áŁģáŁĩ": 9833, "Ġlah": 9834, "unte": 9835, "Ġti": 9836, "ĠRoyal": 9837, "Ġfat": 9838, "Ġshowing": 9839, "ĠEquipment": 9840, "áŁĢ": 9841, "Ġ$(\"#": 9842, "ĠGermany": 9843, "ĠInsurance": 9844, "áŀ¶áŀĦ": 9845, "ĠQuick": 9846, "ĠSau": 9847, "Ġká»³": 9848, "Ġgone": 9849, "ĠUnion": 9850, "ĠphÃ¢n": 9851, "Ġcomponents": 9852, "ĠPeter": 9853, "yer": 9854, "Ġpowerful": 9855, "Ġà¸ªà¸³à¸«": 9856, "Ġì": 9857, "Ġnorth": 9858, "UP": 9859, "Ġhelping": 9860, "áº¡y": 9861, "Ġthay": 9862, "æ¸ħ": 9863, "mond": 9864, "ĠReceipts": 9865, "Ġcovered": 9866, "Ġrasa": 9867, "ĠMinh": 9868, "ĠSingle": 9869, "rel": 9870, "Ġfees": 9871, "Ġnamed": 9872, "Ġsnow": 9873, "Ġyes": 9874, "UB": 9875, "ĠCash": 9876, "Ġmanage": 9877, "eda": 9878, "ĠPas": 9879, "Ġseparate": 9880, "_grid": 9881, "Ġattend": 9882, "ĠBE": 9883, "ļà¸£à¸´à¸©à¸±à¸": 9884, "Ġà¸ĭ": 9885, "Ñĭ": 9886, "Ġplug": 9887, "Ġhusband": 9888, "ĠMatt": 9889, "Ġfederal": 9890, "Ġhelped": 9891, "ulated": 9892, "ĠNEWPart9": 9893, "ĠScott": 9894, "ģà¸´à¸Īà¸": 9895, "ĠNOT": 9896, "ĠKit": 9897, "Ġpu": 9898, "Ġjro": 9899, "à¸Ńà¸ģ": 9900, "edy": 9901, "¥à¸±à¸": 9902, "arp": 9903, "Ġç¾": 9904, "à¹īà¸¡à¸": 9905, "ĠPenn": 9906, "Ġcompr": 9907, "Ķà¹Į": 9908, "ĠFarm": 9909, "çĮ": 9910, "åĥ": 9911, "Ġbook_": 9912, "ECT": 9913, "ĠNgh": 9914, "à¹Ĩà¸": 9915, "Ġà¹Ģà¸§à¹ĩà¸ļà¸": 9916, "à¯ģà®Łà®©à¯į": 9917, "ĠGMT": 9918, "imming": 9919, "Ġprepared": 9920, "Ġforms": 9921, "à¸Ńà¸±à¸Ļà¸": 9922, "ĠDog": 9923, "Ġcalls": 9924, "Ġaren": 9925, "áĢĻáĢ¹áĢ¸": 9926, "Ġva": 9927, "Ġship": 9928, "He": 9929, "Ġft": 9930, "Ġdetect": 9931, "«à¸§à¸": 9932, "Ġvocab": 9933, "An": 9934, "Ġgambar": 9935, "vg": 9936, "ĠEngineering": 9937, "Rep": 9938, "odel": 9939, "Ġperhaps": 9940, "Ġunc": 9941, "Ġháº¿t": 9942, "IGN": 9943, "Ġrelig": 9944, "ĠâĦ¢": 9945, "cs": 9946, "à¹Īà¸²à¸§": 9947, "¢à¸±à¸ĩ": 9948, "yat": 9949, "Ø±": 9950, "Ġà®ķà®°": 9951, "Ġà¹ģà¸Īà¸ģ": 9952, "Ġearth": 9953, "Ġà®¤à¯Ĭà®Ł": 9954, "æŃ¥": 9955, "à¸Ńà¸Ńà¸Ļà¹Ħà¸¥à¸Ļà¹Įà¸": 9956, "à¹Ħà¸Ķà¹īà¸£à¸±à¸ļà¸": 9957, "agian": 9958, "Ġpermainan": 9959, "Ġment": 9960, "Ġath": 9961, "rowse": 9962, "Ġmampu": 9963, "Ġwidget": 9964, "áŀĲ": 9965, "Ġåı¯": 9966, "Ġmovement": 9967, "Ġsurpr": 9968, "Ġiniti": 9969, "Ġwheel": 9970, "Ġstores": 9971, "à¹īà¸ĩ": 9972, "ĠBathroom": 9973, "Ġproduced": 9974, "·à¸Ńà¸ĩ": 9975, "rav": 9976, "EP": 9977, "ĠDu": 9978, "CA": 9979, "Ġdynam": 9980, "Ġphá»¥": 9981, "Ġdoctor": 9982, "Ġcharacters": 9983, "room_grid": 9984, "ŀà¯įà®ļ": 9985, "More": 9986, "Ġestablish": 9987, "ĠAtl": 9988, "Ġbiáº¿n": 9989, "ĠØ§": 9990, "ĠRepl": 9991, "Ġchiáº¿n": 9992, "iana": 9993, "à¸Ńà¸¸à¸": 9994, "Ġharm": 9995, "Ġsheet": 9996, "Ġterjadi": 9997, "Ġà¸ľà¸¹à¹īà¸": 9998, "Ġsets": 9999, "Ġtang": 10000, "Ġpray": 10001, "Ġconcentr": 10002, "Ġà®ªà®¤": 10003, "à¸²à¸ģà¸": 10004, "erint": 10005, "Ġbet365": 10006, "áĢ±áĢ¸áĢ": 10007, "Ġmaximum": 10008, "ĠShoes": 10009, "usahaan": 10010, "ĠLee": 10011, "Ġquiet": 10012, "ĠDO": 10013, "Ġconference": 10014, "Ġwis": 10015, "ĠBow": 10016, "ungg": 10017, "borhood": 10018, "ocolate": 10019, "Ġgáº§n": 10020, "Ġclosed": 10021, "ĠApplication": 10022, "Ġboy": 10023, "ĠBÃ¬nh": 10024, "ĠBB": 10025, "Ġawesome": 10026, "Ġjourney": 10027, "Ġcolle": 10028, "Un": 10029, "Ġdisp": 10030, "Ġteaching": 10031, "áĢĲáĢ¬": 10032, "ĠláºŃp": 10033, "Dec": 10034, "oor": 10035, "Ġwanita": 10036, "ĠAudio": 10037, "ĠOS": 10038, "Ġlaws": 10039, "umi": 10040, "ĠTagged": 10041, "izer": 10042, "å¾ĭ": 10043, "¸à¸Ļà¸": 10044, "Ġpropos": 10045, "Ġpair": 10046, "ĠCommission": 10047, "Ġà®®à¯ģà®¤": 10048, "bi": 10049, "estic": 10050, "Ġï¿½ï¿½ï¿½ï¿½ï¿½ï¿½": 10051, "Ġ%)": 10052, "¢à¸´à¸ĩà¸": 10053, "ĠBefore": 10054, "Ġgallery": 10055, "ĠLeather": 10056, "«à¸§à¸±à¸": 10057, "Ġbright": 10058, "ĠNatural": 10059, "ªà¸´à¸Ļà¸Ħà¹īà¸²": 10060, "Ġdomain": 10061, "ĠLord": 10062, "Ġwebsites": 10063, "Ġcorrespond": 10064, "asanya": 10065, "ªà¹Įà¸": 10066, "ĠPemb": 10067, "Ġ1995": 10068, "Ġwinter": 10069, "isis": 10070, "à¹Ħà¸£à¸": 10071, "ĠCountry": 10072, "gant": 10073, "ĸà¸¹à¸ģ": 10074, "Ġspread": 10075, "ĠæĹ©": 10076, "rig": 10077, "Ġà¹Ģà¸¥à¹Īà¸Ļà¸": 10078, "Ġpredict": 10079, "Ġapplied": 10080, "ĠsÃ¡ch": 10081, "ç®Ĺ": 10082, "æīį": 10083, "ĠGB": 10084, "iksi": 10085, "Ġmilitary": 10086, "åĪ©æĿ¥": 10087, "ĠÄĳÃ¬nh": 10088, "Ġroof": 10089, "Ġà®®à®©": 10090, "Ġseeing": 10091, "Ġ101": 10092, "Ġèĭ": 10093, "Ġpantip": 10094, "Ġplaced": 10095, "à®¿à®²à¯įà®²à¯Ī": 10096, "Ġdá»ħ": 10097, "Ġdepth": 10098, "áĢĸáĢħáĢ¹áĢ": 10099, "ronics": 10100, "ĠLimited": 10101, "à¯ģà®ķà¯į": 10102, "ĠáŀĶáŀ¶áŀĵ": 10103, "Ġtit": 10104, "Post": 10105, "Ġåħ¶": 10106, "çª": 10107, "FC": 10108, "ĺà¸¸": 10109, "ĠæĶ": 10110, "Ķà¸³": 10111, "Ġanswers": 10112, "éľĢ": 10113, "Ġmaintain": 10114, "Ġspect": 10115, "Ġtá»·": 10116, "Ġstandards": 10117, "Ġcombination": 10118, "ä¼Ĺ": 10119, "Ġobt": 10120, "Ġexecut": 10121, "ĠMá»Ļt": 10122, "ä¿®": 10123, "Ġplenty": 10124, "ĠDeal": 10125, "Ġdiagn": 10126, "Ġpresented": 10127, "ĠNO": 10128, "ĠArts": 10129, "Ġcandidate": 10130, "ĠShort": 10131, "à¸Ļà¸µà¸": 10132, "ician": 10133, "TML": 10134, "====": 10135, "nge": 10136, "Ġç¬": 10137, "ĠFlow": 10138, "Ġsex": 10139, "áĢŃáĢ¯áĢĦáĢ¹áĢ": 10140, "ĠDar": 10141, "ĠSpeed": 10142, "earing": 10143, "Ġkembali": 10144, "Ġå¨": 10145, "èı": 10146, "éĤ£": 10147, "Ġkecil": 10148, "ĠSociety": 10149, "terior": 10150, "Con": 10151, "For": 10152, "ĠVÄĥn": 10153, "UK": 10154, "å¸¦": 10155, "ĠWi": 10156, "Ġfff": 10157, "Ġà": 10158, "Ġplate": 10159, "ĠGalaxy": 10160, "ĠTa": 10161, "Ġelection": 10162, "ambah": 10163, "Ġ';": 10164, "à¹Ĥà¸¢à¸": 10165, "ĠnháºŃp": 10166, "Ġchanging": 10167, "olars": 10168, "Ġsebab": 10169, "Ġmiá»ħn": 10170, "ĠæĿ¥": 10171, "Ġ{\"": 10172, "Ġ}}": 10173, "2014": 10174, "Ġsecret": 10175, "Ġsb": 10176, "Ġsin": 10177, "Ġrental": 10178, "à¹Īà¸¡à¹Ģà¸": 10179, "áĢ±áĢĲáĢ¬": 10180, "è³": 10181, "Ġçİ¯": 10182, "Ġ20px": 10183, "VER": 10184, "ctors": 10185, "ĠçĻ¾å®¶": 10186, "Ġoppos": 10187, "Value": 10188, "ĠFeed": 10189, "Ġstruct": 10190, "DS": 10191, "Ġbawah": 10192, "inct": 10193, "Ġwine": 10194, "Ġachieve": 10195, "Ã´m": 10196, "ĠNáº¿u": 10197, "Ġupdates": 10198, "Ġwhose": 10199, "Ġrestr": 10200, "ĠvÃ´": 10201, "Ġstrugg": 10202, "________________": 10203, "æķ´": 10204, "Ġvá»±c": 10205, "ĠCategory": 10206, "Ġbila": 10207, "acle": 10208, "ªà¹Īà¸ĩà¸": 10209, "Ġfollowed": 10210, "Ġtend": 10211, "ifat": 10212, "ĠCÃ³": 10213, "à¸²à¸£à¸²à¸": 10214, "Ġåī": 10215, "ĠtiÃªn": 10216, "ĠTele": 10217, "uke": 10218, "áº£y": 10219, "Ħà¸§": 10220, "Ġ.-": 10221, "Ġtriá»ĩu": 10222, "Ġclassic": 10223, "ĠPhotograph": 10224, "ĠKep": 10225, "Ġju": 10226, "Ġacademic": 10227, "æĭī": 10228, "Ġthick": 10229, "Ġtinh": 10230, "ÞªÞ": 10231, "Ĺà¹Į": 10232, "Ġinvestig": 10233, "ĠDat": 10234, "elry": 10235, "Ġà®®à¯ģà®©": 10236, "OST": 10237, "Ġworkers": 10238, "Ġbib": 10239, "Ġleader": 10240, "ĠHospital": 10241, "ket": 10242, "ĠDia": 10243, "ĠPert": 10244, "rees": 10245, "May": 10246, "ĠArab": 10247, "à¯Īà®ķà¯į": 10248, "ĠáĢĳ": 10249, "isan": 10250, "ÙĲ": 10251, "áĢĿ": 10252, "utt": 10253, "ĠQuote": 10254, "Ġdaughter": 10255, "ĠIsrael": 10256, "indi": 10257, "áŀŁáŁĭ": 10258, "ĠInterior": 10259, "áĢ½áĢŃ": 10260, "oston": 10261, "Ùħ": 10262, "iments": 10263, "ĠÃ¦": 10264, "ayu": 10265, "Ġinstallation": 10266, "Ġà®®à¯Ĥ": 10267, "Ġäºļç¾İ": 10268, "Ġ.....": 10269, "ĠSed": 10270, "áŁĴáŀĺ": 10271, "fe": 10272, "ITY": 10273, "ĠHel": 10274, "ĵà¸°à¸": 10275, "angs": 10276, "ĠÄĳÆ°a": 10277, "ĠMember": 10278, "ĠPract": 10279, "Ġ\"\"": 10280, "Ġä¸ī": 10281, "point": 10282, "ĠgiÃ¡o": 10283, "Ġpopulation": 10284, "ĠInstall": 10285, "à¯ģà®£": 10286, "à¹īà¸Ńà¹Ģà¸": 10287, "ĠCry": 10288, "Ġ%,": 10289, "Ġà¸Ķà¸¹": 10290, "uyáº¿t": 10291, "Ð²": 10292, "Ġdiá»ĩn": 10293, "Ġselalu": 10294, "ĠPatent": 10295, "åįķåıĮ": 10296, "ungsi": 10297, "Ġviáº¿t": 10298, "ĠTrade": 10299, "ç¶": 10300, "Ġná»¯a": 10301, "Ġscroll": 10302, "ĠUnit": 10303, "à¸£à¸ĸà¸": 10304, "Ġmg": 10305, "Ġvirus": 10306, "Ġsan": 10307, "Ġist": 10308, "ĠViews": 10309, "Ġfacebook": 10310, "Ġcoup": 10311, "Ġ){.": 10312, "à¸Ńà¸²à¸«à¸²à¸£": 10313, "asion": 10314, "Ġà¹Ģà¸Ħà¸£à¸·à¹Īà¸Ńà¸ĩà¸": 10315, "Ġexperts": 10316, "utch": 10317, "Ġdung": 10318, "itamin": 10319, "dy": 10320, "¹æŀľ": 10321, "Ġà®²": 10322, "estyle": 10323, "ĠMLS": 10324, "Ġmáº¹": 10325, "Ġadian": 10326, "ĠÄĳá»©": 10327, "Ġtar": 10328, "ĠShould": 10329, "Ġfantastic": 10330, "Ġice": 10331, "Ġkiáº¿n": 10332, "ĠBuilding": 10333, "æļ": 10334, "ĠPrices": 10335, "Nov": 10336, "Ġwrapper": 10337, "å·§": 10338, "à¸µà¸Ļ": 10339, "Ġcoverage": 10340, "è§Ĥ": 10341, "iáº¿c": 10342, "Ġsuitable": 10343, "éĿĴ": 10344, "Ġrelevant": 10345, "Ġ\"]=>": 10346, "Ġcentre": 10347, "Ġæİ": 10348, "Ġà®İà®¤": 10349, "ĠSon": 10350, "Ġenjoyed": 10351, "ibat": 10352, "Ġapproximately": 10353, "ĠÂµ": 10354, "ĠCommercial": 10355, "acc": 10356, "Ġrecru": 10357, "ç½ĳæĬķ": 10358, "ĠArchives": 10359, "Ġlaptop": 10360, "ĠOutdoor": 10361, "ä¹ł": 10362, "Ġphotograph": 10363, "ĠDim": 10364, "craft": 10365, "Ġsettings": 10366, "áŁĴáŀĵáŀ»áŀĦ": 10367, "Ĥà¸¶à¹īà¸Ļà¸": 10368, "ªà¸³à¸«à¸£à¸±à¸ļ": 10369, "Ġrestaurants": 10370, "Ġabsolutely": 10371, "Ġwouldn": 10372, "Ġforex": 10373, "Ġdetailed": 10374, "Ġtechniques": 10375, "Ġjs": 10376, "à¯ģà®²": 10377, "ĠUpdate": 10378, "åħŃ": 10379, "Ġ978": 10380, "è®¯": 10381, "ĠURL": 10382, "çļ": 10383, "ĠæĢ": 10384, "aksi": 10385, "away": 10386, "Ġkept": 10387, "Ġ,-": 10388, "enger": 10389, "Ġà®ħà®¨à¯įà®¤": 10390, "ĠCT": 10391, "ĠManual": 10392, "ĠAz": 10393, "Ġ160": 10394, "Ġshap": 10395, "ç®¡çĲĨ": 10396, "Ġacid": 10397, "Ġvá»ĩ": 10398, "Ġæīĭ": 10399, "har": 10400, "ĠRun": 10401, "Ġtests": 10402, "Ġchá»©ng": 10403, "Ġcc": 10404, "Ġà®¤à¯ĩ": 10405, "Ġdecl": 10406, "Ġplants": 10407, "Ġé»": 10408, "kins": 10409, "Ġped": 10410, "Ġgirls": 10411, "¥à¸·à¸Ńà¸ģà¸": 10412, "Ġchung": 10413, "Ġseconds": 10414, "Ġkont": 10415, "à¹Ģà¸£à¸µà¸¢à¸Ļ": 10416, "å®Į": 10417, "Ġexhib": 10418, "................................": 10419, "ĠbÃ©": 10420, "Ġbrowser": 10421, "à¸£à¸§à¸Īà¸": 10422, "ĠnguyÃªn": 10423, "apped": 10424, "Ġà¹Ģà¸Ľ": 10425, "Ġsesuai": 10426, "ĠDouble": 10427, "adar": 10428, "ļà¸¸à¸": 10429, "Ġà¸Ĺà¸³": 10430, "Ġjudi": 10431, "Ġumum": 10432, "Ġ350": 10433, "¥à¹ĩà¸Ńà¸ķà¸": 10434, "Ġ360": 10435, "±à¹īà¸Ļà¸": 10436, "onym": 10437, "åĮħ": 10438, "à¹Ĥà¸£à¸Ħà¸": 10439, "à®¿à®ª": 10440, "Ġthrow": 10441, "FF": 10442, "ĠEarth": 10443, "ktop": 10444, "Ġdocuments": 10445, "Ġà®ĩà®Ł": 10446, "ĠHom": 10447, "Ġåº": 10448, "ĠConc": 10449, "æĶ¯": 10450, "Ħà¹Į": 10451, "ĠDark": 10452, "åıĭ": 10453, "Ġhoa": 10454, "à¹īà¸³à¸": 10455, "à®©à¯Ī": 10456, "ĠgÃ¢y": 10457, "agen": 10458, "Ġfol": 10459, "ĠCredit": 10460, "Ġgel": 10461, "ĠNA": 10462, "ĠGraph": 10463, "IGH": 10464, "apping": 10465, "Ġà»": 10466, "ems": 10467, "Ġdiscussion": 10468, "Ġtun": 10469, "Ġbá»ı": 10470, "Ġaid": 10471, "Ġpihak": 10472, "Ġwalking": 10473, "ademy": 10474, "Ġsenior": 10475, "esterday": 10476, "Ġforeign": 10477, "ĠTrack": 10478, "Ġå°ı": 10479, "Ġevening": 10480, "ç½®": 10481, "åıª": 10482, "Ġolder": 10483, "entic": 10484, "Ġmist": 10485, "TT": 10486, "annya": 10487, "Ġrecommended": 10488, "Ġnama": 10489, "¡à¸´à¸": 10490, "àºļ": 10491, "cap": 10492, "ĠBeautiful": 10493, "è´¨": 10494, "à¹ĥà¸«à¹īà¹Ģà¸": 10495, "å®īåįĵ": 10496, "unjuk": 10497, "auh": 10498, "Ġmand": 10499, "ĠFoundation": 10500, "coh": 10501, "áĢŃáĢ¯áĢ·": 10502, "Ġcomponent": 10503, "_b": 10504, "èĬĤ": 10505, "ĠlÃ²ng": 10506, "ĠCongress": 10507, "ĠAsh": 10508, "ĠAda": 10509, "à¹ĥà¸ª": 10510, "Ġdeveloping": 10511, "Ġcompreh": 10512, "Ġbiggest": 10513, "Ġè§": 10514, "Ġperformed": 10515, "Ġpremium": 10516, "ĠSW": 10517, "ĠsÄ©": 10518, "ĠYoung": 10519, "ĠJadi": 10520, "Ġtas": 10521, "æį®": 10522, "Ġmener": 10523, "åĤ": 10524, "ĠRight": 10525, "Ġà¹Ĥà¸Ķà¸¢": 10526, "áĤĪ": 10527, "à®£à¯įà®Łà¯ģ": 10528, "ĠOlymp": 10529, "Ġinterface": 10530, "Ġlá»£i": 10531, "Ġ2F": 10532, "ĠThree": 10533, "uster": 10534, "ICE": 10535, "¨à¸±à¸": 10536, "Ġcss": 10537, "åĮ»": 10538, "Ġvent": 10539, "ĠÃĳ": 10540, "Ġ918": 10541, "ĠcÄĥn": 10542, "áŀ·áŀı": 10543, "ĠCut": 10544, "Ġsea": 10545, "----------------": 10546, "Ġtetap": 10547, "éĿŀ": 10548, "å®¹": 10549, "¢à¸§": 10550, "ĠFac": 10551, "Ġapps": 10552, "æĸ½": 10553, "Ä©nh": 10554, "idikan": 10555, "äºīéľ¸": 10556, "Ġflight": 10557, "ĠFund": 10558, "à¹Īà¸²à¸ªà¸¸à¸Ķ": 10559, "ĠWilliam": 10560, "Ġenable": 10561, "ius": 10562, "ĠCur": 10563, "Ġgather": 10564, "ĠChem": 10565, "Ġsatisf": 10566, "Ġfactor": 10567, "Ġthus": 10568, "ĠPil": 10569, "Ġhappened": 10570, "Ġfacet": 10571, "Ġdied": 10572, "Ġot": 10573, "à®®à®¾à®©": 10574, "Ġroot": 10575, "Ġnghiá»ĩm": 10576, "éĺ²": 10577, "Ġmining": 10578, "Ġu0": 10579, "ĠAV": 10580, "ĠLarge": 10581, "ĠFloor": 10582, "èģĮ": 10583, "ĠæĹ¥": 10584, "Ġprincip": 10585, "ĠáŀĲ": 10586, "Ġberikut": 10587, "à¸´à¹Ģà¸¨à¸": 10588, "Ġfunctions": 10589, "zen": 10590, "otype": 10591, "ĠBody": 10592, "¶à¸ĩà¸": 10593, "Ġtai": 10594, "Ġnegative": 10595, "ĠTem": 10596, "Ġruns": 10597, "Ġlearned": 10598, "Ġà®ļà®¿à®±": 10599, "ĠCath": 10600, "unately": 10601, "Ġgam": 10602, "elines": 10603, "ĠGrow": 10604, "çĭ": 10605, "Â¢": 10606, "Tube": 10607, "Ġcorner": 10608, "ĠStorage": 10609, "ĠÃħ": 10610, "ampak": 10611, "Ġindependent": 10612, "icies": 10613, "Ġflash": 10614, "áĢŃáĢ³": 10615, "Ġ!âĢĿ": 10616, "Ġtracking": 10617, "Ġinformasi": 10618, "orter": 10619, "áŀ·áŀĵ": 10620, "Ġkit": 10621, "Ħà¹Įà¸": 10622, "nership": 10623, "abor": 10624, "ĠLib": 10625, "ąĆĈ": 10626, "ĠDid": 10627, "roy": 10628, "Ġrear": 10629, "à¸Ļà¹īà¸³": 10630, "ifikasi": 10631, "Ġakt": 10632, "èµĽè½¦": 10633, "words": 10634, "ĠLux": 10635, "ĠCharl": 10636, "ĠtÆ°á»£ng": 10637, "Ġobvious": 10638, "Ġà¸Ķà¸¹à¸": 10639, "oria": 10640, "Ã¹a": 10641, "_at": 10642, "aq": 10643, "rat": 10644, "ŀà¸·à¹īà¸Ļà¸": 10645, "ĠClin": 10646, "ĠEN": 10647, "engar": 10648, "Ġinstalled": 10649, "Ġjack": 10650, "æ¶Ī": 10651, "Ġmask": 10652, "uki": 10653, "ĠÄĳá»§": 10654, "Ĺı": 10655, "áĢŃáĢ¯áĢ¸áĢ": 10656, "ubah": 10657, "ĠDie": 10658, "Ġfeedback": 10659, "Ġadvent": 10660, "à¹Ĥà¸Ńà¸": 10661, "ĠHair": 10662, "ĠStory": 10663, "Ġhousing": 10664, "ĠGerman": 10665, "reath": 10666, "åºľ": 10667, "Ġà¸£à¸µà¸§à¸´à¸§": 10668, "Ġnovel": 10669, "áĢ²áĤĶ": 10670, "Ġgeneration": 10671, "Ġbeauty": 10672, "à¯ģà®ļ": 10673, "Ġà®ļà¯Ĩà®¯à¯įà®¯": 10674, "Ġterk": 10675, "Ġsector": 10676, "ĠVirginia": 10677, "Ġkhiáº¿n": 10678, "áŀĢáŀ¶áŀļáŀ": 10679, "link": 10680, "po": 10681, "Ġkiá»ĩn": 10682, "Go": 10683, "à¹Ģà¸Ń": 10684, "ĠTheir": 10685, "ongeng": 10686, "Ġloans": 10687, "ç¯ĩ": 10688, "æ·±": 10689, "Ġvote": 10690, "ĠJava": 10691, "Ġsusp": 10692, "Ġlose": 10693, "ĠSummer": 10694, "Ġefforts": 10695, "ĠDeb": 10696, "įà¸²": 10697, "«à¸ķà¸": 10698, "à¸£à¸µà¹Ģà¸": 10699, "Ġsmaller": 10700, "ĠConf": 10701, "ĠMuseum": 10702, "åħįè´¹": 10703, "à®°à®¿à®¯": 10704, "Ġdump": 10705, "å¤§åıĳ": 10706, "Ġadapt": 10707, "ĠKhÃ´ng": 10708, "hips": 10709, "eg": 10710, "Ġwaste": 10711, "é¢Ħ": 10712, "abilities": 10713, "Ġpenc": 10714, "ĠParts": 10715, "Ġ%.": 10716, "uri": 10717, "Ġ().": 10718, "ĠNhá»¯ng": 10719, "ĠEvent": 10720, "ĠSelain": 10721, "alnya": 10722, "iser": 10723, "Ġkek": 10724, "Ġdecide": 10725, "ĠPin": 10726, "Ġå°±": 10727, "Ġgrant": 10728, "Ħà¹īà¸²à¸": 10729, "«à¸¡à¸Ķ": 10730, "ĠRadio": 10731, "\\/\\/": 10732, "Ġcable": 10733, "ĠImages": 10734, "æ²¡æľī": 10735, "Ġ'][": 10736, "èĭ±": 10737, "Ġfunds": 10738, "_P": 10739, "Ġà®ĩà®µ": 10740, "Ġæ·": 10741, "Ġ180": 10742, "Ġ3rd": 10743, "Ġéĩĳ": 10744, "Ġtá»«ng": 10745, "onder": 10746, "æĿ¡": 10747, "Ġpassed": 10748, "Ġexchange": 10749, "ĠFour": 10750, "Ġà¸ªà¸Ķ": 10751, "ader": 10752, "Ġlights": 10753, "ĠÄĳa": 10754, "ĠMike": 10755, "Ġkeeping": 10756, "outs": 10757, "Ġcá»©u": 10758, "è¯Ħ": 10759, "ä¿¡æģ¯": 10760, "Ġ&#": 10761, "áĢĲáĢ²áĢ·": 10762, "åĳ¨": 10763, "ĠHomes": 10764, "kah": 10765, "GH": 10766, "åĽŃ": 10767, "à®¿à®¤à¯įà®¤à¯ģ": 10768, "Ġopinion": 10769, "789": 10770, "ĠChris": 10771, "aters": 10772, "ĠColl": 10773, "Ġà®ĩà®²à¯įà®²": 10774, "hire": 10775, "vas": 10776, "ĠPrivacy": 10777, "à¹Ĥà¸Ķà¸¢": 10778, "Ġalert": 10779, "Ġmur": 10780, "æħ": 10781, "osen": 10782, "ĠJim": 10783, "Ġnamun": 10784, "Ġleaders": 10785, "áĢĶáĢ¹": 10786, "Ġpenyakit": 10787, "ĠViet": 10788, "ĠTok": 10789, "Ġspeak": 10790, "Ġfaith": 10791, "à®Łà®¿": 10792, "ĠtÃªn": 10793, "Ġteacher": 10794, "ĠÂ¥": 10795, "ĠCAR": 10796, "ĠRen": 10797, "ĠParis": 10798, "Ġà®®à¯Ģ": 10799, "Aug": 10800, "ĠTick": 10801, "Ġexplore": 10802, "Ġign": 10803, "uta": 10804, "Ġtrig": 10805, "Ġexpensive": 10806, "Ar": 10807, "ĠCommittee": 10808, "à¯ģà®µà®¤": 10809, "ĠColumb": 10810, "lets": 10811, "agra": 10812, "Ġpenj": 10813, "Ġobtain": 10814, "ªà¸¡": 10815, "Ġpasti": 10816, "åĪĹ": 10817, "TE": 10818, "Ġdoi": 10819, "ĠStone": 10820, "ualitas": 10821, "ĠEnvironment": 10822, "Ġlabor": 10823, "Ġbermain": 10824, "ĠStrateg": 10825, "ĠThread": 10826, "ĠéĽ": 10827, "ĠAge": 10828, "ĠInclud": 10829, "ĠCru": 10830, "Ġà®¨à®¿à®²": 10831, "ãĦ": 10832, "Ħà¹īà¸²": 10833, "ĠNhÃł": 10834, "ĠCirc": 10835, "mu": 10836, "ĠÄĳÄĥng": 10837, "lebih": 10838, "Ġilm": 10839, "ĠSecret": 10840, "Ġdinner": 10841, "Ġuang": 10842, "plikasi": 10843, "ĠâĨĲ": 10844, "Ġdiá»ħn": 10845, "ĠCarolina": 10846, "Ġkid": 10847, "Ġ0166": 10848, "çĻ¾": 10849, "ĠMoney": 10850, "888": 10851, "à¸Ļà¸²": 10852, "ĠdÃłi": 10853, "Ġsensor": 10854, "ĠMonth": 10855, "éĤĢ": 10856, "Ġagreement": 10857, "roph": 10858, "Ġcá»Ńa": 10859, "ĠAku": 10860, "Ġexamples": 10861, "ĠthÆ°": 10862, "ĠAngeles": 10863, "gel": 10864, "cy": 10865, "Ġà¸Ħà¸²à¸ªà¸´à¹Ĥà¸Ļ": 10866, "Ġdebt": 10867, "áŀ¹áŀĦ": 10868, "Ġsociety": 10869, "ikat": 10870, "uba": 10871, "ĻĢâ": 10872, "ĠLot": 10873, "ĳåħĭ": 10874, "ĠMovie": 10875, "faat": 10876, "ĠWild": 10877, "ĠHaw": 10878, "à¹Ħà¸Łà¸": 10879, "ĠéĶĽ": 10880, "Ġformed": 10881, "ŀà¸±à¸ģ": 10882, "Ġtermasuk": 10883, "çĻ¾å®¶ä¹Ĳ": 10884, "Ġdisapp": 10885, "Oct": 10886, "áĤıáĢ½": 10887, "Ġå¯¹": 10888, "olesale": 10889, "Ġmau": 10890, "ortgage": 10891, "«à¹ĩà¸Ļà¸": 10892, "Ġmotiv": 10893, "Ġadire": 10894, "Ġà®µà¯Ĩà®³": 10895, "atar": 10896, "On": 10897, "Apr": 10898, "ech": 10899, "otic": 10900, "Ġmission": 10901, "ribut": 10902, "ģà¸¤à¸": 10903, "Ġsounds": 10904, "ĠIss": 10905, "Ġtruth": 10906, "Ġberada": 10907, "iba": 10908, "à¹Ģà¸£à¸·à¹Īà¸Ńà¸ĩà¸": 10909, "ĠResults": 10910, "ĵâĸĵâĸ": 10911, "Ġ};": 10912, "ias": 10913, "Ġsitus": 10914, "ĠGas": 10915, "Ġsplit": 10916, "Ġsomew": 10917, "Ġphim": 10918, "Ġexercise": 10919, "ificate": 10920, "Ġuniversity": 10921, "ĠAirport": 10922, "Ġngu": 10923, "ĠAction": 10924, "áŀ¶áŁĨáŀĦ": 10925, "ĠCoffee": 10926, "çĹ": 10927, "åĢŁ": 10928, "FA": 10929, "Ġà®ķà®²": 10930, "Ġembodiment": 10931, "ĠLay": 10932, "Ġrid": 10933, "Ġlocations": 10934, "ĠBoth": 10935, "Ġdatang": 10936, "Ġ105": 10937, "ulf": 10938, "à¹ĥà¸«à¸įà¹Ī": 10939, "ulate": 10940, "áĢģáĢº": 10941, "case": 10942, "Ġtruyá»ģn": 10943, "áĢĻáĢ¾": 10944, "æĪĳä»¬": 10945, "Ġleather": 10946, "Ġé«ĺ": 10947, "ubs": 10948, "Ġdoors": 10949, "áģ¿áĢķ": 10950, "ĠTurn": 10951, "ĠNear": 10952, "Ġmencari": 10953, "ented": 10954, "rix": 10955, "Add": 10956, "Ġà®Ĩà®©": 10957, "ĠFormat": 10958, "Ġmalam": 10959, "amps": 10960, "Ġ130": 10961, "ç¿": 10962, "åŃĹ": 10963, "ĠBoot": 10964, "Ġqverpgbel": 10965, "à¸µà¸¢à¸Ļ": 10966, "Ġä¸ĩ": 10967, "Ġmá»Ĺi": 10968, "Ġku": 10969, "bur": 10970, "Ġadol": 10971, "ducing": 10972, "Ġluar": 10973, "æµİ": 10974, "ĠJeff": 10975, "ĠLic": 10976, "Ġprovider": 10977, "CO": 10978, "ĠItaly": 10979, "ĠCit": 10980, "gets": 10981, "It": 10982, "ĠVin": 10983, "Ġwhatever": 10984, "Ġsubmit": 10985, "à¹īà¸Ńà¸¢à¸": 10986, "ĠRd": 10987, "Ġschema": 10988, "Ġà¸Ķ": 10989, "Ġhiá»ĥu": 10990, "anges": 10991, "parent": 10992, "Ġà®¤à®²": 10993, "æľīéĻĲ": 10994, "¡ng": 10995, "Ġdur": 10996, "áĢ±áĢĲáĢ¼": 10997, "áĢķáĢ¼": 10998, "Ġquáº£n": 10999, "Ġprofessionals": 11000, "</": 11001, "rik": 11002, "ĠÂ¨": 11003, "ĠGh": 11004, "Ġchuyá»ĩn": 11005, "ĠNav": 11006, "Ġmengenai": 11007, "ogen": 11008, "åıĺ": 11009, "Ġsilver": 11010, "·à¸": 11011, "Ġcred": 11012, "Ġcompetition": 11013, "Ġchallenges": 11014, "IX": 11015, "lepas": 11016, "geri": 11017, "iÃªng": 11018, "PD": 11019, "æĳ": 11020, "âĢ¦âĢ¦âĢ¦âĢ¦": 11021, "ĠÂ¡": 11022, "life": 11023, "riage": 11024, "Ġphong": 11025, "ªà¸£à¹īà¸²à¸ĩà¸": 11026, "ĠMartin": 11027, "Ġà®ªà®¯": 11028, "ĠToyota": 11029, "Ġorders": 11030, "Ġ$('.": 11031, "ĠJud": 11032, "aju": 11033, "ĠPast": 11034, "Ġexperiences": 11035, "Ġtruck": 11036, "Ġmulai": 11037, "ĠFashion": 11038, "âĢ¢": 11039, "Ġthuá»Ļc": 11040, "ĠBa": 11041, "áŀĶáŁĴáŀļáŀ": 11042, "_M": 11043, "ĠGift": 11044, "ªà¸µà¸": 11045, "Ġax": 11046, "ĠSy": 11047, "å®ģ": 11048, "ento": 11049, "ĠAve": 11050, "ex_room_grid": 11051, "ĠLuc": 11052, "ĠBob": 11053, "ÑĮ": 11054, "Sc": 11055, "Ġ[/": 11056, "ģà¸¡": 11057, "è¶ħ": 11058, "achel": 11059, "Ġclaims": 11060, "ä¸Ńå¿ĥ": 11061, "ĠTog": 11062, "Ġæł": 11063, "¯u": 11064, "ikir": 11065, "irect": 11066, "Ġkurang": 11067, "engkap": 11068, "Ġpula": 11069, "ĠPrivate": 11070, "eech": 11071, "Ġdrivers": 11072, "Ġgov": 11073, "Ġassistance": 11074, "Ġchecked": 11075, "ªà¸§à¸": 11076, "Ġcepat": 11077, "Ġfi": 11078, "Ġbecomes": 11079, "Ġrare": 11080, "Ġadvance": 11081, "izz": 11082, "adang": 11083, "ĠÃ§": 11084, "à¹īà¸ĩà¸": 11085, "cat": 11086, "ĠÄĲáº¡i": 11087, "è§ģ": 11088, "åİĨ": 11089, "åĽ´": 11090, "ĠTu": 11091, "èĭ¹æŀľ": 11092, "Ġmasing": 11093, "Ġnumerous": 11094, "ĠTapi": 11095, "ĠThanh": 11096, "åĪ«": 11097, "Ġvisitors": 11098, "ĠãĢĳãĢĲï¼": 11099, "Īâĸ": 11100, "Ġ1990": 11101, "è¿Ľè¡Į": 11102, "ĠÃ¥": 11103, "aire": 11104, "ĠMak": 11105, "ÙĴ": 11106, "Ġfloat": 11107, "rl": 11108, "ĠHope": 11109, "åħ·": 11110, "¡à¸µà¸¢": 11111, "Ġforget": 11112, "Ġexcited": 11113, "eder": 11114, "ĠTripAdvisor": 11115, "ĠchÃ¢n": 11116, "ç±»": 11117, "Ġproud": 11118, "Ġegg": 11119, "Ġgovern": 11120, "ĠConsult": 11121, "áŁĦáŀĻ": 11122, "ĠSong": 11123, "A1": 11124, "å¤§åħ¨": 11125, "Ġkhai": 11126, "Ġmá»¥c": 11127, "ĠContract": 11128, "çĬ": 11129, "âĢĭâĢĭâĢĭâĢĭâĢĭâĢĭâĢĭâĢĭ": 11130, "ĠDani": 11131, "å¡": 11132, "ĠEvents": 11133, "known": 11134, "Ġtrá»±c": 11135, "Ġmanufacturer": 11136, "Ġpharm": 11137, "Ġprocesses": 11138, "Ġdeposit": 11139, "Ġparties": 11140, "Ġmarkets": 11141, "Ġà¸£à¸²à¸Ħà¸²": 11142, "Ġdepend": 11143, "Ġtv": 11144, "ĠEU": 11145, "áº¿p": 11146, "Ġ.;": 11147, "ĠPremium": 11148, "ĠCB": 11149, "ĠIR": 11150, "Â¤": 11151, "ä»Ĭ": 11152, "ĠRay": 11153, "ĠåĪĨ": 11154, "Ġknows": 11155, "mg": 11156, "Ġjournal": 11157, "Ġ1994": 11158, "icip": 11159, "æĢĿ": 11160, "ĠMexico": 11161, "unting": 11162, "à¸²à¸¡à¸": 11163, "æµĭ": 11164, "oda": 11165, "Ľà¸¥à¸µà¹Īà¸": 11166, "ĠCC": 11167, "Ġbeat": 11168, "áĢĽáĢ¬": 11169, "night": 11170, "aham": 11171, "oster": 11172, "ĠSO": 11173, "ĠÃ³": 11174, "ĠTreat": 11175, "à¹Ĥà¸Ľà¸£": 11176, "yth": 11177, "Ġdust": 11178, "iation": 11179, "æķĪ": 11180, "Ġcas": 11181, "isp": 11182, "à¹īà¸²à¸ĩ": 11183, "Ġ140": 11184, "Data": 11185, "æĿĥ": 11186, "Ġtubuh": 11187, "à¯įà®ªà¯įà®ª": 11188, "ursing": 11189, "ĠExpress": 11190, "à¸Ļà¸³à¸": 11191, "Ġinches": 11192, "Ġmakanan": 11193, "Ġotherwise": 11194, "Ġstarts": 11195, "ĠsÃ¡t": 11196, "Ġopened": 11197, "ĠSafety": 11198, "à¯ģà®ķà®³à¯į": 11199, "áŀķ": 11200, "Ġindustrial": 11201, "Ġconvert": 11202, "Ġended": 11203, "ĠThrough": 11204, "ifier": 11205, "Ġà¸Ħà¸¸à¸ĵà¸": 11206, "ĠForex": 11207, "áŀ½áŀĻ": 11208, "à®¨": 11209, "Ġï¼ļâĢľ": 11210, "arks": 11211, "à¹īà¸Ńà¸¡": 11212, "Ġæĭ": 11213, "ä¾¿": 11214, "Ġconcrete": 11215, "ĠWhether": 11216, "æľĢæĸ°": 11217, "¶à¸ģà¸": 11218, "Ãľ": 11219, "à¯įà®ļà®¿": 11220, "Ġåħ¬": 11221, "Ġwire": 11222, "bn": 11223, "ategor": 11224, "Ġà¸«à¸£à¸·à¸Ńà¸": 11225, "su": 11226, "Ĭà¸±à¸": 11227, "Ġaccord": 11228, "Ġà®µà¯Ģ": 11229, "ģéĢŁ": 11230, "Jan": 11231, "Ġworkshop": 11232, "ĠkÃ½": 11233, "hh": 11234, "Ã¡u": 11235, "Ġkhusus": 11236, "ĠDS": 11237, "à¯Īà®ķà®³à¯į": 11238, "levision": 11239, "Ġbehavior": 11240, "Ġwash": 11241, "à¯įà®¸": 11242, "osc": 11243, "eseh": 11244, "Ġye": 11245, "åĪĨå¿«3": 11246, "à¸µà¸¢à¸ĩà¸": 11247, "Ġä½ł": 11248, "Ġvalu": 11249, "èħ": 11250, "ĠCategories": 11251, "Þ¬Þ": 11252, "Ġedu": 11253, "ĠUk": 11254, "à¹ģà¸ªà¸Ķà¸": 11255, "àºĩàº": 11256, "ŀà¸´à¹Ģà¸¨à¸": 11257, "Ġ356": 11258, "lass": 11259, "ĠMade": 11260, "Ġtypically": 11261, "Ġ365ä½ĵèĤ²æĬķæ³¨": 11262, "Ġthousands": 11263, "ĠKingdom": 11264, "Ġremote": 11265, "Ġrh": 11266, "atif": 11267, "Ġzip": 11268, "Ġcáº£nh": 11269, "bury": 11270, "ĠDriver": 11271, "Ġcorporate": 11272, "Ð¼": 11273, "Ġà¸£à¸²à¸Ħà¸²à¸": 11274, "ITH": 11275, "è®¤": 11276, "ĠJoin": 11277, "_price": 11278, "Res": 11279, "loy": 11280, "Ġfamous": 11281, "Ġaware": 11282, "ĠIII": 11283, "ILL": 11284, "ĠSend": 11285, "Ã£o": 11286, "rick": 11287, "å¢ŀ": 11288, "à¯ģà®´": 11289, "Ġorganizations": 11290, "uyá»ĩt": 11291, "Ġè¡": 11292, "Ãłu": 11293, "abat": 11294, "Ġhappens": 11295, "Ġcategories": 11296, "aud": 11297, "Ġadults": 11298, "Ġcá»ķ": 11299, "Ġartist": 11300, "ĠMiddle": 11301, "Ġagency": 11302, "Ġéķ": 11303, "ĠMach": 11304, "ĠKota": 11305, "ĠZe": 11306, "iences": 11307, "iko": 11308, "Ġwatching": 11309, "Ġ:'": 11310, "edom": 11311, "ĠHeart": 11312, "ĠAth": 11313, "ĠYouTube": 11314, "ĠWelcome": 11315, "Ġåĳ": 11316, "Ġbeds": 11317, "ĠCore": 11318, "EY": 11319, "ĠæĻ": 11320, "Ġcloth": 11321, "éªĮ": 11322, "vd": 11323, "Ġaccom": 11324, "ebabkan": 11325, "Ħà¹Īà¸°": 11326, "Ġvehicles": 11327, "Ġinstructions": 11328, "gor": 11329, "ĠALL": 11330, "ĠRom": 11331, "iking": 11332, "ĠÄĳá»Ļi": 11333, "ĠMagn": 11334, "ĠOriginal": 11335, "à¹Ĥà¸Ķà¸¢à¸": 11336, "www": 11337, "Ġshowed": 11338, "Ġà®ĵ": 11339, "Ġanimals": 11340, "Ġrandom": 11341, "Ġhá»ıi": 11342, "ĠJapanese": 11343, "Ġdiscip": 11344, "Ġkemudian": 11345, "Ġfilled": 11346, "Ġå®ī": 11347, "à¹īà¸Ńà¸Ļ": 11348, "áŁĬ": 11349, "áŀĦáŁĴáŀ": 11350, "500": 11351, "Ġmanusia": 11352, "æĪĸ": 11353, "ML": 11354, "Al": 11355, "Ġcaused": 11356, "iled": 11357, "ĠTay": 11358, "Ġà¸Ļà¸µà¹ī": 11359, "ĠClassic": 11360, "Sep": 11361, "ĠCabin": 11362, "Ġbab": 11363, "ĠCasino": 11364, "ĠchÃŃ": 11365, "ĠTheo": 11366, "Ġanc": 11367, "ĠáŀĵáŁħ": 11368, "ĠáĢ»": 11369, "Ġking": 11370, "å®Ŀ": 11371, "Ġ***": 11372, "Ġmeningkat": 11373, "Ġouter": 11374, "Ġdeck": 11375, "Ġfuse": 11376, "à¹Ĥà¸Ļà¸": 11377, "Ġchemical": 11378, "ĠStaff": 11379, "åĽł": 11380, "ĠÃĻ": 11381, "This": 11382, "Ġtaste": 11383, "Ġdefined": 11384, "à®¿à®¯à®¾à®ķ": 11385, "Ġà¸Ľà¸µ": 11386, "AI": 11387, "ļà¸£à¸´à¸ģà¸²à¸£à¸": 11388, "Ġåĵ": 11389, "Ġwireless": 11390, "Ġrend": 11391, "Ġmanner": 11392, "ĠEmploy": 11393, "Ġpemain": 11394, "ç¹": 11395, "ĠæŃ£": 11396, "å¤ª": 11397, "Ġcolour": 11398, "Ġterp": 11399, "ĠHen": 11400, "ĠUpdated": 11401, "ĠBáº¡n": 11402, "ĠMountain": 11403, "west": 11404, "Ġphase": 11405, "GR": 11406, "ĠPink": 11407, "Ġcivil": 11408, "ĠBoston": 11409, "éĤĢè¯·": 11410, "Of": 11411, "ĠDari": 11412, "ĠWriting": 11413, "Ġscene": 11414, "Ġfold": 11415, "Ġphil": 11416, "çĽ´æĴŃ": 11417, "Ľà¸±à¸įà¸": 11418, "ĠCand": 11419, "icians": 11420, "áĢ»áĢķ": 11421, "letter": 11422, "Ġsitemap": 11423, "iliar": 11424, "ĠServer": 11425, "ĠCopyright": 11426, "à¹Ģà¸Ļ": 11427, "Ġsaving": 11428, "Ġrib": 11429, "FOR": 11430, "à¸Ńà¸µà¸ģà¸": 11431, "Ġidentify": 11432, "ially": 11433, "ĠSpace": 11434, "ĠOH": 11435, "ç¦ı": 11436, "atus": 11437, "åįĩ": 11438, "Ġå½ĵ": 11439, "Jun": 11440, "à¹ģà¸ģà¸£à¸": 11441, "Ġmanufacturing": 11442, "Ġadopt": 11443, "Â¯": 11444, "Ġç¾İ": 11445, "Ġdecre": 11446, "Ġpractices": 11447, "ANT": 11448, "erman": 11449, "Ġliquid": 11450, "Ġdetermined": 11451, "ĠArm": 11452, "Ġchuáº©n": 11453, "Ĺà¸±": 11454, "Ġ->": 11455, "Ġtough": 11456, "Ġanaly": 11457, "Ġà¹Ĥà¸Ļ": 11458, "Ġnhiá»ĩm": 11459, "Ġ01724": 11460, "Ġdanger": 11461, "Ĺà¸Ħ": 11462, "Ġcontinued": 11463, "ĠGR": 11464, "Ġride": 11465, "inggu": 11466, "ĠKa": 11467, "ĠBud": 11468, "Ġresolution": 11469, "Ġdesk": 11470, "Ġchá»ĳng": 11471, "ĠASS": 11472, "çĶ±": 11473, "Ġincorpor": 11474, "Ĭé¾Ļ": 11475, "Ġkhoáº£ng": 11476, "aris": 11477, "Ġà®®à®±à¯įà®±à¯ģà®®à¯į": 11478, "Ġquote": 11479, "Ġaffordable": 11480, "Ġchain": 11481, "Ġjangan": 11482, "Ġcarbon": 11483, "ĠStation": 11484, "ĠLinks": 11485, "ĠRh": 11486, "áĢŁ": 11487, "Ġbond": 11488, "Ġec": 11489, "Ġmesin": 11490, "ĠJohnson": 11491, "oa": 11492, "QL": 11493, "Ġgiá»¯a": 11494, "eker": 11495, "Ġmine": 11496, "Ġreality": 11497, "ĠMetal": 11498, "300": 11499, "rance": 11500, "ĠÃ¸": 11501, "eat": 11502, "eries": 11503, "Ġà¸Ħà¸§à¸²à¸¡à¸": 11504, "à¯ĭà®¤à¯ģ": 11505, "ĠVo": 11506, "Ġcontext": 11507, "Ġsurvey": 11508, "ĠBat": 11509, "±à¸ĩà¸«à¸§à¸±à¸": 11510, "esehatan": 11511, "Ġbound": 11512, "ns": 11513, "èĪª": 11514, "uru": 11515, "Ġmá»©c": 11516, "DR": 11517, "Ġtea": 11518, "lywood": 11519, "à¯Īà®¨à¯įà®¤": 11520, "Ġkulit": 11521, "ĠGeorg": 11522, "ĠObama": 11523, "IVE": 11524, "acious": 11525, "Ġveget": 11526, "Ġfields": 11527, "ĠChi": 11528, "à¹Īà¸Ńà¸Ļà¸": 11529, "Ġque": 11530, "Ġbiasa": 11531, "ĠCEO": 11532, "Ġremains": 11533, "ĠTut": 11534, "ĠFast": 11535, "Ķà¸²à¸§": 11536, "ĠJon": 11537, "Ġchat": 11538, "Ġactions": 11539, "ĠKorea": 11540, "à¹Ģà¸§à¸": 11541, "Ġneck": 11542, "Ġposting": 11543, "CS": 11544, "ranty": 11545, "Ġgb": 11546, "och": 11547, "Ġmissing": 11548, "Ġkedua": 11549, "ĠTel": 11550, "ulations": 11551, "ĠTry": 11552, "nav__": 11553, "Ġá»": 11554, "ĠWilliams": 11555, "ĠLeb": 11556, "ĠDin": 11557, "orgeous": 11558, "Ġnu": 11559, "ĠLatest": 11560, "·à¹Īà¸Ńà¹Ģà¸": 11561, "arrow": 11562, "Ġå¾·": 11563, "ulture": 11564, "ante": 11565, "Ġtid": 11566, "ĠFab": 11567, "Ġpreviously": 11568, "ä½ı": 11569, "ĠGolf": 11570, "Ġbentuk": 11571, "à¹Īà¸Ńà¸Ļ": 11572, "Ġsáº¯c": 11573, "ĠLetter": 11574, "Ġcdn": 11575, "ĠGun": 11576, "à¹Ģà¸Ĺà¸µà¹Īà¸": 11577, "osoph": 11578, "Ġunless": 11579, "èĲ½": 11580, "fg": 11581, "enal": 11582, "ims": 11583, "à³į": 11584, "ĠRound": 11585, "ĠRub": 11586, "ĠAst": 11587, "Ġsekitar": 11588, "Ġpossibly": 11589, "ĠWhich": 11590, "ĠNice": 11591, "Ġà®İà®´": 11592, "ĠYe": 11593, "ĠHam": 11594, "olec": 11595, "Ġà¸«à¸²à¸": 11596, "å©": 11597, "ĠSony": 11598, "ŀà¸Ļà¸±à¸Ļà¸ļà¸Ńà¸¥": 11599, "Ġappears": 11600, "hen": 11601, "Ġpresence": 11602, "è§Ĩé¢ĳ": 11603, "Ġimpl": 11604, "Ġgarage": 11605, "ĠcÃ¢u": 11606, "ĠEffect": 11607, "Ġsemakin": 11608, "AME": 11609, "Ġrecipe": 11610, "Ĭà¸µà¸§à¸´à¸": 11611, "amaha": 11612, "Ġseluruh": 11613, "å°¼": 11614, "Ġspending": 11615, "Ġcontaining": 11616, "Feb": 11617, "ART": 11618, "Ġcoc": 11619, "ennis": 11620, "emukan": 11621, "no": 11622, "ikip": 11623, "ĠPlant": 11624, "à¯Īà®¯à¯Ī": 11625, "olis": 11626, "Ġyout": 11627, "áĢŃáĢ¯áĢĦáĢº": 11628, "ĀĀĀĀĀĀĀĀĀĀĀĀĀĀĀĀĀĀĀĀĀĀĀĀĀĀĀĀĀĀĀĀĀĀĀĀĀĀĀĀĀĀĀĀĀĀĀĀĀĀĀĀĀĀĀĀĀĀĀĀĀĀĀĀ": 11629, "Ġreplacement": 11630, "Ġâĺ": 11631, "Ġexperiment": 11632, "ªà¸°à¸": 11633, "Ġtoward": 11634, "Ġsuatu": 11635, "ĠCrusher": 11636, "Ġ104": 11637, "ĠKat": 11638, "ĠSeason": 11639, "jar": 11640, "cohol": 11641, "è¯Ń": 11642, "Ġguest": 11643, "Ġadministration": 11644, "Ġdedicated": 11645, "Ġstrategies": 11646, "Î±": 11647, "Ġinjury": 11648, "Īà¸´à¸": 11649, "ĠME": 11650, "ĠJam": 11651, "rafts": 11652, "ĠBO": 11653, "Ġmental": 11654, "ľà¸´à¸": 11655, "Ġproperly": 11656, "Ġbarang": 11657, "³à¸Ħà¸": 11658, "AIL": 11659, "à¹Ģà¸¥à¹Īà¸Ļ": 11660, "uled": 11661, "akhir": 11662, "Ġtiáº¿n": 11663, "umes": 11664, "Ľà¸£à¸°à¹Ģà¸łà¸": 11665, "á»Ńi": 11666, "fit": 11667, "eria": 11668, "°à¹ģà¸Ļ": 11669, "like": 11670, "ĠSimple": 11671, "xi": 11672, "ĠHappy": 11673, "NS": 11674, "Ġyellow": 11675, "oking": 11676, "Ġchiáº¿c": 11677, "è½¬": 11678, "ļà¹īà¸²à¸Ļà¸": 11679, "Ġedit": 11680, "Ġessays": 11681, "Ġmajority": 11682, "ĠIl": 11683, "Ġsedikit": 11684, "reams": 11685, "Ġdecisions": 11686, "ģà¸²à¸¨": 11687, "Ġpic": 11688, "ocation": 11689, "Ġ!=": 11690, "Ġowned": 11691, "Ã¢ng": 11692, "ĠMoh": 11693, "Ġtip": 11694, "Ġà¹Ģà¸ŀà¸·à¹Īà¸Ńà¸": 11695, "Ġminimal": 11696, "Ġarray": 11697, "Ġreb": 11698, "Ġæľ¬": 11699, "ĠIndustry": 11700, "ĠError": 11701, "Ġå¹¶": 11702, "éĵ¶": 11703, "à¹ģà¸ľ": 11704, "uminum": 11705, "Ġpilihan": 11706, "ªà¸µ": 11707, "ran": 11708, "ĠSyn": 11709, "Ġuc": 11710, "å¹²": 11711, "ĠQU": 11712, "ķà¸²à¸¡": 11713, "Ġtransmission": 11714, "Ġà®īà®Ł": 11715, "etahui": 11716, "ĠDisney": 11717, "iden": 11718, "ªà¸ĩà¸": 11719, "Ķà¸´à¸Ļà¸": 11720, "áĢ¬áĢĦáĢ¹áĢ": 11721, "Ġpapers": 11722, "Ħà¹Īà¸²à¸": 11723, "Ġdistribution": 11724, "ĠMix": 11725, "éħį": 11726, "Ġspons": 11727, "how": 11728, "Ġ220": 11729, "æĬĢå·§": 11730, "ells": 11731, "ľà¸¥": 11732, "Ġdisk": 11733, "Ġcontinues": 11734, "Ġçİ°": 11735, "Ġjew": 11736, "tage": 11737, "é¥": 11738, "Ġ5px": 11739, "ĠDining": 11740, "Ã¯": 11741, "ĠPolit": 11742, "ensity": 11743, "Ġbranch": 11744, "Ġà®µà®¿à®Ł": 11745, "ĠLooking": 11746, "Ġterbaru": 11747, "ĠSide": 11748, "Ġmeant": 11749, "Ġfocused": 11750, "Ġ102": 11751, "Ġminh": 11752, "Ġlunch": 11753, "éĹ®é¢ĺ": 11754, "Ġsymbol": 11755, "Ġå¹¿": 11756, "Ġsini": 11757, "Ġhonest": 11758, "ĠåįĹ": 11759, "åľ°åĿĢ": 11760, "Ġfeat": 11761, "Ġtrend": 11762, "Ġ\":[\"": 11763, "¢à¸Ńà¸": 11764, "Ġswe": 11765, "Ġleads": 11766, "å¸Ĥåľº": 11767, "agers": 11768, "Ġhr": 11769, "ĠHoliday": 11770, "±¼": 11771, "ĠxÃ¡c": 11772, "«à¹īà¸Ńà¸ĩà¸": 11773, "irds": 11774, "à¸£à¸±à¸Ĳà¸": 11775, "åħĥæ£ĭçīĮ": 11776, "Ġseeking": 11777, "Ġfacility": 11778, "à¹Ģà¸ģà¸¡à¸": 11779, "à¹Ģà¸£à¸µà¸¢à¸": 11780, "lights": 11781, "Ġapproved": 11782, "ĠStudio": 11783, "§à¸´à¸Ĺà¸¢": 11784, "Ġworry": 11785, "ahoo": 11786, "EB": 11787, "iy": 11788, "Ġgenerated": 11789, "etch": 11790, "æ¨¡": 11791, "ĠChampions": 11792, "Ġadvertising": 11793, "inan": 11794, "ĠTerms": 11795, "åĨ³": 11796, "ĠSit": 11797, "Ġsubstant": 11798, "ĠkhÃŃ": 11799, "à¹Ģà¸£à¸·à¹Īà¸Ńà¸ĩ": 11800, "ĠWireless": 11801, "ĠCa": 11802, "ĠÂ¢": 11803, "®à¸": 11804, "ĠMedicine": 11805, "Ġæĥ": 11806, "Ġgá»įi": 11807, "ĠCondition": 11808, "pool": 11809, "Ħà¸£à¸ĩà¸": 11810, "Ġpa": 11811, "ĠStudents": 11812, "akyat": 11813, "rast": 11814, "łà¸²à¸¢": 11815, "CR": 11816, "Ġsering": 11817, "à®¤à®¿": 11818, "ev": 11819, "Ġà®¨à®¿à®±": 11820, "ĠExecutive": 11821, "åı²": 11822, "à¹ģà¸¥à¸°à¹Ģà¸": 11823, "ĠKam": 11824, "ĠDemocr": 11825, "Ġná»ķi": 11826, "ĠCars": 11827, "à¹Ģà¸£à¸µà¸¢à¸Ļà¸": 11828, "Ġmovies": 11829, "Ġcombined": 11830, "onton": 11831, "ĠContent": 11832, "ĠØ§ÙĦ": 11833, "ĠDist": 11834, "à¹Ĭ": 11835, "ĠáĢĺ": 11836, "ĠSenior": 11837, "Ġteachers": 11838, "ĠLess": 11839, "Ġå»": 11840, "ĠVersion": 11841, "å³": 11842, "Ġconstruct": 11843, "Ġleadership": 11844, "Ġinterp": 11845, "ĠTin": 11846, "Ġbrief": 11847, "Ġfly": 11848, "Ġtáº¥t": 11849, "Ġstatic": 11850, "ĠÄĳá»Ŀi": 11851, "aji": 11852, "enities": 11853, "áĢĴ": 11854, "Ġà®µà¯ĩà®£à¯įà®Łà¯ģà®®à¯į": 11855, "Ġinline": 11856, "ĠSingapore": 11857, "Ġibu": 11858, "ĠHR": 11859, "ĠAddress": 11860, "unction": 11861, "umen": 11862, "ŀà¸£à¸°à¸": 11863, "Ġà®¸": 11864, "Ġingred": 11865, "çŁ": 11866, "Ĺà¹Įà¸": 11867, "Ġbecoming": 11868, "Ġtickets": 11869, "image": 11870, "dr": 11871, "ĠSpan": 11872, "Ġoccup": 11873, "áĢĲáĢ½": 11874, "ĠcÃ¡o": 11875, "ĠdÆ°á»Ľi": 11876, "æĬĬ": 11877, "Bay": 11878, "eler": 11879, "àº°àº": 11880, "ĠISBN": 11881, "Ġtotally": 11882, "Ġneighborhood": 11883, "ĠSA": 11884, "Ġcloud": 11885, "ç»Ń": 11886, "±à¸ĩà¸ģà¸¤à¸": 11887, "IH": 11888, "Ļæ¸¯": 11889, "Ġenvironmental": 11890, "Ġcommand": 11891, "amping": 11892, "áĢ¯áĢķáĢ¹áĢ": 11893, "à¸£à¸µà¹Ģà¸¡à¸µà¸¢": 11894, "ĠTerb": 11895, "Ġtekn": 11896, "ĠkÃ©": 11897, "ĠSanta": 11898, "ĠCV": 11899, "ĠRod": 11900, "tte": 11901, "Ĺà¸¢à¸": 11902, "Ġrule": 11903, "ĠAppro": 11904, "ĠAnsw": 11905, "Ġabung": 11906, "Ġstretch": 11907, "à¹Īà¸Ń": 11908, "gent": 11909, "Ġfo": 11910, "ĠField": 11911, "Ĺà¸µà¹Īà¸Īà¸°à¸": 11912, "ķà¹Īà¸²à¸ĩà¸": 11913, "ĠAltern": 11914, "Ġë": 11915, "è¿ŀ": 11916, "oding": 11917, "Ġà®ķà®¾à®²": 11918, "Ġpolicies": 11919, "Ġresidents": 11920, "ikm": 11921, "Med": 11922, "Ġbagaimana": 11923, "Ġtopics": 11924, "ļà¸Ĺà¸": 11925, "ĠcÃ¢y": 11926, "éŁ³": 11927, "Ġbrown": 11928, "ĠRa": 11929, "Ġbasket": 11930, "Ġassets": 11931, "ĠSav": 11932, "à¸£à¹Īà¸§à¸¡à¸": 11933, "ŀà¸±à¸Ĵ": 11934, "ĠRs": 11935, "bro": 11936, "Top": 11937, "ĠÂµÃĦ": 11938, "ŀį": 11939, "Ġvn": 11940, "ĠAward": 11941, "ļà¸£à¸´à¸ģà¸²à¸£": 11942, "obet": 11943, "ªà¸¡à¸±à¸": 11944, "æĵ": 11945, "ĠSquare": 11946, "Ġåıĳ": 11947, "Ġconfidence": 11948, "ĠAppl": 11949, "łà¸±à¸ĵà¸ĳ": 11950, "ĠRate": 11951, "ĠMuslim": 11952, "áŀ¶áŀĸ": 11953, "Ġreliable": 11954, "Ġregistered": 11955, "inds": 11956, "Ġleaving": 11957, "],\"": 11958, "occer": 11959, "Ġ:.": 11960, "Ġachie": 11961, "Ġ365betå®ĺç½ĳ": 11962, "adaan": 11963, "ĠÃ¤": 11964, "Ġmobil": 11965, "ĠAcademy": 11966, "Ġprotected": 11967, "éķĩ": 11968, "clusion": 11969, "ĩà¸´à¸Ļà¸Īà¸£à¸´à¸ĩ": 11970, "Ġraw": 11971, "Ġlt": 11972, "Ġmáº¡ng": 11973, "Ġvirtual": 11974, "pon": 11975, "ĠPa": 11976, "Free": 11977, "ocal": 11978, "ĠRichard": 11979, "elu": 11980, "Ġcraft": 11981, "ĠÑ": 11982, "Ġsekolah": 11983, "à®¸à¯į": 11984, "ĠOak": 11985, "apun": 11986, "à¸´à¸ĩ": 11987, "Ùı": 11988, "ĠTools": 11989, "ĠVA": 11990, "Ġquotes": 11991, "under": 11992, "ELL": 11993, "eels": 11994, "Ġrecovery": 11995, "åĨł": 11996, "2020": 11997, "cont": 11998, "Ġfif": 11999, "ĠHong": 12000, "Ġbusy": 12001, "ĠTrust": 12002, "ĠRose": 12003, "Ġgáº·p": 12004, "ĠæĪĳä»¬": 12005, "ç»ĵæŀľ": 12006, "Ġsurf": 12007, "Ġrom": 12008, "Ġå¤§åıĳå¿«ä¸ī": 12009, "Ġisland": 12010, "ĠCoast": 12011, "Ġä»Ĭ": 12012, "Ġtel": 12013, "Ġfrequency": 12014, "Ĭà¸²à¸ķà¸´": 12015, "ĠÄĳÃºng": 12016, "Ġmenarik": 12017, "Ġç¬¬": 12018, "encana": 12019, "ikipedia": 12020, "Ġdulu": 12021, "stone": 12022, "Ġmeasures": 12023, "ĠDirectory": 12024, "éĤĢè¯·çłģ": 12025, "ķà¸¥": 12026, "ĠæĲ": 12027, "Ġpassion": 12028, "otten": 12029, "Ġsuka": 12030, "Ġcrow": 12031, "è®©": 12032, "à®¾à®³à¯į": 12033, "Ġà®ªà®°": 12034, "æľīéĻĲåħ¬åı¸": 12035, "Ġaudience": 12036, "ĠÏ": 12037, "Ħà¸³à¸": 12038, "Ġsustain": 12039, "irim": 12040, "ĠStudy": 12041, "utter": 12042, "},{\"": 12043, "reme": 12044, "ige": 12045, "Ġperusahaan": 12046, "Ġcovers": 12047, "åĽ½å®¶": 12048, "Ġpenggun": 12049, "Ġly": 12050, "ĠLan": 12051, "Ġaccompl": 12052, "inda": 12053, "çĻ½": 12054, "Ġeating": 12055, "ç§°": 12056, "Ġreduced": 12057, "±à¸ģà¸©à¸": 12058, "Ġyard": 12059, "à¹Ģà¸Ħà¸£à¸Ķà¸´à¸ķ": 12060, "Ġdepending": 12061, "ĠFar": 12062, "tainment": 12063, "Ġpitch": 12064, "ĠLearning": 12065, "iform": 12066, "à¯ģà®ªà¯į": 12067, "war": 12068, "Ġ++": 12069, "çĪ±": 12070, "oral": 12071, "ĠHold": 12072, "ĠItalian": 12073, "äºĳ": 12074, "ĠSaint": 12075, "Ġcities": 12076, "ä¹ī": 12077, "Þ¨Þ": 12078, "áŁģáŀŁ": 12079, "Ġopacity": 12080, "ĠImport": 12081, "Ġvision": 12082, "ĠEs": 12083, "Ġáŀł": 12084, "Ġmostly": 12085, "ĠJackson": 12086, "«à¸¥à¸²à¸¢à¸": 12087, "Ġdiscl": 12088, "ĠResources": 12089, "ulous": 12090, "Ġpix": 12091, "Ġentertain": 12092, "Ġbear": 12093, "ĠProduction": 12094, "enna": 12095, "oses": 12096, "ĠÃ¡p": 12097, "Ġbike": 12098, "à®ŀà¯įà®ļ": 12099, "Ġexpression": 12100, "Ġéģ": 12101, "Ġcommunities": 12102, "ĠTÃ´i": 12103, "ĠLaur": 12104, "Ġroles": 12105, "pty": 12106, "Ġà¸£à¸²à¸¢à¸": 12107, "ĠEll": 12108, "asant": 12109, "Ġscan": 12110, "ĠOrigin": 12111, "ĠWithout": 12112, "Ġáº¥y": 12113, "æĻ¯": 12114, "ĠValue": 12115, "Ġháº¡n": 12116, "Ìĥ": 12117, "icted": 12118, "Ġwilling": 12119, "ĠSEO": 12120, "ĠBol": 12121, "Ġlighting": 12122, "åĬŁ": 12123, "åį¡": 12124, "ĠEP": 12125, "Þ°Þ": 12126, "w66": 12127, "Ġkiá»ĥm": 12128, "ļà¹Ģà¸": 12129, "ouston": 12130, "abel": 12131, "Ġdistrict": 12132, "ĠSus": 12133, "Ġ'.": 12134, "ĠMT": 12135, "ĠFA": 12136, "à®°à¯ģà®®à¯į": 12137, "ĠLA": 12138, "ĠChange": 12139, "áŁĨáŀĸ": 12140, "ĠConstruction": 12141, "Ġradius": 12142, "ªà¸´à¸Ĺà¸ĺ": 12143, "arma": 12144, "ĠInterest": 12145, "ĠMulti": 12146, "æ©": 12147, "Ġ1992": 12148, "Ġadat": 12149, "poses": 12150, "Ġà¸¨": 12151, "àº´": 12152, "ĠQueen": 12153, "ĠCommon": 12154, "omy": 12155, "ĠAfrican": 12156, "çģ«": 12157, "Ġf_": 12158, "ĠBh": 12159, "Ġclearly": 12160, "Ġcitiz": 12161, "Ġsugar": 12162, "Ġconsumer": 12163, "ĠRing": 12164, "bb": 12165, "Ġrail": 12166, "PN": 12167, "Image": 12168, "ĠSea": 12169, "Ġreceiving": 12170, "æİ§": 12171, "Ġ1993": 12172, "à¹Ģà¸ģà¸´à¸Ķà¸": 12173, "ione": 12174, "water": 12175, "¸à¹Īà¸¡à¸": 12176, "ĠHon": 12177, "Ġhá»¯u": 12178, "holder": 12179, "_C": 12180, "Ġsurgery": 12181, "vi": 12182, "Ġimproved": 12183, "Ġtherm": 12184, "Ġslightly": 12185, "Ġbegitu": 12186, "Ġhá»Ĺ": 12187, "usat": 12188, "Ġcrack": 12189, "ĠSelf": 12190, "Ġtrees": 12191, "ĠBlank": 12192, "ļà¸²à¸ĩà¸": 12193, "èªī": 12194, "Ġ112": 12195, "Ġchia": 12196, "ĠJer": 12197, "à¹ģà¸Ļà¸°": 12198, "ĠSL": 12199, "Ãłm": 12200, "Ġast": 12201, "ĠFederal": 12202, "ĠES": 12203, "Ġtd": 12204, "é±¼": 12205, "ĭà¸·à¹īà¸Ń": 12206, "Ġmáº¥t": 12207, "Ġleaves": 12208, "ĠMaybe": 12209, "erintah": 12210, "Ġlicense": 12211, "áŁĦáŀĢ": 12212, "Ġnhu": 12213, "Ġbirthday": 12214, "rove": 12215, "Ġ---": 12216, "áŁĨáŀİ": 12217, "ªà¸Ńà¸ļà¸": 12218, "ĠFootball": 12219, "«à¹ĩà¸Ļ": 12220, "Ġhire": 12221, "ĠbÃł": 12222, "asp": 12223, "Ġçİ¯äºļ": 12224, "Ġà¸¡à¸²": 12225, "áŁł": 12226, "IO": 12227, "ĠCu": 12228, "ĠVari": 12229, "Ġaccident": 12230, "ªà¸³à¸Ħà¸": 12231, "quir": 12232, "Ġvolunte": 12233, "Ġandroid": 12234, "ĠNJ": 12235, "ĭà¸µ": 12236, "ĠRegister": 12237, "cepts": 12238, "è»": 12239, "ulah": 12240, "Ġputting": 12241, "ĠInte": 12242, "áĢ±áĢľ": 12243, "ulty": 12244, "emen": 12245, "ĠThÃłnh": 12246, "Ġratings": 12247, "Ġtor": 12248, "ĠColorado": 12249, "Ľà¸¥à¸²à¸": 12250, "Ġrise": 12251, "Ġterr": 12252, "áº¢": 12253, "ĠJual": 12254, "à¸£à¸ĸ": 12255, "ullah": 12256, "ĠIntel": 12257, "ravel": 12258, "Ġtap": 12259, "Ġub": 12260, "ĠWA": 12261, "iors": 12262, "Ġspecifically": 12263, "åĩł": 12264, "Ġnearby": 12265, "ĠCer": 12266, "Ġhel": 12267, "Ġtranh": 12268, "Ġconvenient": 12269, "ĠgÃ³": 12270, "Ġclinical": 12271, "ĠFinance": 12272, "ĠPacific": 12273, "Ġkill": 12274, "idth": 12275, "Ġ???": 12276, "Ġláº¥y": 12277, "Æ°Æ¡i": 12278, "ĠEM": 12279, "à®¿à®ķà¯į": 12280, "ĠVá»Ľi": 12281, "æķĻèĤ²": 12282, "issue": 12283, "abol": 12284, "Ġsongs": 12285, "à®ķà¯įà®ķà¯ģ": 12286, "Ġhardware": 12287, "ĠCharles": 12288, "å·Ŀ": 12289, "çł´": 12290, "Ġà®ļà®®": 12291, "Ġexciting": 12292, "Ġconcerns": 12293, "ĠTechnical": 12294, "à®¿à®¯à¯ģà®®à¯į": 12295, "åºĨ": 12296, "Ġinspect": 12297, "Ġchoices": 12298, "ĠResort": 12299, "Ġ/\">": 12300, "Ġkond": 12301, "ģà¸§à¹Īà¸²à¸": 12302, "ĠBirth": 12303, "Ġ115": 12304, "ĠPu": 12305, "Ġautomatically": 12306, "New": 12307, "åıĤ": 12308, "ĠOwn": 12309, "ĠSom": 12310, "Ġlegis": 12311, "å°±æĺ¯": 12312, "Ġtangan": 12313, "ĠåĮĹäº¬pk10": 12314, "Ġbadan": 12315, "Ġmodal": 12316, "Ħà¸·à¸Ń": 12317, "è´£": 12318, "Ġpc": 12319, "ĠPages": 12320, "ĠBrook": 12321, "ĠAvenue": 12322, "à¹Ĥà¸¥à¸ģ": 12323, "Ġweak": 12324, "adikan": 12325, "Ġwriter": 12326, "Ġraised": 12327, "łà¸²à¸©à¸²": 12328, "¡à¸±à¸Ļà¸": 12329, "åĳ½": 12330, "ĠAF": 12331, "code": 12332, "Ġfourth": 12333, "IST": 12334, "ä¹°": 12335, "gara": 12336, "Ġmá»Ł": 12337, "Ġà®¨à®¾à®©à¯į": 12338, "ĠOhio": 12339, "ustries": 12340, "Ġbearing": 12341, "Ġtherapy": 12342, "ulkan": 12343, "_f": 12344, "ĠTalk": 12345, "Ġ123": 12346, "_B": 12347, "Ġpassword": 12348, "Ġelectrical": 12349, "ĠBes": 12350, "ĠtrÆ°á»Łng": 12351, "éĶĢ": 12352, "Ġdivid": 12353, "ĠTrang": 12354, "ç©¶": 12355, "itz": 12356, "ĠÄĳáº¥u": 12357, "ĠPick": 12358, "Ġtables": 12359, "ĠcÆ°": 12360, "Ĥà¹īà¸Ńà¸": 12361, "elled": 12362, "net": 12363, "ĠMu": 12364, "ellite": 12365, "Ġà®¤à®©": 12366, "Ġven": 12367, "ĠER": 12368, "áŁĴáŀĳ": 12369, "ĠPolice": 12370, "ĠMust": 12371, "ilit": 12372, "Ġmoz": 12373, "Ġairport": 12374, "Ġdashboard": 12375, "ĠDiscuss": 12376, "ĠCamera": 12377, "IES": 12378, "Ġconsidering": 12379, "Ġilmu": 12380, "Ġpartners": 12381, "Ġà®ħà®¤à®¿à®ķ": 12382, "Ġpor": 12383, "ĠMail": 12384, "å·¥ç¨ĭ": 12385, "Ġmanaged": 12386, "Ġconsumers": 12387, "ĠðŁĺ": 12388, "ĠCapt": 12389, "Ġfavour": 12390, "Ġbrands": 12391, "Jul": 12392, "à¸²à¸¡": 12393, "Ġrevenue": 12394, "Ġpractical": 12395, "å»ºè®¾": 12396, "Ġadministr": 12397, "ĠÄĳáº§y": 12398, "Ġapabila": 12399, "Ã£ng": 12400, "Ġaspects": 12401, "tor": 12402, "æĬ¤": 12403, "åŃĺ": 12404, "ĠHari": 12405, "å¿ħ": 12406, "ĠLabor": 12407, "ĠBoy": 12408, "Ġkick": 12409, "Ġcá»±c": 12410, "Ġæį": 12411, "à®¾à®¤à¯ģ": 12412, "åĨį": 12413, "ĠÂ¦": 12414, "Ġsofa": 12415, "Ġbrings": 12416, "áŁĴáŀĭ": 12417, "ĠPayment": 12418, "ĠKB": 12419, "à¯ģà®ķà¯įà®ķà¯ģà®®à¯į": 12420, "¡à¸±à¸Ļ": 12421, "ĠDiamond": 12422, "Ġkej": 12423, "ajah": 12424, "è´Ń": 12425, "alo": 12426, "ç«ł": 12427, "ĠÄĳáº£m": 12428, "Ġboost": 12429, "uries": 12430, "Ġrapid": 12431, "anging": 12432, "Ġprocedure": 12433, "Ġsympt": 12434, "Ġà®Ĩà®ķ": 12435, "ĠFestival": 12436, "Ġ302": 12437, "å½¢": 12438, "Ġkháº£": 12439, "Ġà¸Ĥà¸Ńà¸ĩ": 12440, "ĠtÃŃn": 12441, "ĠRO": 12442, "ĠRating": 12443, "Ġprototype": 12444, "ĠTuy": 12445, "Ġmemberi": 12446, "Ġdok": 12447, "çº¢": 12448, "going": 12449, "ķà¸ģà¸": 12450, "Ġkg": 12451, "aba": 12452, "Ġbinary": 12453, "ĠOx": 12454, "alkan": 12455, "Ġmáº«u": 12456, "ĠDefin": 12457, "åģĩ": 12458, "à¸£à¸´à¸¡à¸": 12459, "ĠtÆ°Æ¡ng": 12460, "ĠAndrew": 12461, "ĠSpanish": 12462, "Ġinsert": 12463, "å¤©åłĤ": 12464, "We": 12465, "ĠScreen": 12466, "Ġà®ķà®Łà¯įà®Ł": 12467, "á»ĵm": 12468, "ĠWeight": 12469, "ĠSuit": 12470, "à¸Ńà¸·à¹Īà¸Ļ": 12471, "Ġasking": 12472, "heet": 12473, "Ĺà¸±à¸": 12474, "Ġexplain": 12475, "ĠPsych": 12476, "à®¾à®¯à¯į": 12477, "essions": 12478, "alami": 12479, "à¹ĩà¸Ħ": 12480, "ĠHost": 12481, "215": 12482, "Ġèĩª": 12483, "ĠAgen": 12484, "ĠSolutions": 12485, "Ĺà¸ĩà¸ļà¸Ńà¸¥": 12486, "Ġä¸ľ": 12487, "ĠThose": 12488, "ĠSteve": 12489, "ÙĪ": 12490, "ĠGiÃ¡": 12491, "Ġorganic": 12492, "ĺà¸¸à¸£à¸": 12493, "Ġtech": 12494, "Ġsubmitted": 12495, "à¹Ģà¸Ķà¸": 12496, "Ġà®ļà¯Ĭà®²à¯įà®²": 12497, "Ġfram": 12498, "Ġserving": 12499, "Ġprepare": 12500, "à®¤à¯Ī": 12501, "Ġ011314": 12502, "ĠRights": 12503, "ajaran": 12504, "à®¾à®±à¯įà®±": 12505, "ç»´": 12506, "ĠUm": 12507, "ä»£çĲĨ": 12508, "Ġlá»±a": 12509, "Ġfear": 12510, "ĠSoft": 12511, "Ġalat": 12512, "¸à¸¡à¸": 12513, "Ġfailure": 12514, "yak": 12515, "ighter": 12516, "Ġwel": 12517, "Īà¸³": 12518, "ä»½": 12519, "ĠStudent": 12520, "eball": 12521, "razil": 12522, "Ġká»¹": 12523, "uhi": 12524, "¨à¸²à¸ªà¸": 12525, "Ġtá»ĳi": 12526, "ĠMinister": 12527, "Ġbahasa": 12528, "ĠäºĮ": 12529, "áŁį": 12530, "_1": 12531, "ĠRussian": 12532, "Ġminor": 12533, "Ġmonthly": 12534, "ĠJac": 12535, "Ġ4th": 12536, "Ġcant": 12537, "paper": 12538, "Ġvertical": 12539, "åĦ¿": 12540, "Ġtrigger": 12541, "ordan": 12542, "Ġdanh": 12543, "TD": 12544, "spot": 12545, "embang": 12546, "SI": 12547, "ĠHello": 12548, "Ġcycle": 12549, "à¹ĭ": 12550, "Ġbod": 12551, "Ġmachines": 12552, "«à¸į": 12553, "Ġgoods": 12554, "à¸£à¸²à¸¢": 12555, "ĠAy": 12556, "ĠSym": 12557, "Ġgolf": 12558, "oven": 12559, "Ġ!)": 12560, "Ġç¥": 12561, "Ġproceed": 12562, "Ġanimal": 12563, "Ġsupported": 12564, "Ġexclud": 12565, "Ġben": 12566, "ĠPER": 12567, "ä¸Ģç¯ĩ": 12568, "ç»ľ": 12569, "Ġatm": 12570, "Ġallowing": 12571, "ĠFresh": 12572, "à¯įà®¨": 12573, "ted": 12574, "áĢĲáĢ¼": 12575, "rior": 12576, "ediakan": 12577, "Ġthoáº¡i": 12578, "Ħà¸£à¸·à¹Īà¸Ńà¸ĩ": 12579, "ĠBased": 12580, "Ġef": 12581, "Ġà¸ªà¸¡à¸±à¸Ħà¸£": 12582, "ĠDip": 12583, "ĠApa": 12584, "à®µà¯ģ": 12585, "Ġmanufacturers": 12586, "ĠVac": 12587, "ĠKhi": 12588, "à®Łà¯ģ": 12589, "ĠCM": 12590, "hu": 12591, "Ġfruit": 12592, "ORE": 12593, "ģà¹Ģà¸Ħà¸£à¸Ķà¸´à¸ķà¸Łà¸£à¸µ": 12594, "áĢľáĢŃáĢ¯": 12595, "awn": 12596, "ŀà¸´à¹Īà¸¡à¸": 12597, "Ġ888": 12598, "ĠEver": 12599, "áĤĢ": 12600, "Ġattorney": 12601, "Ġibex_room_grid": 12602, "à¸Ńà¸²à¸Īà¸": 12603, "å¢ĥ": 12604, "Ġshirt": 12605, "Ġdelay": 12606, "Ġglad": 12607, "Ġsitting": 12608, "ĠCanadian": 12609, "ĠContinue": 12610, "æľĽ": 12611, "Ġlowest": 12612, "à¸µà¹īà¸": 12613, "Ġanywhere": 12614, "Ġtung": 12615, "Ġreached": 12616, "èµ¢": 12617, "ansion": 12618, "Ġdespite": 12619, "Ġsigned": 12620, "Ġà¸§à¸´à¸ĺà¸µ": 12621, "Ġrelationships": 12622, "Ġreferenced": 12623, "abetes": 12624, "ĠcÃłng": 12625, "ĠKind": 12626, "Ġfailed": 12627, "Ġáŀľ": 12628, "front": 12629, "ajib": 12630, "çµ": 12631, "Ġà¸ľà¸¥à¸": 12632, "à¸µà¸¢à¸§à¸": 12633, "ĠnghÄ©a": 12634, "Ġboat": 12635, "hl": 12636, "Key": 12637, "ĠLas": 12638, "Ġdl": 12639, "ªà¹Īà¸ĩ": 12640, "Ġkim": 12641, "Ġstyl": 12642, "Ġà®µà®¾à®´": 12643, "Ġclimate": 12644, "Ġtwitter": 12645, "Ġgiáº£": 12646, "ialis": 12647, "Ġfle": 12648, "Ġà®ķà¯Ĥà®±": 12649, "ĠGrey": 12650, "ĠNick": 12651, "Ġà¹ģà¸¥": 12652, "à®¿à®²à¯ģà®®à¯į": 12653, "ĠNgÆ°á»Ŀi": 12654, "Ġregistration": 12655, "ĠYellow": 12656, "è¨Ģ": 12657, "áŁĴáŀļáŀ»": 12658, "Ġvary": 12659, "ĠHay": 12660, "ľà¸¥à¸´à¸ķà¸": 12661, "Ġholding": 12662, "ĠÃ¯": 12663, "ĠSher": 12664, "±à¹īà¸Ļ": 12665, "Ġthuá»ĳc": 12666, "Press": 12667, "Ġamer": 12668, "fortunately": 12669, "ĠHous": 12670, "à¹ĩà¸Ķà¸": 12671, "Ġads": 12672, "ĠInstagram": 12673, "ĠFox": 12674, "ĠWheel": 12675, "eras": 12676, "********": 12677, "ĪâĸĪâĸ": 12678, "æĿ¿": 12679, "Ġ];": 12680, "ĶáŀŁáŁĭ": 12681, "Ġlogin": 12682, "ĺà¸£à¸£à¸¡à¸": 12683, "Ġcutting": 12684, "ç±³": 12685, "å¹¶": 12686, "Ġcos": 12687, "ailand": 12688, "ļà¸¸": 12689, "MENT": 12690, "Ġfunding": 12691, "ĠJoe": 12692, "Ġassembly": 12693, "_S": 12694, "å¤į": 12695, "Ġtheory": 12696, "Ġkap": 12697, "çħ§": 12698, "ĠExtra": 12699, "ĠExample": 12700, "Ġtypeof": 12701, "gers": 12702, "à¹ģà¸Ľà¸": 12703, "lem": 12704, "à¹Ģà¸Ĥà¹īà¸²à¸": 12705, "ĠRussia": 12706, "Ġlisten": 12707, "Ġdogs": 12708, "Ġ($(": 12709, "Ġshopify": 12710, "Ġjoined": 12711, "à¸Ļà¸²à¸Ķ": 12712, "awasan": 12713, "verter": 12714, "Ġcircum": 12715, "Ġ108": 12716, "esign": 12717, "ĠEth": 12718, "Ġbread": 12719, "Ġà¸Īà¸°à¸": 12720, "Ġemergency": 12721, "Ġhighlight": 12722, "ĠChief": 12723, "å§ĭ": 12724, "à¯ģà®³à¯įà®³à®¤à¯ģ": 12725, "ĠKalau": 12726, "Ġbeliau": 12727, "äººæ°ĳ": 12728, "ĠJu": 12729, "ĠlÆ°u": 12730, "ĠPoker": 12731, "ĠJones": 12732, "áĤĢáĢĢ": 12733, "km": 12734, "Ġvital": 12735, "Ġpup": 12736, "Ġ106": 12737, "Ġà¹ĥà¸«à¹īà¸": 12738, "iminal": 12739, "áĢĻáĢ½áĢ¬": 12740, "±à¸ĩà¸ģà¸¤à¸©": 12741, "irts": 12742, "ĠGA": 12743, "Ġappearance": 12744, "Ġemployee": 12745, "ĠAnti": 12746, "ĠMichigan": 12747, "ĠAustralian": 12748, "ĠChÃŃnh": 12749, "Ġcalendar": 12750, "Ġ365æ£ĭçīĮ": 12751, "PP": 12752, "Ġtá»©": 12753, "ç¢": 12754, "Ġdegrees": 12755, "rum": 12756, "ĠEL": 12757, "±áĢĲáĢ¬": 12758, "ĠScot": 12759, "Ġ(+": 12760, "à¸µà¸¢à¸§": 12761, "ŀà¸Ļà¸±à¸Ļ": 12762, "ĠquÃ½": 12763, "Ġmessages": 12764, "ĠArchitect": 12765, "orough": 12766, "Ġod": 12767, "ĠSound": 12768, "ĠExperience": 12769, "heets": 12770, "Ġhall": 12771, "books": 12772, "å®īåħ¨": 12773, "éł": 12774, "END": 12775, "Ġ15px": 12776, "Ġà¸£à¸±à¸ļà¸": 12777, "è²¸æ¬¾": 12778, "ģà¸İ": 12779, "ĠPerfect": 12780, "otive": 12781, "opy": 12782, "inst": 12783, "Ġdoubt": 12784, "150": 12785, "aland": 12786, "Ġberkata": 12787, "ĠPerformance": 12788, "çĥŃ": 12789, "AGE": 12790, "Ġdepan": 12791, "à®¤à¯įà®¤à®¿à®©à¯į": 12792, "Ġproposed": 12793, "Ġkeluarga": 12794, "Ġ']['": 12795, "æ¹ĸ": 12796, "å£°": 12797, "aft": 12798, "ĠVen": 12799, "ĠAbd": 12800, "Ķà¸§à¸": 12801, "ilder": 12802, "ļà¸£à¸´à¸©à¸±à¸Ĺ": 12803, "åĲ¬": 12804, "Ġpurposes": 12805, "Gr": 12806, "Ġaccounts": 12807, "ä¸ĸçķĮ": 12808, "123": 12809, "åıį": 12810, "Ġ240": 12811, "iel": 12812, "èĢģçīĮ": 12813, "ĠPoly": 12814, "å¤ĩçĶ¨": 12815, "eters": 12816, "urb": 12817, "Ġelectro": 12818, "Ġcauses": 12819, "áĢ±áĢ¬áĢĦáĢº": 12820, "Ġcompetitive": 12821, "éĴŁ": 12822, "ylvan": 12823, "Ġshift": 12824, "Ġnucle": 12825, "Ġà®īà®£": 12826, "à¸²à¸Ļà¹Ģà¸": 12827, "ĠFrancisco": 12828, "à¹Īà¸Ńà¸ĩà¸": 12829, "Ġw66": 12830, "Ġdivers": 12831, "áŀĶáŀ¶áŀĵ": 12832, "asikan": 12833, "Ġbattle": 12834, "atre": 12835, "Ġforg": 12836, "Ġtight": 12837, "áŀĵáŁĴáŀı": 12838, "Ġ/>": 12839, "Ġ)}": 12840, "Ġbola": 12841, "ĠÃ±": 12842, "ĠKarena": 12843, "Ġdelivered": 12844, "ĠEmer": 12845, "įng": 12846, "Ġconfirm": 12847, "Ġmaupun": 12848, "ĠCas": 12849, "LY": 12850, "ikian": 12851, "110": 12852, "the": 12853, "Ġwest": 12854, "è´¢": 12855, "itis": 12856, "SA": 12857, "Ġaffili": 12858, "okes": 12859, "Ġpresentation": 12860, "ĠVolume": 12861, "Ġabi": 12862, "400": 12863, "Ġyoutube": 12864, "Ġspecies": 12865, "_0": 12866, "2018": 12867, "ĠHá»ĵ": 12868, "ĠCab": 12869, "Ġ1991": 12870, "ialah": 12871, "ĠÄĳoÃłn": 12872, "Ġmengatakan": 12873, "Ġcreation": 12874, "æ½": 12875, "à®°à¯Ī": 12876, "ĠMuh": 12877, "à¯Ĩà®¯": 12878, "Ġfactory": 12879, "à¹ģà¸Ī": 12880, "Ġchart": 12881, "alle": 12882, "ªà¸³": 12883, "Ġè¥¿": 12884, "Ġkasih": 12885, "Ġcoast": 12886, "Ġkomp": 12887, "ĠâĢ³": 12888, "aza": 12889, "Ġmic": 12890, "equ": 12891, "Ġadil": 12892, "æľª": 12893, "ĈĈ": 12894, "iac": 12895, "à¹Ģà¸£à¸´": 12896, "Ġæīĭæľº": 12897, "ĠrÃµ": 12898, "Ġimportance": 12899, "ounsel": 12900, "Ġà¹Ģà¸£à¸²à¸": 12901, "ĠMur": 12902, "Ġfaster": 12903, "folio": 12904, "Ġintegrated": 12905, "ĠluáºŃt": 12906, "ĠSR": 12907, "Ĺà¸²à¸ĩà¹Ģà¸": 12908, "CP": 12909, "éº": 12910, "ĠåĲĮ": 12911, "eve": 12912, "Ġtráº£": 12913, "Ġconsole": 12914, "Delete": 12915, "·à¸Ļ": 12916, "Â¡Â£": 12917, "Ġmirror": 12918, "è¶Ĭ": 12919, "ĠåŁ": 12920, "Ġcalling": 12921, "Ġapos": 12922, "Ġcá»¥": 12923, "WD": 12924, "uits": 12925, "ĠGeorgia": 12926, "Ġpoll": 12927, "à¹ģà¸¡à¸": 12928, "ĠThink": 12929, "ĠPK": 12930, "ĠĈć": 12931, "Ġnom": 12932, "qv": 12933, "Ro": 12934, "angi": 12935, "åħ´": 12936, "inity": 12937, "à¯ģà®ķà®¿à®±": 12938, "Ġsearching": 12939, "¥à¸·à¸Ńà¸Ķà¸": 12940, "Ġroute": 12941, "Ġefficiency": 12942, "åĶ®": 12943, "achus": 12944, "igration": 12945, "ªà¸´à¹Īà¸ĩà¸": 12946, "iveness": 12947, "Ġbisnis": 12948, "ĠcomUS": 12949, "Ġ356bet": 12950, "§à¸±à¸Ļà¸Ļà¸µà¹ī": 12951, "ĠIa": 12952, "ŀáĢ¬": 12953, "ĠtoÃ¡n": 12954, "Ġï½": 12955, "Ġ$.": 12956, "Ġreturned": 12957, "Ġawal": 12958, "Ġbá»ĳ": 12959, "Ġobtained": 12960, "Ġ(),": 12961, "ĠMere": 12962, "æĶ¿åºľ": 12963, "xture": 12964, "chool": 12965, "Ġbalik": 12966, "ĠæĹ¶": 12967, "Ġsakit": 12968, "Ġsizes": 12969, "Ġà¹Ħà¸Ķà¹īà¸": 12970, "Ġintended": 12971, "ĠBroad": 12972, "Ġcharges": 12973, "ĠÂª": 12974, "Ġvacation": 12975, "uskan": 12976, "Ġâľ": 12977, "Ġplays": 12978, "áº©u": 12979, "ĠBell": 12980, "ĠRon": 12981, "Ġpurchased": 12982, "Ġç«": 12983, "phones": 12984, "Ġsecondary": 12985, "ĠPrim": 12986, "Ġà¸Ńà¸±à¸": 12987, "Ġcompos": 12988, "ĠSter": 12989, "ĠSubs": 12990, "åľĭ": 12991, "ĠhÆ°á»Łng": 12992, "ĠForums": 12993, "Ġresol": 12994, "Ġyáº¿u": 12995, "ycling": 12996, "à®¾à®ľ": 12997, "Ġà®Ĭ": 12998, "Ġcomprehensive": 12999, "Ġà®®à®ķà¯įà®ķ": 13000, "anna": 13001, "ĠMcC": 13002, "è©": 13003, "¡à¸·à¸Ńà¸ĸà¸·à¸Ń": 13004, "ameter": 13005, "elligence": 13006, "Ġsides": 13007, "ternoon": 13008, "ĠImp": 13009, "éĬ": 13010, "Ġè¦ģ": 13011, "ĠGamb": 13012, "à¹ģà¸ŀà¸": 13013, "ĠGT": 13014, "Ġjoint": 13015, "Ġçģ": 13016, "Ġcontrols": 13017, "Ġspeech": 13018, "Ġcab": 13019, "ĠNever": 13020, "ĠCapital": 13021, "ĠéĹ": 13022, "Ġu04": 13023, "orld": 13024, "Ġedited": 13025, "ĠAdvanced": 13026, "±áĢĶ": 13027, "Ġappreciate": 13028, "Ġsupplies": 13029, "ªà¸¹à¸ĩà¸": 13030, "Ġpromote": 13031, "Ġè¾": 13032, "ĠåĽł": 13033, "ĠÄĲá»©c": 13034, "Ġdefense": 13035, "rame": 13036, "etime": 13037, "ļà¸Ļà¸±à¸": 13038, "Ġkuat": 13039, "Ġsigns": 13040, "Ġox": 13041, "Ġinterests": 13042, "ĠéĤ£": 13043, "Ġà¸Ĥà¸Ńà¸ĩà¸": 13044, "force": 13045, "«à¸Ļà¸±à¸ĩà¸": 13046, "Ġfiled": 13047, "Ġ\"],\"": 13048, "à®¿à®¯à¯Ī": 13049, "Æ¯": 13050, "Â©": 13051, "Ġperj": 13052, "Ġray": 13053,
[...]
