#version: 0.2
á ŀ
á Ģ
à ®
á Ł
à º
à ¸
Ġ áŀ
à ¯
â Ģ
áĢ ¹
Ġ áĢ
âĢ ĭ
áĢ¹ áĢ
áĢ ¬
áĢ ¸
Ĵ áŀ
áĢ º
à¯ į
Ġ âĢĭ
áŁ Ĵáŀ
áĢ ¯
à »
à ¹
Ġ à®
áŀ ¶
áĢ Ń
áĢ Ģ
áŀ¶ áŀ
± áĢ
á ģ
à¯į à®
àº ²
áĢ Ħ
à¸ ²
ļ áŀ
áĢ¸ áĢ
àº Ļ
áŀ ĵ
à¸ Ļ
áŀ Ģ
à¯ ģ
áĢ Ĳ
áŀ Ħ
áĢŃ áĢ¯
Ġ àº
à¸ £
áŁ ĭ
à» Ī
áĢ ķ
à® ¿
áŀ ĺ
áĢ Ļ
à¸ Ń
áŀ ·
àº² àº
áŀ Ł
áĢ ¼
áŁ Ĩ
à¹ Ģ
à®¿ à®
àºĻ àº
áŀ Ķ
á Ĥ
áĢ Ķ
à¹ Ī
áŀ »
áĢĦ áĢ¹áĢ
áĢ ±áĢ
áŁ ģ
ģ àº
Ġ áģ
áŁĴáŀ ļáŀ
à¯ģ à®
áĢ ½
Ġ à¸
áŀ ı
à» ī
à¸² à¸
áŀ Ľ
áĢ ·
áŀ ¸
à® ¾
àº ĩ
áĢ ²
áŀ¶áŀ ĵ
à¸£ à¸
áĢ ħ
Ġáŀ Ķ
à» Ģ
à®¾ à®
áĢ ®
áŁ Ħ
à¹Ģ à¸
áĢ Ľ
áŁ Ĥ
àº °
áŀ ¾
áĢ Ĭ
à¯įà® ķ
à¹ ī
Ġáŀ Ģ
àº ±
áŀ Ļ
áĢ ±
à® °
à¸Ļ à¸
Ġáŀ ĵ
àº Ķ
âĢĭ âĢĭ
áŀ ļáŀ
áĢ ļ
á »
à¯ Ī
áŁĴáŀ ĵ
áĢ ľ
à¸Ń à¸
Ġáŀ Ł
à»Ģ àº
áŁ ĩ
áĢ ŀ
à® ¤
áŀ ĳ
áŀ ¼
ģ à¸
ĠáĢ ¡
àº Ń
áŀ ĸ
à¯įà® ¤
Ġ áŁ
áĢ¬ áĢ¸áĢ
áŀ ħ
à® ©
ĩ à¸
àº µ
áŁĴáŀ ļ
á º
áĢ «
áŁĴáŀ ı
áĢ ģ
à® Ł
Ġáŀ ĺ
áŀ ½
Ħ à¸
àº »
áĢ ¶
áŀ ĩ
® à¯į
Ġáŀ Ĭ
áĢĦ áĢº
àº §
à¸ µ
n g
áŁ ħ
Ġà® ª
áŀ ľ
Ġ à»
áŀ Ĭ
± à¸
à® ³
àº ļ
áŀ İ
áĢ »
áŀ¶áŀ ļáŀ
Ġ t
àºĩ àº
à¹Ī à¸
áŁĴáŀ Ľ
Ġà® ķ
Ġáŀ ¢
áŀ¶áŀ Ģ
áĢ °
àº° àº
à¯įà® ª
Ġáŀ ĳ
à¸ ´
áĢĢ áĢ¹áĢ
áĢĦáĢ¹áĢ ¸
Ġáģ ĭ
áŀ¶ áŁĨ
àº ´
Ġáŀ ĸ
Ġ c
ķ à¯įà®ķ
¡ à¸
áĢĶ áĢ¹áĢ
áĢ ¡
áŀ ļ
àº ¡
Ġáŀ ĩ
Ġ s
¥ à¸
ĠáĢ ±áĢ
áĢ² áĢ·
áŀ ī
à® ²
àº ģ
áĤ Ķ
áĢĢ áĢº
âĢĭâĢĭ âĢĭâĢĭ
áŀ Ĥ
áŀ ¢
à¹ Ħà¸
àº ·
Ġ .
Ġáŀ ļáŀ
áŁ ī
à¹ ģà¸
áĢ ¾
à¯Ī à®
áŀ¶áŀ Ķ
Ġ a
Ġ Ä
Ġáŀ ħ
áŀ¶áŀ ļ
ª à¸
àº ģàº
áŀ ģ
à¯įà® Ł
áŀĺ áŁĴáŀ
à¹ī à¸
áŀ ¹
àº² àºĻàº
áĢ± áĢ¬
Ġáŀ ı
n h
n a
Ġà® µ
Ġáŀ Ĥ
¢ à¸
àºĶ àº
áŁ ĥ
Ġáŀ Ľ
Ġà® ®
áŁĴáŀ Ļ
áŀ¶áŀ ı
à» į
§ à¸
ĠÄ ĳ
áĢ ĸ
ĠáŁ Ķ
àº² àºĻ
ĠáĢ Ģ
à¯ ĩ
áŀ¶áŀĢ áŁĭ
à¹ Į
à» ģàº
Ġ m
ĠáĢ Ļ
áŁĦ áŁĩ
áŀ¶áŀ ĺ
ĠáĢ ŀ
Ġà® ħ
Ķ à¸
Ġ à»Ģàº
áŀ· áŀĦ
áŀ» áŀĦ
áĢĬ áĢ¹áĢ
áĢħ áĢ¹áĢ
Ġ ,
áĢ¬ áĢ¸
à¸´ à¸
Ĺ àºµ
Ġáŀ ģ
áŁĴáŀ Ł
Ĳ áĢ¬
áĢĢ áĢŃáĢ¯
áŀ Ĺ
à¹ ĥ
Ã ł
áŀ¶áŀ Ľ
Ġà® ¤
áĤ ı
ĠáĢ ľ
à»Ī àº
áŀ¶áŀ Ł
ĠáĢ Ĳ
p a
áŀ ł
à® µ
Ĺ à¸
áĢ® áĢ¸áĢ
áŀ¶áŀĶ áŁĭ
à» ĥ
áĢĲ áĢ¹áĢ
áŀ¶áŀ Ļ
¾ áĢĢ
áĢ¯ áĢŃ
áĢ Ĩ
Ã ¡
ļ à¸
áŁĴáŀ ľ
Ġà® ļ
Ĳ áĢ¼
ĠáĢ ķ
Ġà» ģàº
áŁĤ áŀĽ
° à¸
l a
áĢķ áĢ«
Æ °
àº ¹
à®¿à® ²
áŁ Ĳ
áĢĦ áĢ¹
Ġáģ Ĭ
ĠáŀĶ áŁĴáŀļáŀ
áģ ¾áĢĢ
áĢļ áĢ¹áĢ
áĢĶ áĢº
Ġ à¹Ģà¸
Ġáŀĵ áŀ·áŀĦ
àº ¥
à¹ Ĥ
áŁģ áŁĩ
à¯ģà® ®à¯į
áŁ Ģ
Ġt h
àº²àº ¡
áŀ¶áŀ Ħ
Ĺ à¸µ
Ġs a
áŀ Ĳ
áĢķ áĢ¹áĢ
áĢ ³
áĢļ áĢ¹
ĠáĢ Ľ
àº ¸
ĠáŀĶ áŀ¶áŀĵ
» áĢķ
áĢ ĳ
áŀŁ áŁĭ
à®¿à® ¯
àº ª
¸ à¸
Ġ v
áŁĴáŀ ĺ
áĢĬ áĢº
áŁĴáŀĵ áŀ»áŀĦ
Ĥ àºŃ
ģ à¸²
áŀ· áŀı
a n
Ġà® ĩ
Ġáŀ Ĳ
áŀ· áŀĵ
àº²àº į
à¸µ à¸
áŀĢ áŀ¶áŀļáŀ
Ġ h
áŀ¹ áŀĦ
à¯ Ĩ
Ġàº ª
áŀ¶áŁĨ áŀĦ
à» Ħ
Ī à¸
áŀĶ áŁĴáŀļáŀ
áĢ® áĢ¸
áŁĦ áŀĻ
áĤ ķ
áĢĻ áĢº
Ġ pa
¨ à¯įà®¤
Ġ l
áŀ ķ
à¹ĥ à¸
àº²àº ĩ
ĠáĢ ħ
áŀ½ áŀĻ
áĢ½ áĢ¬
ķ áĢ«
« à¸
Ġà® ¨
âĢĭâĢĭâĢĭâĢĭ âĢĭâĢĭâĢĭâĢĭ
áŀĦ áŁĴáŀ
áĢĻ áĢ¹áĢ
àº į
áĢĶáĢ¹áĢ ¸
áĢħ áĢº
áŁ Ĭ
Ġ Ã
Ġáŀĵ áŁħ
Ġ b
àº± àºĻàº
ŀ à¸
áŀ¶áŀ ĸ
ª à¯įà®ª
áŁģ áŀŁ
à¸£à¸ µ
àº «
à¹Ĥ à¸
áĢļ áĢº
Ġáŀ ł
Ġ na
Ġc h
áŁĨ áŀĸ
áĢĢ áĢ¹
áģ Ģ
à® £
áŁĦ áŀĢ
¥ àº°
ķ à¸
áŁĨ áŀİ
áĢĬ áĢ¹
áģ ¿
áĢĦáĢ¹áĢ ·
áĢŃáĢ¯ áĤĶ
áĢ¯ áĢ¶
áŁ ł
áŁĴáŀ ĳ
àºĶ à»ī
áŁĴáŀ ĭ
i á»
à¹Ī à¸²à¸
áŁ į
à® ®
áĢĦáĢº áĢ¸áĢ
Ġáŀ ľ
àº²àº Ķ
áŁĴáŀļáŀ »
Ġ 1
Ġ 2
à¸Ńà¸ ĩà¸
Ķ áŀŁáŁĭ
à¯įà® ±
Ġ k
Ġàº ģ
áĢĢ áĢ¼
áŀĶ áŀ¶áŀĵ
àº± àºĻ
à¹ ĩ
áŀĵ áŁĴáŀı
àº Ľ
áŀĺ áŀ¶áŀĵ
áĢ¬ áĢĢáĢ¹áĢ
áĢ±áĢ Ķ
áĢĬáĢ¹áĢ ¸
áĢ¬ áĢĦáĢ¹áĢ¸
ĠáĢ Ĩ
áŀī áŁĴáŀ
à¸Ńà¸ ĩ
Ġ (
áĢ¶ áĢ¯
ĠáĢ ģ
Ġ Â
Ġt r
à® ±
àº Ħ
ã Ģ
áĢ±áĢ Ľ
g a
Ĺà¸µ à¹Īà¸
áŀı áŁĴáŀı
áĢĲ áĢº
ĠáŀĬ áŁĤáŀĽ
à»Ī àºŃ
Ġáŀ ķ
Æ° á»
Ġ -
à¸£ à¸²à¸
áŁĴáŀĵ áŀĢ
Ĺàºµ à»Ī
à¯ ĭ
à¹Į à¸
áĢ ĺ
ä ¸
áŀ¶áŀ ħ
áĢ· áĢº
à»ī àºŃ
à¹ ĩà¸
áŁĴáŀļáŀ ¼
Ġ nh
ģà¸² à¸£à¸
áŀĽ áŁĭ
Ġà® İ
àº± àºļ
áŀ¶áŀı áŁĭ
áŀ¾ áŀĻ
àº» à»ī
i n
Ġ à¹ģà¸
Ġáŀ Ļ
à¯įà®ķ à®³
áŀ Ĵáŀ
Ġà» ĥ
¹ à¸
áŀ¾ áŀĦ
Ġ å
áº ¡
àº ½
Ġ )
áĢĲ áĢļáĢ¹
áĢķ áĢº
´ à¸
Ġ ng
e r
Ĩ áŁĴáŀĵ
àº ¼
à®¤ à¯įà®¤
Ľ à¸
áŁĴáŀ Ħ
áŁĨ áŀĵ
ĠáĢ Ķ
Ġáŀĺ áŀ¶áŀĵ
Ġ ï
Ĭ à¸
Ġà»ģàº ¥àº°
ĠáĢ Ĵ
áŀ º
· à¹Ī
à®¿à® °
áĢĻáĢ¹áĢ ¸
áĢ± áĢ¸áĢ
áº ¿
áŀĸ áŀ¸
àº± àºĶ
áŀ½ áŀĵ
Ł à¸£à¸µ
± à¸Ļà¸
áĢĲ áĢ¬
àº²àº §
áŁĴáŀ Ĳ
áĢĸ áĢħáĢ¹áĢ
áĢŃáĢ¯ áĢĦáĢ¹áĢ
áĢ±áĢ ĲáĢ¬
ĠáĢ ĳ
à® ®à¯į
³ à¸
áŁĴáŀ Ķ
áĢ Ŀ
àº ķ
¡ áŁ
áŁĴáŀļáŀ¼ áŀľ
Ġm a
áĢ½ áĢŃ
áĢŃáĢ¯ áĢ·
à®¿à®² à¯į
Ġ :
à¸£à¸ ±à¸
Ã ´
Ġ ãĢ
áŀ¼ áŀĽ
àº Ĭ
à¸£à¸ °à¸
ĠáŀĢ áŁĴáŀĵáŀ»áŀĦ
Ġ d
áŀ¶áŀ ĩ
ĤàºŃ àºĩàº
áĤ Ī
áĢŃ áĢ³
áĢŃáĢ¯ áĢ¸áĢ
áŀ» áŀĵ
à¹ī à¸²à¸
à® ķ
Ġáŀ Ĺ
áĢ² áĤĶ
áĢĲ áĢ²áĢ·
áĢĶ áĢ¹
Ġ âĢ
áĤı áĢ½
áĢģ áĢº
áĢĻ áĢ¾
Ġàº Ħ
Ĭ áŁĴáŀĭ
à¹Ī à¸²
ĠáŀĽ áŁĦáŀĢ
Ġàº ŀ
ĨáŁĴáŀĵ áŀ¶áŁĨ
Ġàº ¡
Ġ T
Ġï ¼
áŀ» áŁĨ
à¯ Ĭ
áŀ¶áŀĵ áŁĭ
à¹ī à¸²
Ġàº Ĺ
à» Ĥ
Ĵ áŁĴáŀľ
áģ¿ áĢķ
áĢ±áĢ ĲáĢ¼
áĢķ áĢ¼
Ġ n
à¹Ħà¸ Ķ
áŀ ¡
i t
à®¿à® ©
àº ³
ĠâĢĭ âĢĭ
à¸Ń à¸Ļ
áĢĽ áĢ¬
Ĺà¸µ à¹Ī
áŁ ı
Ã ª
àº± àºĶàº
ĴáŁĴáŀľ áŀ¾
ĠáĢ »
áĢ» áĢķ
áĢ Ł
áŁģ áŀī
ľ à¸
Ġàº Ľ
áĢŃáĢ¯ áĢĦáĢº
Ġ æ
áŁĤ áŀĦ
à®¾à® °
Ġàº ģàº
« àº¼
a ng
Ħ à¸£à¸
² áŁĴáŀĻ
áŁĴáŀĦ áŁĥ
áŀĢ áŀĺáŁĴáŀ
ģà¸² à¸£
Ġ g
áŀĦ áŁĭ
ä º
áŁģ áŀĽ
àº ŀ
à®¤ à¯ģ
± à¸Ļ
áĢ¬ áĢĦáĢ¹áĢ
ĠáĢ ĺ
áŀĹ áŀ¶áŀĸ
à»Ī àºĩ
áĢ Ĵ
° à¹Ģà¸
áŁĤ áŀĢ
áĢĲ áĢ½
Ġk h
áŀ· áŀħ
àº Ī
áŁĴáŀ Ĭ
ļ à¸Ńà¸
¡ à¸²à¸
áŁĴáŀ ħ
Ġáŀ ļ
áŀ¹ áŀĢ
r a
Ġï¼ Į
àº Ĺ
à¯Īà® ¯
áŁĴáŀļáŀ ¸
ĸ à¸
ĠáŀĢ áŀ¶áŀļáŀ
áĢ¯ áĢķáĢ¹áĢ
áĢ±áĢ ľ
áĢĲ áĢ¼
áĢľ áĢŃáĢ¯
áŁ Ī
áĤ Ģ
áĤĢ áĢĢ
áĢĻ áĢ½áĢ¬
±áĢ ĲáĢ¬
áĢ±áĢ¬ áĢĦáĢº
o n
à¹Ħà¸ ¡
Ġàº ¥
ĠáŀŁ áŀĺ
áº £
Ĺàºµ à»Īàº
áŀĵ áŁģáŁĩ
Ġà¸ ªà¸
à¯ģà® ķà¯įà®ķ
Ľ à¹ĩ
áŀĩ áŀ¶
âĢĭâĢĭâĢĭâĢĭâĢĭâĢĭâĢĭâĢĭ âĢĭâĢĭâĢĭâĢĭâĢĭâĢĭâĢĭâĢĭ
áŁĲ áŀĻ
ŀ áĢ¬
±áĢ Ķ
ĠáĢ ĸ
áŀĵ áŁħ
àº§ àº²àº¡
§ à¸²à¸
±áĢ ĲáĢ¼
áĢ° áĢ¸áĢ
Ã ³
Ġáŀĩ áŀ¶
ãĢ Ĳ
ĳ ãĢĲ
¿ ½
ĠãĢ ĳãĢĲ
å ı
d a
à® ¯
ģ áĢº
áĢŀ áĢĬáĢ¹
áĢĦ áĢ·áĢº
áŁ Ķ
àº· à»ĪàºŃ
Ġ 0
à¸Ļà¸ µ
Ġáŀĵ áŁģáŁĩ
à»į à»Ī
áŀľ áŀ·
Ġa ng
à¸Ļ à¹Ģà¸
ĠáŀĢ áŀ¶áŀļ
ģ àº²àºĻàº
Ġ ç
à¯ģà® ¤
á» Ļ
à¹ĥà¸ «
ĠáŁ ¢
Ġáŀĸ áŀ¸
àº« à»ī
áŁĴáŀ Ĵáŀ
ļ Ħ
ģ áģ
Ġáŀļáŀ ĶáŀŁáŁĭ
e n
ĩ à¹Ģà¸
áĢĻ áĢ»
àº ¶
áŀĢ áŁĴáŀĵáŀ»áŀĦ
à®Ł à¯įà®Ł
Ġà¸ ª
ĳ áŁģáŀŁ
Ħà¸ §à¸²à¸
àº° à»Ģàº
Ġ p
áŀ¶áŀı áŀ·
à¹ī à¸Ńà¸
ĠáŀĬ áŁĦáŀĻ
Ġáŀ¢ áŁĴáŀĵáŀĢ
Ġà» Ħ
à®¾à® ©
ģ à¸£à¸
Ġàº ķ
áŁĬ áŀ¸
Ĥ à¸
à»Ī àº§
áĢĻ áĢ½
ĠáĢŀ áĢ°
áº ¥
áŀ¼ áŀľ
áĢ±áĢ ķ
áĢ±áĢ¬ áĢĢáĢº
å ®
áŁĴáŀļ áŁĩ
i s
áŀĺáŁĴáŀ Ķ
àº ®
r e
à¹ĥ à¸Ļà¸
à® Ļ
áŀ¼ áŀĵ
áŀĳ áŀ¸
ç ļĦ
áĢ² áĤķ
±áĢ Ľ
ĠáĢĢ áĢŃáĢ¯
± àºļ
áŀ¶áŀŁ áŁĭ
áĢ¸áĢ Ļ
Ġp h
áŀ» áŀģ
áŀŁ áŁĴáŀŁ
ĩà¸ ´
¡ à¸µà¸
à»Ħ àºĶà»ī
áĢ ¥
Ġáģ ı
áŁģ áŀħ
Ġáŀ ĨáŁĴáŀĵáŀ¶áŁĨ
áŀ¶áŀ ī
à® ¨à¯įà®¤
à¹Ī à¸Ļ
áŁĢ áŀı
i ng
Ã ¢
áĢĸ áĢ¼
Ġ à¹Ĥà¸
Ġáŀĳ áŁħ
à»Ī àº²àºĩ
· à¸Ńà¸
áŀĦáŁĴáŀ Ĥ
áŁ ¢
Ġáŀł áŀ¾áŀĻ
à®¾à® ķ
áŀ» áŀĢ
ĤàºŃ àºĩ
à¹Ħà¸Ķ à¹ī
á» ĳ
áŁĴáŀ ī
áĢ Ĥ
áŁ ¡áŁ
áŁĴáŀļáŀ ¾
æ ľ
Ĳ áĢ²áĢ·
áĢ¬áĢ¸áĢ Ļ
à¹Īà¸ ĩà¸
a t
à»Ī àº²
áŀĵ áŀ»
áŁĴáŀļáŀ» áŀĺ
áĢ¬ áĢ¹áĢ
Ġ. .
áĢģ áĢ²áĢ·
à®° à¯į
à»Ī àºĩàº
Ġáŀĺ áŀ·áŀĵ
áŀĵ áŁĴáŀĳ
¥à¸ °à¸
iá» ĩ
áŀĲ áŀ¶
ĠáĢ ±
ĠáĢ »áĢķ
áĢ¸ áĢĢ
å ħ
ĸ áŀ»
ĠáŀĲ áŀ¶
Ġm ga
à¯ Ģ
Ġàº ļ
áŀĢáŀĺáŁĴáŀ ĺ
ļ à¸²à¸
áĢ±áĢ¬ áĢº
áŀĳ áŁħ
Ġàº Ī
Ķ à¸´à¸
ļà¸Ńà¸ ¥
ĭ à¸
Ġ C
à» ľ
k an
áŀļáŀ ĬáŁĴáŀĭ
áŀĬ áŁĤáŀĽ
áĢ¯ áĢķáĢº
±à¸ ĩà¸
å ¤
Ã¡ c
à®¿à® ±
áŁĴáŀ Ĥ
Ġàº Ń
à¸£à¸ ´à¸
áŀ¼ áŀħ
áĢ¬ áĢĽ
à»Ģàº Ľ
Ġ 3
áŁĴáŀļ áŀ¶áŀĶáŁĭ
Ī à¸²à¸
ģ áĢ²áĢ·
áŀ¶áŀ Ĥ
à¯įà® ļ
áĢ±áĢĲáĢ¬ áĢ·
Ġáģ Ĥ
Ġ è
Ã ¬
Ġ /
o r
¥ à¸²à¸
áĤı áĢŃáĢ¯áĢĦáĢ¹áĢ
áĢĨ áĢŃáĢ¯
áŀĢ áŀ¶áŀļ
Ġ àºĻàº
ĠâĢĭ áŁĶ
áĢŀ áĢĬáĢº
àº¹ à»ī
Ľ à¸£à¸°à¸
Ġáŀĳ áŀ¸
a s
à® ªà¯įà®ª
áŁĤ áŀĵ
Ãª n
àº²àº ģàº
Ġ2 0
· à¸Ń
ä »
áŁĤ áŀļ
áŀĺáŁĴáŀĶ áŀ¸
¶ à¸
áŀĦáŁĴáŀ Ģ
à»ĥ àºĻàº
áŀİ áŁĴáŀ
Ġ A
áŁģ áŀĦ
¡ à¸²
à® ļ
Ã´ ng
ĠáŀĢ áŀĺáŁĴáŀ
áŀ¾ áŀĺáŁĴáŀĶáŀ¸
ģà¸ ±à¸
áŁĴáŀ ¢
àº± à»ī
a r
å Ī
Ġà®İ à®©
áŀŁ áŀĺ
à¸£à¸µ à¸
áĢŀ áĢ°
áŀ¾ áŀĢ
àºģ àº²àºĻàº
áŀ¶áŀ ľ
Æ ¡
áĢ¼ áĢ¬áĢ¸áĢ
± à¹īà¸
áŀ· áŀŁ
áĢĲ áĢļáĢº
à¯ģà® ķ
áĢ¾ áĢŃ
áŁĴáŀĽ áŀ½áŀĵ
áŀĶ áŁĭ
ĵ à¸
àº· àºŃ
ä ¹
a y
Ġáŀı áŁĴáŀļáŀ¼áŀľ
à¹ī à¸Ļà¸
áŀļáŀ ĶáŀŁáŁĭ
àº» àºĻàº
Ġ N
ç ½
áŀ· áŀĢ
e s
§ à¸´à¸
áĢĬáĢ¹áĢ ·
áĢħ áĢ¹
áĢľ áĢ¬
ï ¿½
Ġ é
Ġà® ī
áŁĴáŀĵ áŀ¶áŀĢáŁĭ
àº» àºĻ
Ġ S
ł à¸²à¸
áĢŃáĢ¯ áĢĦáĢ¹áĢ¸
ĠáĢĴ áĢ®
áģ¿áĢķ áĢ®áĢ¸
áĢĲ áĢ¹
áĢ¸áĢ ŀ
áŁ Į
ä ½
áŁĨ áŀĶ
á» §
áĢ± áģ¾áĢĢ
áĢĶáĢ¹áĢ Ļ
ĠáĢ±áĢ Ľ
áĢĽ áĢ½áĢŃ
áĢ¬áĢ¸áĢ ŀ
à¹ĥà¸ Ĭ
µ à»ī
áŀ·áŀħ áŁĴáŀħ
áŁģ áŀıáŁĴáŀı
áŀ¶áŀ ĳ
à¸Ń à¸²à¸
àº°àº «
áŀļáŀ İ
à¯ Ĥ
¡ à»Ī
Ġáŀ ²áŁĴáŀĻ
ĠáŀĲ áŁĴáŀĦáŁĥ
e m
Ġ "
ç½ ĳ
Ġï ¿½
Ġ |
æ ĸ
áŀ· áŀĶ
áŀīáŁĴáŀ ĩ
Ĥ à¸Ńà¸ĩà¸
Ġáŀĵ áŀ¹áŀĦ
áº Ń
»áĢķ áĢ¬
áĢ¬áĢ¸áĢ ľ
àº Ĥ
a l
ĸáŀ» áŀĩáŀ¶
áŀı áŁĤ
áĢ ı
å ľ
áŀı áŁĴáŀĲ
ĠáĢľ áĢ°
¨ à¸
¶ áŀĵ
à»ĥ àº«à»ī
áŀļáŀ Ł
áĢģ áĢ»
áŀ¶áŀĽ áŁĭ
à®¿à® Ł
ĠÄĳ á»
à¸Ń à¸£
áŀ Ĵ
Ġàº «
Ġàº §
Ġ P
Ġ 5
o m
à¸² à¸Ļà¸
áŀ½ áŀĽ
áĢķáĢ« áĢĲáĢļáĢ¹
ĠáĢ ļ
àº± àºĩàº
à¯įà® ²
áŀ» áŁĩ
áĢ° áĢ¸
áŀļáŀ ·
áĢŃáĢ¯ áĢĢáĢ¹áĢ
ĠáĢķ áĢ¼
Ľà¹ĩ à¸Ļà¸
æ Ĺ
áŁ Ĺ
àº´ àºĶ
Ġ M
Ġáŀ ĴáŁĴáŀľáŀ¾
±áĢ ķ
áĢģ áĢ¼
àº± àºĩ
a la
Ġáŀĺ áŁī
Ġ w
à¹ī à¸Ļ
à®© à¯į
áŁĦ áŀĦ
ĠãĢ Ĥ
áŀĺ áŀĢ
Ġv á»
àº° àºĻàº
áŀ¶áŀĺ áŀ½áŀĻ
Ġà¸ Ħ
Ħ áĢ¶
áĢ¯áĢ¶ áĢ¸áĢ
à¹ Ĩ
áŀ¾ áŀı
Ľ àº°àº
à®¾à® ²
ĠáŀĶ áŁī
Ħà¸ ¸à¸
áĢ¯ áĢĲáĢ¹áĢ
» áĢģ
áĢľ áĢĬáĢ¹áĢ¸
±áĢ ľ
áĤ Ĳ
áĢģ áĢ¯
Ġàº Ĭ
áŀĳ áŁĴáŀĴáŀ
Ġv Ãł
Ġa t
Ġáŀĺ áŀ½áŀĻ
à»ī àºĻ
0 0
áĢĶ áĢ²áĤĶ
ķ áĢ¼
à¸Ļ à¹Į
Ġ f
ĩà¸´ à¸Ļà¸
Ł à¸
¿ áŀĦ
à¸Ńà¸ ¢
áŀĵ áŁĴáŀĽ
» áĢĻ
ĠáĢ±áĢ Ķ
áĢ±áĢ Ļ
Ġàºģ àº²àºĻ
àº»à»ī àº²
áĢ» áĢĸáĢħáĢ¹áĢ
áģ ļ
Ģ áĢŃáĢ¯
áĢĻáĢº áĢ¬áĢ¸
áĢŃ áĢĲáĢ¹áĢ
áĢ¸áĢ Ľ
áŀ¼ áŀĺ
Ġà¸ ŀ
Ļ áĢº
áĢģ áĢ¶
à¸Ļ à¸²à¸
à® ´
ĠáŀĢ áŁı
Ġà» Ĥ
ĠáĢ» áĢĻ
áĢ±áĢ ŀ
áŁĴáŀļáŀ¾ áŀĵ
àº £
à¹ī à¸Ńà¸ĩà¸
å Ľ
à»Ģàº ®
Ġpa g
ĠáŀĤ áŀº
áĢ±áĢ «
u y
Ġà¸ Ĺà¸
à¹Ħà¸ ¥
a h
« à¸Ļ
¥ àº°àº
áŀ¼ áŀı
à»Ī àº²àºĻ
à¯įà®ķà®³ à¯į
áŀĶ áŁĴáŀļ
ģ à¹Ģà¸
àº²àº ģ
æ Ī
áŀ¢ áŁĴáŀĵáŀĢ
áĢ¯áĢŃ áĢĦáĢ¹áĢ
ĠáĢ Ł
Ĺà¸ ¢
áĢķ áĢ¹
áĢķ áĢ²
Ġáŀģ áŁĤ
Ġg i
Ġáģ ģáģ
àº¡ àºµ
ĠáŁ ĸ
Ġ 4
áŁĴáŀļ áŁĦáŁĩ
Ġà¸ ķ
áŁĴáŀļáŀ ¹
o u
±à¸ ģà¸
ĠáĢ¡ áĢŀ
å Ĭ
ĠáŀĬ áŀ¾áŀĺáŁĴáŀĶáŀ¸
áĢ¬áĢ¸áĢ ¡
Ġáŀĺ áŀĢ
àº²àº ļ
à¯ģà® µ
à¹ĥà¸« à¹īà¸
áŀ·áŀı áŁĴáŀı
áŁł áŁ¡áŁ
áŀĵ áŁĭ
áĢĦ áĢ·
áĢ± áĢĢ
ĠáĢ» áĢĸáĢħáĢ¹áĢ
ķáĢ« áĢĲáĢļáĢ¹
ĠáĢ ¥
àº» àº¡
y a
áº §
áĢĶ áĢ¾
ľà¸ ¹
áŁģ áŀı
å ¹
à» Ŀ
áŁĨáŀĵ áŀ½áŀĵ
å Ĳ
à¸Ń à¸Ńà¸Ļ
à¸£à¸±à¸ ļà¸
ĠáŀĶáŁĴáŀļáŀ ĳáŁģáŀŁ
à»Ģàº Ĥ
áŀĸ áŁģáŀĽ
à®¿à® ķ
e t
ªà¸ ¸à¸
ĠáĢĢ áĢº
áĢ¸áĢ Ĳ
à¸Ńà¸Ńà¸Ļ à¹Ħà¸¥
Ġáŀ ¡
Ã Ń
Ħà¸§à¸²à¸ ¡à¸
Ġáŀ Ī
å į
¢ àº¹
áĢŀ áĢ¬
áŁĬ áŀ»áŀĵ
à¹īà¸ §à¸
Ġáŀı áŁĤ
áŀĩ áŀĵ
áĢ¸áĢ ¡
± áŁĴáŀĻ
i l
ĠáĢ Ħ
Ġ q
à¹ĩ à¸Ńà¸
Ġ ä¸
à¸² à¸£
Ġàº Ĥ
àº± àºģ
áŁī áŀ¶áŀĦ
à® ķà¯įà®ķ
à¹Ħà¸¡ à¹Īà¸
à»ī àº²àº
áŀ¶áŀ Ĵáŀ
ç ī
áĢ¬ áĢĦáĢ¹
áĢ±áĢ ŀáĢ¬
ŀ áĢ°
ĠáŁ ¡áŁ
Ġ20 1
áĤ Ĭ
áĢ» áĢĸ
áĢĽ áĢ¾áĢŃ
âĢĭâĢĭâĢĭâĢĭâĢĭâĢĭâĢĭâĢĭâĢĭâĢĭâĢĭâĢĭâĢĭâĢĭâĢĭâĢĭ âĢĭâĢĭâĢĭâĢĭâĢĭâĢĭâĢĭâĢĭâĢĭâĢĭâĢĭâĢĭâĢĭâĢĭâĢĭâĢĭ
áŁĴáŀļáŀ Ķ
Ľ à¸£à¸
àº» àºļ
Ġáŀı áŀ¶áŀĺ
áŀ» áŀĽ
Ġd i
áŀļáŀ Ģ
æ ĺ
à¹Ī à¸Ļà¸
o ng
Ġà® Ĩ
Ġà»Ħ àºĶà»ī
Ġáŀĸ áŁĴáŀļáŁĩ
Ķ à¹Ģà¸
áŀĺ áŁĴáŀĽ
àº´ àºĶàº
áŀı áŁĴáŀļáŀ¼áŀľ
Ĥ à¸Ńà¸ĩ
áĢ¬áĢ¸áĢ Ľ
àº± àºģàº
áŀİáŁĴáŀ Į
Ġ x
áĢ±áĢ ·
áŀĺ áŀ½áŀĻ
à¹Īà¸ §à¸
ç Ķ
Ġàº Ĺàºµà»Ī
à®£ à¯įà®Ł
áŀĳ áŀ¶áŁĨáŀĦ
Ġàº ®
à¹Īà¸ ĩ
à»Ī àº²àºĻàº
» áĢĸ
áĤıáĢ½ áĢĦáĢ¹áĢ·
áĢĦáĢº áĢ¸
ĠáŀĢ áŁĴáŀļáŀ»áŀĺ
Ġl Ãł
½ áŀĺ
à¸Ļà¸µ à¹ī
áŀ¶áŀ İ
è ¿
à»Īàº ½
a m
áĢ¯áĢŃ áĤĶ
áĢ±áĢ ¡
áŀĳ áŀ½áŀĽ
à¹Ħà¸Ķ à¹īà¸
Ļ áĢ½
áĢ¸áĢ ľ
Ġáŀĵ áŁĥ
àº» àº§
à®¿à® ¤
áĢ¬ áĢĢáĢ¹
Ļ áĢ½áĢ¬
áĢ±áĢ¬ áĢĦáĢºáĢ¸áĢ
áŀļáŀ Ķ
ª à¸´
áŁĴáŀı áŀ¸
à»į à»Īàº
áŁĲ áŀı
áŀ ĴáŁĴáŀľáŀ¾
i áº¿
u ng
«à¸ ¥à¸
å ½
à®¿à®© à¯į
à»ĢàºĽ àº±àºĻàº
ĠáĢ Ŀ
Ġáŀĵ áŁĦáŁĩ
¡ à¹Ģà¸
æ Ŀ
áĢľ áĢ²
áŀİ áŁĴáŀı
áĢĻáĢ¾ áĢ¬
Ġ i
áŁĴáŀļáŀ» áŀĦ
áĢĽ áĢ½
à¸µà¸ ¢
ľ àº¹à»ī
áŀ¾ áŀĺ
. .
áĢĻáĢ¾ áĢ¯
æ ī
ķà¸ ±à¸
áŀĬ áŁĴáŀĭ
Ġàº Ķ
e ng
áŀ¶áŀ ł
à»ī àº§
Ġ H
Īà¸ °à¸
à®¿à® ķà¯įà®ķ
è ®
ĠáŀĢ áŁĴáŀļ
Æ°á» Ŀ
áŀĲ áŁĴáŀĦáŁĥ
àº» àº²
à¸£ à¸£à¸
ĠáĢŀ áĢŃ
Ġáŀĳ áŀ¶áŁĨáŀĦ
áŀĴáŀ ¸
áĢļáĢ¹áĢ ľ
áģ ½
áĢ±áĢ¬ áĢ·
Ġàºģ àº²àºĻàº
áŁĴáŀ Ĵ
å °
ĸ áĢ¼
à¸µà¸ ¢à¸
áŀĵ áŀ¹áŀĦ
à»ī àº²
à¯įà® ³
a g
à»ģàº ¡à»Ī
¼ áŀĶ
áŀĺ áŁī
à¸Ń à¸Ļà¸
Ġth á»
áŀ ²áŁĴáŀĻ
áĢ¥ áĢ¹áĢ
áĢ¬ áĢĶ
áŀĽ áŁĦáŀĢ
áĢ» áĢģ
±áĢĲáĢ¬ áĢ·
ĠáĢ¡ áĢħ
äº º
à»ī àºĻàº
áŀģ áŁĴáŀĽáŀ½áŀĵ
ķ à¸´à¸
áĢķáĢ« áĢĲáĢļáĢº
áŀĢ áŁĴáŀļ
áĢ¼ áĢĶáĢ¹áĢ
áĢľ áĢ¯áĢķáĢ¹áĢ
áĢ¯ áĢĲáĢº
Ġ y
áŀ Ī
à® ª
ª à¸²à¸
Ġáŀľ áŀ·
u m
àº§ àºģ
áŀ½ áŀĢ
ç »
à¹ ģ
Ġáģ į
Ġà»ĥ àºĻ
áŀĵ áŁį
ģ àº²àºĻ
áŀĽ áŀ¾
¥à¸ °
Ġt á»
áĤĢáĢĢ áĢ®áĢ¸áĢ
áĢŃ áĢĻáĢ¹áĢ
ĠâĢ ¦
áĢŁ áĢ¬
áĢ¸áĢ ħ
à®¾à® ¤
àºģ àº²àºĻ
±áĢ Ĩ
ĠáĢĴ áĢ«
áŁĲ áŀĵ
áĢ ĩ
è ½
à¸² à¸Ļ
ĠáŀĬ áŀĽáŁĭ
áĢ¬áĢ¸áĢ Ĳ
Ġáŀ ĥ
k a
áŀ· áŀĻ
à»į àº²àº
¥ à¹ĩà¸Ńà¸
i c
§ à¹Īà¸²
ĠãĢ ģ
à¯įà® µ
àºĦ àº§àº²àº¡
áĤıáĢ½ áĢħáĢ¹áĢ
áĢĻ áĤĪ
ĠáĢĸ áĢ¼
áŀĵ áŁĦáŁĩ
Ġáŀģ áŁģáŀıáŁĴáŀı
Ľ i
áŀĢ áŀ·áŀħáŁĴáŀħ
áŁĴáŀĵ áŀ¶
å ·
ŀ àº·à»ĪàºŃ
áĢĴ áĢ®
e l
Ġ B
« à¸Ļà¸
ľ áĢ¬
ĠáĢķ áĢ«
áŀĺ áŀ·áŀĵ
áĢĢ áĢ»
ï¿½ ï¿½
ä ¼
Ġà®ļ à¯Ĩ
s t
áŀĬ áŁĦáŀĻ
àº°àº ŀ
¡ à¸µ
Ġà»Ģàº Ľ
áŀĩ áŀ¶áŀıáŀ·
àº» àºĩàº
ĠáŁ ¡
áŁĨáŀĸ áŁģáŀī
áŁĴáŀļáŀ Ł
áŀ¾ áŀī
áĢľ áĢ½
Ĺ à¸²à¸
áŀīáŁĴáŀ ī
àºĶàº į
ĠáĢĻ áĢŃ
áŀ ĥ
å ¸
áĢ¼ áĢ¬
áĢĲáĢ¼ áĢĢáĢ¹
áĢĻ áĢŃ
à¯ģà® ®
áº¥ t
áŁĴáŀĽ áŀ¼áŀľ
áĢ ´
áĢĸáĢ¼ áĢħáĢº
áŁĴáŀĺ áŀ¸
¢àº¹ à»Ī
áŁĴáŀļáŀ ½
à¹ĥ à¸Ļ
ĠáŀĢáŀĺáŁĴáŀ ĸáŀ»áŀĩáŀ¶
Ġáŀļáŀ ĬáŁĴáŀĭ
ĠáŀĶ áŁĴáŀļ
o t
ä¸ Ģ
·à¹Ī à¸Ńà¸
àºĻàº µà»ī
áŀĶ áŁī
áŁĴáŀļáŀ» áŀĢ
à®² à¯į
Ġàº¡ àºµ
ĠáĢĲ áĢħáĢ¹áĢ
áĢĻ áĢ¼
áŀĤ áŁĴáŀĤ
Æ°á» £
áŁģ áŀĳ
Ġpa ra
à»Ģàº ¥
áŁģ áŀģ
§ à¹Īà¸²à¸
áŀĬ áŀĽáŁĭ
áŀ» áŀı
ĠáĢĨ áĢŃáĢ¯
±áĢĲáĢ¬ áĢ¹áĢ
ĠáĢĢ áĢ»
Ġ la
àº²àº Ĭ
áŀīáŁĴáŀ ħ
è ¯
à®¾à® Ł
àº°àº ģàº
áŀĵáŀ» áŀŁáŁĴáŀŁ
à¹ģà¸ ¥à¸°à¸
áĢŃáĢ¯ áĢĢáĢº
áŀļ áŁī
àº²àº ª
áŀı áŁĭ
áº¡ i
i na
ģ à¸²à¸
Ġáŀĸ áŁģáŀĽ
áĢ¸ áĢĢáĢŃáĢ¯
àºģàº ±àºļ
à¯įà® ©
åı ĳ
áŀĢ áŁĴáŀŁ
áŀ¡ áŀ¾áŀĦ
Ġ '
à¸Ńà¸Ńà¸Ļà¹Ħà¸¥ à¸Ļà¹Į
à¹Ħà¸ Ĺà¸¢
à¸£à¸±à¸ ļ
áĢ±áĢ Ĩ
áĢ¬áĢ¸ áĢĢáĢŃáĢ¯
Ġáŀ İ
Ġ à¸Ńà¸
è µ
àº» àºĩ
ĠáŀĽ áŀ¾
Ä ĥ
© à¸
à¯ģà®¤ à¯įà®¤
áŀĳ áŁĢáŀı
à»į àº²
u n
àºĻàº ±
å ¼
áŁĴáŀļáŀ Ħ
ķ à¹Ī
áŀķ áŁĴáŀŁ
áĢŃáĢ³ áĤķ
áĢĶ áĢ¬
Ġàº ĤàºŃàºĩ
áĢŃáĢ¯áĢ¸áĢ Ľ
áŁĮ áŀĺáŀ¶áŀĵ
àº´ àºĩ
áŁĢ áŀĶ
à¯ģà® Ł
ģ à¹ĩà¸
é Ĺ
áĢĲ áĢŃ
Ġq u
ĠáŁ £
Ġáŀ Ĩ
àº§ àº½
áĤıáĢŃáĢ¯áĢĦáĢ¹áĢ ĦáĢ¶
áĢ¼ áĢĢáĢ¹áĢ
ĠáĢ±áĢ »áĢķáĢ¬
áĢĽ áĢŃ
áŀ·áŀĶ áŀ¶áŀĽ
áŀĤ áŁģ
à»Ģàº ª
à¹ĥà¸Ĭ à¹īà¸
ĠáĢĢ áĢ¼
æ Ĭ
Ĭà¸ ±
à»ī àº²àºĩ
à¸£à¸²à¸ Ħ
áĢŀ áĢŃ
Ġà¸ ģà¸
áŀĵ áŀ·áŀĦ
å Ń
áĢĶáĢ¹áĢĻ áĢ¬
áĢĢ áĢ¬
à®² à¯įà®²
áŀ½ áŀĦ
ĠáŀĬ áŀ¼áŀħ
à»Ģàº Ĭ
e d
Ġà¸ Ħà¸
a b
¯ áŀĢ
Ġ à¹Ģ
áĢĺ áĢ°áĢ¸
áŀ ĨáŁĴáŀĵáŀ¶áŁĨ
áĢ¶áĢ¯ áĢ¸áĢ
ĠáĢ Ĥ
Ġc á»§
à¹Ĥ à¸£à¸
áŁĢ áŀĦ
áŀ¶áŀ Ĺ
àº ĤàºŃàºĩàº
t i
à¹Ģà¸ ¥
å ¿
áŁĴáŀī áŀ»áŁĨ
áĢĻ áĢ¬
Ġ R
à®Ļ à¯įà®ķ
áĢ±áĢ ħ
áŁĴáŀļáŀ ĺ
ĠáĢ¡ áĢĽ
¥à¸ ĩà¸
áŀĵáŁĴáŀı áŁĴáŀļáŀ¸
áŁĴáŀĵ áŁĨáŀĸáŁģáŀī
áŁĦ áŀĺ
æ ¸
§à¸ ±à¸
Ġáģ ¿
áĢ±áģ¾áĢĢ áĢ¬áĢĦáĢ¹áĢ¸
áĢ±áĢ ķáĢ«
áŀı áŀ¶áŀĺ
ķ àº´
áĢ Ĺ
æĺ ¯
Ġáŀ ¬
à»Ī àº²àº§
à¹Ħà¸¡ à¹Ī
±áĢ ŀáĢ¬
áĢĬáĢº áĢ¸
Ġà®ĩ à®°
áŁĲáŀı áŁĮáŀĺáŀ¶áŀĵ
Ġa y
Ħ à¸£
¢ à»Īàº²àºĩ
Ġc Ã³
áŁĴáŀĽ áŀ¶áŀĶáŁĭ
ĠáŀĢ áŀ¶áŀĽ
¡à¸ ŀà¸
áģ ĭ
áŁ ¡
ĠáŀĤ áŁģ
Ĥ à¸²à¸
Ļ áĤĪ
ĠáĢ Ĺ
à»īàºŃ àºĩàº
áŀĢ áŁĭ
áĢ¬ áĢĦáĢ¹áĢ·
» áĢĸáĢħáĢ¹áĢ
Ĩ áĢŃáĢ¯
Ħà¸£à¸ Ķà¸´à¸
Īà¸ ±à¸
Ġáŀĩ áŀĵ
áĢĬ áĢ·áĢº
Ĵáŀ ¶áŀĵ
ï ¼
áŀĻ áŀĵáŁĴáŀı
áŁĦ áŀĽ
å Ĩ
Ġ2 5
à¹ĥà¸« à¹ī
à»Ģ àºĶ
áŀ¶áŀ Ĭ
à®± à¯įà®±
Ġáŀ¢ áŀ¶áŀħ
Ġy ang
l e
¢ à¸²à¸
à»Ī àº¡
Ã º
áŁĤ áŀĺ
é ĩ
Ġ 6
n d
Ĭ à¸²à¸
áŁĴáŀļáŀĶ áŁĭ
áŀıáŁĴáŀı áŀ·
Ġàº į
Ġáŀħ áŀ¼áŀĽ
à» Ĩ
áŁĴáŀĺ áŁĦáŁĩ
« à¸²à¸
ĠâĢĭ âĢĭâĢĭ
áŀ» áŀĶ
Ġcá»§ a
é Ģ
Ġ I
Ġáŀħ áŁĨáŀİ
r o
en t
Ľ à¸£
¥à¹ĩà¸Ńà¸ ķ
µ à¸
ĠâĢ ľ
ĠáĢ±áĢ Ļ
áĤı áĢ¯áĢŃáĢĦáĢ¹áĢ
áģ ¼
áĢ¬áĢ¸áĢ ħ
áŀļáŀ ¸
ĠáŀĢ áŁĨáŀĸ
àº°àºĻàº °
ĠáŀĶáŁĴáŀļáŀ ĩ
à¹Īà¸ ĩà¹Ģà¸
áĢ± áĢ¸
áŁĴáŀ ģ
Ġà® Ĵ
Ġáŀ Ĵ
Ġà»ĥ àºĻàº
ļà¸²à¸ Ĺ
Īà¸²à¸ ģà¸
áĢ³ áĢŃ
ĠáģĤ áģĢ
áŀİ áŁĪ
áĢ¼ áĢ¸áĢ
ŀ áĢĬáĢ¹
ĠáĢ± áĢĢáĢº
áĢ½ áĢ²
å¤ §
áŀļ áŀ¶áŀĩ
Ġ o
áŁ £
áŁ ¥
áŀ¼ áŀĦ
à»Īàº½ àº§
áŀ¸ áŀľ
« à¸£à¸
áŀĵ áŁĥ
ĠÄ Ĳ
æ ³
àºŃ àºļ
ĠáĢ¡ áĢ²
áĢĶáĢ¹ áĤĶ
ĠâĢ Ŀ
áĢ¯ áĢĽ
à¹Ģà¸ ģà¸
áŁĴáŀ Ģ
Ķ áĢ²áĤĶ
áĢĶ áĢŃáĢ¯áĢĦáĢº
à®¿à® µ
áŀ¶áŀĺ áŁģ
àº°àº ¡
Ġh á»
áŀ» áŀŁ
à¸£à¸ §à¸
ç «
áŀĶáŁĴáŀļáŀ ĩ
àº Ĺàºµà»Ī
áŀĳ áŁģ
å º
į à¸
áŁĴáŀľ áŀ¸
à®³ à¯į
ĠáĢ»áĢĻ áĢĶáĢ¹áĢĻáĢ¬
ģ áĢ¶
áŀ Ĩ
áĢĲ áĢ®
Ķ à¸µ
d i
ĠáĢľ áĢĢáĢ¹áĢ
áĢ½ áĢĶáĢº
Ã £
áŁĨáŀİ áŀ¾
àºŃ àºĩ
±à¸ ĩ
à»Ħ àºĽ
ä¸ ĭ
à¸Ńà¸¢ à¹Īà¸²à¸
áŀĦáŁĴáŀ ł
ç Ľ
ĠáŁ¢ áŁłáŁ¡áŁ
Ġ D
áĢ» áĢĻ
ĠáĢ±áĢ ľ
ĠáĢ ·
áĢģ áĢ«
áŀĸ áŁĴáŀļáŁĩ
áŀ¾ áŀĽ
à¹Īà¸ §
áĢĳ áĢ¬áĢ¸áĢ
à¯ģà® ±
áŁģ áŀĢ
o k
áŁĢ áŀĵ
ĠáĢĻ áĢ¼
åĽ ½
áŀ¶áŀ ¢
à»Ī àº²àº
·à¹Ī à¸Ńà¸ĩà¸
i g
ĠáĢģ áĢº
áĢĢ áĢ¯áĢŃ
áģ¿ áĢĻ
Ġáģ ģ
Ġ V
áŁĴáŀļáŀŁ áŀ½áŀĦ
Ġ F
Ġáģ ¾áĢĢ
áĢĲ áĢ±áĢ¬áĢº
áŀł áŁĬáŀ»áŀĵ
§ à¹ĩà¸
Ġà¸ Łà¸£à¸µ
à¸Ńà¸ ¢à¸
áŀ¶áŀħ áŁĭ
áĢĲ áĢħáĢ¹áĢ
áĢľ áĢ¯áĢķáĢº
å® ĺ
å İ
Ġc Ã¡c
áŀĽ áŀļáŀĬáŁĴáŀĭ
áŀĢáŀ¶áŀļáŀ Ķ
à®¾à®° à¯į
ĠÂ Ń
àº° àºļ
Ġáŀĩ áŀ¶áŀĺáŀ½áŀĻ
áŁĴáŀ ĩ
å Į
áĢ¯ áĢĶáĢº
ĸ àº·
à¹ģà¸ ¥
Ġ K
áŀ¾ áŀĶ
Ġà®ħ à®µ
áŀ §
Ġ !
ĠáŀŁáŀĺ áŁĴáŀļáŀ¶áŀĶáŁĭ
ģ áĢ¼
à¹ ģà¸£à¸
áŁł áŁł
áŀļáŀİ áŁį
åľ ¨
áŁĴáŀ ĸ
a w
ł à¸
áŀļáŀ ½áŀĺ
áĤĢáĢĢ áĢ®áĢ¸
áĢŃáĢ¯ áĢĦáĢºáĢ¸áĢ
àº°à»Ģàº Ĺ
à®© à¯įà®±
áŀł áŀ¾áŀĻ
Ķ à¹īà¸§à¸
á» ĭ
Ġáŀħ áŁĨáŀĵáŀ½áŀĵ
áŀĴáŀ ¶áŀĵ
áŀļáŀ· áŀĢ
u la
áŀ Į
à»Ģàº Ń
ģà¸±à¸ ļà¸
Ľ áĢ½áĢŃ
áĢĦáĢº áĢ·
Ġáģ ĥ
Ġáŀĳ áŁģ
Ġà®ª à¯ĭ
áĢķáĢ¼ áĢ®áĢ¸
Ġáŀ §
ç İ
áŀĵ áŀ¶áŁĨ
ĠáŀĻ áŀ¾áŀĦ
à»Ģàº §
Ġ L
Ļ áŁĪ
à¹ī à¸Ńà¸ĩ
áŀĶáŁĴáŀļáŀ ĳáŁģáŀŁ
å ±
Ħà¸¸à¸ ĵà¸
à®¿à®¤ à¯įà®¤
ĠT h
ĺ áĢ¬
áŁĴáŀĺ áŀ¶áŀĵ
à¸Ń à¹Ģà¸
áĢĲ áĢŃáĢ¯áĤĶ
áĢļáĢ¹áĢ ·
ĠáĢĺ áĢ¬
à»Ī àºĻ
ĠÂ «
Ġáŀ Ĵáŀ
é Ļ
áº ¯
Ġs e
ĠáĢ ĩ
à®¾à®© à¯į
İ áŁį
u s
áĢĲ áĢ±áĢ¬áĢ·
ľà¸¹ à¹īà¸
à¯ģà® ³
áĢ¡ áĢħ
áŀ¸ áŀ¡
áĢĢ áģ
áĢĲáĢ¼ áĢĦáĢ¹
ĠáĢĲ áĢĽ
äº Ĩ
àºĬ à»ī
áŀ¶áŀĺáŁģ áŀļáŀ·áŀĢ
à¸² à¸£à¸
ĠáĢģ áĢ¯
Ġth e
Ġáŀĵ áŀ¶áŀĢáŁĭ
Ġ is
áŀĺ áŁĴáŀļ
áĢĳ áĢŃ
áŀ» áŀĻ
áŀ¹ áŀĺ
à»ģàº ¥àº°àº
àº¸ àºĶ
à¸Ńà¸ ļà¸
ĠáŀĶ áŀĵáŁĴáŀĳ
Ġáģ Ģ
à®¾à®² à¯į
± áģ¾áĢĢ
áĢ ī
áŀħ áŀ¼áŀĽ
Ã¬ nh
à»ĥ àºĻ
áŀŁ áŀ¶áŀļáŀ
à¸Ļà¸ ±
ĠáŀĶáŁī áŀ»
è ¡
ĠÂ »
áŀļáŀ »
Īà¸²à¸ ģ
àº» àºĶ
áŀĢ áŁĴáŀļáŀ»áŀĺ
áĤı áģ
áĢĦáĢ· áĢ¹
ĠáĢ Ĭ
ĠáĢľ áĢ¯áĢķáĢ¹áĢ
áĢĢáĢ¹áĢ Ģ
áŀķ áŁĴáŀĳ
Ġ r
à¯ģà® ¨à¯įà®¤
áĢĦ áĢ¶
Ī àº»à»īàº²
à¹ĥà¸ «à¸
áŁģáŀı áŀ»
i m
áŀ¶áŀĹ áŀ·áŀĶáŀ¶áŀĽ
àº Ĺàºµà»Īàº
áŁĴáŀĲ áŀ¶áŀĵ
å½ ©
Ġå ¤
Ĳ áŀĻáŀĵáŁĴáŀı
§à¸ ±à¸Ļ
áŀļáŀ ĩ
Ġï¼ ļ
áŀ¢ áŀ¶áŀħ
ģ áĢ»
±à¹īà¸ ĩ
æĹ ¶
áŁĦ áŀı
i la
Ġà®ķ à¯Ĭ
Ġ %
Ġ 7
ĠáĢ±áĢ ĲáĢ¬
áĢ¯ áĢĶáĢ¹áĢ¸
Ġ.. .
áĢŃáĢ¯ áĤķ
áĢ»áĢģ áĢĦáĢ¹áĢ¸
áĢĬ áĢ¬
«à¸ ¡à¸
àº°àº ¥
Ã¢ n
áŀ· áŀī
ĠáĢ±áĢ ĲáĢ¼
áĢĲ áĢŃáĢ¯áĢ·
áŀĳ áŀ¹áŀĢ
±à¹īà¸ ĩà¸
Ġáŀķ áŁĴáŀĳ
àº´ à»Īàºĩ
ĠáĢ±áĢ Ĩ
áĢ¬ áĢ¹
áĢĽ áĢ²áĤķ
áĢĲ áĢ°
å ¾
áŀļáŀ Ħ
áŀĬ áŀ¹áŀĦ
Ġo f
ĠáŁ ¥
áŀħ áŀ·áŀıáŁĴáŀı
áĢ±áĢĢ áĢ¬áĢĦáĢ¹áĢ¸
áĢ¯ áĢĶáĢ¹áĢ
áģ ģáģ
Ľ áĢ¬
Ķà¸´à¸ ¡à¸ŀà¸
Ķà¸ ¥
áģ ¥
áĢ¾ áĢ¬
Ġ 8
Ġáŀħ áŀ¶áŀĶáŁĭ
à¸Ńà¸£ à¹Į
à¯Īà® ķ
Ġà» ľ
c h
áŀ ±áŁĴáŀĻ
ĠàºĹ à»Īàº²àºĻ
àº´ àºĻàº
ĳ áĢ¬áĢ¸áĢ
ķ à¸²à¸
áĢĻáĢº áĢŃáĢ³
áĢ±áĢĲáĢ¬ áĢ¹áĢ
áģ¿áĢķ áĢ®áĢ¸áĢ
áĢģáĢº áĢŃ
±áĢ ¡
áĢ±áĢ« áĢº
áŀ· áŀĹ
Ħ àº§àº²àº¡
áŀ¶áŀĻ áŀĢ
ĠâĢĭáŁĶ âĢĭ
å ¥
¥ à¸´à¸
Ġb er
ĺ áŁĴáŀĺ
iá» ģ
u h
àº§ àºĩ
Ľà¹ĩ à¸Ļ
ĠáŀĻ áŁīáŀ¶áŀĦ
à»ĥ àºĪ
ä¸ Ń
áĢ¶áĢ¯ áĢ¸
ĠáĢ±áĢ Ĵ
áĢŃ áĢĻáĢº
à¯ģà®ķà¯įà®ķ à¯ģ
Ġáŀĳ áŁĢáŀı
Ġáŀģ áŀ¶áŀĦ
à»ģàº ķ
u l
à¹Ħà¸ Ľ
áŀĵ áŀ¶
áŁĴáŀļáŀ ¿áŀĦ
ĠáĢĻ áĢº
áĢĲáĢ½ áĢĦáĢº
áŁĴáŀĶ áŀ¶áŀĶáŁĭ
á» ¯
è §
áŀĬ áŁĤáŀļ
à®¾à® µ
ļ à¸£à¸´à¸
áŀı áŁĴáŀļ
àº ľ
ĠáŀĻ áŀĢ
¢ à¹Ģà¸
ĠáŀŁ áŀł
âĢĭâĢĭâĢĭâĢĭâĢĭâĢĭâĢĭâĢĭâĢĭâĢĭâĢĭâĢĭâĢĭâĢĭâĢĭâĢĭâĢĭâĢĭâĢĭâĢĭâĢĭâĢĭâĢĭâĢĭâĢĭâĢĭâĢĭâĢĭâĢĭâĢĭâĢĭâĢĭ âĢĭâĢĭâĢĭâĢĭâĢĭâĢĭâĢĭâĢĭâĢĭâĢĭâĢĭâĢĭâĢĭâĢĭâĢĭâĢĭâĢĭâĢĭâĢĭâĢĭâĢĭâĢĭâĢĭâĢĭâĢĭâĢĭâĢĭâĢĭâĢĭâĢĭâĢĭâĢĭ
áŀĻ áŀĢ
è ´
à»ģàº¡à»Ī àºĻàº
áŁĴáŀļáŀ Ģ
Ġáŀ Ħ
à¹īà¸ §
k o
áŀŁ áŀ¶áŀļ
Ġà®İà®© à¯įà®±
æľ ī
Ľà¸ ¥
áŀĶ áŀĳ
ĠáŁ ¤
Ġáŀļáŀ Ħ
Ġáŀģ áŁĴáŀĽáŀ½áŀĵ
ĠàºĽ àº°àº
à¸´ à¹Ģà¸
à»Ģàº ¡
áŁĴáŀĽ áŀ¶áŁĨáŀĦ
o s
³à¸ «
á» ±
Ġ G
Ġà®ħ à®¤
áĢļ áĢ°
áŀ ¿
à¹Ħà¸ Ľà¸
»áĢģ áĢĦáĢ¹áĢ¸
áĢī áĢº
Ġáŀĳ áŀĳáŀ½áŀĽ
áŁĴáŀĺ áŁĤáŀļ
áŀľáŀ· áŀĴáŀ¸
Ġàº «àº¼
ç º
áŀİ áŁĴáŀĬ
Ġáŀĸ áŀ½áŀĢ
à¹īà¸² à¸Ļà¸
Ġà®ļà¯Ĩ à®¯
Ġáŀ¡ áŀ¾áŀĦ
à¸Ń à¸Ńà¸
it o
æĿ ¥
áĢ¬áĢ¸áĢ Ķ
Ã ²
áŀ¶áŀī áŁĭ
ĠáŀŁ áŀ»
Ġáŀĳ áŀ¹áŀĢ
àº® àº±àºļ
u k
Ġà¸ ļà¸Ńà¸¥
Ľà¸£à¸ °à¹Ģà¸
áŀħ áŁĴáŀħ
Ġáŀķ áŁĴáŀŁ
à®¾à® ¯
åĪ Ĩ
àº»à»ī àº²àº
áŀķ áŀĽ
áŀĬáŁĴáŀĭ áŀ¶áŀĵ
Æ°á»£ c
ĠáĢ¥ áĢ®áĢ¸áĢ
áĢ½ áĢº
ĠáĢ»áĢķ áĢĬáĢ¹áĢ
Ĳ áĢļáĢ¹
áĢ¼ áĢ²
áĢĦáĢ· áĢ¹áĢ
ĠáĢĸáĢ¼ áĢħáĢº
å ĩ
áŁĨáŀĸ áŁĦáŁĩ
ķ à¹īà¸Ńà¸ĩà¸
à¯įà® ®
áŁĦ áŀĤ
Ġà»ĥ àº«à»ī
à»į àº¥
áŁĨ áŀķ
ĩ à¸²à¸Ļà¸
àº» àºģàº
áĢŃ áĢĶáĢº
à¹Ĥà¸ ¡à¸
áŀ» áŀİ
à®Ļ à¯įà®ķà®³
áŀ¼ áŀļ
à¹Ģ à¸£à¸
Ġk a
æľ º
áŀ· áŀľ
áŀŁ áŁĴáŀļ
àº° àºĻ
å® ¶
áŀĢ áŁĨáŀĸ
à»ī àº¡
áĢŃáĢ¯ áĢľ
áŀĳ áŁĴáŀĻ
á» ¥
ķ à¸£
ĠàºĦ àº§àº²àº¡
áŀĢ áŁĴáŀļáŀ»áŀĦ
áĢŀ áĢ±áĢ¬
à»Ģàº «
ï¼ Į
Ġà®ª à¯Ĩ
ªà¸¸à¸ Ķ
ä ¿
áŀīáŁĴáŀĩ áŀ¶áŀĢáŁĭ
áŁĨáŀĶ áŀĵáŁĭ
à¹ģà¸ ļà¸
àº²àº¡ àº²àºĶ
á» ©
áŀĵ áŀ¸
ç ľ
à¸² à¹Ģà¸
áŀĢáŀ¶áŀļáŀ İáŁį
u t
ä¸ į
à»Ģàº ģàº
Ġà® °
áŀĵ áŁĴáŀĲ
à¸Ńà¸£ à¹Įà¸
Ġáŀ ±áŁĴáŀĻ
¸à¸ ķà¸
¹à¸ ģà¸
áŁ¢ áŁłáŁ¡áŁ
Ġ in
Ġáŀģ áŁĴáŀīáŀ»áŁĨ
áŀĺ áŀ»áŀģ
à®¿à®Ł à¯įà®Ł
áĢĲ áĢĦáĢ¹áĢ¸
áĢ¯áĢ¶ áĢ¸
áŀģ áŀ¶áŀĦ
á»Ļ t
æ¸ ¸
àºģàº ª
ģà¸²à¸£ à¹Ģà¸
ĠáŀĹ áŁĴáŀĵáŁĨáŀĸáŁģáŀī
áŀ¢ áŀŁáŁĭ
* *
áĢĲáĢ½ áĢĢáĢº
Ġk ung
è Ģ
à®¾à® ³
áŁ ¤
ĠáŀĢáŁĴáŀļ áŁĦáŀĻ
àº« àºį
ĠáŀĶ áŀ¾
áŁĴáŀļáŀĦ áŁĭ
Ġ re
à¸´ à¸Ļà¸
ĠáŀĶ áŀĦáŁĴáŀĢ
Ġà®µ à®°
Ġ àºĻ
à»īàºŃ àºį
áŀħ áŁĨáŀĵáŀ½áŀĵ
ĲáĢ¼ áĢĦáĢ¹
ĠáĢĽ áĢ½áĢŃ
ĠáĢĢ áģ½
áĢľ áĢĬáĢºáĢ¸
å¹ ³
Ġ u
áŀŁ áŁĴáŀļáŀ¸
æ °
áŀĵ áŀ¶áŀĢáŁĭ
áŀİáŁĴáŀ İ
Ġà¹ģà¸ ¥à¸°à¸
áŀħ áŁĨáŀİ
à»īàºŃ àºĩ
áĢ±áĢĽ áĢ¸
áĢ±áĢ Ĵ
à®¾à® ®
ĠáĢħ áĢ¬
áŀľáŀ· áŀī
ä¹ Ĳ
àº« àº¼
ĠáĢ ¦
ç ¥
i nh
Ġà®Ĵ à®°
áĢħ áĢ¬
ĠáŀŁ áŁĨ
Ġd an
à¸µ à¹Īà¸
t a
è Ĥ
áĢĲáĢ¼ áĢĦáĢ¹áĢ¸
Ġáģ Į
Ġáŀħ áŁģáŀī
è½ ½
æ µ
ĠáŀŁ áŁĴáŀļáŀ»áŀĢ
Ġáŀĩ áŀ¶áŀıáŀ·
Ġáŀļáŀ ¼áŀĶ
ĠáĢ± áĢĢ
áĢĺ áĢ¬
Ġ 9
Ġ E
¢ à¸Ļ
Ġt o
áŀĵáŁĴáŀı áŁĤ
áĢ¯áĢŃ áĢĢáĢ¹áĢ
áĢĳ áĢ²
ģ áĢ«
áĢĻáĢ» áĢ¬áĢ¸
Ġà»Ģàº Ĭ
Ġ à¸Ļ
áŀ½ áŀĶ
ĥ ½
Ġkh Ã´ng
áŁģáŀħ áŀĢ
Ġ J
ķ à¹Īà¸
ĠáŀĤ áŁĴáŀĵáŀ¶
áŀĬ áŀ¼áŀħ
à®³ à¯įà®³
áŀ¶áŀĴáŀ ·
àº¸ àºĶàº
ĠáŀĶáŁĴáŀļáŀ Ģ
Ġà¸ Īà¸
áŀ¸ áŀł
Ġáŀ¢ áŀĦáŁĴáŀĤ
i d
±à¸ ļà¸
ĠáĢ±áĢ ķ
áĢ ĵ
ĠáŀĹ áŀ¶áŀĸ
áĢĶáĢ¹áĢ Ģ
áĢ±áĢ ĳ
àº´ àºĻ
áŀ·áŀĻ áŀ¶áŀĻ
Ãł y
áģ ¤
áĢĲáĢ½ áĢ±
±áĢ ħ
Ł áĢ¬
ĠáĢ±áĢ ¡
áĢĬ áĢ·
áĢļ áĢ¬
åı °
Ġn i
Ġáŀ ¯áŀĢ
ä¸ Ĭ
Ĥ à¹īà¸²à¸
ĠáŀĢáŀĺáŁĴáŀ ĺ
Ġà»Ģàº ®
ĠáŀŁ áŀ»áŀģ
áŁ ¦
áŀ½ áŀŁ
ģ áĢ¯
áŁĲ áŀĸ
± àºĻ
áĢħ áģ¥
áĢĬ áĢ®
à®¿à® ªà¯įà®ª
Ġma g
áŁĴáŀŁ áŀ¶
à¹Ĥ à¸Ļ
ĠáģĤ áģ
Ķà¸´à¸¡à¸ŀà¸ ±à¸Ļà¸
ŀ à¸Ļà¸
¡à¸² à¸£à¸
áŁĦ áŀĶ
àº°àº ª
áĢ¯áĢŃ áĢĦáĢ¹áĢ¸
áĢĢáĢ¼ áĢ®áĢ¸áĢ
áŁ §
áŀ·áŀı áŁĴáŀĻ
æī ĭ
ĠáŁ ķ
ĠáŀĽ áŀ¾áŀĢ
ĠáŀĢáŀ¶áŀĽ áŀĸáŀ¸
áŀ¶áŀĢáŁĭ áŀĳ
Ġà»ģàº ķ
ĻáĢº áĢ¬áĢ¸
áĢ±áĢĽ áĢ¸áĢ
Ľ áĢ½
Ķà¸¥ à¸Ńà¸ĩ
¥à¸ĩà¸ Ĺà¸
æ ķ
áĢ¬ áĢĻ
Ġà¸ ģ
Ġch o
Ġà¹Ĥà¸ Ľà¸£
±à¸ ļ
áŀ¼áŀĺ áŀ·
áŀĢ áŁı
Ġ ;
áĢĽ áĢĦáĢ¹
ŀ áĢ¼
ľ áĢĬáĢ¹áĢ¸
Ġáģ Ħ
àº±àºĻàº Ķ
Ġà®µ à¯ĩ
ĠáĢĦ áĢ«
± áĢĢ
ĠáĢĻ áĢ½
áĢħ áĢ¯
Ġis ang
Ġáŀħ áŁĴáŀļáŀ¾áŀĵ
à¹Ģ à¸£
áŀı áŀ¸
àº´ à»Īàºĩàº
áŀĸ áŁĴáŀļ
áģĢ áģĢ
å ¯
ķà¸±à¸ §
ĠáŀĢáŁĨáŀĸ áŀ»áŀĦ
Ã ¹
áŀĦáŁĴáŀł áŀ¶áŀī
áĢŃ áĢĲáĢº
à¯ģà® ªà¯įà®ª
áŁĨ áŀł
°à¹Ģà¸ ļ
a k
ĠáŀŁ áŁģ
¥à¸ ·à¸Ńà¸
à»Īàº§ àº¡
áŀ½ áŀı
àº´ àºĩàº
ģà¸ ±à¸Ļ
áģ¿áĢķ áĢ®
áĢŃáĢ¯ áĢĦáĢ¹
áĢĽ áĢ¾
Ġáŀļáŀ Ģ
ç Ĳ
áŀİáŁĴáŀı áŀ¶áŀĽ
Ġáŀĺ áŀĵáŀ»áŀŁáŁĴáŀŁ
Ġà®ĩ à®¨à¯įà®¤
ĩ à¸²à¸Ļ
ļ àºļ
áŁĨ áŀĽ
ĠÄĳ Æ°á»£c
ĠáĢ¡áĢ² áĢĴáĢ®
áģ¿áĢĻ áĢŃáĢ³áĤķ
ĳ áĢ²
Ġ ?
áŀļáŀ ¼áŀĶ
áĢ±áĢ¬áĢĦáĢº áĢ¸
Ġà¸ ģà¸²à¸£à¸
áŀĵ áŁĴáŀĵ
áŀĦ áŁĴáŀŁ
å Ŀ
ĠáŀĶáŁĴáŀļáŀ Ĵáŀ¶áŀĵ
àºŃ àºĩàº
áŀ¢ áŀĦáŁĴáŀĤ
Ķ à¸µà¸
áŀĵáŁĴáŀĽ áŁĤáŀĦ
Ġma y
à¯ĩ à®°
ĠáĢ¡ áĢľ
å¹ ´
¡à¸ ±à¸
à»ĥ àºĬà»ī
Ġk e
áŀīáŁĴáŀ ł
áĢŀ áĢ½
Ĥà¸ ¶
æĸ ¹
áŀģ áŁģáŀıáŁĴáŀı
ĠáŀĵáŁħ áŀĢáŁĴáŀĵáŀ»áŀĦ
áŀŁ áŁģ
àºŃ àºĻ
ª à¯į
áŀİ áŀ¶áŀĺ
Ġáŀ¢ áŁĨáŀĸ
Ġma s
æ ł
áŀ¶áŀĢ áŀ¶áŀļáŀ
áĢĶ áĢ²áĢ·
ĠáĢ¡ áĢĨ
áŁĴáŀĵ áŁĤáŀĢ
àº±àºĶàº ĸ
á» Ł
Łà¸ ¸à¸ķà¸
à¹Ģà¸ Ľà¹ĩà¸Ļà¸
áĢ±áĢ Ĳ
àº¸ àº¡
áŀĺ áŀĵáŁĴáŀıáŁĴáŀļáŀ¸
áŀĵáŁħ áŀĢáŁĴáŀĵáŀ»áŀĦ
Ġb uh
Ġà»ģàº ¡à»Ī
i k
áĢŃáĢ¯ áĢ¸
ĠáŀĶáŁīáŀ» áŀĵáŁĴáŀıáŁĤ
áĢ±áĢ »áĢķáĢ¬
ĠáĢĽ áĢ½
6 5
ä¸ĭ è½½
æ Ķ
à¯Īà® ķà¯įà®ķ
áĢ¡ áĢĲáĢ¼áĢĢáĢ¹
áĢľ áĢ°
Ġ W
ģà¸ ©
áĢķ áĢ±áĢ¸áĢ
ĸà¸ ¶à¸
áŀĲáŁĴáŀĦáŁĥ áŀĳáŀ¸
Ġà»Ģàº Ĥ
áŀĥ áŀ¾áŀī
Ġà»Ģàº ŀàº·à»ĪàºŃ
å¤ ©
áŀĩ áŁĴáŀĩ
àº²àº °
áĢ¸áĢ ķ
áŀŁ áŀ·
æ Ń
áĢ±áģ¾áĢĢ áĢ¬áĢĦáĢ¹áĢ·
ķáĢ¼ áĢ²
áĢĸ áĢ½
áŀħ áŁģáŀī
à¯ģà®³ à¯įà®³
o l
Ġa nd
Ġ1 0
à¹Īà¸ ¡à¸
Ġáŀļ áŀ¶áŀĩ
áĢ¸áĢ ±áĢĲáĢ¼
ĠáĢ¡ áĢģáĢ¯
áĢŃ áĢĻáĢ¹áĢ¸
Ġáģ ħ
áŀ¼ áŀļáŀ
Ġàºª àº°
Ġàº ĸ
iá»ĩ n
Ġc om
à¸µà¸¢ à¸Ļà¸
ļ áĢ°
ĠáģĤáģĢ áģģáģ
Ġà¸ ĭà¸
à»ī àº²àºĻ
áĢı áĢ¹áĢ
áŀĤ áŀº
áĢľ áĢŃáĢ¯áĢ·
áĢ ¦
àºĻàº §
ç Ļ
à®¿à® ´
Ġ ga
ãĢ ĳãĢĲ
æ ŀ
ĠáŀĶ áŀ»
áĢ±áĢķ áģļ
ĠáĢ ĲáĢ¬
ĠáŀĶ áŀĵáŁĴáŀı
áĢ³ áĢķáĢ¹áĢ
áĢ¡ áĢŀ
o st
ģà¸ ¥
áŀĢáŀĺáŁĴáŀ ĸáŀ»áŀĩáŀ¶
áŁ ©
à®° à¯įà®ķà®³
áŀĹ áŁĴáŀĽ
áĢº áĢ¬
Ġ =
áĤ ĩ
áĢĲáĢ¹áĢ ŀ
áĢ¾ áĢĦáĢ·áĢº
áŀĩ áŀ¶áŀĺáŀ½áŀĻ
Ġàº ľ
¡ àºµ
áº ·
áŀ¶áŀĩ áŀĵ
å®ĺ ç½ĳ
Ĵ Į
áŀķ áŁĴáŀı
Ġà¸ Ķà¸
Ġ e
à¹īà¸Ńà¸ ¡à¸
à®ªà¯įà®ª à®Ł
Ġáŀĺ áŁģ
Ġáŀħ áŀ»áŁĩ
àºĶ àºµ
áŀĵ áŁĴáŀĴáŀ
¹ à¹Ī
i p
áŀ¶áŀĳ áŀ¸
áŀĤ áŁĴáŀĵ
i r
àº°àº į
ĠáŀĢáŀ¶áŀļáŀ Ķ
à®¤à¯įà®¤ à®¿à®²à¯į
ļ áĢ¬áĢĢáĢ¹áĢ
± áĢĢáĢº
áĢĦáĢ¹áĢ Ĳ
áĢŀ áĢĬáĢ¹áĢ
áĢ¸áĢ ķáĢ«
Ġà¹Ģà¸ Ķà¸´à¸¡à¸ŀà¸±à¸Ļà¸
à¹Ģ à¸£à¸µà¸
y o
áŀĶ áŀĢáŁĴáŀŁ
ĠáĢŀ áĢĻ
áŀĳáŁĴáŀĴáŀ ·
áĢĲ áģ
áĢħ áĢ®
áŀĻ áŁīáŀ¶áŀĦ
à» ģ
å¼ Ģ
Æ° Æ¡
áĢ¼ áĢĶáĢ¹áĢ¸
ĠáĢ±áĢ ŀ
ĠáĢħ áĢŃáĢĲáĢ¹áĢ
áĢĲ áĢħáĢº
áŀ¶áŀĸ áŀĽáŀļáŀĬáŁĴáŀĭ
ĠáŀĶáŀĵáŁĴáŀĳ áŀ¶áŀĶáŁĭ
Ġà¸Ĺà¸ Ķà¸¥à¸Ńà¸ĩ
Ġà¹Ģà¸ ¥
ģà¸±à¸ ļ
Ġå Ī
áŀĳ áŀĳáŀ½áŀĽ
àº±àºĶàº ķ
à®° à¯įà®ķà®³à¯į
çī Į
Ġ äº
Ġáŀĺ áŀ»áŀĵ
Ġk o
à¸Ńà¸ ļ
à»Ī àº²àºį
Ġna g
æ İ
Ġ201 8
áŁĤ áŀĶ
Į áĢ¬áĢĶ
Ĺà¸ ³
áº§ n
ĠáĢĳ áĢŃáĢ¯
áŀ·áŀŁ áŁģáŀŁ
» àºĶ
áŀħ áŁĨ
±áĢ ķáĢ«
áĢŃ áĢķáĢ¹áĢ
Ġáŀķ áŁĴáŀĽáŀ¼áŀľ
áĢĦáĢ¹áĢ Ģ
ĠáĢ¡ áĢĶ
ç §
ĠáŁĶ âĢĭ
ģàº °
à®® à¯įà®ª
Ħà¸£à¸Ķà¸´à¸ ķ
Ĭà¸± à¹Īà¸Ļ
ĠáŀĪ áŁĴáŀĺáŁĦáŁĩ
à¹īà¸² à¸Ļ
áŀĩ áŁĨáŀĵ
Ġà¸ Ľ
ĠáŀĬ áŁĤáŀļ
áĢŃáĢ¯áĢĦáĢº áĢĦáĢ¶
áŁĦ áŀŁ
ķ à¸£à¸
àº¸ àºģàº
ĠáŁ ł
ĸ áŁĲáŀĵ
i Ãªn
à¯ģà® °
áŀķ áŁĴáŀĽáŀ¼áŀľ
àº±à»ī àºĩàº
Ħà¸§à¸²à¸ ¡
la h
áĢľ áĢ¬áĢ¸
áĢ¶ áĢ·
áŀĸ áŁĴáŀľ
áŁ ¨
áŀĤ áŁĴáŀĵáŀ¶
Ġbuh ok
Ġs i
áĢŃ áĢĶáĢ¹áĢ¸
ī áģ
àº ĤàºŃàºĩ
Ĺà¸ ³à¸
ĠáŀĨáŁĴáŀĵáŀ¶áŁĨ áŁ¢áŁłáŁ¡áŁ
áŀ»áŀĽ áŁĴáŀĽ
à®¾à® ®à¯į
áŀ¹áŀĢ áŀĵáŀ¶áŁĨ
áŀĴáŀ ·
Ġå¤ §
Ġáŀļáŀ Ķ
±áĢ ĳ
ĠáĢ±áĢĶ áĢ¬áĢĢáĢ¹áĢ
áĢ±áĢ »áĢģ
áĢĻáĢº áĢ¬áĢ¸áĢ
áĢ½ áĢ±
ä½ ĵ
áŀıáŁĴáŀļáŀ¼áŀľ áŀĶáŀ¶áŀĵ
áĢ¬áĢ¸ áĢĢ
ģà¸ ¡à¸
ĩà¸´ à¸Ļ
à»ģàº ¥
áĢŃ áĢĻ
·à¹Ī à¸Ń
Ġå ħ
Æ°á» Ľ
à®¾à®Ł à¯įà®Ł
áŁĢ áŀĺ
Ġáŀĩ áŀ¶áŀĦ
áĢ±áĢĲáĢ¼ áĢĢáĢŃáĢ¯
áĢĢáĢ¹áĢ ľ
áĢŀ áĢ¼áĢ¬áĢ¸áĢ
áĢľ áĢŃáĢ¯áĤĶ
áĢŁ áĢ¯
in di
à¸Ļà¸µ à¹īà¸
áŁĴáŀ į
æ Ģ
ĠáŀĬ áŀ¹áŀĦ
áŀķ áŀĦ
áŀĶáŁĴáŀļáŀ Ģ
àº°à»ĢàºĹ àºĶ
ŀ áĢ¼áĢ¬áĢ¸áĢ
áĢĽ áĢ±áĢ¸áĢ
áŀı áŀ·
ĠáŀĢ áŁĴáŀļáŀŁáŀ½áŀĦ
áŀŁáŀĺ áŁĴáŀļáŀ¶áŀĶáŁĭ
Ġà® ı
Ġ à¸£à¸
ĠáŀŁ áŀĺáŁĴáŀ
Ġà¸ Ĥ
éĹ ¨
u r
2 0
±áĢĽ áĢ¸
áĢĻ áĢļáĢ¹
áĢ¬áĢ¸áĢĻ áĢº
áĢĲáĢ²áĢ· áĢ¡
±áĢĨ áĢ¬áĢĦáĢ¹áĢ
±áģ¾áĢĢ áĢ¬áĢĦáĢ¹áĢ¸
áĢŀ áĢĬáĢ¹áĢ·
Ĳ áĢŃáĢ¯áĤĶ
ĠáĢ¡ áĢĳ
Ġ à¸£
áŀĤ áŁĴáŀļáŁĦáŁĩ
å ĳ
à¸Ļà¸ ´à¸
áŀĢ áŁĴáŀģ
à»Ģàº Ħ
Ġtr ong
áĢŁ áĢ¯áĢĲáĢ¹áĢ
áĢ± áĢĢáĢº
áĢĽ áĢ²áĢ·
ĠáĢŁ áĢ¯
Ġáŀļáŀ ½áŀĺ
áĢĶáĢ¾ áĢħáĢº
áŁĨ áŀĦ
Ġà®µ à¯Ĩ
ĺ à¸
ĠáŀĲáŁĴáŀĦáŁĥ áŀĳáŀ¸
Ġ U
áŁĴáŀĬ áŀ¸
±à¸ įà¸
æĸ °
áŀĮ áŁĴáŀį
áŁĨáŀķ áŀ»áŀı
àºŃ àºģ
æ ²
i b
ĠáĢĨ áĢĽáĢ¬
áĢ±áĢĽ áĢ¬
§à¹ĩà¸ ļ
Ĺ àº²àºĩ
Ī à¸£à¸´à¸
Ġáŀķ áŀĦ
ĠáŀŁ áŁĴáŀĲ
Īà¸ °
Ġà®¨ à®Ł
áŀĶ áŁĴáŀĶ
æ ĭ
áŀ¶áŀĻ áŀ»
Ġ O
áĢĻáĢº áĢ¸áĢ
e w
áŁĢáŀı áŀİáŀ¶áŀĺ
áŀ¶áŀŁ áŁĬáŀ¸
±à¸ ģ
à®¿à® ļ
Ġáŀĺ áŁĴáŀĵáŀ¶áŀĢáŁĭ
áŁĴáŀļáŀ ¡
Æ°á»Ŀ i
áŁĴáŀı áŁģáŀħ
Ġh t
ĠáĢ»áĢķ áĢĶáĢ¹áĢ
Ġ áĤıáĢ½áĢħáĢ¹áĢ
áĤıáĢ¯áĢŃáĢĦáĢ¹áĢ ĦáĢ¶
áģ ¢
áĢ»áĢķ áĢ³
áĢħ áĢ¬áĢ¸áĢ
Ġáŀĺ áŀ»áŀģ
áŀĺáŁĴáŀĽ áŁĥ
ļà¸Ńà¸ ¥à¸
Ĭ à¹Īà¸§à¸
àº±à»ī àºĩ
áĢ»áĢĸ áĢħáĢ¹
áĢĦáĢ¹áĢ ľ
áĢĶ áĢļáĢº
p p
é Ŀ
áŀĬ áŀ¸
áĢ® áĢľ
a d
à®© à¯įà®©
áŀĽ áŁĴáŀĶ
à»ĢàºĽ àº±àºĻ
Ġà¸ ŀà¸
Ĳ áĢħáĢ¹áĢ
áĢ½ áĢĦáĢº
à®ªà¯įà®ª à®Łà¯įà®Ł
áŀĢ áŀļ
ĠáŀŁ áŁĤáŀĵ
áŀľ áŀıáŁĴáŀı
«à¸ ¥
áŀļáŀ ĺ
l o
ç« Ļ
áŀĵáŁĴáŀĲ áŁĤáŀĺ
àºĻàº °
ä¼ ļ
áŁĦáŀĶ áŀ¶áŀĻ
áŀıáŁĴáŀĲ áŀĢáŀ·áŀħáŁĴáŀħ
áŁĢ áŀľ
Ġà»Ĥ àºĶàºį
Ħ áŀ¶áŀļ
an o
áŀ ĨáŁĴáŀĵ
¢ à¸Ļà¸
áŀ¶áŀħ áŁĴáŀļáŀ¾áŀĵ
Ġ j
Ġng h
m ang
àº» àº²àº
Ġà¸ª à¹Īà¸ĩà¹Ģà¸
Ġà¹Ģà¸Ķà¸´à¸¡à¸ŀà¸±à¸Ļà¸ Łà¸£à¸µ
¥à¸ĩà¸Ĺà¸ °à¹Ģà¸ļ
ĩà¸´à¸Ļà¸ ļà¸²à¸Ĺ
ĩà¸´à¸Ļà¸ļà¸²à¸Ĺ à¹Ħà¸Ĺà¸¢
ªà¸²à¸ ¡à¸²à¸£à¸
à®Ł à¯ģà®¤à¯įà®¤
áŀĹ áŀ¶
áŀĶáŁĴáŀļ áŀ¶áŀŁáŁĭ
t o
áŁĴáŀļáŀ ·
à»ģàº ļàºļ
ĠáĢķ áĢŃáĢ¯
å ĴĮ
Ġà¹Ĥà¸ Ķà¸
áŀĽ áŁģáŀģ
áº¡ n
»áĢķ áĢ³
áĢĿ áĢĦáĢº
Ġt a
ĠáŀĢáŁĴáŀļáŀ»áŀĺ áŀłáŁĬáŀ»áŀĵ
Ġà»ĢàºĽ àº±àºĻ
àº±àºĶàº Ĺ
à¯Īà®¯ à®¿à®²à¯į
áŀĤ áŀ¶áŀıáŁĭ
à»Ģàº® àº±àºĶ
Ġà¸ ļ
Ġáŀĩ áŁĨáŀĵ
Ġà¸ Ĺà¸µà¹Īà¸
ĠáŀĢ áŀ¶áŀĵáŁĭ
ĠáŀĤ áŁĴáŀļáŀĶáŁĭ
¹ à¹Īà¸
áŀĢ áŀ¶áŀĵáŁĭ
ĠáĢħ áĢħáĢ¹áĢ
±áĢ ŀ
áĢĦáĢ¹áĢ Ļ
áĢ±áĢ¬ áĢĦáĢ·áĢº
Ġà®¤ à¯Ĭ
àº Ĺàºµ
Ġm en
Ġáŀĸ áŁĴáŀļ
Ġáŀĵ áŀ¶áŁĨ
u b
áŀĴáŀ¶áŀĵ áŀ¸
áŀĳ áŁģáŀŁ
å Ł
ķàº´ àºļ
à¹ī à¸Ń
àºµ àºĻ
áŀ¶áŀĩ áŁĴáŀī
Ġ0 0
à¸£à¸²à¸ °à¸
½ áŀħ
à»Ģ àºĻàº
ĠáŀıáŁĴáŀļáŀ¼áŀľ áŀĶáŀ¶áŀĵ
áĢ¯ áĢĴ
Ġà¸ ¥
áĢ»áĢĸ áĢĦáĢ¹áĢ·
Ġ áĤıáĢŃáĢ¯áĢĦáĢ¹áĢĦáĢ¶
áĢ» áĢ¾
8 8
Ħà¸£à¸ ·à¹Īà¸Ńà¸ĩà¸
Ġm á»Ļt
áŀıáŁĴáŀı áŀĺ
à¯Ī à®¤à¯įà®¤
ĠáŀĶáŁĴáŀļáŀ ¾
Ĺà¸²à¸ ĩà¸
å¹³ åı°
æ ¬
à»ģàº ¥àº°
Ġà»Ģàº ¡
áŀ» áŀħ
Ġáŀļáŀ Ł
áŀĲ áŁĴáŀĺáŀ¸
à»Ī àºĻàº
áŁĨáŀĦ áŀº
pa ng
áĢĴ áĢ«
Ġà®Ĵà®° à¯ģ
áĢ¬ áĢĲáĢ¹áĢ
áĢĢáĢ¹áĢ ¡
ĸ áĢŃáĢ¯áĤĶ
áĢ¯ áĢķáĢ¹
áĢ® áĢĻ
Ġáŀķ áŀĽ
é ¢
Ħ áĢ¼
áĢ» áĢĢáĢº
i on
ĠáŀŁ áŀ·
áŀļáŀĩ áŀ¶áŀıáŀ·
ķ àºµ
ĠáŀĤ áŀ¶áŀıáŁĭ
ģà¸ ´à¸
Ġáŀł áŁĬáŀ»áŀĵ
áŁĴáŀĽ áŁĤáŀĦ
ĠáĢ ĵ
áŀĶ áŀĵáŁĴáŀĳ
å ĵ
à»įàº¥ àº´
Ġ áĤĲ
áĢĢáĢ¹áĢ ħ
ĠáĢĢáĢŃáĢ¯ áĢļáĢ¹áĢ
ĠáĢĴ áĢ¯
áŀĸ áŀ½áŀĢ
ĠáĢĲ áĢħáĢº
ģà¸ ¥à¸
o d
àºļ à»įà»Ī
å¿ «
áŀł áŁģáŀıáŀ»
æ £
m an
áŀļáŀ ĸ
à¸£à¸²à¸Ħ à¸²à¸
Ġáŀħ áŁĨáŀĸáŁĦáŁĩ
§à¸ ±à¸Ļà¸
a pp
å¸ Ĥ
áŀŁ áŁĴáŀı
áĢ±áĢ ĸ
àº ĸ
áĢ±áĢķ áĢĻ
áĢĢ áĢ±áĢĲáĢ¬áĢ·
áĢŀ áĢĻ
Ġà®ķ à¯Ĥ
Ġ ä»
±áĢķ áĢ¸áĢ
áĢĶáĢ¹áĢ Ĳ
ĠáŀĲ áŁĴáŀĺáŀ¸
ĠáŀŁ áŀĦáŁĴáŀĤ
ĠC h
ľà¸ ¥à¸
áĢħáĢ¹áĢ ħ
à»īàºŃ àº¡
áŀ» áŀĳáŁĴáŀĴáŀ
áŀİ áŀĶáŀĢáŁĴáŀŁ
áŀ¶áŀĢ áŁĴáŀĻ
Ġà¹ģà¸ ¥à¸°
Ġla ng
Ġáŀĸ áŁĲáŀıáŁĮáŀĺáŀ¶áŀĵ
áĢģáĢ» áĢĢáĢº
Ĺ àº´
c e
áŀĽ áŁĴáŀ¢
àº Ł
y on
«à¸ ¡à¸²à¸
à® ¸
áŁĴáŀĸ áŀŁáŁĭ
Ġvá» Ľi
Ġå ı
áŀĢáŀ¶áŀļáŀ Ł
ĠáŁ ¦
ĠáŀŁ áŀ¼áŀĺ
àº· à»ī
ĠáĢ¡ áĢģ
áŀĤ áŀļáŀĶ
áŁĨ áŀĬ
à¹Īà¸² à¸Ļà¸
Ġp er
áŀŁ áŁĴáŀĲáŀ¶áŀĵ
åħ ¬
à»Ģàº Ī
áŁī áŀ¶
à®¿à® ®
áŀħ áŁĴáŀļáŀ¾áŀĵ
Ĺà¸µ à¸
áĢĽ áĢĦáĢ¹áĢ
Ġáģ Ĩ
¥à¸ĩà¸Ĺà¸°à¹Ģà¸ļ à¸µà¸¢à¸Ļà¸
ªà¸ ³à¸«
áĢ½ áĢĢáĢº
Ĭ àº²àºĶ
iá» ĥ
è¡ Į
ĠâĢĭ áŁ
Ġáŀĳ áŁĨáŀĵ
Ġàºļ à»įà»Ī
ī à¸
áŀĤáŀļáŀĶ áŀ¶áŀĽ
Ġáŀľáŀ· áŀī
ĠàºĽ àº°
ŀ àº§àºģ
ĠáŀĢ áŀ¾áŀı
ĠáĢŀáĢŃ áĢĽ
áĢĽ áĢ®áĢ¸áĢ
Ġà®ħ à®°
ĠáŀĢ áŀ·áŀħáŁĴáŀħ
ĠáŀŁ áŁĴáŀļ
áŀ½ áŀļ
ķ à¸´
Ġk an
áŀĺáŁĴáŀĽ áŀ¶áŁĨáŀĦ
áŀ·áŀľ áŀĮáŁĴáŀį
à»ģàº «
ł áŀ¼áŀı
ĠáĢĶ áĢ¾
à®Ļ à¯įà®ķà®³à¯į
Ġáŀļáŀ ¿áŀĦ
Ġà¹Ĥà¸Ľà¸£ à¹Ĥà¸¡à¸
à¸´à¸ Ķà¸
áŀĶ áŀĦáŁĴáŀĢ
àº§ à»Īàº²
é ģ
áŀ¶áŀĢ áŀ¶áŀļ
Ġà¸ ¡à¸
áŀļáŀ ĻáŁĪ
ķ à¹Į
Æ°Æ¡ ng
áĢļáĢ¹áĢľ áĢŃáĢ¯áĤĶ
áĢ¬áĢĽ áĢ®
ĠA ng
áŀīáŁĴáŀĩ áŀ¼áŀĵ
àº¹ àºĻàº
áĢľáĢŃáĢ¯ áĢĢáĢ¹áĢ
áĢ¾ áĢ¯
ĠáŀĢ áŁĴáŀļáŀ»áŀĦ
æ³ ¨
¡à¸²à¸ ģà¸
æ ±
áŀı áŀ¶áŁĨáŀĦ
´ àºĶ
áŀīáŁĴáŀī áŀ¶
áŀ¶áŀļáŀ ¸
áŀĵáŁĴáŀı áŀļáŀĩáŀ¶áŀıáŀ·
å ¨
áŀ» áŀľ
à»Ģàº ŀàº·à»ĪàºŃ
i a
áŀŁ áŁĴáŀļáŀ»áŀĢ
é ĺ
áŀ¾ áŀĵ
à®± à¯įà®ķ
łà¸²à¸ ŀà¸
ĠáŀĬ áŀ¶áŀĢáŁĭ
ĠáĢĢ áĢ¯
áŀŁ áŀł
áĢĻáĢ» áĢŃáĢ¯áĢ¸áĢ
áŀĻ áŀ¾áŀĦ
à¹ĥà¸ Ī
iá»ģ u
ĠáŀŁ áŁĬáŀ¸
¥ àº²àº§
áŀĹ áŀ·áŀľáŀĮáŁĴáŀį
Ĺà¸ ¸à¸
ĠáŁ §
áŁĴáŀļáŀ ł
áĢ¼ áĢļáĢ¹áĢ
ĠáĢ±áĢ ħ
áĢ»áĢķ áĢĬáĢ¹áĢ
ĠáĢľ áĢŃáĢ¯
áŀĺ áŀł
áŀ½ áŀļáŀ
ä½ ľ
Ħà¸¸à¸ ĵ
Ġàºŀ àº§àºģ
áĢĶáĢ¾ áĢĦáĢ·áĢº
áŀ· áŀĴáŀ¸
áŀĶáŁĴáŀļáŀ ¾
Ġàº ľàº¹à»ī
åľ °
ģ à¸£à¸°à¸
Ġà®® à¯ģà®
à»į à»ī
Ġáŀģ áŁĴáŀĺáŁĤáŀļ
áŀĢáŁĴáŀļ áŁĦáŀĻ
Æ°á»Ŀ ng
ĠáŀĶáŁĴáŀļáŀ Ł
Ġm em
Ġ #
Ġà¸ªà¹Īà¸ĩà¹Ģà¸ ĩà¸´à¸Ļà¸ļà¸²à¸Ĺà¹Ħà¸Ĺà¸¢
à¹Ģà¸ Ķ
à»ī àº²àºĻàº
Ġáŀ¢ áŀĵáŀ»
áŀ» áŀĳ
Ļ à¯įà®ķ
Ġa n
Ġà¹Ģà¸ ¡à¸
áĢ¡ áĢĽ
àº·àºŃ àºĩ
áŀĽ áŀ¾áŀĢ
áŁĤ áŀı
à¹Ĥà¸£à¸ ĩ
¦ ģ
áĢĲ áĢŃáĢ¯áĢĦáĢ¹áĢ¸
ĠáĢĢáģ½ áĢ¼áĢĶáĢ¹áĢ
áĢ¼ áĢĲáĢ¹áĢ
Ġáģ¿ áĢķ
ĠáĢĺ áĢ¯áĢĽ
at a
à¯Īà® µ
Ġà¸ ¥à¸ĩà¸Ĺà¸°à¹Ģà¸ļà¸µà¸¢à¸Ļà¸
Ġ $
Ġà¸¥à¸ĩà¸Ĺà¸°à¹Ģà¸ļà¸µà¸¢à¸Ļà¸ Łà¸£à¸µ
Łà¸¸à¸ķà¸ ļà¸Ńà¸¥
à¹Ĥà¸ Ķà¸
áŀĻ áŁĦáŀĶáŀ¶áŀĻ
áĢ½ áĢ±áĢ¸áĢ
áŀĳ áŀ»áŀĢ
ĠàºĻàº ±
áŀĩ áŁĴáŀļ
uy á»
er s
Ġáŀľ áŀ¶
áĢ¡ áĢ±áĢĶ
áĢ¸áĢ Ķ
à»ģàº Ĥ
Ġáŀĸ áŁĴáŀļáŁĦáŁĩ
ĠáŀŁ áŁĨáŀİ
áŁĴáŀļ áŁģáŀħ
Ġm o
áŀ¶áŀ Ĳ
áĢ®áĢ¸áĢ ķ
à¸£à¸²à¸Ħ à¸²
à¯įà® £
àº½ àºĩ
à¸Ļ à¹īà¸
áŀĩ áŁĲáŀĻ
çĶ Ł
Ġ áĤı
áĢĺ áĢ²
ĠáŀĶ áŀ¾áŀĢ
ila ng
Ġáŀĩ áŀ½áŀĻ
áŀ¸ áŀĬ
áĢĤ áĢ«
à®¾à® £
áŀ ¯
àºŃ àºĻàº
á» į
áĢĽ áĢĦáĢº
à¹ĥà¸«à¸ ¡
ĠáŀĹ áŀ¶áŀĤ
ĠáĢ¡ áĢ¬
à¹ģà¸¥ à¹īà¸§
Ġy ou
áŀ¼áŀı áŀ¼
i v
áŀļáŀİ áŀ¸
àºª àº°
±áĢ Ļ
áĤ Ĩ
áĢĶ áĢ·áĢº
ä¸ ļ
áŀŁ áŁĨ
¤ à¸
áŀħ áŀ¶áŀĶáŁĭ
à¯Ĩ à®°
æĪ ı
åĪ °
áŀĢ áŀ¾áŀı
Ľàº°àº Ĭ
áŀĬ áŀ¶áŀĢáŁĭ
à»Ģàº Ĺ
ĠâĢ ĵ
ĠáĢŀ áĢĲáĢĦáĢ¹áĢ¸
áĢŀ áĢŃáĢ¯áĤĶ
áĢĢáģ ł
áĢĲ áĢļáĢ¹áĢ
áĢĨ áĢ±áĢ¬áĢĦáĢº
Ãł ng
à¸Ńà¸ µà¸
áŁĴáŀļáŀ¹ áŀĢ
áŀĬ áŀ¾áŀĺáŁĴáŀĶáŀ¸
ĠáŀĬ áŁı
¢à¸ §à¸
Ġà»Ģàº Ĺ
áŁĴáŀļáŀ ĸ
Ġ ito
à¯įà®¤ à¯įà®¤
àº¶ à»Īàºĩ
áŀĩ áŀ¾áŀĦ
áĢ±áĢĶ áĤĶ
ĠáĢ±áĢ ĸ
áĢ¬áĢ¸áĢ ±áĢĲáĢ¼
áĤıáĢ½ áĢħáĢ¹
áĢ±áĢĨ áĢ¬áĢĦáĢ¹áĢ
áĢ±áĢķ áĢ¸áĢ
áģ Ĥ
áŀĸ áŁĲáŀĵ
áº£ i
Ġà®ª à®Ł
áŀ·áŀĵ áŀ·áŀıáŁĴáŀĻ
1 0
ĸáĢ¼ áĢħáĢº
è ĩ
áŀĺ áŁĴáŀĵáŀ¶áŀĢáŁĭ
ĸáŀ» áŀĩ
Ġáŀ ¥
à¸£à¸²à¸ ¢à¸
Ġáŀļáŀ ĲáŀĻáŀĵáŁĴáŀı
Ī àº²àºģàº
Ġáŀķ áŁĴáŀı
áŁĴáŀļáŀ¹ áŀĺ
à¯įà® ¯
à¹ĥà¸Ĭà¹īà¸ Łà¸£à¸µ
à¸´à¸ ĩà¸
áŀŁ áŁĨáŀİ
áŀŁ áŁĬáŀ¸
Ġà¸Ĺà¸Ķà¸¥à¸Ńà¸ĩ à¹ĥà¸Ĭà¹īà¸Łà¸£à¸µ
Ġ à¸Ļà¸
s a
áĢĢáĢ¼ áĢ±áĢ¬áĢĦáĢºáĢ¸
ĺ áŁĮ
è ¾
Ãł nh
áŀĶ áŀĵáŁĴáŀı
e c
à¹Īà¸² à¸Ļ
ĠàºĻàº µà»ī
à»Īàº į
à®¤ à¯į
áŀı áŁģ
ªà¸ Ķà¸
Ġáŀħ áŀ·áŀĵ
Ġáŀĥ áŀ¾áŀī
± àºĻàº
±áĢĶ áĤĶ
áĢĶ áĢĬáĢ¹áĢ¸
áĢŃ áĢĢ
à¹Ħà¸Ķà¹ī à¹Ģà¸
Ġáŀ ī
b o
áŁĢáŀĶ áŀħáŁĨ
áŀİ áŁį
Ġà¹Ĥà¸Ľà¸£à¹Ĥà¸¡à¸ Ĭà¸±à¹Īà¸Ļ
à¸²à¸ ģ
à¹Īà¸²à¸ ĩà¸
áĢ±áĢĲáĢ¬ áĢ¹
ķ áĢ²
ĠáĢĢ áĢ¬
Ġæ ľ
Ľ àºµ
áŀĩ áŀ¶áŀĦ
áģĢ áĢĦáĢ¹áĢ
Ħ áĢĶáĢ¹áĢ¸
Ġáģı áģĭ
áĢķáĢ¹áĢ Ļ
áĢĽ áĢĶáĢº
Ġáŀĺ áŀĵáŁĴáŀıáŁĴáŀļáŀ¸
ĠáŀĺáŁī áŁĦáŀĦ
Ġà®İà®©à¯įà®± à¯ģ
ĠT r
áŀĹ áŀ¶áŀĤ
æ ´
³ à¸Ļà¸
Ġàº ĤàºŃàºĩàº
ar i
áŀ¶áŀ ģ
à»Ĥ àº¥
áŀĺ áŀĵáŀ»áŀŁáŁĴáŀŁ
Ġà¸ªà¸ ¥à¹ĩà¸Ńà¸ķ
ti on
ªà¸ ¹à¸
áº£ n
áŀŁ áŀĺáŁĴáŀ
Ġà®ļ à¯Ĭ
áŀ¼ áŀļáŁī
áŀľáŀ· áŀĳáŁĴáŀĻ
à¸²à¸ ªà¸´
Ġà¸ ĸ
ĠáĢ» áĢĸ
áĢĸáĢ½ áĢ²áĢ·
¶ à¹Īà¸ĩà¸
Ġh indi
Ġáŀĵ áŀ¼áŀľ
Ġà® Ł
à»Ŀ àº²àºį
ä¸ º
áŀİ áŀ¶
áģ¾áĢĢ áĢ®áĢ¸áĢ
ĠáĢľ áĢ¯áĢķáĢº
ĠáŀŁ áŁĴáŀĵ
áŀķáŁĴáŀŁ áŀ¶áŀĻ
áŀĵ áŀ¼áŀľ
áĤĬ áĢĲáĢ¹áĢ
áĢĬáĢ· áĢ¹áĢ
áĢĢáĢ¹áĢ ŀ
ĠáĢĻáĢ¼ áĢĶáĢº
Ġng Æ°á»Ŀi
t p
áģ Ĭ
Ġàº¥ àº²àº§
áĢĦáĢºáĢ¸áĢ Ļ
áŀ¶áŀļáŀ ĸ
àº½ àºĻ
áŀ¿ áŀĵ
ŀà¸ ·à¹Īà¸Ńà¸
a ra
à®¾à® ±
àº´ àºģ
ĠáŀĶáŁĴáŀļáŀ Ĺ
Ĩ áŀ¶áŁĨáŀĦ
à¸£à¸ ¹
ħ áŀ¶áŁĨ
àº¹ àºĻ
ĠáŀĢ áŀ¼áŀĵ
áĢĽ áĢ²
áŀħ áŁĴáŀĶáŀ¶áŀĶáŁĭ
ĠáĢ¡ áĢŃáĢĻáĢ¹áĢ
ģáģ ļ
áĢŀ áĢĬáĢ·áĢº
å ī
Ġh ala
Ġàºģàº ±àºļ
à»įàº²àº ¥
áŀ¾ áŀļ
Ħà¸ ¡
Ġs ing
àº°àº« àº§
b ang
à¯Īà® ªà¯įà®ª
Ľà¸£à¸°à¹Ģà¸ Ĺà¸
áŀ ¯áŀĢ
áŀ¶áŀĴáŀ ¶
áŀ¶áŀŁ áŁĴáŀı
àº²àº Ħ
Ãł n
ĠáŀŁ áŁģáŀħáŀĢ
o w
ä¸ ĩ
a na
ä¸ ª
» áŀŁ
ĠáŀĨ áŁĴáŀĽ
à¯Īà®¯ à¯ģà®®à¯į
à¸£ à¹īà¸²à¸
à»Īàº½àº§ àºģàº±àºļ
áŀĶ áŀ»
áŀĲ áŁĴáŀĵáŀ¶áŀĢáŁĭ
Ġáŀ¢ áŀ¶áŀĻáŀ»
áŀĺ áŀĵáŁį
à»Ģ àºĩàº
áŀĶáŁĴáŀļ áŀ¶áŀĢáŁĭ
áŀ¼ áŀĢ
Ġ201 9
Ġ1 2
Ġ à¸Ń
àºĻ àº²àº¡
á»¯ ng
«à¸£à¸ ·à¸Ń
áŀĢáŀ¶áŀļáŀ ĸ
ģàº ±àºļ
y ang
áŀĬ áŁĨáŀİáŀ¾
Ġà®ķ à®Ł
é Ĵ
·à¹Ī à¸Ńà¸ĩ
à»Ĥ àºĶàºį
Ġáŀ¢ áŀ¶áŀĺáŁģáŀļáŀ·áŀĢ
¾ ³
áĢ±áĢķáĢ« áĢ·
Ġáģ ĩ
æ¸¸ æĪı
Ġáŀı áŁĨáŀĶáŀĵáŁĭ
«à¸Ļ à¹īà¸²à¸
çī Ī
ĠáĢľ áĢ½
èĤ ²
Ġï¿½ ï¿½ï¿½
é Ľ
Ġáŀİ áŀ¶
Ġu pang
Ġà®ĩ à®¤
ĠáĢĺ áĢļáĢ¹áĢ
ĠáĢĽ áĢ¬
áŀģ áŀ¶áŀĵáŁĭ
ªà¸ ¥à¹ĩà¸Ńà¸ķ
Ġ1 1
à¹Īà¸²à¸ ¢à¸
ĠáĢ¡ áĢĻ
Ġáŀĵ áŀ¶áŀĦ
Ġáŀĵ áŀ·áŀĻáŀ¶áŀĻ
Ġà®ħ à®®
à»ģàº ¡
å· ¥
Ĺà¸ ±à¹īà¸ĩà¸
±áĢĲáĢ¬ áĢ¹
/ /
ĠáĢľ áĢĢáĢº
áŀĦáŁĴáŀĢ áŀ¶áŀıáŁĭ
áŀĦáŁĴáŀŁ áŁĲáŀĻ
ĠáŀĽ áŁĴáŀ¢
àº¥ àº²àºį
æīĭ æľº
ĠáŀĶ áŀħáŁĴáŀħ
ç ¾
Ġsing aw
Ġmas k
Ġhala mang
ab a
áŀ¢ áŀ¼
® à»Īàº§àº¡
i h
à¹Ģà¸ ª
áŁ¢ áŁł
áĢ±áĢľ áĢ¸
Ġ: //
áĢĶ áĢ±áĢ·
áŀ¶áŀĴáŀ¶ áŀļáŀİ
àº§àº½ àºĶ
à®¿à®± à®¤à¯ģ
Ń àºĩàº
áŀĺ áŀ»áŀĵ
Ãł i
Ġà¹Ģà¸ ĩà¸´à¸Ļà¸
Ġà¸ ķà¸
æ ĥ
Ġàº§ à»Īàº²
àºµ à»Īàº¡
áŁĤ áŀļáŀ
Ĥ à¹īà¸²
áĢĦ áĢļáĢ¹áĢ
áĢº áĢ¬áĢ¹áĢ
ĠáĢ± áģ¾áĢĢ
»áĢķ áĢ¬áĢĦáĢ¹áĢ¸
ĠáĢķáĢ¼ áĢ±áĢ¬
ĠáŀĤ áŁĴáŀļáŀ¿áŀĦ
áŀĵáŁĴáŀĳ áŀ¸
áŀĢ áŀ¶áŀŁ
áŀ¶áŀĽ áŁĲáŀĻ
àºģàº §
áŁĴáŀĽ áŀ¶áŀĻ
áĢĢáģ ¡
±áĢķ áģļ
áĢĦáĢ¹áĢ ¡
Ł áĢ¯
ç½ĳ ç«Ļ
à¸Ńà¸ Ķ
áĢĢáĢ¹áĢ Ĳ
áĢĢáĢ¹áĢ Ĩ
áĤĢáĢĢ áĢŃáĢ³
.. ..
ĠáĢ¡ áĢĢ
çĶ ¨
áŀŁ áŁĴáŀĵ
Īà¸±à¸ Ķà¸
Ġáŀĳ áŀ¾áŀĶ
áº§ u
áŀĬ áŁı
Ġm ula
áĢ» áĢ¬áĢ¸
«àº¼ àº²àºį
à®® à®¾à®ķ
ģà¸ ±à¸Ļà¸
áŀ¶áŀĩáŁĴáŀī áŀ¶áŀĴáŀ
áŁĴáŀļáŀ½ áŀĽ
Ġ25 6
«à¸ ±à¸
Ġáŀ¢ áŀŁáŁĭ
æĹ ¥
t e
Ġ }
ŀà¸Ļà¸ ±à¸Ļà¸
ľà¸¹ à¹ī
áŀĴáŀ ĺáŁĮ
e la
±áĢĽ áĢ¬áĢĢáĢ¹áĢ
áĢ¥ áĢ¹
áĢ¬ áĢ·
ĠáĢľ áĢ¬
áĢĲ áĢĽ
áŀĨáŁĴáŀĵ áŁĦáŀı
åĩ º
áĢĺ áĢ°áĢ¸áĢ
±áĢ ļáĢ¬áĢĢáĢ¹áĢ
áĢ±áĢ ĺáĢ¬
ĠáĢ¡ áĢ±áĢĻ
áĢĢáĢ¼ áĢ®áĢ¸
áŀĴ áŁĨ
u ko
Ķ à¸²à¸
áŀ»áŀĽáŁĴáŀĽ áŀ¶áŀļ
ga m
à»ī àº²àºį
áŀ¶áŁĨ áŀĳ
ĠáĢĽ áĢĢáĢ¹áĢ
»áĢķ áĢ®áĢ¸
ĠáĢģ áĢ¶
Ġáŀĸ áŀ¶áŀĢáŁĭ
Ġà®ª à®¿à®°
áĢ»áĢķ áĢ®áĢ¸
±áĢĳ áĢ¬áĢĦáĢ¹áĢ
Ġht tp
áĢ¼ áĢĻáĢ¹áĢ¸
áģ ħ
ĠáŀĶáŁĴáŀļáŀ ĺ
áŀĢ áŀ¶áŀĽ
áĢķáĢ¼ áĢ¯
ļà¸ ±à¸
a nh
Ġk ay
áŀ¶áŀ ķ
à»Ģàº ĸ
åħ ¨
áŀ· áŀĹáŀ¶áŀĸ
à¸´ à¸Ļ
áŀ·áŀĹ áŀĸ
ç Ĥ
áĢ¡ áĢģáĢ«
Ġpa m
Ń àºĻ
Ġà®µ à®¾à®
Ġáŀĸ áŁĴáŀļáŀĺ
Ġnh Æ°
áŀĴáŀ ¶
àº´àºĶàº ķ
ãĢ Ĥ
à¸£ à¹Įà¸
áŀ¼ áŀĶ
áĢŃáĢ¯áĢ¸áĢ Ĳ
à®ª à¯į
ª àº°
áŀ¢ áŀ¶áŀĺáŁģáŀļáŀ·áŀĢ
ĠáĢ¡áĢħ áĢŃáĢ¯áĢ¸áĢĽ
áĢĲ áĢĦáĢº
ª à¸´à¸
áŀĪ áŁĴáŀĺáŁĦáŁĩ
ĭ çīĮ
¾³ éĹ¨
é ¡
ĠáŀĶ áŀĳ
Ġáŀĥ áŀ»áŁĨ
u g
áŁĴáŀĽ áŁĩ
· à¹īà¸Ńà¸
n ya
Ġ" :
à¸Ļà¸ Ħ
Ġ" ,
ģáĢ« áĢĦáĢ¹áĢ¸
áĤıáģ µ
Ġáģ Ī
à¹ĥà¸ Īà¸
Ġàºª àº³
áŁģ áŀļ
áĢ±áĢ¡ áĢ¬áĢĦáĢ¹áĢ
ĠáĢŀ áĢ¶
Ġà® ľ
áŀĩ áŀ¶áŀĶ
Ġï¿½ ï¿½
Ġè ¿
a o
Ġàº ¥àº°
áĢķ áĢ±áĢ«
áŁĴáŀ Ĩ
Ġ1 9
áŁĢ áŀĽ
à»Ģàº ŀ
Īà¸£à¸´à¸ ĩ
áŀŁ áŀ¸áŀł
áŁĴáŀĺ áŁģáŀĦ
Ġpa ano
áĢ¸áĢ Ĩ
u na
áŀ¼ áŀļáŀŁ
à¸Ńà¸ Ķà¸
ı áŀ·áŀĶ
ŀ áĢĻ
áĢĻ áģ
áĢģáĢº áĢĦáĢ¹áĢ
áĢĻáĢº áĢ³áĢŃ
ĠáĢ±áĢĢáĢº áĢ¬áĢĦáĢ¹áĢ¸
áĢŀ áĢŃáĢ¯áĢ·
âĢĭâĢĭâĢĭâĢĭâĢĭâĢĭâĢĭâĢĭâĢĭâĢĭâĢĭâĢĭâĢĭâĢĭâĢĭâĢĭâĢĭâĢĭâĢĭâĢĭâĢĭâĢĭâĢĭâĢĭâĢĭâĢĭâĢĭâĢĭâĢĭâĢĭâĢĭâĢĭâĢĭâĢĭâĢĭâĢĭâĢĭâĢĭâĢĭâĢĭâĢĭâĢĭâĢĭâĢĭâĢĭâĢĭâĢĭâĢĭâĢĭâĢĭâĢĭâĢĭâĢĭâĢĭâĢĭâĢĭâĢĭâĢĭâĢĭâĢĭâĢĭâĢĭâĢĭâĢĭ âĢĭâĢĭâĢĭâĢĭâĢĭâĢĭâĢĭâĢĭâĢĭâĢĭâĢĭâĢĭâĢĭâĢĭâĢĭâĢĭâĢĭâĢĭâĢĭâĢĭâĢĭâĢĭâĢĭâĢĭâĢĭâĢĭâĢĭâĢĭâĢĭâĢĭâĢĭâĢĭâĢĭâĢĭâĢĭâĢĭâĢĭâĢĭâĢĭâĢĭâĢĭâĢĭâĢĭâĢĭâĢĭâĢĭâĢĭâĢĭâĢĭâĢĭâĢĭâĢĭâĢĭâĢĭâĢĭâĢĭâĢĭâĢĭâĢĭâĢĭâĢĭâĢĭâĢĭâĢĭ
Ġáŀļáŀ ĻáŁĪ
àº± à»Īàºĩàº
à¹ģà¸ ģ
áŀļ áŀ¶
áŀ¢ áŁĦáŀĻ
áŀ¢ áŁĨáŀĸ
á» ĵ
Ġà®ª à¯Ĭ
§à¸´à¸ ĺ
áŁĴáŀĵ áŁģáŁĩ
à¹ĥà¸Ĭ à¹ī
or m
Ġà»Ģàº ¥
áŀĶáŁĴáŀļáŀ Ł
àº» àºĶàº
áŀ¸áŀľ áŀ·áŀı
åĿ Ģ
ä ¾
w a
áŀ ¥
Ā Ā
Æ°á»Ľ c
ª à¹Īà¸§
áĢ¡ áĢĶ
áŁĨáŀĶ áŀ¼áŀĦ
à¯įà® ¨à¯įà®¤
ĠáĢķáĢ¼ áĢĬáĢº
áĢľ áĢ¯áĢŃ
ĠáĢĢáĢº áĢ±áĢĶ
áĢ®áĢ¸áĢ Ĳ
à»Īàº§ àºį
áŀ§ áŀıáŁĴáŀıáŀĺ
ĠáŀĽ áŁģáŀģ
áŀļáŀ ¿áŀĦ
áĢģáĢ» áĢŃáĢĶáĢº
áŀĻ áŁį
Ķà¹īà¸§à¸ ¢à¸
Ġå ĩ
áŀ¾ áŀŁ
àºĽ àº°àº
Ġå ®
Ġa ko
w ala
áŀ¶áŀĴáŀ· áŀĶ
Ġt er
áŀĦ áŁĴáŀľ
à®¿à®° à¯ģà®¨à¯įà®¤
a v
áŀĺ áŀĵ
áĢĲáĢŃ áĢļ
ĠáŀŁ áŁĴáŀı
Ĺ à»Īàº²àºĻ
ĠáŀĶ áŀīáŁĴáŀħ
Ġà¸ §
re s
ĠáĢĻáĢŃ áĢĻáĢŃ
à¹ģà¸ ¥à¸°
áĢĸ áĢŃáĢ¯áĢ·
ç ł
Ã¢ y
áĢĤ áģ¤
áĢĽ áĢĻ
áŀŁ áŁĴáŀľ
à»ģàº Ķ
e p
áŀĹ áŁĴáŀĵáŁĨáŀĸáŁģáŀī
ĠáŀĶ áŀīáŁĴáŀł
áĢĨ áĢ¯áĢŃ
áĢ±áĢĽ áĢ¬áĢĢáĢ¹áĢ
áĢ¯ áĢĶáĢ¹
áĢ¡ áĢ¬áĢ¸
æ£ ĭçīĮ
è ģ
ĠáŀĤ áŁĴáŀĺáŀ¶áŀĵ
pa pa
áŀĬáŁĴáŀĭ áŀĢáŀ·áŀħáŁĴáŀħ
Ġà¹Ģà¸ Ħà¸£à¸Ķà¸´à¸ķ
¡ à¸Ļà¸
áĢĦáĢ¹áĢ¸ áĢŀ
áĢĿ áĢĶáĢº
áŀĳ áŁĨáŀĵ
àºģàº ĩ
åŃ ¦
àº¹ àºļ
à¹Īà¸²à¸ ĩ
Ġà®ĩà®° à¯ģà®ķà¯įà®ķ
ľ áŀ¶áŀĦ
ľ áĢ¯áĢķáĢ¹áĢ
áĢ®áĢ¸áĢ Ľ
áŁĴáŀļáŀ¾ áŀŁ
a c
Ġpa ng
l y
ĠáŀĶáŁĴáŀļ áŀ¶áŀĢáŁĭ
ĠáĢĢ áĢ¯áĢŃ
áĢĲ áĢĦáĢ¹áĢ
áĢ±áĢ¸áĢ Ļ
ĠáŀĤ áŀİáŀĶáŀĢáŁĴáŀŁ
áŀĤ áŁĴáŀļáŀĶáŁĭ
àº§ àºĩàº
Ã´ i
áŀĬ áŀ¹áŀĢáŀĵáŀ¶áŁĨ
ĠáŀĢáŀ¶áŀļáŀ ĸ
ew s
áŀĸ áŀĽ
àºģàº °
ŀ à¸´
Ġæ Ī
Ġà®ķ à¯ģà®±
Ġáŀ¢ áŁĴáŀľáŀ¸
áĢĲáĢ¹áĢ Ĳ
Ġ à¹Ħà¸¡à¹Īà¸
Ĺ áŀ¶áŀĸ
áĢ®áĢ¸áĢ Ļ
Ġàº ¢àº¹à»Ī
ĠÄĳ á»Ļ
Ġà¸ Ĺà¸µà¹Ī
àº¸ àºĻ
áŁģáŀĳ áŁĴáŀĻ
ı áŁĤ
æ Į
àº²àº «
à¸£à¸£à¸ ¡à¸
áĢ¥áĢ¹áĢ ¸
Ġ on
áģ¼ áĢº
áĢ¸áĢĻ áĢº
áĢĶáĢ¹áĢ ¡
ĠáĢ¥ áĢķ
áģ Ī
áŀķáŁĴáŀĳ áŁĩ
áŀĶ áŀ¾áŀĢ
ĠáĢĽ áĢĶáĢ¹áĢĢ
áģ¾áĢĢ áĢ¬áĢ¸áĢ
»áĢķ áĢĬáĢ¹áĢ
ĠáĢ ¤
àº§ àºį
t er
ŀ à¸´à¸
ĠáŀĢáŀ¶áŀļáŀ Ħáŀ¶áŀļ
ĠáŁ¢ áŁł
ĠP ost
áŀł áŁĴáŀľ
é ķ
áŀĺ áŀ¾áŀĽ
áĢĸ áĢŃáĢ¯áĤĶ
áĢĢáĢ¼ áĢ±áĢ¬áĢĦáĢ·áĢº
Ġà» Ŀ
à¹Ģ à¸Ļà¸
Ġà»ģàº ¥àº°àº
à»īàº²àº ŀ
Ġà®¨ à¯Ģ
h a
àº¶ à»īàºĻ
áŀĵ áŁĴáŀĴ
e k
áŀħ áŀ»áŁĩ
áŀŁáŁĴáŀļ áŀ¶áŀĻ
áŀĺ áŁĤáŀĵ
è ¦ģ
Ġ ]
à¹Ģà¸ ķ
áŀŁáŁĴáŀŁ áŀĵ
áŀŁ áŀĦáŁĴáŀĤ
áºŃ n
Ġt im
Ġà¹ģà¸ Īà¸
Ġà¹Ģà¸ĩà¸´à¸Ļà¸ Łà¸£à¸µ
ª à¹Į
ĸàº· àºģàº
áĢĿ áĢ«
áŀ· áŀĳ
la k
áĢģáĢ¼ áĢĦáĢºáĢ¸
áŀ» áŀĺ
à¹ Ĭà¸
Ġáŀĺ áŀ¾áŀĽ
Ĥà¸¶ à¹īà¸Ļ
Ġf or
ĠáŀĬ áŀ¸
áŀĵáŁĴáŀĽ áŀĦ
Ġà®ª à®¾à®°
áŀģ áŁĴáŀīáŀ»áŁĨ
ĠáĢ §
áŀ¡ áŀ¾áŀĻ
áĢĿ áĢĦáĢ¹áĢ
áĢģáĢº áĢĦáĢ¹áĢ¸
áĢķáĢ« áĢĺáĢ°áĢ¸
æĬ ķ
áĢ±áĢĲáĢ¼ áĢĢ
áĢķ áĢ±áĢ«áĢº
áŀİáŁĴáŀİ áŁĦáŁĩ
ç Ń
v i
Ġh o
it a
ĠáŀŁ áŁĴáŀľ
« à¹ĩ
àº±à»ī àºĻàº
ĠáŀĬ áŁĨáŀİáŀ¾
à®ļ à¯įà®ļ
å Ģ
Ĭà¸ ¸à¸
ĠáŀĬáŁĤáŀĽ áŀĺáŀ¶áŀĵ
àºĻ à»ī
Ġà¸ŀ à¸Ļà¸
ĠáĢĽ áĢ²
«à¸ ¥à¸²à¸
© æĿ¥
± ä¹Ĳ
Ġm eng
áŁĦáŁĩ áŀĨáŁĴáŀĵáŁĦáŀı
Ġæ ¾³éĹ¨
åĬ ł
ĠáĢĽ áĢ¾áĢŃ
Ġàº Ĺàºµà»Īàº
áŀŁ áŀ·áŀĢ
à®£ à¯įà®£
áŀļáŀ ĲáŀĻáŀĵáŁĴáŀı
l i
ĠáŀĢ áŀ¸áŀ¡
àº§àº½àºĶ àºĻàº²àº¡
àºĻàº± à»īàºĻ
à®¿à®² à¯įà®²
áŀĺáŁĴáŀļ áŁĦáŀĦ
ĠáŁ¡áŁ ©
áŀ·áŀĢ áŀ¶
«à¸£à¸ ·à¸Ńà¸
áĢĳ áĢĻ
ä» ¥
áŀĬ áŀ¶
ĠàºĽ àºµ
áŀ»áŀĶ áŁĴáŀĶ
a ga
Ġáŀļáŀ łáŀ¼áŀı
om e
áŁĴáŀĶ áŀ¼áŀĦ
áº¿ n
áĢĶáĢº áĢ¸áĢĻ
à»ģàº ģ
Ġáŀļáŀ ¸
ĠáŀŁ áŁĬ
Ħ à¸²à¸£
áĢĶ áĢ±
áŀľ áŀıáŁĴáŀĲ
àº±àºģàº ª
à®¿à®© à¯įà®±
à¸£ à¹Į
áŀĩ áŀ¼áŀĵ
ĠáĢ»áĢķ áĢ³
áĢŃ áĢħáģ¥
áĢĦáĢ¹áĢ¸ áĢķ
áĢļ áĢ·áĢº
Ġáŀħ áŀĦáŁĭ
ĠáŀĶ áŀīáŁĴáŀĩáŀ¶áŀĢáŁĭ
ĠáĢ¡ áĢĢáĢº
ģà¸ ³à¸
áŁĴáŀļ áŀ¶áŀĵáŁĭ
à»Ģàº ļ
áĢŃáĢ¯ áĢĢáĢ¹
** **
áĢ¬áĢ¸áĢŀ áĢĬáĢ¹
ĠáĢ±áĢĢ áĢ¬áĢĦáĢ¹áĢ¸
áĢŁ áĢ¯áĢĲáĢº
áŀĵ áŀ¶áŀĻáŀĢ
ĠáŀļáŀĬáŁĴáŀĭ áŀ¶áŀĹáŀ·áŀĶáŀ¶áŀĽ
Ġáŀĳ áŀ»áŀĢ
u st
áŁĴáŀĽ áŁĥ
Ġk as
Ġ3 65
çº ¿
ĠáŀĹ áŁĴáŀĽ
Ġà®¤ à®¿à®°
áŀĶ áŀĦáŁĭ
Ġ [
¢ à¹Į
ä¸ ī
à»Ģàº§ àº¥
Ġáŀĵ áŀ¶áŀĻáŀĢ
áŀĩ áŀ¶áŀĺ
åŃ Ĳ
á» ķ
áŀĶ áŀīáŁĴáŀħ
Ħ à¸Ļà¸
Ġà®¤ à®®
à¯ĩ à®©à¯į
il i
áŀĢáŀ¶áŀļáŀ ħ
Ġà®ĩà®° à¯ģà®¨à¯įà®¤
à»Ħ àº¥
ĠáŀŁáŀĺ áŁĴáŀıáŁģáŀħ
ĠáŀĢáŁĴáŀļ áŁĦáŀĺ
áĢ³ áĢķáĢ¹
ĠáĢ±áĢĴ áģļ
áĢģáĢº áĢĢáĢ¹áĢ
áĢĻáĢºáĢ¬áĢ¸ áĢĢáĢŃáĢ¯
±áĢĽ áĢ¸áĢ
±áĢ »áĢĻ
áĢĦáĢ¹áĢ Ĩ
áģ ĩ
Ġáŀģ áŁĴáŀĽáŀ¶áŁĨáŀĦ
å® ī
±áĢ¡ áĢ¬áĢĦáĢ¹
ĠáĢ¡ áĢĲ
Ġà¸ ¢
«à¸Ļ à¹īà¸²
áŀĤ áŁĴáŀļáŀ¿áŀĦ
Ġå¤§ åıĳ
å¤ ļ
à»ĦàºĶà»ī àº®àº±àºļ
áŀĬ áŁĥ
áĢĻáĢ¾ áĢĲáĢº
áŀļáŀ ĵ
łà¸ ±à¸
áŀģ áŁĴáŀĽáŀ¶áŁĨáŀĦ
Ġp ina
Ġà¸ ¢à¸
Ġà®® à¯ĩ
Å ©
Ĭ à¸µà¸
ĠáŀŁáŁĴáŀĲ áŀ·áŀı
Ġáŀħ áŀ·áŀıáŁĴáŀı
ħ áĢ¯
à»ģàº¥ à»īàº§
ĠáĢģ áĢ»
áŁĴáŀĽ áŀ¶áŀĢáŁĭ
e b
à¹Ĥà¸ ¥à¸
áŁĴáŀ¢ áŀ¼áŀĵ
áŀĶ áŁĴáŀı
áŀŁ áŀ»áŀģ
áŀ½ áŀħ
è ĥ½
áĢľ áĢĢáĢº
Ġà»Ģàº ŀ
à»Ģàºĩàº ´
Ġnh á»¯ng
Ġà®ķà¯Ĭ à®£à¯įà®Ł
Ġáŀļáŀ ½áŀħ
áŀ¶áŀļáŀ ĺáŁĴáŀĺ
Ĺ à¸£à¸
àº± à»Īàºĩ
áŁĨáŀĸ áŁĲ
áĢĸáĢ¼ áĢ²áĤķ
áģ Ħ
àº±àºĶàºĹ àº°àºĻ
áŀĢáŀĺáŁĴáŀĺ áŀĹáŀ¶áŀĸ
à¹ģ à¸Ļà¸
áĤıáĢ½ áĢĦáĢ·áĢ¹
áĢĸáĢ¼ áĢ²áĤĶ
ĠáĢŀáĢ° áĤĶ
áĢĻ áĢŃáĢ¯
Ġà»ĢàºĽ àº±àºĻàº
ĠáŀŁ áŁĴáŀļáŀ¸
ĠáŀĹ áŀ¼áŀĺáŀ·
áŀ·áŀĹáŀĸ áŀĽáŁĦáŀĢ
à¹Ĥà¸£à¸ĩ à¹ģà¸£à¸
Ġ it
à»ĥ àº«àºį
áĢĶ áĢ²áĤķ
áĢ¸áĢĢ áĢ»
Ġà¸ Ī
§à¸ ¥
ĠáŀĶáŁĴáŀļáŀĩ áŀ¶áŀĸáŀĽáŀļáŀĬáŁĴáŀĭ
Ġáŀģ áŁĤáŀĢ
Ġáŀ¢ áŀĤáŁĴáŀĤ
áŁĴáŀĤ áŀ¶áŀĽáŁĭ
Ġk uko
à®¿à®ķ à®³
o g
ĠáĢ¡ áĢľáĢ¯áĢķáĢ¹áĢ
áĢ¡ áĢĲáĢ½áĢĢáĢº
Ġ à¹ĥà¸Ļà¸
àº±àºļ àºª
ĠáŀĶáŀīáŁĴáŀł áŀ¶
Ġå į
áŀģ áŁĴáŀĺ
ĠáŁ¡ áŁł
áŀ»áŀĶáŁĴáŀĶ áŀĵáŁĴáŀĵ
áŀĵ áŀ¶áŀĦ
àºŃ àºģàº
Ġáŀħ áŁĴáŀĶáŀ¶áŀĶáŁĭ
pa g
áŀŁ áŀĹáŀ¶
áŀĩ áŀ½áŀĻ
çĲ Ĩ
áĢĲáĢ¬ áĢķáĢ«
ļ áĢ¬
áŀĢáŁĨáŀĸ áŀ»áŀĦ
Ġà®ī à®³à¯įà®³
à¸Ńà¸ ģà¸
áĢ¬áĢ¸áĢħ áĢ¯
àº±àºĩàº Ħ
á» Ń
áŀļáŀ ĳáŁģáŀŁ
áŀļáŀĬáŁĴáŀĭ áŀ¶áŀĹáŀ·áŀĶáŀ¶áŀĽ
ä¹ Ī
ĠáŀŁ áŁĴáŀĽáŀ¶áŀĶáŁĭ
áŀĶ áŁĨáŀķáŀ»áŀı
à»īàº§ àºį
ĠáĢĻ áĢ½áĢ¬
ĠáĢ¡ áĢĻáĢ½
Ġà¸ ¡
áĢŃáĢ¯áĢĦáĢº áĢ¸
« ĺ
à¸Ńà¸¢à¹Īà¸²à¸ ĩà¸
di b
àº· à»ĪàºĻ
áŀĩ áŀ¶áŀŁ
Ġa k
áŀģ áŁĤ
ıáŀ·áŀĶ áŀıáŁĴáŀıáŀ·
ä¹ ĭ
Ħà¸£à¸Ķà¸´à¸ ķà¸
Ġà¸ ¥à¸
Ġáŀ¢ áŁĬáŀ¸
ĠáĢ±áĢ »áĢĻ
áĢĲáĢ¬ áĢĢáĢŃáĢ¯
áĢ®áĢ¸áĢ ŀ
Ġpag ka
à¸Ńà¸¢à¹Īà¸²à¸ ĩ
iáº¿ t
à»ģàº ľ
áĢĨ áĢ®
áŀĺáŁĴáŀ Ħ
áĢģ áĢĦáĢº
ĠàºĻàº °
Ġáŀĺ áŀł
Ġà® ¯
Ġàºģàº °
ĠáĢĢáģ½áĢ¼áĢĶáĢ¹áĢ ±áĢĲáĢ¬áĢ¹áĢ
ģáĢº áĢĢáĢ¹áĢ
ĠáĢ¡ áĢĨáĢŃáĢ¯
ĠA n
àº¸ àºģ
áŀĸ áŁĲáŀıáŁĮáŀĺáŀ¶áŀĵ
¹à¸ ģ
áĢ½ áĢļáĢº
t h
é ĥ
Ġà®µ à®¿à®
áŁĴáŀĦ áŀĵáŁĭ
à¹Īà¸²à¸ ¢
r i
áģ¾áĢĢ áĢĬáĢ¹áĢ·
ĠáĢŀáĢ° áĢĲáĢŃáĢ¯áĤĶ
áĢķáĢ« áĢŀáĢĬáĢ¹
áĢ¬áĢ¸áĢĻ áĢ½áĢ¬
áĢķ áĢ½áĢ²
áŀı áŁĴáŀľ
ª à¸Ļ
à»ĥ àºª
Ã ©
Ĺà¸µà¹Īà¸ ªà¸¸à¸Ķ
áŀĢ áŁĴáŀļáŀŁáŀ½áŀĦ
Ġáŀģ áŀİáŁĪ
y an
à»ĪàºŃ àºĻ
ĠáĢĲ áĢĢ
å¨ ±ä¹Ĳ
ç ®
áĢ ¢
áĢŀ áĢľáĢŃáĢ¯
à¯ģà® ª
ĠáŀĢ áŀĦ
ĠáĢŀáĢ° áĢĻ
ģ à¹ĩ
áĢĻ áĢ°
áŀļáŀ ¾
Ġáŀı áŀ»áŀĽ
áŀİ áŁĮ
ĺ áĢ°áĢ¸
áĢķ áĢĬáĢ¬
àº°àºŀ àº²àºļ
Ġáŀ¢áŁĨáŀĸ áŀ¸
± áĤı
áĢ½ áĢĦáĢ·áĢº
áºŃ t
Ġa l
áŀĺ áŁĴáŀı
eng an
Ħà¸ ´à¸
áŀ¶áŀļáŀ Ģ
Ġå °
àº· à»īàºĻàº
b er
áŀ· áŀĽ
áŀŁ áŁĬ
m ent
ĠáĢķ áĢ¯
Ġ à¹Ħà¸
Ġma ta
áĢŃ áĢĲáĢ¹
áĢŃáĢ³ áĢ¸áĢ
Ġáģ¿ áĢĻ
âĢ ¦
ĠáĢĽ áĢĢáĢº
Ġà®µà¯ĩ à®£à¯įà®Ł
ĠáŀļáŀŁ áŁĭ
áŀħ áŀļáŀİáŁį
Ġà¸ Ľà¸£à¸°à¸
áĢĽáĢŃ áĢĢ
à¸Ļà¸± à¹īà¸Ļ
áĢ®áĢ¸ áĢĢ
áĢŀ áĢ¼
è® ¡
áŀĢáŀ¶áŀļáŀ ¢
ľ áĢŃáĢ¯áĤĶ
áĢ±áĢĶ áĢ²áĢ·
ģáĢº áĢ³áĢķáĢ¹áĢ
ķ áĢŃáĢ¯áĢĦáĢ¹áĢ¸
Ģ áĢº
áĢķ áĢ¯áĢ¶
àºµ àº§
Ġdi b
y ong
ĠáŁ ¨
áŀ»áŀİ áŁĴáŀĻ
à¯įà® °
Ġáŀĺ áŀ¼áŀĽ
Ã¡ n
ä½ĵ èĤ²
è ·
ĠáŀŁáŀĺ áŀıáŁĴáŀĲáŀĢáŀ·áŀħáŁĴáŀħ
Ġáŀĸ áŀ·áŀı
Ġáŀı áŀ¾
in e
Īà¸ °à¹Ģà¸
Ġ( "
à»įà»Īàº ª
áĢŃáĢ¯áĢľ áĢ¹áĢ
áĢľ áĢĬáĢº
áŀ¶áŀļáŀĺáŁĴáŀĺ áŀİáŁį
ĠÄĳ Ã£
áŀ¢ áŀĵáŀ»
à»Ħ àº§
Ġæ ĺ
áŀĩ áŀ¶áŀ¢
ĠáĢļ áĢģáĢ¯
à¹Ģà¸ Ĺ
à®ķ à¯į
áĢļáĢ¹áĢ ħ
ĠáĢĽ áĢ¾
áŀ¶áŀŁ áŀĵáŁį
áŀ¶áŀ ¡
æ Ļ
Ġà»ģàº Ĥ
Ġpara s
p os
àºµ àºį
Ġ à¹
łà¸²à¸ ŀ
áŀĤ áŁĴáŀļáŀĦ
áĢĦáĢ¹áĢ Ľ
ģáĢ²áĢ· áĢĲáĢ²áĢ·
±áĢ »áĢķáĢ¬
áĢĶáĢº áĢ¸
ĸáŁĲáŀĵ áŁĴáŀĴáŀ
àº ¢
§ à¸Ļ
è½ ¦
ĠáŀĴ áŁĨ
in o
ĠáĢĶáĢ¾ áĢħáĢº
Ġà®® à¯ģà®Ł
Ġtim bang
Ġdib dib
u w
áŀĶáŁĴáŀļáŀ Ļ
· à¹īà¸Ń
áŀ· áŀĩáŁĴáŀĩ
à»Ģàº® àº»àº²
Ġ1 5
áŁĦ áŀĩáŀĵ
ªà¸ ±à¸
Ġ un
ĠáĢŀ áĢ¼áĢ¬áĢ¸áĢ
ĠáĢĶ áĢŃáĢ¯áĢĦáĢºáĢĦáĢ¶
Ġàº ¢
áŁĴáŀĵ áŁĩ
ķ à»Īàº²àºĩ
Ġáŀļ áŁī
à¯ĩ à®ļ
ĠáŀĶ áŀĦáŁĴáŀłáŀ¶áŀī
çİ °
Ġp m
áŁĴáŀı áŀ·
áŁĨáŀİ áŀıáŁĭ
ªà¸´ à¸Ļà¸Ħ
ÃŃ nh
áĢħ áĢ¥áĢ¹áĢ
ĠáĢ±áĢ ĳ
áģ¾áĢĢ áĢ¬
¥ áĢ®áĢ¸áĢ
áģ ĥ
Ġi b
à¸£à¸°à¸ ļà¸
ĠáĢħ áĢĢ
áŀĢ áŁĴáŀĢ
ĠâĢĭáŁ ĸ
e x
áŀĹ áŀ·áŀĶáŀ¶áŀĽ
áŀĶ áŀīáŁĴáŀĩáŀ¶áŀĢáŁĭ
ķà¹Ī à¸Ńà¸
áŀ¢ áŁĴáŀľáŀ¸
áģ¾áĢĢ áĢĬáĢ¹áĢ
m ar
áĢĽáĢ½ áĢĢáĢº
Ġà®ļà¯Ĩà®¯ à¯įà®¤
±áĢ ĸ
»áĢĸ áĢĦáĢ¹áĢ·
ĠáĢ¡ áĢĵ
Ġà»ģàº¡à»Ī àºĻ
æĪ Ĳ
áŀ¶áŀĩ áŀ¸áŀľ
Ġáŀļáŀ¶áŀĩ áŀĴáŀ¶áŀĵáŀ¸
áŀ¶áŀİ áŀ·áŀĩáŁĴáŀĩ
ĠáĢĢáĢºáĢ±áĢĶ áĢ¬áĢ¹áĢ
áĢ± áĢ¸áĢĢ
Ġà»Ģàº §
áŀĺáŁĴáŀ Ĺ
ĠáŀĲ áŁĥ
áŀĺ áŀ¸
Ī àº°àº
à®± à¯įà®ª
à¸£à¸µà¸ §à¸´à¸
Ġà¸ Īà¸²à¸ģ
ĠáĢľ áĢĻáĢ¹áĢ¸
áĢ¯ áĢĲáĢ¹
áĢļáĢ¹áĢ ĨáĢŃáĢ¯
áĢľ áĢĢáĢ¹áĢ
áĢĻáĢº áĢ¬áĢ¸áĢ¡
áĢĶáĢº áĢ¸áĢ
áŁĴáŀļáŀ Ľ
Ġà¸ ľà¸
à¹ģ à¸Ļ
ĠáŀĬáŀ¼áŀħ áŁĴáŀĵáŁģáŁĩ
áº¿ t
Ġk at
áŀļ áŀ¶áŀħ
± áŀĢáŀ¶áŀŁ
s e
ŀ à¸£
Ġáŀĳ áŁĦáŁĩ
àºŃ àºĶ
çľ Ł
ĠáĢ¡ áĢķ
çĶ µ
Ġà¹Ģà¸ ģà¸¡à¸
à¹ĥà¸«à¸¡ à¹Ī
Ġà®¤à®® à®¿à®´
à¯ģà®® à¯įà®ª
¡à¸²à¸ ģ
áĢĻáĢºáĢŃáĢ³ áĢ¸áĢŀ
áĢģáĢ¼ áĢĦáĢºáĢ¸áĢ
áŁĲáŀĸ áŁĴáŀĳ
Ġ" )
àº°à»Ģàº ŀ
ĠáŀĢáŀĺáŁĴáŀĺ áŀľáŀ·áŀĴáŀ¸
ä¿ ¡
áŀŁ áŀĦáŁĴáŀŁáŁĲáŀĻ
ĠáŀŁ áŀ¶áŀĽ
ķ áŀĽ
à¸Ńà¸²à¸ «
éĩ ĳ
áŀĤáŁĴáŀĤ áŀĽ
Ġna man
Ġp ro
áŀ¶áŀł áŁį
Ľàº°àº ķàº´àºļ
ĠÄĳá» ĥ
å° ı
Ħ à¸Ļ
à»Īàº§ àºĻàº
áŁĨáŀİ áŀ¶áŀĦ
áŀĶ áŀ¸
is t
áĢĳ áĢ¬áĢ¸
áĢ±áĢ¡ áĢ¬áĢĦáĢ¹
áĢŀ áĢ®
à¸²à¸ªà¸´ à¹Ĥà¸Ļ
Ġà¸ §à¸±à¸Ļ
ĠáŀŁ áŀĦáŁĴáŀĢáŀ¶áŀıáŁĭ
Ġa m
ĠáŁ ©
Ġà¸ Ĭ
ĠáŀĬ áŀ¾áŀĺ
Ġ à»ĢàºĶ
ç¥ ¨
áŀŁ áŁĴáŀĳ
Ĺà¸²à¸ ĩ
à¯Īà®ķ à®³
áŀĢáŀĺáŁĴáŀ ĸáŀ»áŀĩ
áŀļáŀ Ľ
æ ¯
¢àº¹ à»Īàº
vi ew
o v
Ġna ng
ĠáĢķ áĢĳáĢĻ
áŀĢáŀ¶áŀļáŀ Ģ
áŀħ áŀ·áŀĵ
ĸà¸¶à¸ ĩà¸
áĤ ī
áģ¿ áĢĸ
áĢ±áĢ¸áĢ Ĳ
áŀļáŀ ı
áĢ¡ áĢĨ
áŀĶáŁī áŀ»áŀĵ
Ġáŀ¡ áŀ¾áŀĻ
áĢ±áĢ¸áĢ Ľ
ĠáŀķáŁĴáŀĳ áŁĩ
Äĥ ng
Ĺ à»Īàº²àºĻàº
ĠáŀĶ áŀĵáŁĴáŀĲáŁĤáŀĺ
t uk
à®¤à¯įà®¤ à¯Ī
ĠáŀĢ áŁĤ
à¹Īà¸ ¡
áŁĴáŀļáŀ½ áŀŁáŀ¶áŀļ
ĠáĢļ áĢ°
è Ī
áŁĦ áŀĳ
áĢ¡ áĢ±áĢ¬áĢĦáĢº
Ġáŀĩ áŀ¼áŀĵ
§ à¸Ļà¸
áŀ½ áŀī
Ġàº ĩ
ĠáŀĶ áŀİáŁĴáŀı
ĠàºĪ àº°
ĠáŀĲ áŁĴáŀĵáŀ¶áŀĢáŁĭ
à»Īàº§ àºĻ
Ġáģģ áģĢ
a p
áŀĦ áŁĴáŀļ
áĢĽ áĢ±áĢ¬áĢĢáĢº
áŀ¶áŀŁáŁĴáŀı áŁĴáŀļ
à®¿à®° à¯ģà®ķà¯įà®ķ
à¸Ļ à¹Įà¸
ĠP h
Ī à¹īà¸²à¸
Ġáŀ ¯
áŀİáŁĴáŀĬ áŀ¶áŀĽ
àº» à»Īàº§
æľ Ģ
Ġáŀł áŁģáŀıáŀ»
pa t
ĠáĢŀ áĢ¬
ĠáĢ¡ áĢģáĢºáĢŃ
Ġáģ İ
áŀļáŀĦ áŀĤáŁĴáŀļáŁĦáŁĩ
áŀĹ áŀ¼áŀĺáŀ·
à¯ģà®ķ à®³
áŀĴáŀ ĵ
Ġ1 00
Ġà¸ ¡à¸µà¸
ĠN g
áŀĢ áŀ¶áŀıáŁĭ
àº´ àºĹàºµ
ģà¸ §à¹Īà¸²
Ġáŀĳáŀ¸ áŀĢáŁĴáŀļáŀ»áŀĦ
u á»ĳ
ç ¨
ŀ àº£
à»ģàº¡à»Ī àºĻ
ra w
Ġáŀı áŁĴáŀļ
áŀ¼áŀļáŀŁ áŁĲáŀĸáŁĴáŀĳ
áŁĴáŀĶ áŀ¶áŀĽ
Ġå Ĳ
Ġàºģàº ³
à¸Ńà¸¢à¸ ¹à¹Ī
áŀı áŀ»
àºµ àº¡
áŀĬáŁĤáŀĽ áŀĺáŀ¶áŀĵ
Ġå ľ
Ġthá» ĥ
àº· à»īàºŃ
Ġpag b
áŁĴáŀļ áŁĴáŀıáŀ¸
à¯įà®ķ à¯įà®ķ
áŀı áŁĨáŀĶáŀĵáŁĭ
¥ àº±àºĶ
áģ ¶
áĢľáĢŃáĢ¯ áĢĢáĢº
àº ¢à»Īàº²àºĩ
áŀļ áŀ¶áŀĶáŁĭ
Ġáŀľ áŀ·áŀŁ
Ġà¸ ģà¸²à¸£
áŁģ áŀĵ
Ġga m
áĢ¬áĢ¸áĢ ĳ
à®©à¯įà®± à¯ģ
Ġáŀ¢ áŀıáŁĴáŀĲ
áŀĢ áŀĵáŁĴáŀĽáŁĤáŀĦ
à¹Ģà¸¥ à¹Īà¸Ļà¸
ĠâĢ Ļ
Ġpag gam
Ġà»Ģàº ģàº
u ra
Ġ1 3
Ġà¹Ģà¸ §à¹ĩà¸ļ
¡à¸ ·à¸Ńà¸
áĢ¾ áĢĲáĢº
àº±àºĻàº Ĺàºµ
ķà¸±à¸ §à¸
áŀĢ áŀ¼áŀĵ
Ī áŀĺ
àºĶàº ª
ĠáŀĢ áŀĵáŁĴáŀĽáŁĤáŀĦ
ra m
áĢ¶ áĢĢ
Ġà®ķ à¯ĭ
áĢ±áĢ ĺ
áĢĬáĢ· áĢ¹
áĢŃ áĢĶáĢ¹áĢ
à¹Ģà¸ Ľà¹ĩà¸Ļ
æ ı
áŁĴáŀħ áŀ¶áŀŁáŁĭ
áĢ ĭ
àº¶ àºģàºª
»áĢķ áĢĶáĢ¹áĢ
áĢĦáĢ¹áĢ ħ
áĢ¬áĢ¸áĢ ķ
áŁĦáŁĩ áŀŁáŁĴáŀļáŀ¶áŀĻ
áŀĶ áŀİáŁĴáŀı
áŀĶáŁī áŀ»
Ġà»Ģàº Ń
áŀģ áŁĴáŀĸáŀŁáŁĭ
áģ¼ áĢĲ
ĠáĢĴáĢ® áĢľáĢŃáĢ¯
áĢĽ áĢ®
Ġà¹ģà¸ ķà¹Īà¸
Ŀ i
à»ĥ àºĶ
Ħ áŀ¶áŀļáŀ
à®¿à® ¨à¯įà®¤
ĠáŀķáŁĴáŀŁ áŁģáŀĦ
ĠS a
æ Ħ
ĠáĢ¡ áĢ»áĢķ
Ľ áĢ¼áĢĢáĢ¹áĢ
ĠáĢ¡ áĢ±áĢ»áĢģ
áģ Ĩ
áŀ¶áŀŁ áŁĴáŀļ
¥à¸ °à¹Ģà¸
áĢģ áĢĶáĢ¹áĢ¸
áĢĻ áĢĬáĢº
àº»à»ī àºĻàº
ĠáŀķáŀĽ áŀ·áŀı
áŀĳáŀ¶áŁĨáŀĦ áŀ¢áŀŁáŁĭ
Ġà®ħ à®©
h at
áŀ¶áŀļ áŀ¶áŁĨáŀĦ
à¹ģà¸ļà¸ ļ
à»īàº²àºŀ àº°à»Ģàº
àº²àºĶ àºķ
æ³ ķ
áŀĪ áŀ¾
àºŀ àº²àºļ
áŀ¶áŀĩ áŀ·áŀĢ
Ġ à¸Ńà¸Ńà¸Ļà¹Ħà¸¥à¸Ļà¹Į
à¸µà¸¢à¸ ĩ
o p
Â »
ĠáŁ Ĺ
àº±à»ī àºĻ
Ġl á»
à¯Īà® ªà¯į
áĢĽ áĢĶáĢ¹
ĠáĢŀ áĢ®
Ŀ à¸²à¸ģ
à¹ĩà¸ ģ
ĠI n
áŀİáŁĴáŀĮ áŀ·áŀı
áŀĬáŀ¹áŀĦ áŀĲáŀ¶
ĠáĢĻ áĢĦáĢ¹áĢ¸
ĠáĢĶ áĢ¬áĢĽáĢ®
à»ĢàºĤ àº»à»īàº²
it y
áĢ¯áĢ¶ áĢ¸áĢŀ
áŀĩ áŀ¶áŀħáŁĴáŀļáŀ¾áŀĵ
ģ à¹Ī
Ġç Ķ
áŀ¶áŀĵ áŁĴáŀı
àº½ àºĻàº
i al
l es
u p
ģáĢº áĢĦáĢ¹áĢ¸
ĠáĢ¡ áĢģáĢº
ĠáĢĶ áĢ²áĤĶ
áĢ¬ áĢķ
Ġáŀĩ áŀ½áŀĶ
äº ¬
áĢĶáĢŃáĢ¯áĢĦáĢº áĢĦáĢ¶
Ġ ä½
áŀļáŀ Ĭ
àºµ àºĶ
¨à¸ ¶à¸
Ġà®¤ à¯Ĩà®°
ĠáŀĶ áŀļáŀ·
¸ à¹Īà¸Ļ
an d
ĠáŀĤ áŁĴáŀļáŁĦáŁĩ
ª à¸£à¹īà¸²à¸
áº ©
áŀĺáŁĴáŀ ĺ
áĢĲáĢ½áĢ± áĢĢáĢŃáĢ¯
Ī àº²àºģ
ĠáĢĴáĢ« áĢ±áĢķáĢĻ
ľ áĢ½
à¯Īà® ļ
áĢľ áĢ¹áĢ
áĢķáĢ¹áĢ ħ
áĢŀ áĢĢáĢº
áŀĶ áŀĦáŁĴáŀłáŀ¶áŀī
b i
áŀļ áŀ¶áŀĶ
Ġáŀģ áŀİáŁĴáŀĮ
áŀĶ áŀļáŀ·
à¹Ī à¸Ńà¸ĩ
àº°àº ĸ
ĠáŀĶáŀĦáŁĴáŀĢ áŀ¾áŀı
Æ¡ n
à®¿à®¯ à®¿à®²à¯į
ĠáĢ ¸
áĢŀ áĢ¬áĢ¸
Ġáŀ¢ áŀ¶áŀĩáŁĴáŀīáŀ¶áŀĴáŀ
Ġæ Ĺ
áŀº áŀĵ
áŀ·áŀħ áŁĴáŀĨ
áĢĤ áģ¢
áĢ¬áĢ¹áĢ Ļ
áĢŃáĢ¯áĢ¸áĢ Ļ
áŀı áŀ¶
Ġre view
l im
ĸà¸ ¹à¸ģà¸
áŀ·áŀĵ áŀ·áŀĻ
áŀĨ áŁĴáŀĽ
áģ µ
áĢĻ áĢļáĢº
àº° àºŃ
áĢĦáĢ¹áĢ ±áĢ
áĢ½ áĤķ
ĠáĢĻ áĢĽáĢ½áĢŃ
ĠáĢĻ áĢ°
ala ga
å¥ ½
áŀļ áŁĨ
ģ à»Īàº²àº§
áŀ¶áŀİáŀ·áŀĩáŁĴáŀĩ áŀĢáŀĺáŁĴáŀĺ
à®¾à® ķà¯įà®ķ
áĢ±áĢ Ŀ
ĠáĢ¡ áĢģáĢ¼
ĠÂ» áŁĶ
Ġáŀħáŀ¼áŀĽ áŀļáŀ½áŀĺ
at ion
ĠáŀĽ áŀ¶áŀĵ
æľ Ī
Ġáŀĩ áŀ¶áŀĶáŁĭ
o b
ĠáĢ»áĢķáĢĬáĢ¹áĢ ŀáĢ°
ķáĢ« áĢŀáĢĬáĢ¹
áĢĢáĢ¹áĢ Ľ
ĠáĢĴáĢ¯ áĢĲáĢŃáĢļ
Ħ à¸£à¸²à¸°à¸
Ġáŀģ áŁĴáŀŁ
ļ à¸Ļà¸
ala m
Ã¹ ng
ç½ĳ åĿĢ
éĥ ¨
Ġáŀ¢ áŀĵáŁĴáŀıáŀļáŀĩáŀ¶áŀıáŀ·
áĢľ áĢº
áŀĵ áŁĴáŀĬ
ĠáŀĽ áŀĢáŁĭ
áŀİ áŀ¶áŀŁáŁĭ
à»Ģàºģàº µ
áŀŁ áŀ¶áŀĦ
Ķà¹īà¸§à¸ ¢
ĠáŀĶáŁĴáŀļáŀĩ áŀ¶áŀĩáŀĵ
áŀ¸áŀĬ áŁģ
áĢ¸áĢĻ áĢ½áĢ¬
ĠáĢĺ áĢļáĢ¹áĢľ
Ġáģģáģ īáģ
áŀĶáŁĴáŀļáŀ ł
o c
Ġà®İà®© à¯įà®©
Ġw ala
ĠáĢĳ áĢ¯áĢĲáĢ¹áĢ
áĢĩ áĢ¬
Ĺà¸¸à¸ ģà¸
Ġà®µ à®´
ĠáĢ¡áĢ±áĢĻ áĢĽáĢŃáĢĢ
áĢ² áĢ¼
ĠáĢ±áĢĽ áĢ¬áĢĢáĢ¹áĢ
ŀ áĢĬáĢ¹áĢ·
áĢı áĢ®
åľ º
Ġc Ã´ng
Ġáŀľ áŁĢáŀıáŀİáŀ¶áŀĺ
áŀŁ áŁĴáŀĽ
áĢ±áĢķáĢ« áĢĦáĢ¹áĢ¸
áĢĻáĢ» áĢ¬áĢ¸áĢĢáĢŃáĢ¯
Ħà¸£à¸²à¸°à¸ «
Ġà¹Ģà¸ Ĭ
àº²àº ¥
áŀĢáŁĴáŀļ áŁĦáŀĺ
ĠM as
Ġd ah
à¹Ģà¸ ĭ
áŁģ áŀł
áŀ¸ áŀĻ
å ģ
Ĺà¸ ĺ
ĠáŀĶáŁĴáŀļáŀ ĸ
ĠáŀĬ áŀ¹áŀĢ
ĠáŀĢ áŀļáŀİáŀ¸
áŁĴáŀĶ áŀ¶áŀŁáŁĭ
Ġà»ģàºķ à»Ī
Ġ Q
à¹ģà¸ļà¸ ļà¸
áŀ¶áŀĻ áŀĢáŀ¶áŀļáŀİáŁį
es t
Ġ +
àº§ à»Īàº²àº
æĪ ·
Ġà®ķ à¯ĩ
ĠáŀĶáŀ» áŀļáŀŁ
áŀļáŀ Ļ
ä¹ Ł
à¹ĥà¸«à¸ į
¡ Â
Ġm á»
il ip
Ġs p
Ġb a
áŀ»áŀľ áŀĩáŀĵ
o na
áŁĴáŀ¢ áŀ¶áŀı
ĠN ews
Ġáŀĸ áŀĽáŀļáŀĬáŁĴáŀĭ
ĠáŀĬ áŀ»áŀĽáŁĴáŀĽáŀ¶áŀļ
áŀĬ áŁħ
Ġà®µ à®¨à¯įà®¤
áŀĸáŁĴáŀľ áŀķáŁĴáŀŁáŀ¶áŀĻ
Ġna ka
áŀ¶áŀľ áŀ»
áŀĢáŁĴáŀļáŀ»áŀĺ áŀłáŁĬáŀ»áŀĵ
à®µ à¯ģà®®à¯į
áŀĢáŀ¶áŀļáŀ ļáŀ
Ń àºļ
áŀı áŀĺáŁĴáŀĽáŁĥ
áĢľ áĢ¾
ªà¸ ¡à¸
áŀ¯ áŀĦ
àº§ àº¡
Ġb áº¡n
Ġáŀľ áŀ¶áŀĻ
å· ŀ
ĠáŀŁáŁģáŀħáŀĢ áŁĴáŀıáŀ¸
ĠH ome
áŀĸáŁĲáŀĵ áŁĴáŀĴ
áĢ±áĢľ áĢ¸áĢ
áĢĻáĢº áĢ¸
Ġd engan
Ġà¸ Ĺ
áŁĦáŀĩáŀĵ áŁį
áŀĺ áŁģ
Ġi la
è ī
à¹ī à¸Ļà¹Ģà¸
à»Ģàº «àº¼
áŀĶáŁĴáŀļáŀ »áŀŁ
áŀĦáŁĴáŀ ĥ
áŁĴáŀļáŀ· áŀı
áĢħ áĢ¬áĢ¸
áĢŃáĢĻ áĢ¹
Ġ *
Ķ áĢļáĢ¹áĢ
áĢ¥ áĢ®áĢ¸áĢ
áģ ģ
Ġà®ª à®²
ĠáŀĶ áŀ¶áŀıáŁĭ
ĠáĢĶ áĢĬáĢ¹áĢ¸
±áĢĲáĢ¼ áĢĢáĢŃáĢ¯
áĢ±áĢľ áĢ¸áĢ±áĢĲáĢ¼
áĢĢ áĢ¯áĢĶáĢº
áŀĬ áŁĨáŀİ
å §
áŀ·áŀĵáŀ·áŀĻ áŁĦáŀĤ
Ġáŀĸ áŁĴáŀĻ
ķà¹Ī à¸Ń
àº» à»Īàºĩ
áĢ¶ áĢ³
ĠáĢŀ áĢĦáĢº
ĠáŀĤ áŀ·áŀı
àº¸ à»īàº¡
Ľà¸£à¸°à¹Ģà¸Ĺà¸ ¨
ĠP ag
àºĻàº ³
áŀĻ áŁĴáŀĻ
ĠáŀĶáŁĴáŀļáŀ Ĩáŀ¶áŁĨáŀĦ
Ġpag papa
£ Â
iá»ĩ t
ĠáŀĶáŀĵáŁĴáŀĳáŀ¶áŀĶáŁĭ áŀĸáŀ¸
åĬ ¨
A N
an da
ĠáŀĤ áŀİáŁĪ
áŀĳáŁĴáŀĴáŀ ķáŀĽ
à¹Ģ à¸£à¸²à¸
à®¾à® ļ
áŀı áŁĴáŀĶáŀ¼áŀĦ
Ġ {
ģ à¸£
Ġà»Ģàº Ħ
áŀĦ áŀĶ
áŁĴáŀĽ áŀ¸
áº ½
àº±àºĶàº ª
áŀĢáŁĴáŀĢ áŀĬáŀ¶
áŀĢ áŁĴáŀļáŀ
áĢĻáĢ¼ áĢŃáĢ¯áĢ·
us o
Ġáŀ§ áŀĶ
Ġp o
à®¾à®° à¯įà®ķà®³à¯į
uk ha
Ġk am
áŁĴáŀī áŁĢáŀľ
ĸà¸ ·à¸Ń
à¹Ģà¸ ¥à¸
±áĢĢ áĢ¬áĢĦáĢ¹áĢ¸
ĠáĢĻ áĢŁáĢ¯áĢĲáĢ¹áĢ
áĢĨáĢŃáĢ¯ áĢĲáĢ¬
Ġáŀĳ áŁģáŀŁ
ĠáĢ±áĢ ķáĢ«
áĢľ áĢĻáĢ¹áĢ¸
áĢĽ áĢ±áĢ¸
à¹Ģà¸ ¡à¸
áŀļáŀĢ áŁĴáŀŁ
áĢĲ áĢ¯áĢŃáĤĶ
áĢĲáĢ¹áĢ ħ
áĢ¼áĢ¸áĢ ±áĤı
áĢĨ áĢ¶áĢ¯
áĢ¡ áĢķáĢ¹áĢ
áĤı áĤĪ
áĢĻáĢ½ áĢº
áĢĶ áĢħáĢ¹áĢ
áĢĬ áĢ¬áĢĽ
Ġni ya
éĴ ±
áŀº áŀļáŁī
å®ĺ æĸ¹
å »
Ġà»Ģàº ª
áŀ¢ áŀ¶áŀł
Ġta o
à»Ĥ àºĦ
áĢ±áĢĶ áĢĽáĢ¬
áĢ° áĢĬáĢ®
ĠáĢ»áĢĸáĢħáĢ¹áĢ ķáĢ«áĢĲáĢļáĢ¹
ĠáĢ¡ áĢ¬áĢ¸áĢľ
Ġà®İà®© à¯įà®ª
áŁĴáŀľ áŀ¶áŀĵáŁĭ
áĢŃáĢĻáĢ¹áĢ ·
ĠáĢĢáģ½ áĢ¼
Ġ Y
áĢķáĢ¼ áĢĦáĢº
áŀĸ áŀ·áŀĵáŀ·áŀıáŁĴáŀĻ
¡ àº²
åİ ¿
Ġæ ĸ
áŀĶ áŀ¶áŀĽ
ĠáŀĺáŁī áŀ¼áŀıáŀ¼
áŁĤ áŀıáŁĴáŀļ
Ħà¸ ¥
áŀľáŀ· áŀŁ
ç¥ ŀ
áŀĹáŁĴáŀĽ áŀ¾áŀĦ
Ġw orm
Ġpaggam ot
ĠK ung
j a
a i
Ġå Ľ
áĢŃ áĢķáĢº
Ľàº°àºĬ àº¸àº¡
Ġà¸ ģà¸£à¸
Ġáŀĵ áŀĤáŀļáŀĶáŀ¶áŀĽ
Ġáŀı áŀĺáŁĴáŀĽáŁĥ
à»ľ à»īàº²àº
Ħà¸£à¸Ķà¸´à¸ķà¸ Łà¸£à¸µ
Ġ1 6
ªà¸²à¸¡à¸²à¸£à¸ ĸà¸
áŀĶ áŀīáŁĴáŀĩ
ex t
ĸáŁĲáŀĵ áŁĴáŀĴ
Ġma k
áŀļáŀ» áŀĶ
áŀĺ áŀ¼áŀĽ
Ġáģ ī
éĻ ħ
à®¿à®ķ à®³à¯į
áŀ¶áŀļáŀ ĺ
áĢĲ áĢĲáĢ¹áĢ
áĢ±áĢĴ áĢŀ
Ĩ áĢ¯áĢŃ
ĠáĢĽ áĢģ
áĢĨ áĢŃáĢ¯áĢĦáĢº
ĠåĪ ©æĿ¥
ç ¤
àº°àº «àº¼
ĠáŀĤ áŁĦáŀĽ
ķà¸²à¸ ¡à¸
ĠM ay
ĠáŀĢ áŀĺáŁĴáŀĽáŀ¶áŁĨáŀĦ
à»įàº²àº¥ àº±àºļ
á»Ļ i
à»ģàº« à»Īàºĩàº
áŀıáŀ¸ áŀı
Ġna k
áŀĢáŀ¶áŀļáŀ ĩ
Ġáŀĸ áŀ·áŀĴáŀ¸
à»Ģàº Īàº»à»īàº²
à¹Ħà¸ §
Ġáŀĩ áŁĨáŀĦáŀº
ĠáĢĲ áĢ½
k 10
é £
áŀĶáŁĴáŀļáŀ Ĵáŀ¶áŀĵ
ĠR e
áŀļáŀĬáŁĴáŀĭ áŀĺáŀĵáŁĴáŀıáŁĴáŀļáŀ¸
áŀĶ áŀ¾
Ġs á»ĳ
áĢĻ áĢĬáĢ¹
áĢ¡ áĢĲáĢ°
àºļ àº±àºĻàº
Ķ áĢ¾
Ġà¹Ģà¸ ŀ
à®µ à¯ĩ
áŀ¶áŀĶ áŀ¶áŀĽ
áŀĵ áŁĴáŀĻ
Ħà¸§à¸²à¸ ¡à¹Ģà¸
ĠáŀļáŀĻáŁĪ áŀĸáŁģáŀĽ
da g
áŀĳ áŁĲáŀĸ
áĢĦáĢ¹áĢ ŀ
áĢĦáĢºáĢ¸áĢ ŀ
Ġsi ya
àº¸ àº¥
çĤ ¹
Ġáŀ Į
Ġáŀķ áŁĴáŀĵáŁĤáŀĢ
Ġà®ħ à®±
§à¸ ĩà¸
àº§ àºĻàº
ig h
åı ¯
Ġm ukha
Ġna t
áĢ°áĢ¸áĢ Ĳ
¹ áŀĦ
áĢĦáĢºáĢ¸áĢ ķ
Ġáŀĸáŀ½áŀĢ áŀĤáŁģ
ķ à¹īà¸Ńà¸ĩ
it an
ĠN h
àº ľàº¹à»ī
Ġáŀı áŀ¶áŀļ
Ġáŀł áŁĴáŀľ
áĢŃ áĢ½
áĢı áĢº
¥à¸ ĩ
à¯Ģ à®°
à»ĪàºŃ àºĩàº
e na
áŀĳ áŀ¶áŀĵáŁĭ
áŀİáŁĴáŀĮ áŀĽ
à¸´à¹Ģà¸ Ħà¸£à¸²à¸°à¸«
¶ à¹Īà¸ĩ
ĠáŀħáŁĨáŀİ áŁĤáŀĢ
Ġáŀĸ áŀ¶áŀĢáŁĴáŀĻ
áĢ»áĢķ áĢĶáĢ¹áĢ
ķ áĢ¶áĢ¯
áĢ¹áĢ Ĥ
Ġkan yang
áŀĢáŀ¶áŀļáŀ Ĭ
Ġs t
Ġà®ħ à®Ł
en d
Ġb ag
ĠáŀŁ áŁĴáŀĲáŀ¶áŀĵ
ĠáĢĢáĢŃáĢ¯ áĢļáĢº
á» ī
áŀ¸áŀĬáŁģ áŀ¢áŀ¼
Ġáŀĸáŀ¸ áŀļ
ĠáĢĤ áĢº
áĢ¬áĢ¸áĢ ķáĢ«
à»ģàº¡ à»Īàºį
ĠU n
àº°àºĻàº ¸
áŀħ áŀ¶áŁĨ
ĠáŀĵáŁħ áŀĸáŁģáŀĽ
Ġà¸ Ľà¸
é «ĺ
áĢĶ áĢļáĢ¹áĢ
áĢĦ áĢŃáĢĻáĢ¹áĢ¸
±áĢķáĢ« áĢĦáĢ¹áĢ¸
áĢľ áĢ®
ļà¸²à¸ Ħà¸²à¸£
§à¹ĩà¸ ļà¸
Ġ >
Ġà¸ªà¸ ¡à¸±à¸
Ġà¸ ļà¸
à»ģàºķ à»Īàº
ªà¹Īà¸§ à¸Ļà¸
Ġà®® à®±à¯įà®±
áŀħáŀ¼áŀĽ áŀļáŀ½áŀĺ
t s
Ġa s
áŀĶáŁĴáŀļáŀĩ áŀ¶áŀĸáŀĽáŀļáŀĬáŁĴáŀĭ
áŀ· áŀļáŀ
a ir
_ _
d o
áŀĶ áŀ¶áŀıáŁĭ
æĸ ĩ
áĢķáĢ¼ áĢĬáĢº
áŀĸáŁĴáŀļ áŁĥ
Ġ à¹Ħà¸Ķà¹ī
áŀķáŁĴáŀŁ áŁģáŀĦ
Ã ½
àº½ àºļ
áģ¾áĢĢ áĢ®áĢ¸
áĢķáĢ« áĢŀáĢĬáĢº
à¹īà¸Ńà¸ ¢
áŀ¢ áŀĤáŁĴáŀĤ
áŀķáŀĦ áŀĬáŁĤáŀļ
àº°àº«àº§ à»Īàº²àºĩ
ä» ¬
áŀĤ áŀ·áŀı
ĠáŀŁáŀĦáŁĴáŀĤ áŀĺ
áŀĩ áŁĦ
ĠáŀķáŁĴáŀı áŀĽáŁĭ
Ġdah il
Ġn Ãły
) ;
à¹ Ħà¸£
áŀ· áŁĩ
à»ģàº Ĺ
ªà¸¸à¸ Ķà¸
áŀ· áŀĲ
áŁĬ áŀ¶áŀĵ
áŀĢáŀ¶áŀļáŀ Ħáŀ¶áŀļáŀ
áŀĢ áŀ¶
àºµ àºĻàº
Ġan o
áŀ¢ áŀ¶áŀĦ
ªà¸³à¸« à¸£à¸±à¸ļà¸
o y
áŀŁ áŁĴáŀĽáŀ¶áŀĶáŁĭ
áŀľ áŁĢáŀıáŀİáŀ¶áŀĺ
ĠáŀĶáŁĴáŀļáŀĹ áŀĸ
ĠáŀĶ áŁĴáŀļáŀ¶áŀĶáŁĭ
áŀŁ áŁĴáŀĺ
Ħà¸£à¸ ±à¹īà¸ĩ
la m
áŀĺ áŁĴáŀļáŀ·áŀı
àº§ àºģàº
ĠáŀŁ áŁĴáŀĳ
à¹Ħà¸ ĭà¸
Ġå ¹
áŁĨ áŀļáŀ»
Ġ1 4
Ġà¹Ģà¸ Ľà¹ĩà¸Ļà¸
h e
ĠáŀŁ áŀ¶áŀļ
aw a
ĠáŀļáŀĬáŁĴáŀĭ áŀĺáŀĵáŁĴáŀıáŁĴáŀļáŀ¸
áŀĹáŀ·áŀľáŀĮáŁĴáŀį áŀĵáŁį
áŀģ áŁĴáŀĺáŁĤáŀļ
áŀĢáŁĨáŀĸ áŀĦáŁĭ
ĠáŀĢ áŀ¶áŀıáŁĭ
à¹Ģà¸ Ĭ
Ġd e
áŀļáŀ¶áŀħ áŀļáŀİáŁį
Ġáŀļáŀ »
Ńàºĩàº Ľàº°àºĬàº¸àº¡
áŀ¶áŀĺ áŁī
ĠàºĦ àº»àºĻ
Ġtá» «
áŀ¶áŀĢ áŀ¶áŀŁ
Ġ1 8
¨à¸¶à¸ ģà¸©
Ġpag k
ª àº¸àºĶ
Ħ à¸Ńà¸
ĠáŀĢáŁĴáŀļ áŁħ
à¹īà¸Ńà¸¡à¸ ¹à¸
Ġáŀľáŀ·áŀŁ áŁĲáŀĻ
c k
Ġr in
Ġáŀĸ áŁĴáŀļáŀ¹áŀĢ
áŀĸ áŁģáŀī
Ĳ à¸
Ġàº Ĺàºµ
à®² à¯Ī
à»ĢàºĦ àº·à»ĪàºŃ
åĲ Ī
ĠáŀĲ áŁĴáŀĽáŁĤáŀĦ
ĠáŀĬáŁĦáŀĻ áŀŁáŀ¶áŀļ
Ġpam am
áŀĸ áŀ¶áŀĢáŁĴáŀĻ
ĠáĢĢáĢ» áĢ½áĢĶáĢº
m er
Ġáŀĺ áŀ¸
§ à»Īàº²
Ķà¸ ¹
åĬ Ľ
ĠáŀŁ áŀ·áŀĢ
Ġáŀķ áŁĴáŀĬ
à®¿à®± à¯įà®ķ
Ġà¸ «
áŁĴáŀļáŀŁ áŁĭ
áŀľ áŁģáŀĽ
à¸Ńà¸Ńà¸ ģà¸
Ã¡ i
ĠáĢĶ áĢ±áĢ¬áĢĢáĢº
ģàº²àºĻàº ª
áŀ¶áŀĸ áŀ·áŀŁáŁģáŀŁ
Ġun tuk
pa n
áŀļáŀ ħ
Ġåĩ ¯
å¿ ĥ
áŀĸ áŀ»áŀĢ
ĠáĢķáĢ¼ áĢĶáĢº
Ġáŀı áŀ¶áŁĨáŀĦ
Ġ à¹Ĩ
àº» àºģ
áŀģ áŀ»áŀŁ
áĢķáĢ¼ áĢĶáĢº
åī į
Ĺàºµà»Ī àº¡àºµ
Ġ ra
Ġáŀ¢áŀıáŁĴáŀĲ áŀĶáŀĳ
Ġáŀĵ áŀ¸
à®© à®°à¯į
áŀĩ áŁĨáŀĦáŀº
O N
lak i
áŀħ áŀĦáŁĭ
es s
±áĢ¡ áĢ¬áĢĦáĢ¹áĢ
ĠáĢĨ áĢ¯áĢŃ
áĢŃáĢ¯ áĢ¯
áĢĲáĢħáĢ¹áĢ ģáĢ¯
»áĢĸ áĢħáĢ¹
áĢķáĢ¼ áĢ²
áĢĶáĢ¹áĢĻ áĢ½áĢ¬
áģĢ áĢ«
áĢķáĢ¹áĢ Ģ
áĢĢáĢ¹áĢ ģ
áŁĨáŀĵ áŀĦ
an s
áĢħ áĢħáĢ¹áĢ
áĢħ áĢ¶
áŀĶ áŀħáŁĴáŀħ
áŀīáŁĴáŀĩ áŀ¾áŀī
áŀĤ áŁĦáŀĽ
àºĻàº Ń
áŁĢáŀĺ áŀļáŀ¶áŀĶ
Ġà®ħà®° à®ļ
áŀ¼ áŀŁ
áĢĢáĢ¼ áĢļáĢ¹áĢ
ŀ áĢĬáĢ¹áĢ
ĠáĢĲ áĢĦáĢ¹áĢ
áĢĳ áĢ¬áĢ¸áĢŀ
Ġå Į
Ġd in
Ġ Ĉ
æ Ľ
Ġáŀħ áŀ»áŀĦ
à¯ģà®Ł à®©à¯į
Ġàº«àº¼ àº·
Ġma h
áŀ¶áŀĤ áŀ¶áŀļ
Ġhá» į
łà¸²à¸ ©
· áŀĻ
áŀĸ áŀ·áŀı
áĢĲáģ ±
áĢĦáĢºáĢ¸áĢ Ĳ
Ġáŀ¯áŀĢ áŀ§áŀıáŁĴáŀıáŀĺ
ĠáŀĽ áŁĴáŀĶ
Ġáŀ¢ áŁĬ
Ġb y
ĠáĢĻ áĢĽ
áŁĴáŀıáŀ¸ áŀĸáŀ¸
åĲ İ
áŀĽ áŀ¶áŀĵ
ar y
ĠáĢģ áĢ¼
ĠáŀĬ áŁĨáŀİ
Ġy ung
l ing
Ġáŀı áŁĤáŀĦ
Ġà®¤à¯Ĭ à®Ł
Ġáŀ¢ áŀ¶áŀł
ŀ à¸£à¸
ĠáĢ¡ áĢ±áĢĽ
áĢĻ áĢĬáĢ¹áĢ
áĢ±áĢľ áĢ¬áĢĢáĢ¹áĢ
ĻáĢ½ áĢĲáĢ¹áĢ
áĢ· áĢ¡
20 1
Ġà¸ ¡à¸µ
ĠáŀĶáŁĴáŀļáŀĢ áŀ¶áŀŁ
ĠáŁ¢áŁłáŁ¡áŁ ¨
Ġáŀļáŀ ı
áĢ¬áĢ¸áĢ ģáĢ²áĢ·
Ķà¸ ¹à¸
ĠMas k
Ġma b
Ġáŀģ áŁĴáŀĺ
áŁĨáŀĬ áŁĤáŀĵ
áŀ¶áŀĢáŁĭáŀĳ áŁĨáŀĵáŀĦ
àº°àºŀ àº±àºĻ
à»ģàº ®
ĠáŀĶáŁĴáŀļáŀŁ áŀ·áŀĵ
id e
éķ ¿
´ à¸Ļà¸
r y
Ã¡ ng
la n
Ġà®ķ à®°
áĢľ áĢĦáĢ¹áĢ¸
áĢħ áĢĬáĢ¹áĢ¸
ľ áĢŃáĢ¯áĢĢáĢ¹áĢ
ģáĢº áĢĦáĢ¹áĢ
áĢĶ áĢ®
áŁĴáŀĵ áŁĨ
à¸£à¸ ¹à¸
à»į àº²àºĻàº
èĩ ª
am a
à»Ŀ à»Ī
áĢ®áĢ¸áĢ ļ
à¸µà¸ ģ
áŀĶáŁĴáŀļáŀ ĺ
à¹Ī à¸Ļà¹Ģà¸
ŀ à¯įà®ļ
áŀ»áŀĳ áŁĴáŀĴ
Ġà» ģ
¨ à¸²à¸
áŀĲ áŁĴáŀĽáŁĥ
Ġáŀģ áŀ»áŀŁ
Ġà»Ħ àºĽ
Ġma a
Ī àº±àºĶàºķ
àºģ àº²àºį
áĢ®áĢ¸áĢ ¡
áŁģáŀģ áŀ¶áŀĦ
áŀĸ áŀĵáŁĴáŀĴáŀ
ĠáĢŀ áĢĲáĢŃ
Ġà®ª à®¤
áŀ·áŀŁ áŀ»áŀģ
áŀ¶áŀĢ áŀļ
Ã¡ t
áŀŁ áŁĴáŀĲ
áĢľáĢ½ áĢº
áĢ¼ áĢĢáĢ¹
áĤı áĢ¯
áĢ¡ áĢĲáĢ¼áĢĦáĢ¹áĢ¸
ĠáĢŁ áĢ¬
Ġà»Ģàº Ī
áĢĻáĢ» áĢ¬áĢ¸áĢ¡
ç ķ
àºĹ àº²àºĩ
à¸£à¸¹ à¹īà¸
áŀķáŁĴáŀı áŀĽáŁĭ
Ġà®® à¯ģà®¤
áŀ¢áŁĨáŀĸ áŀ¸
¥à¸ ¹à¸ģà¸
it h
Ġpa na
Ġ à¹Ħà¸¡à¹Ī
ç¾ İ
áŀļ áŁĨáŀĽ
Ĺà¸µà¹Ī à¹Ģà¸
áŀĵ áŀĻáŁĦáŀĶáŀ¶áŀĻ
áŀĩ áŁĴáŀ
àº»àºĻàº ķàºµ
ĠáŀĽ áŀ¸
áŀĵ áŀ·áŀĻáŀ¶áŀĻ
Ġà®® à®©
àºµ à»ī
¥àº° àºļ
Äĥ m
ä¸ »
áĢĻ áĢĽáĢ½áĢŃ
áĢĶ áĢļáĢ¹
áĢ¡ áĢ¬áĢ¸áĢ
áŀ¼áŀļáŁī áŁģáŀģáŀ¶áŀĦ
áŀ¶áŀĴáŀ¶áŀļáŀİ áŁĪ
à®¿à®²à¯įà®² à¯Ī
t ing
áŀĢáŁĴáŀģ áŀİáŁĪ
ĠàºĹ àº²àºĩ
à»Ģàº®àº±àºĶ à»ĥàº«à»ī
Īà¸ ¸à¸
ĠáĢģáĢ¯ áĢĶáĢ¾áĢħáĢº
ĠáŀĴáŀ ĵ
Ġpa a
è ¶
Ġna m
Ġáŀı áŁĴáŀļáŀ¹áŀĺ
´ àºĶàº
áŀŁ áŀĦáŁĭ
à¯ģà®ķ à¯į
áŀĳáŀ¸ áŀĢáŁĴáŀļáŀ»áŀĦ
à¸Ńà¸ °
on e
à¸£à¸±à¸ ģà¸©
or t
áĢĲ áĢ²áĤĶ
Ľ áĢĦáĢ¹
ĠáĢ±áĢĽ áĤĬ
ķáĢ¼ áĢ¯
à»ĢàºĻàº ·
· à¸Ńà¸Ļ
I N
Ġma ka
ĠáŀŁ áŀ¶áŀĢ
è °
ĠáŀĶáŀħáŁĴáŀħ áŀ»áŀĶáŁĴáŀĶáŀĵáŁĴáŀĵ
«à¸¥à¸ ±à¸ĩà¸
à¯Īà®ķ à¯į
ķ àº²àº¡
áŀļ áŀ¶áŀĺ
áŀ·áŀĲ áŀ»áŀĵ
Ġáŀ¢ áŁĦáŀĻ
ĠáŁ¡áŁ ¢
Ġáŀľáŀ· áŀĳáŁĴáŀĻ
Ġç ľ
áĢĻ áĢĦáĢ¹áĢ¸
ĠáĢ¡ áĢ±áĢĶ
Ġ â
áĢĶáĢ¹ áĤĢáĢĢáĢ®áĢ¸áĢ
ĠáĢ¡ áĢ²áĢ·
ĠáĢĻáĢ¼áĢĶáĢº áĢĻáĢ¬
áĢĲ áĢĬáĢ¹áĢ¸
áĢĶáĢ¹áĢ ĳ
áĢŃáĢ¯áĢľ áĢº
Ġáŀ¢ áŀĹáŀ·áŀĶáŀ¶áŀĽ
ĠC am
áŀģ áŀ·áŀı
åŁ İ
àºĽ àº°à»ĢàºĹàºĶ
à ²
ĠÄĳ áº¿n
áŀ¶áŁĨáŀĳ áŁĴáŀļ
Ġà¸ §à¸´à¸ĺ
Ġáŀľ áŀ¸
i ya
ŀ à¸²à¸
Ġáŀĸ áŀ·áŀŁáŁģáŀŁ
áĢĢ áĢľáĢĬáĢ¹áĢ¸
áĢķ áĢ¯
áŁĩ áŀĸ
áĢ¬áĢ¸áĢĻáĢº áĢ¬áĢ¸
áĢĽ áĢĲáĢ¬
áĢķ áĢĲáĢº
Ġàºģ à»į
äº ļ
áŀĶáŁĴáŀļáŀ ĸ
ĠáŀŁ áŀĵáŁĴáŀı
Ġáŀĵ áŀĻáŁĦáŀĶáŀ¶áŀĻ
àºģàºĩ àº²àºĻàº
ou r
ĠáŀĸáŁĴáŀļ áŁĥ
da k
Ġáŀĵ áŀ¶
¥ àº±àºĶàºĸ
Ġà®®à¯ģà® ©
Ġáŀ¢áŀĦáŁĴáŀĤ áŀĢáŀ¶áŀļ
ĠáŀŁáŀĺ áŁĴáŀļáŁģáŀħ
Ġáŀļáŀ ľáŀ¶áŀĦ
àº±à»Īàºĩàº ģà»Īàº²àº§
Ġn ila
Ġà¸Ħ à¸²
µ à¹Īà¸
áŀºáŀļáŁī áŀ»áŀĶ
áĢģáĢº áĢĻáĢ¹áĢ¸
áĢĳ áĢ¯
ĠáĢ±áĢ¡ áĢ¬áĢĢáĢ¹áĢ
áĢĦáĢºáĢ¸áĢ ¡
Ġáŀļ áŁĢáŀĶáŀħáŁĨ
ĠáŀĶ áŁĤáŀĶ
ĠM ar
áŁĴáŀŁ áŁĬáŀ¸
áŁģ áŀĺ
çĻ »
t or
ĠáĢ¡ áĢĻáĢºáĢŃáĢ³áĢ¸áĢŀ
áĢķáĢ¼ áĢ±áĢ¬
áŀĵ áŀ·
è ĭ
ģà¸ ¥à¸²à¸
Ġà®® à¯Ĥ
áŀ¶áŀĴáŀ·áŀĶ áŀıáŀ¸
Ġàº ¢à»Īàº²àºĩ
áŀ¶áŀļ áŁĴáŀĻ
Ġ) .
ĠáŀĶáŁĴáŀļáŀ ł
±áĢľ áĢ¸
Ġáģģáģ Ĥ
áĢĢáĢ¹áĢ Ļ
áĢĶ áĢ±áĢ
Ġp res
åĮ º
á»ĳ i
áŁĨáŀļáŀ» áŀī
Ġi yong
àº±àºĻàº į
áŀĩ áŀ·áŀı
Ġ1 7
ĠáĢĳ áĢŃ
· à¹īà¸Ļà¸
áŀĩ áŀ¶áŀĢ
Ľ áĢ²áĤķ
Ģ áĢ¯áĢŃ
áĢ® áĢĴáĢ®
àº¶ à»īàºĻàº
áŁĴáŀļáŀł áŀĺ
áŀĶ áŀīáŁĴáŀł
±áĢĶ áĢĲáĢ²áĢ·
áĢ¼ áĢĦáĢ¹
- -
ĠáĢ¡áĢĨáĢŃáĢ¯ áĢķáĢ«
áĢ¡ áĢĳáĢŃ
áŀķáŀĽ áŀ·áŀı
à¯ģà® £
áŀĢáŀĺáŁĴáŀĺ áŀľáŀ·áŀĴáŀ¸
in t
Ġáŀ¢áŀ¶áŀĩáŁĴáŀīáŀ¶áŀĴáŀ ļ
ĵ à¹Įà¸
Ġå ½
áŀĳáŀĳáŀ½áŀĽ áŀĶáŀ¶áŀĵ
áĢĦáĢºáĢ¸áĢ Ľ
ķ à»īàºŃàºĩàº
áŁĴáŀĽ áŀ¶áŀŁáŁĭ
Ġà® ²
Ġma t
áĢ¬áĢ¸áĢ Ĩ
ĠáŀĶáŁĴáŀļáŀ ħáŀ¶áŁĨ
Ġï¼ ī
Ġà¸ ļà¸²à¸Ĺ
¢à¸ ¸à¸
áŀı áŀ»áŀĽ
o re
ĠáŀŁ áŀ»áŁĨ
áŀŁ áŁĴáŀĶ
Ġg iá»
áŀĴáŀ ĺáŁĴáŀĺ
àºĽ àº°àºģàº
áŀĶáŁĴáŀļáŀĩ áŀ»áŁĨ
ķ áĢº
áĢ±áĢķ áĢ¼
ĠáŀĬáŁĨáŀİáŀ¾ áŀļ
à¹ģà¸ Ĥ
àºķ à»įà»Ī
an ya
áŁģáŀŁ áŀ¶
áŀĸáŀ½áŀĢ áŀĤáŁģ
ĠáĢĽáĢĢáĢ¹áĢ ±áĢĶáĤĶ
áĢħ áĢĢ
Ġà®İ à®¤
Ġpa n
àº»à»ī àºĻ
Ĺ àº²àºĻàº
Ġà¸ª à¸²à¸
áŀ·áŀħáŁĴáŀĨ áŀ·áŀĢáŀ¶
ķ àº»àº§
áŀĶáŁĴáŀļáŀ¾ áŀĶáŁĴáŀļáŀ¶áŀŁáŁĭ
áŀĶáŁĭ áŀļáŁĨ
Ġ à¸Ļà¸²à¸
ĠáŀĢáŁı áŀĶáŀ¶áŀĵ
à¯ģà® ²
áĢ¸áĢĻ áĢ½
áĢĶ áĢĢáĢº
áŀļáŀĶáŀŁáŁĭ áŀ¢áŁĴáŀĵáŀĢ
à¸Ļà¹īà¸ ³à¸
áŀĤ áŀĺáŀĵáŁį
Ġla hat
áŁĦ áŀļáŀĸ
Ġáŀł áŁħ
yan mar
áĤ ĲáĢ¼
áĢ»áĢĸáĢħáĢ¹áĢ ķáĢ«áĢĲáĢļáĢ¹
ĠáĢĲ áĢŃáĢ¯áĢĢáĢ¹áĢ
Ĩ áĢĶáĢ¹áĢ¸
áĢŃáĢ¯áĢĦáĢ¹áĢ ĽáĢ¬
ĠáĢĳ áĢ¼áĢĢáĢ¹áĢ
ĠáĢŀ áĢ±áĢĺáĢ¬
ĠáĢĢáĢŃáĢ¯ áĢļáĢ¹áĢ·
áĢ»áĢķ áĢĦáĢ¹
áģ¿áĢķáĢ®áĢ¸áĢ ±áĢĲáĢ¬áĢ·
áĢ¹áĢ ľáĢĬáĢ¹áĢ¸
áĢĨ áĢ¯áĢ¶áĢ¸áĢ
Ġà®ħ à®¨à¯įà®¤
ĠàºĻàº ³
é Ĥ
Ã¡c h
ĠáŀĢáŀ¶áŀļáŀ Ł
à¹Īà¸²à¸ §à¸
àº±àºĩàºĦ àº»àº¡
Ħ àº»àºĻàº
ĠM ga
áŀĢ áŀĺáŁĴáŀĽáŀ¶áŁĨáŀĦ
áĢ¡ áĢģáĢºáĢŃ
ľ áĢĬáĢ¹áĢ
ĠáĢŀ áĢŃáĢ¯áĤĶ
áĢĲ áĢĶáĢº
áŀĸ áŀ¶áŀĢáŁĭ
Ġb ata
áŁĴáŀļáŀ½ áŀı
ĠP M
Ġi m
áŀŁáŀ¸áŀł áŀĵáŀ»
Ġáŀĺ áŁĴáŀħáŀ¶áŀŁáŁĭ
àº¸à»īàº¡ àºĦ
à¸Ńà¸¢à¸ ¹à¹Īà¸
Ġáŀ ĨáŁĴáŀĵ
Ġà®¤ à¯ĩ
àº¡ àº·
Ġæ ī
ķ à»įà»Ī
áŀĽ áŀĢáŁĭ
em ber
ĠáĢķ áĢĬáĢ¬
áŀ ¬
áĢļ áĢ¶
Ġáŀĳáŀ¶áŁĨáŀĦ áŀ¢áŀŁáŁĭ
ĠáŀĢ áŀĵáŁĴáŀĽáŀĦ
on t
áŀĦáŀĶ áŁĴáŀ¢áŀ¼áŀĵ
áŀ¶áŀŁ áŀ¶áŀĳ
áĢ±áĢ »áĢĻ
áĤ Ĵ
ĠáĢ¦ áĢ¸áĢ
Ġæ Ŀ
àºĦ àº·
Ġ áĤĢáĢĢáĢŃáĢ³
áĢ¯áĢŃ áĢĦáĢ¹
áĢ¬ áĢĢ
Ġáģ¿áĢĻ áĢŃáĢ³áĤķ
áĢĽ áĢĦáĢ¹áĢ¸
ļ áĢ¬áĢĢáĢ¹
áĢħ áĢħáĢº
áºŃ p
Ġáŀĩáŀĵ áŀĩáŀ¶áŀıáŀ·
è¿ Ľ
Ġla b
áŀĺáŀĵ áŁĴáŀļáŁĴáŀıáŀ¸
áŀħ áŁĨáŀĸáŁĦáŁĩ
à®¿à® ª
áĢķ áĢ¶áĢ¯
ĠáĢŀ áĢ¼
Ĺà¸ ĩà¸
áŀī áŁĢáŀĵ
Ġin i
ĵ à¹Į
áŀĢ áŀ¸áŀ¡
ĠáĢ±áĢĴ áĢŀ
áĢĲ áĢ¯
Ġà»Ģàº Īàº»à»īàº²
àº²àº Ĺ
áŀ·áŀĲáŀ»áŀĵ áŀ¶
áŀ¶áŀļ áŁī
áģ ¾
ĠáĢħ áĢ®áĢ¸áĢķ
Ġáŀĵ áŀ·
ĠáĢ¡ áĢ±áģ¾áĢĢáĢ¬áĢĦáĢ¹áĢ¸
ĠáĢķ áĢ¶áĢ¯
ĠáĢħ áĢħáĢº
·à¹Ī à¸Ļ
áŀ¶áŀĽ áŀ¸
äº İ
âĢ Ŀ
Ġk ah
Ġà®ĩ à®Ł
Ġà»Ģàº® àº±àºĶ
à»Ħ àºĤ
¹ áŀĢáŁĴáŀŁ
ĠáŀĤ áŀĺáŁĴáŀļáŁĦáŀĦ
áŀ¶áŀĬ áŀ¾áŀĺ
áĢĻ áĢŁáĢ¯áĢĲáĢº
ī áŁĴáŀī
Ġkh i
Ī àº°à»Ģàº
ĠáŀŁáŀĺáŁĴáŀ Ĭ
áŁĴáŀĵ áŀ¶áŁĨ
áŀł áŁĦáŁĩ
ĠM a
à¸£à¸£à¸ ¡
áŀ¢ áŁĬáŀ¸
Ġà¹Ģà¸¥ à¹Īà¸Ļ
§à¸¥ à¸²
Ġlang is
Ġs uso
re am
Ġb ula
Ġáŀ¢ áŀ¶áŀĵ
áŁĴáŀĺ áŀ¾áŀŁ
àºĶà»ī àº§àºį
um a
bo di
áŁĴáŀ ł
à®© à¯Ī
Īà¸ ³à¸
áŀĩáŁĴáŀļ áŀ¶áŀľ
áŁĩáŀĸ áŀ¶áŀĽáŁĭ
Ġáŀĩ áŀ¾áŀĦ
à®£à¯įà®Ł à¯ģ
Ġsp ot
al i
Ħ à¹Īà¸
Ġç İ
Ĭà¸ ·à¹Īà¸Ńà¸
áŀĵáŀ¸ áŀĻáŁį
« àº¥
áŀĵ áŁĲáŀĻ
å° ±
Ġàº¡ àº²
Ĺ àº¶
áĢ¬áĢ¸áĢĻ áĤĪ
Ľ áĢĶáĢ¹
áĢ¬ áĢĲáĢº
ĠáŀŁ áŁĴáŀĺ
àº·àºŃ àºĻ
à®® à®¾à®©
áŀŁ áŀ¶áŀĽ
Ġvá» ģ
àº±àºļàºª àº´àºĻàº
« à¸²
an t
áŀķ áŁĴáŀ¢
® àº±àºļ
áĤı áĢ½áĢ¬
áĢĳáĢ¬áĢ¸áĢ ĲáĢ²áĢ·
áĢº áĢ¸
ĠáŀŁ áŁĴáŀĽ
Ġáŀĺ áŀĵáŁĴáŀĳáŀ¸
Ġparas it
lo g
ĠáŀĢ áŀ»áŁĨ
Ġd a
áŀŁáŀĺ áŀıáŁĴáŀĲáŀĢáŀ·áŀħáŁĴáŀħ
Ħ à¸£à¸±à¸ļ
à¸´à¸ Ķ
áŀ¶áŀľ áŀĩáŁĴáŀļáŀ¶áŀľ
Ġàº§ àº´
æŀ ľ
áŁĴáŀļáŀĸ áŁĴáŀĻ
àºµ àºģ
áŁĨáŀİ áŀĦ
ĠáĢĻ áĢ»
à¸²à¸£ à¹Įà¸
áŀ·áŀĻ áŀĺ
àº°àºģàº ´àºĶ
ĬáŁĴáŀĭ áŀ¶áŀĵ
áŀļáŀ ĳ
ĠáĢĨ áĢ¯
Ľ àº°à»ĢàºĹàºĶ
ĠáĢĢáģ½áĢ¼ áĢĶáĢ¹áĢĻ
áĢħ áĢīáĢº
ķà¸´à¸ Ķà¸
ar ing
áŀķ áŁĴáŀĬ
åĵ ģ
ĠâĢĭ )
Ľ à¸µ
ĠáŀģáŁĤ áŀĺ
áŀķáŁĴáŀı áŀ¾áŀĺ
Ġäº ļ
åĪ Ĵ
iáº¿ n
Ġáŀĩ áŀ·áŀı
áŀľáŀ·áŀŁ áŁĲáŀĻ
Ī àº³
áŀĸ áŁĴáŀļáŀĺ
æĪ ĳ
ĠáĢ»áĢĻáĢĶáĢ¹áĢĻáĢ¬ áĤıáĢŃáĢ¯áĢĦáĢ¹áĢĦáĢ¶
Ġ", "
ĠáĢĢáĢ¼ áģ½
áĢĻáĢº áĢ¸áĢĻ
Ġáŀĺ áŁĴáŀı
Ġà®ļ à®¿à®±
le h
áŀĺ áŀ·áŀıáŁĴáŀı
áŀĶ áŀĵáŁĴáŀĲáŁĤáŀĺ
b et
é Ķ
áŀĩ áŀ¸áŀľáŀ·áŀı
à¸£à¸µà¸ ¢à¸
áŀĶáŁĴáŀļáŀ ıáŀ·áŀĶáŀıáŁĴáŀıáŀ·
Ġáŀı áŁĨáŀİáŀ¶áŀĦ
ĠáŀĤ áŁĴáŀļáŀ½áŀŁáŀ¶áŀļ
áŀĩáŁĨáŀĵ áŀ¶áŀī
åı ¸
áŀ¶áŀĢáŁĭáŀĳ áŀĦ
Ī àº°
ĺ áĢ²
Ķ áĢ²áĢ·
áĢģáĢ¼ áĢĦáĢ¹áĢ·
áĢĦáĢ¹ áĤĶ
áĢĽ áĢĲáĢ²áĢ·
áĢĸáĢ¼ áĢĦáĢ·áĢº
Ġà¸ª à¸´
i ra
à¹Ģà¸£ à¹ĩà¸
iv ers
ĠáŀŁáŀ· áŀĳáŁĴáŀĴáŀ·
áŀľáŀıáŁĴáŀĲ áŀ»
áŀı áŁĴáŀļáŀ¹áŀĺ
à¯ģà® ļ
åĮ ĸ
áŀĢáŀ¶áŀļáŀ ĵ
Ġth u
Ġàºķ à»įà»Ī
áŀĶ áŁĬ
¥ àº»àºĩàº
Ġà¸ŀà¸Ļà¸ ±à¸Ļ
ĸà¸¶à¸ ĩ
o on
áŀĵ áŀ¶áŀĺ
ĠâĢĭ -
áŀĢ áŀļáŀİáŁį
ĸàº· àºģ
Ġà®ļà¯Ĩà®¯ à¯įà®¯
áĢĳ áĢ¼áĢĢáĢ¹áĢ
áĢĢáĢ¼ áĢ±áĢ¬áĢĦáĢºáĢ¸áĢ
áŀ·áŀļáŀ īáŁĴáŀī
ï¼Į ãĢĳãĢĲ
Ł ¥
áŀľ áŀ¸
áŀļáŀ Ĥ
áŀĳ áŀ¶áŀĵ
Ħà¸ ¥à¸
Ġáŀĸ áŁģáŀī
áŀĽ áŀ¸
àº·àºŃ àºĻàº
da d
ĠâĢĭ ,
ĠáŀĻ áŀĽáŁĭ
áŀ¶áŀıáŁĭ áŀģáŁĴáŀĽáŀ½áŀĵ
ļáŀ ĶáŀŁáŁĭ
Å© ng
à®° à®¿à®¯
èµ Ħ
¢ à¹Įà¸
ª àº°àº«
Ļ áĢŃ
Ġ áĤıáĢ¯áĢŃáĢĦáĢ¹áĢĦáĢ¶
áĢħ áĢĽáĢ¬
áŀĶáŁĴáŀļáŀĢ áŀ¶áŀŁ
éģ ĵ
áŀĶáŀĦáŁĴáŀĢ áŀ¾áŀı
ĠáĢ±áĢĲáĢ¬ áĢ¹áĢ
áĢļ áĢ·
áĢ±áĢ¬áĢĦáĢº áĢĽáĢ½áĢĢáĢº
ĠáĢ¡áĢĵ áĢŃáĢĢ
àº¸ àºļ
ĠN a
ļ à¹īà¸²à¸Ļ
ĠáŀĹ áŁģáŀĳ
áĤ ĥ
áģ ī
ĠáŀĶáŁĴáŀļáŀ¾ áŀĶáŁĴáŀļáŀ¶áŀŁáŁĭ
ĠáŀĤ áŀ½áŀļ
áŀĴ áŁĴáŀĦáŀĵáŁĭ
Ġà¹Ĥà¸Ķà¸ ¢à¸
Ġs h
Ġma la
áĢ¬ áĢĢáĢŃáĢ¯
Ľàº°àºķàº´àºļ àº±àºĶ
áŁĴáŀĦ áŀ¶áŀħ
Ġà»Ģàº ĸ
Ġà®ĩ à®µ
áŁĢ áŀŁ
ĠáĢĲ áĢŃáĢ¯áĢĦáĢ¹áĢ¸
ĠáĢ±áĢ »áĢĸ
áĢĻ áĢļáĢ¹áĢ·
áĢĦ áĢļáĢº
Ġa da
èĢ ħ
à®¿à®¤à¯įà®¤ à¯ģ
á»© c
áŀģ áŁĴáŀŁ
áŀ· áŀīáŁĴáŀħ
ĠáŀĸáŁĴáŀļáŀĺ áŀĳáŀ¶áŁĨáŀĦ
áŁ¡áŁ ©
ľà¸ ¥à¸´à¸
áŀŁáŀĺ áŁĴáŀļáŁģáŀħ
Ġà®ĩ à®²à¯įà®²
áŀ¶áŀĢ áŁĴáŀŁ
áŀļáŀ· áŀĻ
à¹ģà¸ ¡
à»ĥàºĻàº ģàº²àºĻàº
er y
áŀĢ áŀİáŁĴáŀıáŀ¶áŀĽ
ga y
ĠáŁ¢áŁłáŁ¡áŁ ©
ĠáŀĴ áŁĴáŀĽáŀ¶áŀĢáŁĭ
áĢĢáĢ¹áĢ ĲáĢ¬
áĢ¡ áĢĽáĢ¬
à®Ł à®¿
ĠáŀĤáŀº áŀĩáŀ¶
Ġà¸ Łà¸¸à¸ķà¸ļà¸Ńà¸¥
à¹ĥà¸Ļà¸ ģà¸²à¸£à¸
ĠãĢĳãĢĲ ï¼ĮãĢĳãĢĲ
Ġä¸ Ń
ĠK h
Ġáŀħ áŁĨ
áŀ» áŀĺáŁĴáŀĹ
à»Ģàº ķ
áŀ¶áŀĤ áŀĺáŀĵáŁį
áŀ¢ áŀ¶áŀļáŀĺáŁĴáŀĺáŀİáŁį
å¯ ¹
áĢķ áĢĦáĢº
Ġà®® à¯Ģ
ħ áŀ¶áŀŁáŁĭ
Ŀ à¸
ĠáŀĢáŀ¶áŀļáŀĸ áŀ¶áŀļ
Ġm an
áŀ¶áŀĵ áŀ¶
àºŃ àº¡
Ġáŀıáŀ»áŀĽ áŀ¶áŀĢáŀ¶áŀļ
ĠáŀĢ áŁĴáŀĺáŁģáŀĦ
áŁĩ áŀ¢áŀ¶áŀĦ
áĢ¬ áĢĦáĢ·áĢ¹
±áĢĽ áĢ¬
Ġáģ¿áĢķ áĢ®áĢ¸áĢ
áĢĲ áĢĬáĢº
áŀŁ áŁģáŀħáŀĢ
ŀ àº±àºĶàºĹàº°àºĻ
à¹ĩà¸ ģà¸
Ġáŀĺáŀ¶áŀĵ áŀĢáŀ¶áŀļ
áŀīáŁĴáŀī áŀ¶áŀı
Ġpa r
Ħ àº»àºĻ
à¯ģà®µ à®¤
Ġse b
é ¦
áŀħ áŀ»áŀĦ
ona l
ĠáŁ¡áŁ ¥
Ġáŀĩ áŀ¶áŀĸáŀ·áŀŁáŁģáŀŁ
Ġà»ģàº ¥
ĠáĢ±áĢĨ áĢ¬áĢĦáĢ¹áĢ
ĠáĢķ áĢ²
à¸£ à¹Īà¸§à¸
ķáĢ¼ áĢ®áĢ¸
Ã¡ o
Ġáŀľ áŁī
à»Ģàº¡ àº·àºŃàºĩ
ĠáŀĢ áŁĦáŁĩ
áŁĨáŀİ áŀ¶áŀħ
u d
Ġåĩ¯ åıĳ
Ĺ äº¬
a ce
áŁĴáŀĩ áŀ¶áŀĶáŁĭ
ªà¸ ĸ
æ° ĳ
áĢŀ áĢ¶
áĢĢ áĢ±áĢĶ
áĢ± áģĢ
ĠáĢķ áĢ¯áĢ¶
Ġpagka wala
Ġk ab
áŀĶáŁĴáŀļáŀ Ĺ
¦ Ĥ
áŀĬ áŀ¾áŀĺ
àºĻ à»īàºŃàºį
áŀ¶áŀļáŀ Ł
áŁĨ áŀ¡
áĢĲáĢ½ áĢĦáĢºáĢ¸
à¸£à¸ ´
Ġà®¨ à®¿à®²
ĠA M
Ġb e
ala t
áŀŁáŁĨ áŀģáŀ¶áŀĵáŁĭ
ĠlÃł m
ang ga
áŀŁ áŀļáŀŁ
àº ¢àº¹à»Ī
Ġ à¸£à¸µà¸§à¸´à¸
Ķà¸ ±à¸ļà¸
áŀĸ áŁĴáŀĻ
ĠæĪ ĳ
ĠáĢħ áĢ¯
ĠáŀŁáŁĴáŀı áŁĴáŀļáŀ¸
áŀļáŀŁ áŁĭ
Ŀ áĢ«
áĢľ áĢ»áĢ¾
iá»ĩ u
à¹Ģà¸ģà¸ ´à¸
éĿ ¢
Ġáŀ¢ áŀ¶
áŁĴáŀĵ áŀ¼
ĠàºĹ à»Īàº²àºĻàº
áŀĩ áŀ¶áŀĶáŁĭ
Ġà®µà¯Ĩ à®³
g o
áŀĢáŀ¶áŀļáŀ ķ
àºļ à»įà»Īàº
ĠD i
áĢĢáĢ¼ áĢ¬
Ġáŀģ áŁĴáŀĸáŀŁáŁĭ
Ġ á»Ł
ata pos
áŀĵ áŀĤáŀļáŀĶáŀ¶áŀĽ
áŀĩ áŀ¶áŀı
áŀĢáŀ¶áŀļáŀ ĳ
Ġà¸ªà¸ ¹à¸
¸ à¸Ļ
»àºĶ à»Ŀàº²àºį
ac ial
ul ong
áŀĤ áŁĴáŀĺáŀ¶áŀĵ
¥ ¿
Ġà®ķ à®²
áĢ ¿
ĠáŀĶáŁĴáŀļáŀĢ áŀ½áŀı
ĠáŀĴáŀ ĺáŁĴáŀĺ
Ġà¹Ģà¸ ŀà¸
ĠáĢĻ áĢ¾
àº°àº¡ àº»àºĻàºķàºµ
áŀĶáŁĭ áŀŁ
à¹ģà¸ «
ĠáŀĶáŁĴáŀļáŀ ľ
Ġàº® àº±àºļ
à»ĢàºĤ àº»àº²
áŀĲ áŀı
ay an
Ġà®Ĩ à®©
r ic
ç» ı
ĠáŀĶáŁĴáŀļáŀĹ áŁģáŀĳ
ĠáĢĲ áĢŃáĢ¯áĤĶ
ģ áĢĲáĢ¹áĢ
ĠáĢľáĢ° áĢŀ
áĢļáĢ¹áĢ Ĳ
áĢ¯áĢŃ áĤķ
áĢ¡ áĢĳ
áŀĶáŁĴáŀļáŀĩ áŀ¶áŀĩáŀĵ
Ġáŀĸ áŀİáŁĮ
áĢ´ áĢ¸
ĠáĢ±áĢ ģáĢ«áĢĦáĢ¹áĢ¸
áĢ¬áĢ¸áĢľ áĢ½
áĤĬáĢĲáĢ¹áĢ ±áĢĲáĢ¬áĢ¹áĢ
áĢģ áĢ²
ĠáŀķáŀĦ áŀĬáŁĤáŀļ
áŀļáŀĶ áŀ½áŀŁ
áŀĺáŁĴáŀ ħáŀ¶áŀŁáŁĭ
àº«àº¼ àº²àºį
en s
áŀıáŁģ áŀĩáŁĦ
áŀ¶áŀĵ áŁģáŁĩ
¥à¸ ±à¸ĩà¸
ĠáŀĬáŁĦáŀĻ áŀŁáŀ¶áŀļáŀ
áĢ±áĢĽ áĢ¸áĢ¡
áĢ¬áĢ¹áĢ »áĢķ
áĢĲáĢ½ áĢ±áĢ·
Ġd alam
ĠáŀĢáŁĨáŀĸ áŀĦáŁĭ
Ġà®¤ à®²
áŁĦ áŀĵ
å½© ç¥¨
æ º
áŀ¶áŀĩáŀ¸áŀľ áŀĢáŀĺáŁĴáŀĺ
Ġwala ng
áŀ¶áŀĢ áŀĬ
áŀŁáŀĦáŁĴáŀĤ áŀĺ
áŀıáŁĴáŀĲ áŀĹáŀ¶áŀĸ
é ľ
ĠáĢ±áĢĴ áĢ«
ĠáĢ±áĢĲáĢ¼ áĤķ
ĸáĢ¼ áĢĦáĢ·áĢº
Ġà®ª à®¯
ľ à¹Īà¸²à¸Ļà¸
ĠáŀĶáŁī áŀ»áŀĵ
Ġàº« àº¥
áŁĴáŀĵ áŀ¹áŀĦ
áŀĶ áŀ»áŀİáŁĴáŀĻ
àºļ àº±àºĻàºĶ
ĠáŁ£ áŁł
Ġáŀģ áŁĴáŀĽáŁĩ
Ġ20 0
ay a
àº¹ à»Ī
áº¥ y
áŀĬ áŀ¹áŀĢ
áŀģ áŀİáŁĴáŀĮ
Ġparas ito
Ġ2 2
Ġ à¸Ńà¸²à¸
Ġ or
áŀĢáŀ¶áŀļáŀ Ĥ
å® ŀ
ķ à¹Įà¸
àºļ à»įàº¥àº´
ĠáŀĶ áŁĨáŀķáŀ»áŀı
Ġpag s
¢à¸ ±à¸ĩà¸
àºģàº ³
áŁĴáŀļ áŀ¶áŀĶ
áŀŁ áŀĺáŁĴáŀĶ
¾ Ļ
i Ãª
æı Ĳ
áŀĢ áŀĦ
ĠáĢ¡ áĢ»áĢĻ
áĢ±áĢ¸áĢ ¡
ĠáŀĬ áŁĥ
Ġh e
áŀĺáŁĴáŀļ áŁĢáŀĦ
igh t
áŀĶáŁĴáŀļáŀ ľ
Ġng a
± à»īàºĻ
ina s
Ġ3 0
ĳáĢ¬áĢ¸áĢ ĲáĢ²áĢ·
áĢĲáĢ¼ áĢĢáĢ¹áĢ
ĠáĢŀáĢŃáĢĽ áĢŀáĢĬáĢ¹
áĢ¸áĢ ĩ
ĠáĢļ áĢ¬
ªà¸ Ķ
Ġ à¹ĥà¸Ļ
à¯įà®ª à¯įà®ª
áŀĳáŁĴáŀĴáŀ Ĺáŀ¶áŀĸ
ĠáĢĻ áĢŀáĢŃ
ĠÄĳ Ã³
±áĢĶ áĢĲáĢ¬
u ary
ĠáĢĳ áĢ¯áĢĲáĢº
h an
à¹Ģà¸£ à¸²
at e
Ġáŀħ áŀ¶áŀıáŁĭ
à¹ģà¸ ķ
å ķ
áŁ¡ áŁł
ĠáŀĶáŁĴáŀļáŀ Ļ
àº°à»ĢàºĹ àºĶàº
áŀĩ áŀ½áŀĶ
áŀ¼áŀļáŀ ĳ
áĢĦ áĢ½
à¯ģà®ķ à®³à¯į
à¹ģà¸ Ĺ
âĢ ľ
Ġáŀĩ áŀ¶áŀħáŁĴáŀļáŀ¾áŀĵ
ĠáĢ±áĢĲáĢ¼ áĤĶ
ģáĢ¼ áĢĦáĢ¹áĢ·
áĢĨ áĢĦáĢº
áŀŁáŀ· áŀĢáŀĺáŁĴáŀĺ
çĲ ĥ
áŀļáŀĬáŁĴáŀĭ áŀ¢áŀ¶áŀĺáŁģáŀļáŀ·áŀĢ
Ġà»ĢàºĹ àºĶ
à»ī àºĩ
´ à¸Ļ
ĠáĢ±áĢĶ áĢĽáĢ¬
áĢĻ áĢĽ
àºģàº Ń
áĢĺ áĢ¯áĢĽ
áŀĦáŁĴáŀĢ áŁģáŀı
§à¸±à¸Ļà¸ Ĺà¸µà¹Ī
u ti
áĢĶáĢ¾ áĢĦáĢºáĢ·
Ġ.. ..
áĢľ áĢ¶áĢ¯
áĢķ áĢ±áĢĻ
ĺ áĢ°áĢ¸áĢ
áĢ±áĢ¸áĢ ŀ
ĠáŀŁáŁģ áŀĬáŁĴáŀĭáŀĢáŀ·áŀħáŁĴáŀħ
àº« àº§
Ġs ila
·à¸Ń à¸Ļà¸
Ġáŀļ áŁĨáŀĽ
Ġ201 7
áŀĸáŀ¸ áŀļ
à» ĤàºŃ
ĠáĢŀ áĢĬáĢ¹
ĠáĢģáĢº áĢħáĢ¹áĢ
áĢĽáĢ½ áĢĦáĢ¹áĢ¸
áĢĻ áĢ®áĢ¸áĢ
áĤ Ĥ
ĠáĢĺáĢļáĢ¹áĢľ áĢŃáĢ¯
ĠáĢħ áĢŃáĢĲáĢº
Ġt áº¡i
Ġn ito
áŀĳ áŀ¼
à¯įà®ļ à®¿
æ ¶
ĠáŀĶáŁĴáŀļáŀĺ áŀ¶áŀİ
ĠâĢĭáŁ ķ
áŁĦ áŀĹ
Ġ &
ĠáĢĶ áĢ¶
áŀ¼ áŀĩ
à¸Ļà¸± à¹īà¸Ļà¸
áŀļáŀ¾ áŀŁ
àºĶàº ĸ
ĠáŀĽáŁĦáŀĢ áŀŁáŁĴáŀļáŀ¸
ĠáŀĬáŁĤáŀĽ áŀĶáŀ¶áŀĵ
±áĢľ áĢ¬áĢĢáĢ¹áĢ
áĢģáĢ» áĢ¯áĢķáĢº
àº» à»Īàº²àºĻàº
åį ļ
áŀĶáŁĴáŀĶ áŀ¶áŀĻ
ĠTh e
Ġà®µ à¯Ģ
áŀļ áŀ¶áŀĽáŁĭ
Ġáģģáģ ħ
áŀĻ áŀĽáŁĭ
Ć Ĉ
åħ ĥ
áĢĻáģ »
áĢķáĢ« áĢķáĢ²
ĠáĢģ áĢĽáĢ®áĢ¸áĢ
ļà¸²à¸Ħà¸²à¸£ à¹Īà¸²
ti p
Ġ2 4
Ġáŀĳ áŀ·áŀī
áŁģáŀŁ áŁĬáŀ¸
Ĺà¸µà¹Īà¸ ¡à¸µà¸
3 65
ä» £
áŀı áŁĴáŀĬ
as t
à¯įà® ¸
ĠáŀĻ áŁĦáŀĦ
ĠáŀħáŁĨáŀİ áŀ»áŀħ
Ġáŀ¢ áŀıáŀ¸áŀı
ah an
Ġàºª àº°àº«
áŀĸáŁĲáŀĵ áŁĴáŀĴáŀ
àº® àº¹à»ī
¡ áĢħ
áŀĤ áŀ»áŀİ
Ġc áº£
ĠáŀĶáŀ» áŀĤáŁĴáŀĤáŀĽ
Ġä¸ Ģ
âĢ Į
áŁĢ áŀĢ
áŀĳ áŀ¶áŀıáŁĭ
ĠáĢľ áĢŃáĢ¯áĤĶ
áĢĳáĢ² áĢĻáĢ½áĢ¬
áģ ¸
áĤıáĤĪ áĢĶáĢ¹áĢ¸
áĢĶáĢ¹áĢ¸ áĢĻáĢ¬
áĢģáĢ²áĢ· áĢŀáĢĬáĢº
áŀĩ áŀ¶áŀĢáŀ¶áŀļáŀ
Ľ à»Īàº½
áŀĢ áŁĴáŀĽ
à¹ĥ à¸Ļà¹Ģà¸
áŀĶáŀĵáŁĴáŀĳ áŀ¶áŀĶáŁĭ
aw an
àºŀ àº´
âĢĭâĢĭâĢĭâĢĭâĢĭâĢĭâĢĭâĢĭâĢĭâĢĭâĢĭâĢĭâĢĭâĢĭâĢĭâĢĭâĢĭâĢĭâĢĭâĢĭâĢĭâĢĭâĢĭâĢĭâĢĭâĢĭâĢĭâĢĭâĢĭâĢĭâĢĭâĢĭâĢĭâĢĭâĢĭâĢĭâĢĭâĢĭâĢĭâĢĭâĢĭâĢĭâĢĭâĢĭâĢĭâĢĭâĢĭâĢĭâĢĭâĢĭâĢĭâĢĭâĢĭâĢĭâĢĭâĢĭâĢĭâĢĭâĢĭâĢĭâĢĭâĢĭâĢĭâĢĭâĢĭâĢĭâĢĭâĢĭâĢĭâĢĭâĢĭâĢĭâĢĭâĢĭâĢĭâĢĭâĢĭâĢĭâĢĭâĢĭâĢĭâĢĭâĢĭâĢĭâĢĭâĢĭâĢĭâĢĭâĢĭâĢĭâĢĭâĢĭâĢĭâĢĭâĢĭâĢĭâĢĭâĢĭâĢĭâĢĭâĢĭâĢĭâĢĭâĢĭâĢĭâĢĭâĢĭâĢĭâĢĭâĢĭâĢĭâĢĭâĢĭâĢĭâĢĭâĢĭâĢĭâĢĭâĢĭâĢĭâĢĭâĢĭâĢĭâĢĭâĢĭâĢĭâĢĭâĢĭ âĢĭâĢĭâĢĭâĢĭâĢĭâĢĭâĢĭâĢĭâĢĭâĢĭâĢĭâĢĭâĢĭâĢĭâĢĭâĢĭâĢĭâĢĭâĢĭâĢĭâĢĭâĢĭâĢĭâĢĭâĢĭâĢĭâĢĭâĢĭâĢĭâĢĭâĢĭâĢĭâĢĭâĢĭâĢĭâĢĭâĢĭâĢĭâĢĭâĢĭâĢĭâĢĭâĢĭâĢĭâĢĭâĢĭâĢĭâĢĭâĢĭâĢĭâĢĭâĢĭâĢĭâĢĭâĢĭâĢĭâĢĭâĢĭâĢĭâĢĭâĢĭâĢĭâĢĭâĢĭâĢĭâĢĭâĢĭâĢĭâĢĭâĢĭâĢĭâĢĭâĢĭâĢĭâĢĭâĢĭâĢĭâĢĭâĢĭâĢĭâĢĭâĢĭâĢĭâĢĭâĢĭâĢĭâĢĭâĢĭâĢĭâĢĭâĢĭâĢĭâĢĭâĢĭâĢĭâĢĭâĢĭâĢĭâĢĭâĢĭâĢĭâĢĭâĢĭâĢĭâĢĭâĢĭâĢĭâĢĭâĢĭâĢĭâĢĭâĢĭâĢĭâĢĭâĢĭâĢĭâĢĭâĢĭâĢĭâĢĭâĢĭâĢĭâĢĭâĢĭâĢĭâĢĭâĢĭâĢĭ
áŁĤáŀĵ áŀ¶áŁĨ
áŀ¶áŀŁáŁĴáŀļ áŁĴáŀı
å½ ķ
f f
áŁĦ áŀĴáŀ·
áŀļáŀĶáŀŁáŁĭ áŀģáŁĴáŀĽáŀ½áŀĵ
Ġåľ ¨
ĠâĢĭ Â»
ĠáŀĢ áŁĴáŀĽ
à¯Īà®ķ à®³à¯į
as a
àºĩ àº²àºĻàº
Ġáŀ¢ áŀ¶áŀŁ
Ķà¸ ±à¸ļ
áŁĴáŀļáŀĢ áŀ½áŀı
ow n
k am
áŀĵ áŀ¶áŀľ
ĵà¸ ĳ
áŁĴáŀļáŀ¹ áŀĦ
áŀĸ áŀ·áŀĹáŀĸáŀĽáŁĦáŀĢ
Ĥà¸²à¸ ¢à¸
ªà¸²à¸¡à¸²à¸£à¸ ĸ
Ġd á»¥
àº¸ àºĻàº
áŀĳ áŁĴáŀĴ
áŀĳ áŁĨáŀĸáŁĲ
ĠáĢŀáĢ° áĢĲáĢŃáĢ¯áĢ·
Ġàº¥ àº²àºį
áŀ ±áŀĢáŀ¶áŀŁ
ĠáŀĨáŁĴáŀĽ áŀĦ
à»ĢàºĻàº µ
áĢĽáĢŃ áĢ½
áĢķáĢ« áĢ¡
«à¸ ¡
Ġa raw
ħ áĢ¬
à® ¨
à¹Ģà¸ ŀà¸
áĢĶ áĢ²
ĠáĢ¡ áĢĺ
Ħ àº·
ĠâĢ¦ .
áĢ¡ áĢľ
ĠáŀĢáŀ¶áŀĵáŁĭ áŀıáŁĤ
áŁĨáŀĶ áŀĦ
áŀļáŀĻáŁĪ áŀĸáŁģáŀĽ
ĠáĢķ áĢº
áĢĲ áĢļáĢ¹áĢľáĢŃáĢ¯áĤĶ
ģ áĢĶáĢ¹áĢ¸
ĠáĢ¡ áĢĲáĢ¼áĢĢáĢ¹
áĢķ áĢ»
Ĥ à¹īà¸Ńà¸¡à¸¹à¸
à¯ģà® ´
áŀĬáŁĤáŀĽ áŀĶáŀ¶áŀĵ
Ġàºª àºµ
c tion
ĠàºĪ àº²àºģ
áĢħ áĢŃáĢĲáĢ¹áĢ
ĳ áĢ¬áĢ¸
áĢģáĢº áĢ¬
áĢĻ áĢ¬áĢĶ
áĢĳ áĢ¯áĢĲáĢº
la ng
àº²àº Ĺàº´
áº ±
à¸Ńà¸Ńà¸ ģ
Ġàºŀ à»īàºŃàº¡
Ġáŀ¢ áŀıáŁĭ
áŀĴ áŁĴáŀĻ
àºĪ àº²àºģàº
áŁĴáŀĽ áŁģáŀŁ
¾ å®¶
äº ĭ
áĢ µ
ĠáĢŀáĢĻ áģ¼áĢĲ
ĠáĢ±áĢĻ áĢ¬áĢĦáĢ¹áĢ
ĠáĢ¡ áĢĻáĢ»áĢŃáĢ¯áĢ¸áĢ
ou t
Ġ um
áĢ¹áĢ Ļ
áĢ®áĢ¸áĢ Ķ
Ġà¸ĭà¸ ¶à¹Īà¸ĩà¸
áŀŁ áŁĴáŀ¢áŀ¶áŀı
Ġáŀıáŀ¶áŀĺ áŀļáŀĻáŁĪ
l d
áŁĦ áŀħ
Ġà® ĵ
à»Ģàº® àº»àº²àº
ĠáŀĢ áŀīáŁĴáŀīáŀ¶
áŁĨ áŀĳ
áŀŁ áŁĴáŀĬ
åĪ ©
áŀĽ áŁĴáŀĺáŀ¾áŀŁ
Ġà»ģàº «
Ġma wala
à»ĪàºŃ àºĻàº
Ġib a
u e
à¹ģà¸¥ à¹īà¸§à¸
áŀĵáŁĴáŀĽ áŁģ
áŀıáŁģ áŀĻáŁĴáŀĻ
it e
bodi a
ĠáŀĶ áŀİáŁĴáŀĬ
à®¿à®¯ à®¾à®ķ
áŀĶ áŁĤáŀĶ
Ġà¸§ à¸´à¹Ģà¸Ħà¸£à¸²à¸°à¸«
à¹Ī à¸Ńà¸
áĢģáĢ²áĢ· áĢĲáĢ²áĢ·
ķáĢ« áĢĺáĢ°áĢ¸
ĠáĢŀ áĢŃáĢ¯áĢ·
µà¹Īà¸ ¢à¸§à¸
Ġáŀļ áŀ¶áŀĽáŁĭ
ĠáŀĨáŁĴáŀĽ áŀ¾áŀĻ
ĠUn ivers
áŁĴáŀıáŀ· áŁį
áŀ¶áŀĶ áŁĲáŀĵ
Ġm er
ĠáŀĶ áŀīáŁĴáŀĩ
Ġw ith
áŀĤ áŀ¼
e v
Ġáŀļáŀ ·
ĠáŀĴáŁĴáŀľáŀ¾ áŀĢáŀ¶áŀļ
à»Ģ à»ľ
Ġ20 20
áŀ¶áŀĶ áŁĴáŀļáŀ
Ġ à¹ģ
Ġà®®à®±à¯įà®± à¯ģà®®à¯į
áŀ¢ áŀ¶áŀŁ
Ġà¸ «à¸£à¸·à¸Ń
Ġs áº½
Ġï¼ Ī
Ġth is
áŀļáŀ ½áŀħ
áŀĶáŁīáŀ» áŀİáŁĴáŀİáŁĦáŁĩ
Ġb ah
·áŀĻ áŀ¶áŀĽáŁĲáŀĻ
Ġáŀĳ áŁĴáŀļáŀĦáŁĭ
ĠáŀĩáŁĨáŀĵ áŀ¶áŀī
à¹Ģà¸ Ľ
àºķ à»ī
ĠáŀĤ áŁĴáŀļáŀ¶áŀĵáŁĭ
áŁĨáŀĵ áŀ·áŀı
ª áŀĸáŀ»áŀĢ
u re
áŁĤ áŀļáŀĢ
áŀĦáŁĭ áŀĤ
à¹ģà¸ ķà¹Īà¸
àºª àº°àº«
uh a
áŀ¶áŀĳ áŀ·áŀıáŁĴáŀĻ
Ġàº« àº§àº½àºĶàºĻàº²àº¡
ĠâĢĭ .
Ġàº¡ àº±àºĻ
Ġyou r
áŀı áŀĶ
ª à¸Ļà¸
áŀĤ áŁĴáŀļáŀ¼
à»Īàº²àºĩ àºģàº²àºį
w ang
ĠáŀĻ áŀ»áŀľáŀĩáŀĵ
Ġáŀĩáŀĵ áŀŁáŀĦáŁĴáŀŁáŁĲáŀĻ
ĠÂ« âĢĭ
áŁĨáŀĸ áŀ¶áŀĢáŁĭ
áŀĺáŁĴáŀı áŀĦ
ĠáĢ±áĢ¡ áĢ¬áĢĦáĢ¹áĢ
áĢŃáĢ³ áĢĦáĢ¹áĢ
áĢĶ áĢħáĢº
® àº¹à»ī
áŀĵáŁħ áŀĽáŀ¾
µ Ã
Äĥ n
©à¸ ±à¸
áŀ¶áŀŁáŁĬáŀ¸ áŀĵ
ĠáŀŁáŀĺ áŀ¶áŀĩáŀ·áŀĢ
ĠáŀŁ áŀĢáŀĺáŁĴáŀĺáŀĹáŀ¶áŀĸ
áĢ½áĢ± áĢĢáĢŃáĢ¯
áĢ¸áĢĻ áĤĪ
áĢ¡áĢħ áĢŃáĢ¯áĢ¸áĢĽ
áŀĢ áŁĤ
ĠáĢ±áĢ ĦáĢ¼
ĠáĢ¡ áĢľáĢ½
ķ à¹Īà¸²à¸ĩ
áŀ¶áŀļáŀ ĩ
è¿ Ļ
Ġà»ĢàºĦ àº·à»ĪàºŃ
Ġàº¡ àº²àºĶàºķ
àº»àºĩàº ģàº²àºĻàº
ĠáŀŁáŁĨ áŀģáŀ¶áŀĵáŁĭ
àº¡ à»ī
ĠH indi
ĠáŀŁáŀĦáŁĴáŀĤ áŁĴáŀļáŁĦáŁĩ
Ġáŀľ áŀıáŁĴáŀı
Ġáŀı áŁĴáŀļáŀ¸
áŁĴáŀļáŀ¹ áŀıáŁĴáŀı
ĠàºĽàº°àº Ĭ
áŀķ áŁĴáŀĵáŁĤáŀĢ
Ġnh Ãł
àºĻàº ´
áĢķáĢ« áĢĢ
la s
áŀģ áŁĴáŀĽáŁĩ
Ġà¸ Ĥà¸
áŀĢ áŀ»áŀĦ
áŀĺáŁī áŀ¼áŀıáŀ¼
áŀĺ áŁĴáŀļáŀ¼áŀľ
Ĺ áĢº
ĠáĢĨ áĢĢáĢº
àºĶàº ¥
à¸£à¸²à¸ Ĭà¸
àº¶ à»Īàºĩàº
Ĭ à¸´à¸
ou s
as yon
Ġáŀĸáŀ¶áŀĢáŁĭ áŀĸáŁĲáŀĵáŁĴáŀĴ
áŀĶáŁĴáŀļ áŁĤ
áĢĨ áĢĽáĢ¬
å± ķ
áĢ°áĢ¸áĢ ŀ
Ã² ng
ĠáŁ¢ áŁ¥
ĠáŀĶáŁīáŀ» áŀİáŁĴáŀİáŁĦáŁĩ
à¹Ĥà¸£à¸ĩà¹ģà¸£à¸ ¡
ä» ¶
ĠáŀĢáŀ¶áŀļáŀ ħ
áĢ¡ áĢ¯áĢķáĢ¹áĢ
áĢĻáĢº áĢ¸áĢ¡
Ľà¹ĩ à¸Ļà¹Ģà¸
áŀĶ áŀ¶áŀĳ
áŀĢ áŁĴáŀļáŀĺ
áŀ¶áŀļáŀ Ķ
il l
Ġáŀ¢áŀĵáŀ» áŀľáŀıáŁĴáŀı
áŀĢ áŁĴáŀı
Ġ.. áģĭ
áĢĻáĢ¼ áĢĦáĢº
à¯ĭ à®¤à¯ģ
Ġm Ãł
áŀĶáŁĴáŀļáŀĻ áŁĦáŀĩáŀĵáŁį
àºĻ à»įàº²
è Ĭ
áŀı áŀ¶áŀļ
àº» à»Īàº²
à¸Ļà¸ ³
áŀ»áŁĨ áŀľáŀ·áŀī
Ġkay a
àº±àºĩàº ª
áŀľ áŁī
Ġb um
Ķ à¹īà¸²à¸Ļà¸
ĠáŀĶ áŀİáŁĴáŀıáŀ¶áŀĽ
ĠáŀĬáŀ¼áŀħ áŀĩáŀ¶
áĢĻáĢ¾ áĢĶáĢº
à¯Īà® ¨à¯įà®¤
å® ļ
áŁĤáŀĦ áŀļáŀĢ
à»Ħ àºĬ
Ġper o
k s
à¸£à¸§à¸ ¡à¸
Ġc Å©ng
áŀĩ áŀīáŁĴáŀĩáŀ¼áŀĵ
áŁĴáŀļáŀ¡ áŀĶáŁĭ
àºģ à»į
p ek
áŀĢ áŁĴáŀĺáŁģáŀĦ
bo ok
ĠáŀŁáŀ·áŀĢ áŁĴáŀŁáŀ¶
ĠáŀĶ áŁĦáŁĩ
ĠáŀĪ áŀ¾
ko l
Ġ25 5
áŁĨáŀĵ áŁħ
à¸µà¹Īà¸ ¢à¸
áĢ±áĢĲáĢ¼ áĤķ
áĤ ĳ
áĢ±áĢ¸áĢ ľ
áŀĵáŁĴáŀĲ áŀĻ
åħ ¥
i dak
áŀĨáŁĴáŀĽ áŀĦ
ĠA l
Ġà®İ à®´
Ġà¸ŀ à¸£
áĢ¸áĢĲ áĢļáĢ¹
áĢŁáĢ¯ áĢĲáĢ¹
áĢĽáĢ¾ áĢĦáĢº
± à¹Īà¸ĩà¸
ĠáŀĢ áŁĴáŀĽáŀ¶áŀĻ
ĠÄĳá» ĭ
Ġbula te
ic e
ķ àº»àºĻ
à¯Īà®¯ à¯Ī
ĠP a
áŀ»áŀĺáŁĴáŀĹ áŁĪ
áŀļáŀ ľ
áĢĹ áĢºáĢ¬
Ģ áĢ¬
ĠáĢľáĢ¯áĢķáĢ¹áĢ ĦáĢĶáĢ¹áĢ¸
áĢŀáĢ° áĢ±áĢĲáĢ¼
áĢĦáĢºáĢ¸áĢ ľ
Ġf acial
Ġgi na
áŀĺ áŀĵáŁĴáŀĳáŀ¸
áŀĶáŁĴáŀļáŀ ¹áŀĢáŁĴáŀŁ
áŀĦáŁĭáŀĤ áŁĴáŀĽáŁģáŀŁ
à¸Ńà¸ ±à¸
à»ĥàº«àºį à»Ī
è¿ ĩ
áĢĶáĢ¹áĢ ±áĢĲáĢ¬áĢ¹áĢ
áĢĬáĢº áĢ¸áĢ
ĠáŀĤ áŁĴáŀļáŀ¼
áŀĤ áŀ½áŀļáŀ
à¹Ģ à¸Ńà¸ĩ
àºĻàº ¶
Ġn o
Ġà®ī à®Ł
àºģàº ±àºĻ
áŁĦáŀĤ áŀĩáŁĲáŀĻ
áŀŁáŁģ áŀĬáŁĴáŀĭáŀĢáŀ·áŀħáŁĴáŀħ
áŀĳáŁģáŀŁ áŀħáŀļáŀİáŁį
ķà¸ ±à¹īà¸ĩ
ĠáĢĻ áĢ®áĢ¸áĢ
áŀĦáŁĴáŀ ¢
Ķ áĢļáĢ¹
áĤıáģ ²
ĠáĢĺ áĢļáĢº
àº° àº§
áĢļ áĢ±áĢ¬áĢĢáĢº
ĠáŀŁ áŀ¸áŀł
ĠáŀŁáŀ»áŀģ áŀĹáŀ¶áŀĸ
Ġà®µ à®¿à®Ł
ĠáĢ±áĢ »áĢģ
áĢŀ áĢ¬áĢ¸áĢħáĢ¯
ĠáŀļáŀĦ áŁĴáŀŁáŁĬáŀ¸
Ġáŀĸ áŀ»áŁĨ
į à¸²à¸
±áĢķ áĢ¸
áĢ¾ áĢĦáĢº
ĠáŀĶáŀħáŁĴáŀħ áŁģáŀĢ
ĠáŀĶ áŁĬ
áº «
àº½ àºĩàº
Ġáŀħ áŁħ
å± ±
áŁĴáŀļáŀ ľ
áŀĺáŀ¶áŀĵ áŀĩáŁĲáŀĻ
áŀĦ áŁĴáŀļáŀ¹áŀĦ
Ġng ay
ĠM yanmar
áĢŃáĢ¯áĢ¸áĢ ŀ
Ĭ à¸Ļà¸
ĠáŀŁáŁģáŀħáŀĢ áŁĴáŀĬáŀ¸
áŀļ áŁĢáŀĦ
áŀĩ áŀĺ
à®¤ à®¿
áŀŁáŁĴáŀŁ áŁĬáŀ¸
áĢ½ áĢ¬áĢ¸áĢĽ
Ġd ari
áŀķáŁĴáŀĳ áŀ¶áŀĽáŁĭ
åĬ ¡
Ġáŀĳ áŀ¼
à»Ģàº« àº±àºĻàº
ak it
Ľà¸¥ à¸²
ŀà¸ ±à¸
Ġma li
Ġáŀİ áŀ¶áŀŁáŁĭ
Ġà®¨ à®¿à®±
áŁĴáŀļáŀ ħ
Ĥà¸²à¸ ¢
è Ĳ
Ġp r
áŀŁ áŀīáŁĴáŀī
ĳáĢ² áĢĻáĢ½áĢ¬
áĢŃ áĢķ
ģ à¸£à¸£à¸¡à¸
áĢķ áĢŃáĢ¯
áŀĸ áŁĴáŀļáŀ¹áŀĢ
£Â ¬
ĠvÃł o
Ġàºŀ àº£
Ġàº Ŀ
áŀĳ áŁĥ
à»īàºŃ àºĻàº
áĢĶáĢ¹áĢ¸ áĢĢ
áĢĲ áĢĶáĢ¬
áĢĨ áĢ¯áĢ¶
A L
Ġsa an
à¹Ģà¸ Ĥ
áĢħáģ¥ áĢĬáĢ¹áĢ¸
ĠáĢĲáĢĽ áĢ¬áĢ¸áĢ
áŀħ áŁħ
áŀĢ áŀļáŀİáŀ¸
Ġà®µà¯ĩà®£à¯įà®Ł à¯ģà®®à¯į
áŀ¢ áŀĵáŁĴáŀıáŀļáŀĩáŀ¶áŀıáŀ·
áŀĶáŁĴáŀĶ áŀĴáŀĺáŁĮ
é ĥ½
ĠáĢĩ áĢ¬áĢĲáĢ¹áĢ
áĢĦáĢ¹áĢ ±áĢĲáĢ¼
áĢ±áĢŀ áĢĬáĢº
t is
Ġila lim
áŀĤ áŀ¸
Ġà¸ªà¸ ³à¸«
áŀ¶áŀĺ áŀ¶áŀĵ
Ġà»ģàº¡à»Ī àºĻàº
ļà¸£à¸´à¸ ©à¸±à¸
c t
av e
ace book
ĠáŀĬ áŀĦ
Ġkas i
ar d
Ġà® ¸
áĢģ áĢĦáĢ¹áĢ¸
áĢº áĢ¬áĢĢáĢ¹áĢ
áĢ¡ áĢ¬áĢ¸áĢľ
Ġà¸ ĭ
ĠáŀļáŀŁáŁĭ áŀĵáŁħ
áŁĴáŀļ áŀ¶
áŁĨáŀł áŁĨ
ģà¸´à¸ Īà¸
ĻáĢº áĢ¬áĢ¸áĢĢáĢŃáĢ¯
ľ áĢ²
ĠS t
±áĢĢ áĢ¬áĢĢáĢ¹áĢ
áĢĢ áĢ¯
Ġb it
áŀĵ áŀ¶áŀĳáŀ¸
çĽ Ł
±áĢĳáĢ¬áĢĦáĢ¹áĢ ħáĢ¯
áĢĦáĢŃáĢĻáĢ¹áĢ¸ áĢģáĢºáĢĻáĢ¹áĢ¸
áĢĢ áĢ°
in s
Ġáŀĺ áŁĤáŀĵ
à¸Ńà¸ ģ
Ġ( âĢĭ
ĠáŀĶ áŀīáŁĴáŀĩáŀ¼áŀĵ
åĨ Į
Ġáŀĳ áŀ¶áŀĵáŁĭ
åĽ½ éĻħ
áŀ·áŀļáŀīáŁĴáŀī áŀľáŀıáŁĴáŀĲáŀ»
à¹īà¸ ¡à¸
Ġà®ķ à®¾à®²
àº·àºŃ àºĩàº
äº §
áŀĢ áŁĴáŀĽáŀ¶áŀĻ
ĠáĢĲáĢħáĢ¹áĢ ģáĢ¯
ĠáĢ»áĢĸ áĢħáĢ¹
áĢģáĢ²áĢ· áĢĽ
m a
Ġà¹Ģà¸ §à¹ĩà¸ļà¸
Ķ à¹Į
áŀĩáŀ¶áŀ¢ áŁĴáŀĵáŀĢ
áŀ· áŀģáŀ·áŀı
ģàº §
ĠáĢŀ áĢĺáĢ¬
å» º
áĢĻáĢ¹áĢ¸ áĢĨ
¥ áĢ®áĢ¸
ĲáĢ¼ áĢĦáĢ¹áĢ¸
áĢĿ áĢº
Ġ áĤıáĢ½áĢĦáĢ¹áĢ·
ĠáĢĺáĢ¯áĢĽ áĢ¬áĢ¸áĢŀ
ĠáĢ¡áĢ² áĢĴáĢ«
áĢ³áĢŃ áĤķ
áĢ¬áĢ¸áĢŀ áĢĬáĢº
ĠáŁ¢áŁłáŁ¡áŁ §
áŀł áŁĴáŀĤ
¥à¸ ±à¸
Ġh Ãłng
Ġpres yo
Ġpagb aba
Ġà»ģàºķ à»Īàº
Ġparasit es
Ġm e
er o
åĽ ¾
à¸Ńà¸ ±à¸Ļà¸
áŀ¶áŀĵ áŁħ
à®¸ à¯į
ĠàºĪ àº³
i f
Ġt alaga
Ġb alat
Ġis a
ĠáŀĶáŁĴáŀļáŀ »áŀŁ
ĠáŀĢáŀ¸áŀ¡ áŀ¶áŀĢáŀļ
à¹Ĩ à¸
«à¸ §à¸
å® ¢
àº» à»Īàºĩàº
áŁģ áŀ¸
áŀĵáŁĦáŁĩ áŀĳáŁģ
Ġà¹ģà¸Īà¸ ģ
à¹Īà¸²à¸ §
Ġtr Ãªn
ul t
ĠáŀŁ áŀıáŁĴáŀľ
Ġà®ª à®°
æĬ ¥
Ġàºķ àº²àº¡
ĠàºĦ àº°àºĻàº°
àº±àºļ àºĽ
áŀĲ áŁĥ
ĠáŁ¡áŁ ¨
áŀĸ áŀ·áŀĴáŀ¸
áŀĶáŀ» áŀļáŀŁ
ĠáŀĶ áŀĢáŁĴáŀŁ
à¸Ńà¸Ńà¸Ļà¹Ħà¸¥ à¸Ļà¹Įà¸
¢à¸ ±à¸ĩ
à»ģàºľ àºĻàº
ĠáŀĶ áŀ¸
in d
è®¡ åĪĴ
« àº²
Ġáŀħ áŀ¶áŁĨ
Ġæ µ
à®¾à®³ à¯į
åĲ į
ay o
Ħ àº¸à»īàº¡àºĦ
áŀļáŀĸ áŁģáŀĳáŁĴáŀĻ
áŀģ áŀ¶áŀı
à¹Ħà¸Ķà¹ī à¸£à¸±à¸ļà¸
àº· à»īàºĻ
áŀ¹ áŀĶ
áŁĲ áŀļ
à¯ģà® ªà¯į
Ġkan ilang
Ĺ àº²àºĻ
à»ģàº Ľ
áŁĴáŀļáŀ¾áŀŁ áŀļáŀ¾áŀŁ
áŀ¢ áŀ¶áŀľáŀ»
áŀ¶áŀĻ áŀŁ
±áĢĶ áģ¾áĢĢ
áĢĳ áĢ±áĢ¬áĢĦáĢº
Ġnh iá»ģu
Ġáŀĺ áŁĴáŀĬ
áŀĳ áŀŁáŁĴáŀŁáŀĵ
æľ Ł
ĠáŀŁ áŁĴáŀĬ
Ġáŀĩ áŀ¸áŀľáŀ·áŀı
à® ŀà¯įà®ļ
áŀŁ áŁĢáŀĺáŀļáŀ¶áŀĶ
áŀĶ áŀ»áŀĢ
ģáĢ» áĢ¯áĢķáĢº
à¹īà¸ ĩ
áŀĤ áŁĴáŀļáŀ¶áŀĵáŁĭ
àºķ àº´
Ġáŀĸ áŁĴáŀļáŀ¹
áĢĽáĢŃ áĢŀ
· à¸Ńà¸ĩ
Ġt idak
áĤĪ áĢķáĢ¹áĢ
áĢ¬áĢ¸áĢĻ áĢ»
e ar
Ġt ung
ĠáŀĶ áŀĦ
Ġáŀĳ áŀŁáŁĴáŀŁáŀĵ
áŀĢáŁĴáŀļ áŁħ
Ġç ļĦ
à®° à¯ģà®®à¯į
àºĩ àº²àºĻ
ĠáŀĹ áŁĴáŀīáŁĢáŀľ
lo ad
Ġáŀħ áŁĤáŀĢ
p er
áŀŁ áŁĴáŀĤáŀ¶áŀĽáŁĭ
à¸Ńà¸ ¸à¸
áŀŁ áŀıáŁĴáŀľ
Ġw h
Ġb ilang
à®¿à®ķ à¯į
Ġà»ģàºĤ àº§àºĩ
Ġàºļ àº±àºĻàºĶ
Ġà¸ ľà¸¹à¹īà¸
Ġl áº¡i
áŀĤ áŁĴáŀļ
Ġàºģàº ±àºĻ
Ġàº Ł
æ ģ
ĠáŀĴ áŁĴáŀĽáŀ¶áŀĶáŁĭ
à» Į
áĢĲ áĢĢáĢ¬
Ġáŀ¢áŁĨáŀĸ áŀ¾
áŀĺáŀ½áŀĻ áŀħáŁĨáŀĵáŀ½áŀĵ
Ġ áĢ¹
áģ¾áĢĢ áĢ¬áĢ¸
áĢĲáĢ½ áĢ±áĢĢ
áĢĻ áĢŁáĢ¯áĢĲáĢ¹áĢ
¡ áĢĲáĢ¼áĢĦáĢ¹áĢ¸
ĻáĢº áĢ¬áĢ¸áĢ
ĠáĢĲ áĢķáĢ¹áĢĻ
áĢĻ áĢ®
à¸²à¸ ģà¸
áŀħ áŁĤáŀĢ
áŀ·áŀīáŁĴáŀħ áŀ¹áŀĺ
áŁĨáŀ¡ áŀ»áŀĦ
¸ à¸Ļà¸
s i
åħ ³
à®¿à®¯ à¯ģà®®à¯į
áŀ¢ áŁĬ
¢ à¸´à¸ĩà¸
u ga
ªà¸´à¸Ļà¸Ħ à¹īà¸²
áĢ±áĢķ áĢ¸
ģáĢº áĢ³áĢķáĢ¹
ģáĢ¶ áĢĽ
«à¸ §à¸±à¸
áŀŁ áŀĦáŁĴáŀĥ
ĠáĢķ áĢĲáĢ¹áĢŀ
ĠáĢĶ áĢ¬
Ãł o
áŀĽ áŁĤáŀĦ
ª à¹Įà¸
áĢ±áĢ »áĢķ
l ine
áĢĢ áĢ±áĢĽ
áĢ¡ áĢĢáĢº
áŀĽ áŀ»áŀĻ
Ġç »
ĠáŀĶáŁĴáŀļáŀĴáŀ¶áŀĵ áŀ¶áŀĴáŀ·áŀĶáŀıáŀ¸
áŁĴáŀĸ áŀ¶áŀĵ
ĠáĢĢ áĢľ
áŀĬ áŁĨáŀĶáŀĦ
ĸà¸ ¹à¸ģ
ĠáŀĬ áŀ¹áŀĢáŀĵáŀ¶áŁĨ
ĠJ ul
áŁĴáŀ Ĺ
àº±àºļàºªàº´àºĻàº ĤàºŃàºĩàº
Ħ à»īàº²
Ġà®ļ à®®
àº°àºŀ àº²
à¹ Ħà¸£à¸
áŀļ áŁĢáŀĶáŀħáŁĨ
áĢĻ áģ¼
áĢ¯áĢ¶áĢ¸áĢ ķáĢ¼áĢ¯
Ġå ¼
áŀģ áŁĴáŀĽ
àº°àº ķàº´
ĠàºĹ àº³
áŀĶ áŀİáŁĴáŀıáŀ¶áŀĽ
Ġàº¥ àº±àºĶàºĸ
à»Ģàºĩàº´ àºĻ
Ġà¹Ģà¸¥ à¹Īà¸Ļà¸
Ġ2 1
Ġpan tip
ĺà¸ ¸
áŀİ áŀ¸
åĳ ĺ
àºĹ àº»àºļ
Ķà¸ ³
áŀĢ áŀ¶áŀĻ
à®ķà¯įà®ķ à¯ģ
áŀ¢ áŀ¶áŀĵ
ĠáŀŁáŀĺ áŁĴáŀĽáŀ¶áŀĶáŁĭ
ĠáŀĶ áŁĦáŁĩáŀĨáŁĴáŀĵáŁĦáŀı
ĠáŀĨáŁĴáŀĵáŀ¶áŁĨáŁ¢áŁłáŁ¡áŁ ¨
áŁĴáŀļáŀ½ áŀŁáŀ¶áŀļáŀ
Ġà»ĢàºĤ àº»à»īàº²
áŁĨáŀİ áŀ¾áŀı
Ġb at
Ġàºģ à»Īàº²àº§
áº· t
Ķ áĢ¾áĢĦáĢ·áĢº
r t
à¸Ļà¸µ à¸
Ġáŀĸ áŀ·áŀĵáŀ·áŀıáŁĴáŀĻ
à»į à»īàº¡
áŀĢáŀ¶áŀļáŀ Ħáŀ¶áŀļ
áŀ»áŀĺ áŀ¶áŀļ
Ġà®¨ à®¾à®©à¯į
é ¾Ļ
áŀ¶áŀĩ áŀ¶áŀıáŀ·
Ġà®¤ à®©
ĠáŀĤ áŁĴáŀļáŀ¶áŀĶáŁĭ
å¾ Ĺ
à»ģàº«à»Īàºĩàº Ĭàº²àºĶ
ĠáŀĢ áŁĨáŀİáŀıáŁĭ
Ġe x
w in
àº½ àº¡
áŀĮ áŀ¸
Ġt um
ĠáŀŁ áŀĺáŁĴáŀĶ
ĠáŀĬ áŁĨáŀĶáŀ¼áŀĦ
à¹Ĥà¸ ¢à¸
áģĢ áĢĦáĢ¹
áĢķ áĢ°
àº¹ àºĩ
áŁĴáŀĢ áŀ¶áŀıáŁĭ
áĢ»áĢķ áĢ®
áĢģáĢ¶ áĢĽ
áŁĦ áŀĴáŀ¶
áŀĻ áŀĶáŁĭ
Ì ģ
áº¥ p
Ġà»Ĥ àºĦ
à¸² à¸£à¸²à¸
Ġàºª àº²
áŀĶ áŁĴáŀļáŀ¶áŀĶáŁĭ
Ġà®ħà®¤ à®¿à®ķ
à»ĪàºŃ àºĩ
ĠáĢķáĢ« áĢĲáĢ®
áĢĻáĢ¬áĢĶ áĢŃáĢ¯áĢĦáĢºáĢĦáĢ¶
áĢ¸ áĢ¸
áĢ±áĢĶ áĢ¬áĢ¹
ĠáĢŀáĢ° áĢĢ
áŀ¶áŀĸ áŁģáŀĽ
ĠR ep
áĢķ áĢŃáĢ¯áĢĦáĢºáĢ¸áĢ
à»Ģàºĸ àº´àºĩ
ª à¹Īà¸ĩà¸
is h
ĠáŀĶáŀ¶áŀĵ áŀĴáŁĴáŀľáŀ¾
i z
us ay
ĠãĢ ĳ
Ġä¸ į
Ġáŀĳ áŁĨáŀĸáŁĲ
Ġáŀģ áŁĴáŀĽ
Ġkat awan
ĠKh mer
áŀĺ áŁĴáŀļáŀ¾
Ġáŀľ áŁģáŀĽ
T O
Ġáŀ ±
áŁĴáŀļáŀ½áŀı áŀĸáŀ·áŀĵáŀ·áŀıáŁĴáŀĻ
à¹Īà¸ ¡à¹Ģà¸
ilang an
áŀķáŁĴáŀŁ áŀ¶áŀļ
à»Ģàº¥ àº·àºŃ
ç ¬
áŀ·áŀĵ áŁĴáŀĳ
áŀ§ áŀĶ
Ħà¸ §
áŁĲáŀı áŁĴáŀĵ
áŀħáŁģáŀī áŀĸáŀ¸
iá»ĩ c
àº²àº ¥àº°
áĢĶáĢ¹áĢ ħ
±áĢ Ĵ
ĠáģĤáģĢ áģĢ
ont ent
Ġáŀľáŀ· áŀĴáŀ¸
à®¾à®¤ à¯ģ
Ġáŀļáŀ Ľ
Ĺ à¹Į
ĠáŀĶ áŀĦáŁĭ
pa da
áĢħ áĢ¼áĢ¬
áĢĢáĢ¼ áĢĬáĢº
áŀĽ áŁģáŀĦ
Ġà»Ģàº ļ
ĵà¸ °à¸
æľ ¬
à¯ģà®ķà¯įà®ķ à¯ģà®®à¯į
Ġpag t
ĠàºŃ àº²
áŀŁáŁĴáŀŁ áŀĵáŁį
àºļ à»į
áĢ½áĢº áĢ¬áĢĢáĢ¹áĢ
áĢĲ áĢĦáĢ¹
áĢĦ áĢ«
Ġv ar
à»Ģàº® àº»
áĢĢ áĢ²áĢ·
áŀĺáŀĢ áŀļáŀ¶
àºĻàº± à»īàºĻàº
áŀħ áŀĽ
Ġà®Ĩ à®ķ
Ġáŀ¢ áŁģ
áĢĻáĢ¹áĢ ĺáĢ¬
à¹ī à¸Ńà¹Ģà¸
k i
áŀ¶áŀĤ áŀĺ
ĠáŀĪ áŁĴáŀĵáŁĩ
Ġà¸Ķà¸ ¹
ĠáŀģáŁĤ áŀŁáŀ¸áŀł
à¸£à¸ ĸà¸
éĹ ´
Ł áŀ¶áŀĵáŁĴáŀı
àº¸ àºĩ
o od
na n
àº²àºĬ àº»àºĻ
ĠáŀĶ áŁĬáŀ»áŀĵ
áŀľ áŀ¶áŀĻ
áº »
Ġà»Ģàº¡ àº·à»ĪàºŃ
áŀĢáŀ¶áŀļáŀ Ľ
áŀĢáŀ¶áŀļáŀ ı
Ġà¹Ģà¸ Ħà¸£à¸·à¹Īà¸Ńà¸ĩà¸
Ġáŀļ áŁĢáŀĵ
y m
à¸Ńà¸²à¸« à¸²à¸£
v e
Ġáŀĺáŀ·áŀĵ áŀĺáŁĤáŀĵ
Ġáŀĳáŀĳáŀ½áŀĽ áŀĶáŀ¶áŀĵ
àºĦ àº»àºĻàº
ra s
ĠáĢħ áĢ®áĢĻ
áĢ±áĢĲáĢ¬ áĢĦáĢ¹
áĢ°áĢ¸áĢ ħ
à¸µ à¸Ļ
à®¾à®¯ à¯į
Ġa re
ĠT ag
áŀĹ áŁħ
ªà¸³à¸« à¸£à¸±à¸ļ
áŀĶ áŀ¶áŀħáŁĭ
åħ¬ åı¸
Ġà®ķ à®Łà¯įà®Ł
±áĢķáĢ« áĢ·
áĢĲ áĢŃáĢ¯áĤķ
ĠáĢļ áĢĦáĢ¹áĢ¸
Ġ' '
ĠáĢŀ áĢĲ
Ĥà¸¶ à¹īà¸Ļà¸
ĠÄĳ áº§u
áŀĩ áŀ¸
áŀ¶áŀĴáŀ·áŀĶ áŀıáŁģáŀĻáŁĴáŀĻ
ĠáŀŁ áŀļáŀ»áŀĶ
ĠáĢĲáĢĽ áĢ¯áĢĲáĢº
áŀĶáŁĴáŀļáŀ ĸáŁĲáŀĵáŁĴáŀĴáŀ
Ġáŀĵ áŀ¶áŀĻ
àº· àºļ
áŀļáŀ¶áŀĩ áŀĴáŀ¶áŀĵáŀ¸
áŀı áŀ·áŀħ
áĢĿ áĢĦáĢ¹
ĠáĢľ áĢĬáĢ¹áĢ¸
ĠáĢĨ áĢĢáĢ¹áĢ
ĠáĢĽáĢĶáĢ¹áĢĢ áĢ¯áĢĶáĢ¹
áĢķáĢ¹áĢ Ĳ
ľ áĢŃáĢ¯
áĢ¬áĢ¸áĢĶ áĢ¾áĢĦáĢ·áĢº
ag itan
Īàº±àºĶàºķ àº±à»īàºĩàº
ç ´
ĠàºĹ àº±àºĩ
áŀ¾áŀĵ áŀ¡áŀ¾áŀĦ
ĠàºĦ àº³
Ġáŀļ áŁĢáŀĽ
Ġáŀı áŁģ
ĠáŀĢáŀĺáŁĴáŀĺ áŀĢáŀļ
Ġáŀĵ áŀ¶áŀĳáŀ¸
à»Ħàº§ à»ī
ĠáŀĽ áŁĴáŀĦáŀ¶áŀħ
ĠáŀļáŀĶ áŀ½áŀŁ
ĠCam bodia
áŁĴáŀļ áŀ¶áŀĺ
¥à¸·à¸Ńà¸ ģà¸
éĩ Į
in k
Ġpagpapa laki
ĠK a
à»Ģàºĸ àº´àºĩàº
Ġà®ļà¯Ĭ à®²à¯įà®²
Ġà¹Ģà¸ Ľ
à¹Ģà¸£à¸µà¸ ¢à¸Ļ
à®¤ à¯Ī
áŀĲ áŁĴáŀĽáŁĤáŀĦ
ala n
áŀĬáŀ¼áŀħ áŀĩáŀ¶
áŀĢáŀ¶áŀļáŀ ĬáŁĴáŀĭáŀ¶áŀĵ
ĸ áŀŁáŁĭ
áŀĶáŁĴáŀı áŀ¶áŀłáŁį
Ġn Ã³
¥à¹ĩà¸Ńà¸ ķà¸
Ġà¸Ĺà¸ ³
áŀħ áŁĦáŀĽ
à»ĢàºĤ àº»à»īàº²àº
áŀ· áŀĩáŀĵ
Ġal is
ĠáŀĶ áŀ¶áŀļáŀ¶áŁĨáŀĦ
u ro
à®¾à®± à¯įà®±
à¸£à¸§à¸ Īà¸
áŁĴáŀĺ áŀ½áŀī
áŀľáŀ·áŀĳáŁĴáŀĻ áŀ¶
áŀľ áŀ¶
Ġàº¥ àº±àºļ
àº¥ àº²àº§
Ļ áĢ°
áĢĻáģ ¸
Ġ áĤıáĢ½
áģ¾áĢĢ áĢķáĢ«áĢĲáĢļáĢ¹
Ġáģı áģĬ
ĠáĢ¡ áģ¾áĢĢ
áĢĲáĢ¬ áĢĢ
áĢĤ áĢº
Ġà»Ģàº® àº»àº²
àºŃ àºĶàº
áŀĤ áŀİáŁĪ
áŀ¼áŀļáŁī áŁģ
Ġl o
ĠáŀĢ áŁĴáŀĶ
Ġáģģáģ Ī
ĠK H
áŀĺáŁĴáŀ ĸ
à¹Ĥà¸£à¸ Ħà¸
áŀĸ áŁģáŀĳáŁĴáŀĻ
áŀ¶áŀł áŀ¶áŀĵ
Ġ áĤĢáĢĢ
áĢ¸áĢŀ áĢ°
ļà¸ ¸à¸
áĢ±áĢĶ áĢĲáĢ²áĢ·
ĠáĢĲ áĢĬáĢ¹áĢ
áĢĲ áĢŃáĢ¯
àº¥ àº±àºļ
Ġáŀķ áŁĴáŀ¢
áŀĬ áŀĦ
à¯įà® ¨
± à¹īà¸Ļà¸
Ġpagk atapos
áŀ»áŀĳáŁĴáŀĴáŀ Ł
áŀ¶áŀĶ áŀ¶áŀĵ
æŃ £
Ġit u
áĢĢáĢ±áĢĽ áĢħáĢ®
áĢ· áĢľáĢ¬
ĠáĢģ áĢ²áĢ·
ĠáĢ¡ áĢ®
Ġk um
à¹īà¸ ³à¸
à®µ à¯ģ
ĠáŀŁáŀĺáŁĴáŀĬ áŁģáŀħ
ĠáŀŁ áŀ¼
ĠUnivers ity
áŀŁ áŀ¶áŀĢ
Ħ à¹Į
áĢħ áĢ¬áĢ¸áĢŀ
áŀĽáŁĴáŀĶ áŁĪ
à¹ĥà¸«à¹ī à¹Ģà¸
Ġà»Ģàº «
dag an
ĠáŀŁ áŁĴáŀļáŀĶ
ļ à»įà»Ī
ĠáŀĶáŁĴáŀļáŀł áŁĤáŀĽ
Ġpamam agitan
çŃ ī
áĢ¹áĢ Ģ
w w
ĠáĢħ áĢ®
¡ à¸´à¸
à»ģàºķ à»Ī
áŀħáŁĨáŀİ áŀ»áŀħ
ĠáŁ¢ áŁłáŁł
ĠáŀĽ áŀ»áŀĻ
Ġáŀĳ áŀ¼áŀļáŀŁáŁĲáŀĸáŁĴáŀĳ
áº£ o
ĠáĢħ áĢ¬áĢ¸áĢ
áĢ¯áĢĶáĢ¹áĢ¸ áĢĢ
ŀáĢ¼ áĢļáĢ¹áĢ
ŀ áĢ¬áĢ¸
ĠáŀĨáŁĴáŀĵáŀ¶áŁĨáŁ¢áŁłáŁ¡áŁ ©
áŀļáŀ ¼
áĢ¥ áĢķ
à®Ł à¯ģ
ĠáĢ¡ áĢĽáĢ¬
çł ģ
Ġl um
áŀı áŀ¼áŀħ
Ġà®ķà¯Ĥ à®±
Ġà»ĥ àºĬà»ī
à¹ĥà¸ ª
ç ©
u a
Ġà¹Ĥà¸Ķà¸ ¢
ĠáŁ¡áŁ ¡
áŀŁ áŁĤáŀĵ
Ġàºª àºĽ
à»ľ à»īàº²
áĢ¡áĢħ áĢĬáĢ¹áĢ¸
ĠáĢĻáĢ¼áĢĶáĢº áĢĻáĢ¬áĢĶáĢŃáĢ¯áĢĦáĢºáĢĦáĢ¶
ĠáĢĲáĢ½ áĢ±áĢ·
áŀŁ áŀĵáŁĴáŀı
áŀĶáŀīáŁĴáŀĩáŀ¶áŀĢáŁĭ áŀĲáŀ¶
áŀ²áŁĴáŀĻ áŀĬáŀ¹áŀĦáŀĲáŀ¶
áŁĴáŀī áŀ¶áŀĢáŁĭ
áŀļáŀĦ áŁĴáŀľáŀ¶áŀĵáŁĭ
¢à¸ §
áŀĺáŁī áŁĦáŀĦ
à»Ĥ àº®
Ġa c
Ġmali it
ĠáĢĲ áĢ²áĢ·
ĠáĢ±áĢĽ áĢ¼áĢ¸áĢ
áģĢ áĢĶáĢ¹áĢ
**** ****
ĠáĢľ áĢŃáĢ¯áĢĢáĢ¹áĢ
ĠáĢ±áĢĶ áĤĶ
áĢľáĢŃáĢ¯ áĤķ
áĢķ áĢŃáĢ¯áĢĦáĢ¹áĢ¸
áĢĻ áĢ²áĢ·
áĢķáĢ¼ áĢ®
ga wa
áĢĢáĢ¹áĢ ĻáĤĪ
áĢ¬áĢ¸áĢĻ áĢ½
Ġw ww
áĢŃáĢ¯áĢ¸áĢ ħ
àº¡ àº²
à¹Īà¸²à¸ ªà¸¸à¸Ķ
¨à¸ ±à¸
áŀ»áŀĳ áŁĴáŀļ
Ġà®µà®¾à® ´
áĢĦ áĢĶáĢº
à®¿à®² à¯ģà®®à¯į
ĠáŁł áŁłáŁł
ĠáŀĽ áŁģáŀĦ
ĠáŀĤáŀİáŁĪ áŀĢáŀĺáŁĴáŀĺ
Ľ àº°
E M
ĠâĢĭ- âĢĭ
ĠáŀĢáŁĴáŀĵáŀ»áŀĦ áŀĵáŁĦáŁĩ
áŁĴáŀļáŀ¡ áŀ¶áŀīáŁĭ
æµ ·
g e
áŀĸ áŀ·
Ķ áĢ¬
Ġc ream
Ġngay on
ĠáŀĻ áŁī
áĢ¸áĢ ĳ
Ġ2 3
à¸´à¹Ģà¸ ¨à¸
áŀĺ áŁĴáŀļáŀĦáŁĭ
Ġgi Ã¡
¶à¸ ĩà¸
±áĢĢáĢº áĢ¬áĢ¹áĢ
áĢ¼ áĢ¸
áĢ±áĢ ģáĢº
ĠáĢĶ áĢ²áĢ·
áĢĶáĢ¹áĢ Ĵ
à»Ħàº¥ àºį
áŀı áŁĤáŀĦ
ah ah
Ġtung kol
áŀ¼ áŀ¡
áĢĢáĢŃáĢ¯ áĢļáĢº
ç Ŀ
à»Ģàº ľ
à¯ģà®³à¯įà®³ à®¤à¯ģ
á» ĩ
áŀ·áŀŁ áŁĦ
own load
ab ang
Ġs em
áģ¾áĢĢ áĢŀáĢĬáĢ¹
ĠáĢķ áĢ°áĢ¸áĢ
Ħ à¹Įà¸
àºĩàº ģàº²àºĻàº
áĢľ áĢ¬áĢ¸áĢ
áĢķáĢº áĢĻ
áŀ¶áŀŁ áŀĵáŀ¶
àº°àºŀàº±àºĻ à»ģàº¡à»Īàºį
µ àºļ
»áĢĸ áĢĲáĢ¹áĢ
áĢķ áĢĦáĢ¹
áĢĨ áĢ¯áĢ¶áĢ¸
áŀ¢ áŀĴáŀ·
Ġáŀļ áŁĢáŀĶ
Ľ àº»àºģàº
ĠáŀĻ áŀĵáŁĴáŀı
áº ¹
áĢĢáĢ¹áĢ ĢáĢŃáĢ¯
áĢĢ áĢ¯áĢĶáĢ¹áĢ
áĢĢáĢº áĢĽ
Ġàºª à»īàº²àºĩ
à¸Ļà¹īà¸ ³
ĠáŀĺáŀĢ áŀļáŀ¶
ĠáŀĶ áŀ»áŀĢ
à»ī àº²àº§
Ġáŀĩ áŀ¸
Ġth at
áŀľáŀ· áŀĽ
áĢ±áĢ »áĢķáĢ¬áĢĦáĢ¹áĢ¸
ĠáĢĽ áĢĶáĢº
à®¤à¯įà®¤ à®¿à®©à¯į
æ³¨ åĨĮ
æ° ´
áŀļ áŀ¶áŀĦ
áĢĿ áĢĶáĢ¹áĢ
áĢĻáģ¸ áĢıáĢ®
áĤı áĢŃáĢ¯áĢĦáĢ¹
áĢŀ áĢĶáĢ¬
Ã Ĳ
Ġch á»ī
áĢĲáĢħáĢº áĢģáĢ¯
àºĽ àº°àºª
ŀà¸ ·à¹īà¸Ļà¸
ĠAn o
ot o
áŀĳ áŀ¼áŀı
áŀĬ áŁĨáŀĶáŀ¼áŀĦ
àº°àº« àºį
ľ àº°àº¥
ide o
al l
å¤ ĸ
Ġmaa aring
Ġà»Ĥ àº®
áŀĤ áŁģáŀħ
Ġà¸Ķà¸ ¹à¸
à¹Ĥ à¸Ńà¸
Ġáŀķ áŁĤáŀĵ
à»Ĥ àºį
à»Ģàºª àºį
ĠáĢĽáĢĶáĢ¹áĢĢ áĢ¯áĢĶáĢ¹áĢ
ĠáĢĢáĢº áĢĻ
áĢĸ áĢ°áĢ¸áĢ
ħ áĢ®áĢ¸áĢ
ĠáŀĶáŁĴáŀļáŀ ĸáŁĲáŀĵáŁĴáŀĴ
ĠáĢŀáĢ° áĢ·
ĠáŀģáŁĴáŀŁ áŁĤ
Ġà®ī à®£
ĠáĢŀ áĢĲáĢ¹áĢ
áĢĳ áĢ¯áĢĲáĢ¹áĢ
ĠáĢĻ áĢ²
ĠP re
áŀĳ áŀ¼áŀļáŀŁáŁĲáŀĸáŁĴáŀĳ
Ġà¸£à¸µà¸§à¸´à¸ §
à¹Ģ à¸Ń
ĠáĢ¥áĢķ áĢ±áĢĴ
áĢ¼áĢ¸áĢ±áĤı áĢ¼áĢ¸áĢ
áĢ±áĢĢáĢº áĢ¬áĢĦáĢ¹áĢ¸
áĢ±áĢ ģáģļ
áĢ¡ áĢķáĢº
áŀĢáŀ¶áŀĵáŁĭ áŀıáŁĤ
çľ ĭ
u kan
Ġ5 0
à¸£à¸µ à¹Ģà¸
į à¸²
àº± à»ĪàºĻ
Ã Ĭ
Ġnh áº¥t
«à¸ ķà¸
áŀ ĭ
ĠáŀŁáŀ· áŀŁáŁĴáŀŁ
Ġáŀı áŀ¼áŀħ
à»ĢàºĬ àº·à»ĪàºŃ
Ġáŀħ áŀ¶áŀĵáŁĭ
áŁĦáŀĦ áŀħ
áŀ» áŁĨáŀĸ
åº ¦
áŀ¶áŀľ áŀĵáŀ¶áŀľ
áŀ¶áŀļáŀ ¢
am ina
ĠM ag
ĠáŀĢáŀ¶áŀļáŀ ¢
à¯Ĩ à®¯
Ġàº§ àº±àºĻ
ĠI s
áĢľ áĢ¯áĢ¶
Ġ) áŁĶ
Ħ à¹īà¸²à¸
à»ĢàºĤ àºĶ
«à¸¡à¸ Ķ
áĢħ áĢ¥áĢ¹
áĢĦáĢ¹áĢ ķ
âĢ¦ âĢ¦
áĢ¡ áĢĲ
Ġà¸ªà¸ Ķ
à¹Ĥà¸Ķà¸ ¢
ula d
àº²àºģàº »
ľ áĢĻáĢ¹áĢ¸
ĠáĢĽáĢĢáĢº áĢĶáĢ±áĢ·
à®° à¯Ī
Ġà»Ģàºĸ àº´àºĩ
al ik
æĬ Ģ
áŁĴáŀļáŀ Ĭ
áĢľáĢ½áĢº áĢĦáĢ¹
áĢŃáĢ³ áĢ¸
áĢĦáĢ¹áĢ ĲáĢ¬
áĢ±áĢŀ áĢ¸áĢ
Ł áĢ¬áĢĦáĢ¹áĢ¸
áĢĲáĢ²áĢ·áĢ¡ áĢģáĢ«
áĢĦáĢºáĢ¸áĢ ħ
ç Ħ
Ġb á»ĭ
áŀŁáŁģ áŀĵáŀ¸áŀĻáŁį
ªà¸ ¡
áŀŁ áŀĢáŀĺáŁĴáŀĺáŀĹáŀ¶áŀĸ
Ġpa la
à¯ģà®ķ à®¿à®±
áĢ¬áĢ¸áĢŀ áĢ°
u at
áŀĶáŁĴáŀļáŀ ħáŀ¶áŁĨ
àºĹ àº°àºį
áĢľ áĢ±áĢ¬áĢĢáĢº
áŀĶ áŁĴáŀĬ
Ħ à¹īà¸²
áĢħ áĢ¬áĢ¸áĢĽ
à¸Ļ à¸²
áŀıáŀ· áŀĲ
áŀº áŀĺáŁī
Ġd ito
à®¾à® ľ
Ķ áĢŃáĢ¯áĢĦáĢº
éĢ ļ
àºĶà»ī àº²àºĻàº
Ġà®® à®ķà¯įà®ķ
Ġlab an
áŀĶ áŀĬáŁĦáŀĻ
áŀĲáŁĴáŀĦáŁĥáŀĳáŀ¸ áŁ¡áŁ
ĠáŀģáŁĤáŀĢ áŀĢáŁĴáŀĢáŀĬáŀ¶
áŀ¶áŀķ áŁĴáŀĳ
Ġà¸Ħ à¸²à¸ªà¸´à¹Ĥà¸Ļ
Ġ0 8
à¹Ħà¸ Łà¸
Ĥ áŀĽáŁĭ
ĠáŀĤ áŀ¶áŁĨáŀĳáŁĴáŀļ
áŀĽ áŀ¶áŀŁáŁĭ
ĠáĢ¡áĢŀ áĢĢáĢ¹
áĢĢáĢ¹ áĤıáĢ½áĢ¬
ĠáĢ±áĢ »áĢķáĢ¬áĢĦáĢ¹áĢ¸
áĢĢ áĢ±áĢ¬áĢĦáĢºáĢ¸áĢ
áŀħ áŁĴáŀĶáŀ¶áŀŁáŁĭ
àº° à»ģ
«à¹ĩ à¸Ļà¸
E N
Ġ) ,
áŀħ áŀ¶áŀıáŁĭ
Ġáŀł áŁĴáŀĤ
ĠA t
m ing
Ġà® Ĭ
ĠáĢ¥ áĢ®áĢ¸
áĢ»áĢĸáĢħáĢ¹áĢ ŀáĢĬáĢ¹
ĠáĢĢáĢ¼ áĢº
áĢľ áĢ¯áĢ¶áĢ¸áĢ
ģà¸ ¤à¸
Ġg um
Ġáŀĺ áŀĵ
ĠJul y
áŀĵ áŀ¶áŀĤ
g i
áĢĽ áĢķáĢ«áĢĲáĢļáĢ¹
áĢ±áĢĲáĢ¼ áĤĶ
Ġáģģáģ ĥ
áŀħ áŀĺ
Ġáģ ¾
ĠáĢĢáĢº áĢĶáĢ¹áĢ¸áĢĻáĢ¬
ĠáĢ¡áĢħ áĢ®
æ¬ ¾
Ġáŀĸ áŀ·
Ġà® ¹
ä¿ Ŀ
Ġáŀ¢ áŀĴáŀ·
à¹Ģà¸£à¸ ·à¹Īà¸Ńà¸ĩà¸
Ġh ave
áŀĦáŁĴáŀ ģ
ĠÄĳá» ĵ
áŀ¶áŀļ áŁĪ
ĠA g
áŁĨáŀķ áŁĴáŀĽ
Ĺ àº³
áĢı áĢ¬
ĠáŀĲ áŁĤáŀĺ
áĢ¸áĢĽ áĢ¼áĢ¬
ĠáĢĢ áĢ¯áĢĶáĢ¹áĢ
áĢĢ áĢ¬áĢ¸
áĢ¼ áĢĶáĢ¹
áĢĢáĢ¹ áģ¿áĢķáĢ®áĢ¸
áĢ¾áĢĲáĢº áĢĲáĢ±áĢ¬áĢº
áŀıáŀ·áŀĲ áŀ·áŀĩáŀĵ
áĢĢáĢº áĢĦáĢ¹áĢ
áĢĢ áĢŃáĢħáģ¥
ĠáĢĲ áĢŃáĢ¯áĢĢáĢº
ĠáŁ¡áŁ £
ĠáŀŁ áŀļáŀŁ
k ar
à¹ĥà¸«à¸į à¹Ī
Ġáŀľ áŀ·áŀĵáŀ·áŀĻáŁĦáŀĤ
ĠáŀĸáŁĴáŀļáŁĩ áŀļáŀ¶áŀĩ
Ġáŀĸ áŀĽ
ĠáŀķáŁĴáŀŁ áŀ¶áŀĻ
æ į
ĠáŀĶáŁĴáŀļáŀŁáŀ·áŀĵ áŀĶáŀ¾
ĠàºĤ à»Īàº²àº§
à»īàº²àºŀàº°à»Ģàº Ī
à»ī àº²àº¡
Ä ©
áĢĺ áĢĢáĢº
à¸µà¸¢ à¸Ļ
à®¿à®¯ à¯Ī
áŀĺ áŀ·áŀī
áŀĶ áŁĨáŀİáŀĦ
Ġk er
Ġ Ð
Ġà¸ Ķ
å¿« 3
åį Ĺ
Ġáŀĵ áŀ¶áŀĵáŀ¶
Ġpina kam
Ġ( )
à»ĢàºŃ àºĩ
à¹īà¸Ńà¸ ¢à¸
Ġáŀ¢ áŀ¶áŀŁáŁĬáŀ¸
áŀĶáŁĴáŀļáŀĹ áŁģáŀĳ
ĠáŁ¢áŁłáŁ¡áŁ ¦
Ġáŀĸ áŀ·áŀĹáŀĸáŀĽáŁĦáŀĢ
ĠáĢ»áĢķáĢ³ áĢľáĢ¯áĢķáĢ¹áĢ
áĢ¶ áĤķ
áĢ¡ áĢŃáĢĻáĢ¹áĢ
ķ áĢ¼áĢ¬áĢ¸áĢ
ĠáĢ±áĢ ģáģļ
áĢĻáĢºáĢŃáĢ³ áĢ¸
áĢĢ áĢ½áĢļáĢº
è§ Ħ
à»Ģàºĩàº´ àºĻàº
à¯ģà®ķ à®¿à®±à®¤à¯ģ
ĠáŀģáŁĤáŀŁáŀ¸áŀł áŀ¶
áŀģáŀ¶áŀĦ áŀĽáŀ¾
ģáĢ²áĢ· áĢķáĢ«áĢĲáĢļáĢ¹
ĠPost ed
áĢĶáĢ¹áĢ¸ áĢĻ
áĢ¸áĢĽ áĢ¬
áĢ¬áĢ¸áĢ ĲáĢ²áĢ·
Ġp ost
áĢŃ áĤĪ
áĢĺáĢ¬ áĢŀáĢ¬
áŀ¶áŀŁ áŀ¶
àº»àºļ àº®
ĠàºĶ à»īàº§àºį
å £
r om
as an
Ãº ng
· à¸
ª à»īàº²àºĩ
ih in
áŁĨáŀİ áŁĤáŀĦ
ģáĢ¼ áĢĦáĢºáĢ¸
Ġáŀĩ áŀ¶áŀĬáŀ¾áŀĺ
áŀ¶áŀļáŀĸ áŁĲáŀıáŁĮáŀĺáŀ¶áŀĵ
ªà¸£à¹īà¸²à¸ ĩà¸
áŁĴáŀļáŀ ĩ
ª àº²àº¡àº²àºĶ
ula ng
åĲ Į
áŀŁáŁģáŀħáŀĢ áŁĴáŀıáŀ¸
áŀĬáŁĨáŀİáŀ¾ áŀļ
áĢ±áĢĲáĢ¼ áĢĶáĢ²áĤĶ
Ķ áĢ²áĤķ
Ġ áĢ¹áĢ
áĢŀ áĢĦáĢº
ŀà¸ ±à¸ģ
áŀ·áŀĵ áŁĴáŀĵ
ĠàºĻàº± à»īàºĻ
áŀ¶áŀĵ áŀ¸
à»Ģàº ķàºµ
er e
Ġma l
ĠáŀĶáŁĴáŀļ áŀ¶áŀŁáŀ¶áŀĳ
à®¿à® ³
Ġ X
ª à¸µà¸
ĠáŀĶ áŁĴáŀĽ
áĢŀ áĢ¯áĢ¶áĢ¸áĢ
ģà¸ ¡
Ġdá»¥ ng
áŁĲ áŀĢ
Ġ \
ªà¸ §à¸
é ©
áŀļáŀĶáŀŁáŁĭ áŀĽáŁĦáŀĢ
Ġgam ot
k at
áŀĻ áŁī
à¹īà¸ ĩà¸
ĠF eb
áĢģáĢ» áĢĦáĢº
áŀ¢áŀĵáŀ» áŀľáŀıáŁĴáŀı
àºĦ àºŃàºĻàº
áĢ ĥ
Ġáģģáģ Ħ
à¯ģà® ©
ĠáŀŁ áŁĴáŀıáŀ¸áŀĸáŀ¸
ĠáŀĻ áŀĶáŁĭ
¡à¸µà¸ ¢
ĠáŀĢ áŀĺáŁĴáŀļáŀ·áŀı
Ġà»Ģàº¡ àº·àºŃàºĩ
Ġ à¸£à¸²à¸Ħà¸²
à¸²à¸ ¡à¸
ĠáĢĢáĢº áĢĦáĢ¹áĢ¸áĢķ
áĢķáĢ¹áĢ ĸáĢ¼
áĢ¬áĢ¸áĢħ áĢ¼áĢ¬
ĳáĢ¬áĢ¸áĢ ĲáĢ¬
áĢ Į
áŀĶáŁĭáŀŁ áŁĴáŀĢáŀ¶áŀıáŁĭ
áŀĤ áŁĴáŀļáŀ¶áŀĶáŁĭ
à»ģàºĤ àº§àºĩ
Ġp ig
ĠáĢľ áĢ¼áĢĲáĢ¹áĢ
áģ¾áĢĢ áĢĬáĢ¹
áĢĳáĢ² áĢĢ
Ġpag la
ľ à»Īàº²àºĻàº
ĠáĢŀ áĢ¯
áŀĢáŀļ áŀ¶áŀĻ
áĢ±áĢĲáĢ¬ áĢĦáĢ¹áĢ¸
áĢ¡ áĢ±áģ¾áĢĢáĢ¬áĢĦáĢ¹áĢ¸
áĢ±áĢĳ áĢ¬áĢĢáĢ¹áĢ
±áĢĢáĢº áĢ¬áĢĦáĢ¹áĢ¸
ĠáĢĨ áĢĢáĢ¹áĢľ
áĢģáĢº áĢ³áĢķáĢ¹áĢ
áĢħ áĢ½áĢ¬
Ľà¸¥ à¸µà¹Īà¸
áŀ»áŀŁ áŁĴáŀıáŀ·áŁį
ĠáŁ¡áŁ ¦
Ġáŀļ áŀ¶áŀĶáŁĭ
ĠáŀĵáŁħ áŀĽáŀ¾
Ġà®ª à®£
àº°àºļ àº²àºĻ
ĠáŀĢ áŁĴáŀĶáŀ¶áŀĽ
àº§ àºĻ
ĠáŀŁ áŁĴáŀĶ
ĠáĢĢáĢ»áĢ½áĢĶáĢº áĢĲáĢ±áĢ¬áĢº
à¹Ĥà¸ Ľà¸£
Ġs á»±
è £
da h
ĠáŀŁ áŀ¶áŀħáŁĭ
áĢĶ áĢĢáĢ¹
áĢĲáĢ¹áĢ Ľ
ĠáĢ±áĢĶáĢ¬áĢĢáĢ¹áĢ Ĩ
ĠáĢ±áĢĢáĢº áĢ¬áĢ¹áĢ
ĠáĢ¡ áĢĸ
à¹īà¸²à¸ ĩ
à®¤ à®¾à®ķ
áŀģ áŁĨ
áŀ¼áŀĽ áŀ·áŀŁ
u an
¶ áŀıáŀ»
áĢĽ áĢķáĢº
à¸Ļà¸ ³à¸
ĠáŀĽáŀ¾ áŀŁ
Ġàº¡àº²àºĶàºķ àº²
« àºį
Ġáŀĩ áŀ·áŁĩ
è¿ Ĳ
Ġà¸ Ħà¸¸à¸ĵà¸
áŀľáŀ· áŀĢáŀ¶
áŀĬ áŀ»áŀĽáŁĴáŀĽáŀ¶áŀļ
¥ àº²àºį
áŀĢáŀ¶áŀĽ áŀĸáŀ¸
áĢ¼ áĢĦáĢ¹áĢ¸
ĠáĢ±áĢ»áĢķáĢ¬ áĢŀáĢĬáĢ¹
áĢ±áģ¾áĢĢ áĢ¬áĢĦáĢ·áĢ¹
áĢ±áĢľ áĢ¬
i es
Ġáģģáģ ģ
A R
Ġ us
áŀĢáŀ¶áŀļáŀ ľ
áŀ¶áŀĬ áŁĤáŀĽ
ent o
ĠáĢĽ áĢĢáĢ¹
ŀáĢ¼ áĢ¬áĢ¸
ĠáĢ»áĢĸáĢħáĢ¹áĢ ŀáĢĬáĢ¹
áĢģ áĢĦáĢ¹áĢ
Ĵ áĢ±áĢŀ
à¹īà¸Ńà¸ ¡
ĠáĢĺáĢ¬ áĢŀáĢ¬
âĢĭ áŁĶ
¶à¸ ģà¸
Ġçľ Ł
é ĵ
áĢĢ áĢľ
áŁĴáŀĵáŀ¶áŀĢáŁĭ áŀĦ
Ġf un
à»ĢàºĬ àº·à»īàºŃ
A T
u al
i ka
áŀŁ áŁĴáŀħ
áĢ¬áĢĽ áĢ½
ĠáĢģ áĢĽ
æ ¡
áŀĤ áŀĺáŁĴáŀļáŁĦáŀĦ
àº¹ àºĩàº
áŀ· áŀĬáŁĴáŀĭ
ĠáĢĻáĢ¼ áĢŃáĢ¯áĢ·
Ġà¸ «à¸£à¸·à¸Ńà¸
Ġà®ħ à®´
ĠáŀĹ áŁĴáŀĵáŁĨ
Ġla mang
ä½ į
Ġáŀ§ áŀŁáŀĹáŀ¶
Ġáŀ¢ áŀĵáŁĴáŀı
à»Ģàº§àº¥ àº²àº
ĠF acebook
áŀļ áŀ¶áŀİ
Ĭà¸ ±à¸
áĤĨ áĢĶáĢ¬
ĠáĢ¡ áĢĲáĢ¼áĢĦáĢ¹áĢ¸
áĤĲ áĢ¶áĢ¯
áĢĺ áĢ±áĢ¬
Ġn Äĥm
áŀ¶áŀļáŀĺ áŁĴáŀĹ
ŀ à¸´à¹Ģà¸¨à¸
Ġ$ (
à¹ģà¸ ªà¸Ķà¸
ĠáŀĽ áŀĳáŁĴáŀĴáŀķáŀĽ
áŀŁáŀ¶áŀļáŀ ĸ
l et
áŀĢáŀ¾áŀı áŀłáŁģáŀıáŀ»
áŀĳ áŁĴáŀļáŀĸáŁĴáŀĻ
±áģ¾áĢĢ áĢ¬áĢĦáĢ¹áĢ·
~ ~
áĢĨ áĢĢáĢº
áŀ¶áŀĦ áŀŁáŀĦáŁĭ
ĠâĢĭ (
Ġà®¤ à®¾à®©à¯į
Ġu p
Ġáŀıáŀ¶áŀļ áŀ¶
Ġb aba
Ġc on
Ġáŀ¢ áŀīáŁĴáŀĩáŀ¾áŀī
áŁĴáŀĽáŀ¶áŀŁáŁĭ áŀĶáŁĴáŀı
éĩ į
pa s
Ġ à¸£à¸²à¸Ħà¸²à¸
à¸µà¸¢à¸ ĩà¸
àº¹ àºģàº
à¯ĭ à®¤
áŀĸ áŀ¶áŀİáŀ·áŀĩáŁĴáŀĩáŀĢáŀĺáŁĴáŀĺ
áĢ±áĢĨ áĢ¬áĢĦáĢ¹
áĢ¯áĢĴ áģ¶
áĢ¡ áĢ±áĢķáģļ
ĨáĢŃáĢ¯ áĢĲáĢ¬
ĠáĢĢ áĢĻáģ»
áĢ¥ áĢ®áĢ¸
ĠáĢŀ áĢħáĢ¹áĢ
áĢĻáĢ» áĢ¾
áŀķ áŁĴáŀĤ
àº´àºĶàº Ĺàº´
Ġáŀĺ áŁģáŀŁáŀ¶
ĠáŀħáŁģáŀī áŀĸáŀ¸
áŀĹ áŀ¼áŀĺ
áŀĩáŁĴáŀ Īáŀĺ
ľ àº»àºĻàº
Ġáŀĺáŀ¼áŀĽ áŀĬáŁĴáŀĭáŀ¶áŀĵ
áĢĻáĢºáĢ³áĢŃ áĢ¸áĢŀ
áĢĳ áĢ¬áĢ¸áĢĽ
áŀł áŀĳáŁĨáŀĸáŁĲ
à»Ģàºŀ àºµà»Īàº¡
áĢģáĢ¼ áĢ²
áĢģáĢ²áĢ· áĢĲáĢ¬
ĠáĢĨ áĢ±áĢ¬áĢĦáĢºáĢĽáĢ½áĢĢáĢº
áĢ± áĢĢáĢ¼
Ħà¹Īà¸ °
à¹Ĥà¸Ķà¸ ¢à¸
áŀĶ áŀİáŁĴáŀĮáŀ·áŀı
±áĢĨ áĢ¸áĢ
áĢ¬áĢ¸áĢ ĸ
áŀĲáŁĴáŀĦáŁĥáŀĳáŀ¸ áŁ¢
Ġáŀ¢áŁĴáŀĵáŀĢ áŀŁáŁĴáŀļáŀ¸
Ġ Z
Ġà®İà®¤ à®¿à®°
Ġå ¾
ĠáĢĿ áĢĶáĢº
áŁĢáŀľ áŀĹáŁħ
à»Ĥàº¥ àºģ
áŀĳ áŁĦáŀŁ
áŀ¶áŀİ áŀ¶áŀħ
Ġáŀĩ áŁĲáŀĻ
é ļ
ul o
áŀĳáŀ¸ áŁ¢
áŀĬáŁĨáŀİ áŀ¹áŀĦ
Ã ±
áŀ¶áŀĺ áŀĳ
áĢ¡ áĢĬáĢ®
ĠáŀŁ áŀ¶áŀļáŀ
ĠáĢĨáĢŃáĢ¯ áĢĲáĢ¬
áĢ¬áĢ¹áĢĻ áĢĲáĢ®
áĢ¡ áĢĸáĢ½áĢ²áĢ·
Ġáŀļáŀ¼áŀĶ áŀĹáŀ¶áŀĸ
à¹ī à¸Ńà¸Ļ
áŀĸáŁĴáŀļáŁĩ áŀļáŀ¶áŀĩ
áŀ¶áŀĴáŀ· áŀĢáŀ¶áŀļ
ĠáŀķáŁĴáŀŁáŁģáŀĦ áŁĹ
áĢ¶ áĢĲ
à¯ĭ à®®à¯į
ĠS h
ĠN ag
ĠáĢĴáĢ® áĢĩ
Ġáŀħ áŁĴáŀĶáŀ¶áŀŁáŁĭ
áĢ¸áĢ ±áĢ
ĠáĢŀ áĢ¯áĢ¶áĢ¸áĢ
àºĦàº§àº²àº¡ àºª
Ġà®ķ à®¾à®°
Ġ à¸Ļà¸µà¹ī
à¹Ĥ à¸Ļà¸
Ġáŀģáŀ¶áŀĦ áŀĽáŀ¾
ĠáĢĹ áĢŃáĢ¯áĢľáĢ¹áĢ
áĢ±áĢĲáĢ¼ áĢĻáĢ½áĢ¬
±áĢĽ áĢ¸áĢ¡
ĠáĢŀ áĢĢáĢº
ĠTag s
áŀĺáŁĴáŀ Ĭ
áŀĶ áŀİáŁĴáŀĬ
áŀĬ áŁĤáŀļáŀ
Ġà¸Ľ à¸µ
Ġh iá»ĩn
åĬł çĽŁ
Ġak ing
åľ¨ çº¿
áŀ¶áŀĢ áŀĺáŁĴáŀĺ
àº¹ à»Īàº
Ġpa t
é ħ
ļà¸£à¸´à¸ ģà¸²à¸£à¸
ĠáŀķáŁĴáŀĳ áŀ¶áŀĽáŁĭ
ĠáŀĶ áŀ¶áŀīáŁĭ
« àº¡
Ġáŀ¢ áŀ¸
áŁĴáŀļáŀ¸ áŀĢ
ķ à»īàºŃàºĩ
Ľà¸ ±à¸įà¸
áĢ±áĢ »áĢĸ
ĠáĢĺáĢ¯áĢĽáĢ¬áĢ¸áĢŀ áĢģáĢĦáĢº
áŀľ áŁĤáŀĦ
áĢĨ áĢ¶áĢ¯áĢ¸
Ķ áĢĬáĢ¹áĢ¸
ĠáĢĸ áĢ¯áĢĶáĢ¹áĢ¸
ĠáĢķáĢ¼ áĢ¯
áŀĪ áŀ¶áŀĺ
áŀģáŁĴáŀĺ áŁĤáŀļáŀ
ĠáŀŁáŀ¶áŀĽ áŀ¶
Ġáŀħáŀ¶áŀĶáŁĭ áŀĸáŀ¸
è¡ ¨
áŁĴáŀĽ áŁĤ
Ġà®ª à¯ĩ
áŀļ áŁį
ust o
ih an
à¸Ńà¸µà¸ ģà¸
Ġfun ction
à»Ħ àºŀ
áŀĺáŁĴáŀĦ áŀº
áŀ¢ áŀ¶áŀĳáŀ·áŀıáŁĴáŀĻ
à®² à®¾à®®à¯į
ĠáĢ±áĢ »áĢķ
ĠáĢŀ áĢĢáĢ¹áĢ
Ġa p
áģ¿áĢĻáĢŃáĢ³áĤķ áĢĶáĢļáĢ¹
áĢ¸áĢľ áĢŃáĢ¯áĢĢáĢ¹áĢ
ĠáĢľáĢĢáĢ¹áĢ ĽáĢ½áĢŃ
áĢĢ áĢĲáĢ±áĢ¬áĢ·
áº¯ c
Ġáŀł áŁĴáŀĵáŀ¹áŀĦ
ĠáŀļáŀĬáŁĴáŀĭ áŀĶáŀ¶áŀĽ
Ġ201 6
áŀ¶áŀĺáŁī áŁĦáŀĦ
Ġáŀĺ áŀ·áŀıáŁĴáŀı
áĢ¡ áĢģ
ĠáŀĸáŁĴáŀļ áŁĨáŀĬáŁĤáŀĵ
Ġáŀħ áŁĦáŀĳ
àºĹ àº³
áĢģáĢ²áĢ· áĢķáĢ«áĢĲáĢļáĢ¹
ĠáĢĽ áĢ²áĤķ
áĢ½áĢ±áĢ¸áĢ Ķ
à¹ģà¸ ģà¸£à¸
ĠáĢĻ áĢĬáĢ¹áĢ
ĠáĢĳ áĢĦáĢ¹áĢ
ĠáĢ±áĢ»áĢķáĢ¬ áĢķáĢ«áĢĲáĢļáĢ¹
áĢĦáĢ¹áĢ ĺáĢ¬
áĢĢáĢ¼ áĢ±áĢ¬áĢĦáĢº
à¹Ģ à¸Ļ
ĠáŀĤáŁĴáŀļáŀĶáŁĭ áŀĤáŁĴáŀļáŀĦ
ĠáŀĤ áŀ¸
áŀĸáŁĴáŀļ áŁĢáŀĦ
æĬķ æ³¨
Ġæ Ń
Ġa b
áŀĩáŁĴáŀĪáŀĺ áŀİáŁĴáŀĮáŀĽ
áŀ¼áŀļáŀĳ áŀŁáŁĴáŀŁáŀĵáŁį
áĢ»áĢģ áĢ¬áĢ¸áĢ
áĢ¯ áĢıáĢ¹áĢ
áĢĶ áĢ¶
áĢ® áĢĢ
em a
Ġ à¹Ĥà¸Ļ
Ĺà¸ ±
ä» ĸ
Ġhttp s
ĠáĢ±áĢķ áģļ
áĢŃ áĢĶáĢ¹
±áĢ ļáĢ¬áĢĢáĢ¹
ĠáĢĽ áĢŁ
ĠáĢĶ áĢ¬áĢĻ
ĠáŀĶ áŀļáŀĳáŁģáŀŁ
ĠáŀĶ áŀ·áŀĳ
Ġáŀĩ áŀ¶áŀĢáŁĭ
à®¾à®® à®²à¯į
ĠáĢĴáĢ® áĢĻáĢŃáĢ¯
áĢĲáĢļáĢº áĢľáĢŃáĢ¯áĢ·
ĳ áĢ¯áĢĲáĢ¹áĢ
¡ áĢŀ
ģáĢ²áĢ· áĢŀáĢĬáĢ¹
ĲáĢħáĢ¹áĢ ģáĢ¯
ĠáĢ±áĢ ľáĢ¬
áĢĲ áĢĢáĢº
Ġà»Ģàºŀ àº²àº°
Ġ0 1
áŀĶáŀħáŁĴáŀħ áŁģáŀĢ
Ġàºķ à»Īàº²àºĩ
Ġs o
áŀ¢ áŀ¸
Ġàº¡ àº±àºĻàº
Ġma ram
ĠáŀŁ áŁĴáŀĤáŀ¶áŀĽáŁĭ
Ĺà¸ Ħ
áŀĺáŀĢ áŀĸáŀ¸
Ġ' )
U S
Ġà¸ Ħà¸§à¸²à¸¡à¸
Ġà®® à®°
ĠáĢ¡áĢŀ áĢŃ
±à¸ĩà¸ «à¸§à¸±à¸
à¹Ī à¸Ńà¸Ļà¸
áŀĤ áŁĴáŀļáŀ½áŀŁáŀ¶áŀļáŀ
áĢ¡áĢ±áĢĶ áĢĶáĢ²áĤĶ
ed ia
áĢľ áĢ¯áĢŃáĢĢáĢ¹áĢ
áĢĲáĢ¹áĢ ľ
áĢ¸áĢĻ áĢ»
Ġáŀĩ áŁĨáŀļáŀ»áŀī
ĠáŀĤ áŀ½áŀļáŀ
áŀŁáŁĴáŀħ áŀ¶áŀļáŁĴáŀĻ
áŀĶáŁĬ áŀ»áŀĢ
áŀĶ áŁĤáŀĢ
àºĤ àº¶à»īàºĻ
Ķà¸²à¸ §
Ġà®¤à¯Ĭà®Ł à®°
ĠÄĳá»Ļ ng
áŀĲ áŁĴáŀĺ
áŀ¼ áŀİ
áŀŁáŁĴáŀŁ áŀ·áŀı
à¹Ģà¸ §à¸
áŀĵáŁħ áŀĸáŁģáŀĽ
Ġbuh ay
áŀĤ áŁĦáŀĢ
àº§ àº±àºĻ
Ġáģĥ áģĢ
i an
·à¹Ī à¸Ńà¹Ģà¸
áŀĢáŀ¶áŀļáŀ ĺ
ĠáĢ±áĢĨáĢ¬áĢĦáĢ¹áĢ ĽáĢ¼áĢĢáĢ¹áĢ
áĢĽáĢ½ áĢļáĢº
ãĢ ģ
C ontent
Ń è¯
Ńè¯ Ħ
Ńè¯Ħ è®
Ńè¯Ħè® º
ĠáŀŁáŀĵáŁĴáŀı áŀ·áŀŁáŀ»áŀģ
Ġáŀĩ áŀĺ
ĠKH TO
ĠKHTO EM
éĹ Ńè¯Ħè®º
åħ³ éĹŃè¯Ħè®º
áŁĴáŀı áŁĤáŀĦ
å¥ ĸ
Ľàº°àº ģàº
áŀļáŀ Ĳ
äº Į
__ __
am p
Ġà®ĩà®¨à¯įà®¤ à®¿à®¯
áŀĸ áŁĴáŀļáŁĦáŁĩ
áŀĶ áŁĴáŀĽ
áĢº áĢĢáĢ¹áĢ
r l
ĠáĢ¡áĢŀ áĢĢáĢº
à®¾à® Ļà¯įà®ķ
k as
áŀĢ áŁĨáŀİáŀıáŁĭ
àºĶ àº±àºļ
ç® ¡
à¹Ī à¸Ńà¸Ļ
² åħ³éĹŃè¯Ħè®º
ĠâĢĭâĢĭâĢĭ âĢĭ
áĢ±áĢ¡áĢ¬áĢĦáĢ¹áĢ ĨáĢĶáĢ¹áĢ¸
áĢĽáĢĦáĢ¹áĢ ±áĢĲáĢ¬áĢ·
áĢĽáĢ®áĢ¸áĢ ļ
da y
ĠáĢ±áĢ ŀáĢ¬
Ġ áĤıáĢ½áĢħáĢ¹
áĢľ áĢŃáĢĻáĢ¹áĢ·
áĢĽáĢ½ áĢĦáĢ¹áĢ
ĻáĢº áĢ¬áĢ¸áĢ¡
ĠáĢŁ áĢŃáĢ¯
Ġáŀĳáŀ¸ áŀıáŀ¶áŁĨáŀĦ
àº²àºģ àº²àºĻ
Ġà®ī à®°
Ġáŀ¢ áŁĩáŀ¢áŀ¶áŀĦ
à¹Ģà¸ Ĺà¸µà¹Īà¸
Ġ0 9
áŀļáŀ¶áŀĩ áŁĴáŀĻ
ĠáĢĻ áĢĽáĢ¾áĢŃ
at ing
ÃŃ ch
áŀĤ áŀĵáŁĭ
àº°àº«àºį àº²àºį
áŀ¶áŀļáŀ ĵ
áĢģáĢ» áĢŃáĢ¯áĢ·
and ang
à»ĥàº«àºį à»Īàº
áŀ¶áŀı áŀ»
è· ¯
ĠáŀķáŁĴáŀĳ áŁĥ
ĠP ilip
Ġs um
áŀŁáŀ· áŀĳáŁĴáŀĴáŀ·
à»Ĥ àºķ
Ġà®ª à®¾à®¤
áŀĸ áŀ»
áŀĴáŁĴáŀľáŀ¾ áŀ²áŁĴáŀĻ
å ł
ŀà¸Ļà¸±à¸Ļà¸ ļà¸Ńà¸¥
Ġà¸ «à¸²à¸
áŀĨáŁĴáŀĵáŀ¶áŁĨ áŁ¢áŁłáŁ¡áŁ
áŀ¶áŀĻáŀŁ áŁĴáŀļáŀ½áŀĽ
Æ°á»£ ng
Ġh air
Ġta on
±áĢĲáĢ¼ áĢĢ
ĠáĢ¡ áĢľáĢ¯áĢķáĢº
àº¶ àºģ
áŀ¡ áŀ¼áŀľ
àº« àº¥
ĠáŁ¡áŁ ¤
ĠáŀĳáŁĦáŁĩ áŀĶáŀ¸
áģ¾áĢĢ áĢķáĢ«
áĢ±áĢĲáĢ¬ áĤĶ
ĠáĢģáĢ¯ áĤıáĢ½áĢħáĢ¹áĢ
áĢľ áĢ¯áĢŃáĤĶ
áĢ®áĢ¸áĢ ľ
à»Ģàºª àºµàº¡
è® ¾
àºŃàºģ à»ģàºļàºļ
Ĭà¸µà¸ §à¸´à¸
áĢ®áĢ¸áĢ ħ
ur g
Ġs in
ĠáŀĤ áŀİ
áŀľ áŀ¸áŀĬáŁģáŀ¢áŀ¼
àºļà»įà»Ī àº¡àºµ
ĠáĢ»áĢķáĢĬáĢ¹áĢ ±áĢĳáĢ¬áĢĦáĢ¹áĢħáĢ¯
áĢĽ áĢŃáĢ¯
áŀĸ áŀĵáŁĴáŀĴ
à®² à¯įà®µ
áŀĬáŁĨáŀİáŀ¾ áŀļáŀĢ
Ġè¿ Ļ
à»ĢàºĪ àº»à»īàº²àº
Ġm ong
áŀ¶áŀĽáŁĭ áŀĳáŀ¶áŀıáŁĭ
áŀŁáŁĴáŀĲ áŀ·áŀı
Ġt ak
Ġà®µ à®¿à®°
ĠáĢ¡ áĢĦáĢº
ªà¸ °à¸
Ġp en
Ã¢ u
áŀıáŁĴáŀıáŀ· áŀĢáŀ¶áŀļáŀİáŁį
Ī à¸´à¸
àºµàº§ àº´àºĶ
ľ à¸´à¸
p in
áģ¾áĢĢ áĢĲáĢļáĢ¹
áĢŃáĢ¯áĢĦáĢ¹áĢ ĦáĢ¶
ment s
áĢĨáĢŃáĢ¯ áĢĽáĢĦáĢº
áĢ¸áĢ »áĢĻ
ĠáĢķ áĢĽáĢŃáĢŀ
na ng
áģ »
áĢĻáĢ¹áĢ Ļ
áŀ¶áŀļáŀ¸ áŀĢ
ĠáŀŁ áŁĴáŀļáŀ¶áŀĶáŁĭ
à¹Ģà¸¥ à¹Īà¸Ļ
áŁĴáŀļáŀł áŁĴáŀĺ
áĢ¾ áĢĦáĢºáĢ·
Ġ") .
àº²àºĬ àº»àºĻàº
ĠáĢħáĢ®áĢ¸áĢķ áĢ¼áĢ¬áĢ¸áĢ
ĠáĢ¡ áĢ¬áĢ¸áĢ
° à¹ģà¸Ļ
áŀħ áŀļ
áĢĦáĢºáĢ¸áĢ Ĩ
àº§ àº´
ec t
à®¿à®Ł à®®à¯į
Ġn ext
áŀ¼ áŀĬ
Ń àºĻàº
ĠáĢģáĢ¯ áĤıáĢ½áĢħáĢ¹
áĢķ áĢŃáĢ¯áĢĦáĢº
= =
ĠáŁ¡áŁ §
ĠáŀŁáŁĴáŀĵ áŀ¾
ĠáŀŁ áŁĴáŀĵáŀ¶áŀĢáŁĭ
³à¸ Ħà¸
ĠáŀĴ áŁĴáŀĦáŀĵáŁĭ
ĠA ug
áŀļáŀ ¢
Ġ0 00
áŀĺáŁĴáŀ ĸáŀ»áŀĩáŀ¶
Ġáŀļáŀı áŁĭ
à»Ħ àºŁ
Ġà®ļ à®¿à®²
áĢĶáĢ¹áĢ Ĩ
ĠáĢ¡ áĢĳáĢŃ
áŁĴáŀľ áŁģ
h er
ĠáĢĽ áĢ½áĢ¬
e a
Ġ) áģĬ
Ġi bang
áĢĬáĢº áĢ¸áĢ¡
áŁģáŀŁ áŀĶáŁĬáŀ»áŀĢ
áŀļáŀ łáŀ¼áŀı
ĀĀ ĀĀ
Ã¡ nh
áŀĺáŁĴáŀĦ áŀĵáŁĭ
ĠáĢķ áĢĶáĢ¹áĢ¸
ĠáĢĨ áĤıáģµ
áĢ±áĢĻ áĢ¾áĢ¬
áŀĳáŁħ áŀĢáŀ¶áŀĵáŁĭ
Ĳ áĢŃáĢ¯áĢĦáĢ¹áĢ¸
áĢĲ áĢŃáĢ¯áĢĦáĢº
ģà¸²à¸ ¨
àº§ à»Ī
çĻ» å½ķ
è¯ ´
áŀĢ áŀ¼áŀļáŁīáŁģáŀģáŀ¶áŀĦ
áŀ ¿áŀĦ
ĠáŀŁáŀł áŀĤáŀĺáŀĵáŁį
Ġáŀı áŀ·áŀħ
Ġà¹Ģà¸ ŀà¸·à¹Īà¸Ńà¸
ª à¸µ
áĢ±áĢŀáĢ¬ áĢ¹áĢľáĢĬáĢ¹áĢ¸
an ce
ĠáĢĽ áĢĽáĢ½áĢŃ
ĠáĢĲ áĢĢáĢ¹áĢ
ĠáĢ±áĢĢáĢº áĢ¬áĢĢáĢ¹áĢ
áĢĲ áĢŃáĢ¯áĢĦáĢºáĢ¸áĢ
àº·à»ĪàºĻ à»Ĩ
áŀŁáŀĺ áŁĴáŀļáŀ½áŀĽ
à¹ģà¸ ľ
áŀľáŀ·áŀĳáŁĴáŀĻ áŀ¶áŀĽáŁĲáŀĻ
áŁĴáŀļ áŀ¶áŀĢáŁĭ
áŀĶáŁĴáŀļ áŀ¶áŀĢáŀĬ
el l
ĠáĢĻáĢŃ áĢŀáĢ¬áĢ¸áĢħáĢ¯
áŀĩáŀ¶áŀĶ áŁĴáŀļáŀ
à®° à¯įà®µ
áº· c
Ġpig ment
Ġmag ing
å¼ ı
áĢ±áĢ ĦáĢ¼
ĠáĢĸáĢ¼áĢħáĢº áĢķáĢ«áĢĲáĢļáĢº
ĠáĢĳ áĢŃáĢ¯áĢĦáĢ¹áĢ¸
ĠáĢĬ áĢ®
áŀ¼áŀĺ áŁī
ĠáĢ±áĢĳ áĢ¬áĢĢáĢ¹áĢ
áĢļ áĢŃáĢ¯
ķà¸²à¸ ¡
Ġa kan
àº°àº Ī
áĢĤ áĢ»
or d
áŀ¡ áŁģáŀĦ
ģ àº²àºĩ
ĠâĢ ĺ
Ġ201 2
Ġsa k
ĠáŀĶ áŁĴáŀı
ĠáŀĤ áŀ»áŀİ
áŁĥ áŀİáŀ¸
ªà¸ ĩà¸
Ġà®ª à®¿à®±
áŀĶáŁĴáŀļáŀ Ĩáŀ¶áŁĨáŀĦ
áŀĵ áŁĴáŀŁ
èĢ ģ
àº°à»Ģàºŀ àº²àº°
na k
áŀĲáŁĴáŀĦáŁĥ áŀĵáŁģáŁĩ
åį ķ
r is
Ġáŀĳ áŀ¶áŀī
ĠáĢ±áĢĴáģļ áĢ±áĢ¡áĢ¬áĢĦáĢ¹áĢĨáĢĶáĢ¹áĢ¸
áĢĢáģł áĢŀ
áĢ±áĢ« áĢĢáĢº
E R
Ġf re
ĠP ara
Ġáŀħ áŀļáŀ¶áŀħáŀļáŀİáŁį
ĠáŀĢáŀ¶áŀļáŀ ķ
ula t
çī ¹
áŁĴáŀľ áŁĩ
áŀŁáŀ»áŀģ áŀĹáŀ¶áŀĸ
ĠàºªàºĽ àºĽ
à»ģ àºĻàº§
áŀŁ áŀĸ
Ķ à¸´à¸Ļà¸
áŀķáŁĴáŀŁáŁģáŀĦ áŁĹ
à®¿à®© à¯įà®©
áĢ¬áĢ¸áĢľ áĢ¬
àºµ àºģàº
áŀħ áŀļáŀ¶áŀħáŀļáŀİáŁį
áŀ¢ áŀ¶áŀĩáŁĴáŀīáŀ¶áŀĴáŀ
ĠáŀĽ áŀ»áŁĩ
la y
áŀļ áŁĢáŀĵ
áŀĺáŀĢ áŀĬáŀĽáŁĭ
áĢŃáĢ¯áĢ¸áĢ ¡
áŀħáŀ»áŀĦ áŀĢáŁĴáŀļáŁĦáŀĻ
i ko
áĢ Ī
ĠáĢľ áĢŃáĢ¯áĢ·
áŀ· áŀļáŀ¸
áŀĶáŀīáŁĴáŀħ áŀĶáŁĭ
ĠáĢĲ áĢ¼áĢĦáĢ¹
áĢŃ áĢļ
ĠáŀŁáŀ»áŀģ áŀ¶
Ġáŀĺáŀ½áŀĻ áŀħáŁĨáŀĵáŀ½áŀĵ
àº´ àº¡
Ġà®¨ à¯ĩà®°
Ġáŀĸ áŀ¶áŀİáŀ·áŀĩáŁĴáŀĩáŀĢáŀĺáŁĴáŀĺ
áĢŀ áĢ±áĢ¬áĢº
Ġáŀĳ áŀ¶áŀĢáŁĭáŀĳáŀĦ
Ġ- âĢĭ
Ġ en
áŀķáŁĴáŀ¢ áŀ¾áŀĽ
Ħ à¹Īà¸²à¸
ĠN av
áŀ¾áŀı áŀ¶áŀĺ
áŀ¶áŀĢ áŁı
ľà¸ ¥
ç¨ ĭ
Ġng Ãły
Ġáŀĵ áŀĤ
Ġáŀĩáŀ¶áŀĺáŀ½áŀĻ áŀĵáŀ¹áŀĦ
ļ à¹īà¸²à¸Ļà¸
Ġt an
Ġáŀ¢ áŀĤ
àº²àº ŀ
ila n
áŁģáŀĢ áŁĴáŀģ
áŀĺ áŀ¶áŀŁ
¢ à¸Ńà¸
áŀĤ áŀİáŀĶáŀĢáŁĴáŀŁ
áŀĢ áŁĦáŁĩ
¥ àº»àºĩ
è ¥¿
ĠáŀĽ áŀĢáŁĴáŀģáŀİáŁĪ
à¹Ģà¸ģà¸ ¡à¸
à¸£à¸±à¸ Ĳà¸
áĢ¼ áĢļáĢ¹
ķáĢ¼ áĢĬáĢº
à®¾à®² à¯ģà®®à¯į
v er
ĠáŀģáŁĤ áŀĺáŀĢáŀļáŀ¶
áŀĴáŀ ł
ĠáŀĮ áŀ¸
Ġáŀĩ áŀĶáŁīáŀ»áŀĵ
n e
ĠáĢĲ áĤĲ
Ġht m
áĢĢáĢ¼ áĢĬáĢ·áĢº
Ġb aw
áŀļáŀĤ áŀ»áŀİ
$ (
Ġàº« àº»àº§
áŀĴ áŁĴáŀĦ
Ġe pek
à»Ĥ àº¡
à¹Ģà¸£à¸µà¸ ¢à¸
èµ °
em ent
áŀĬ áŀ»áŀĽáŁĴáŀĽ
áŀĩ áŀ¶áŀĢáŁĭ
á»± c
Ġv i
Ġsa r
Ĥ áĢº
ĠáĢ»áĢķáĢĶáĢ¹áĢ ľáĢĬáĢ¹áĢ
ĠáĢ±áĢĸ áĢ¬áĢ¹áĢ»áĢķ
A A
ĠD ec
áĢĨ áĢ¶áĢ¯áĢ¸áĢ
áĢ±áĢ¬ áĢĤáĢ«
áŀĥ áŀ»áŁĨ
áŀĢáŁı áŀĶáŀ¶áŀĵ
æīĭæľº çīĪ
ä¸ İ
áŀĢáŀ¾áŀı áŀ¡áŀ¾áŀĦ
áĢŁ áĢŃáĢ¯
ĠáŀĶáŁīáŀ»áŀĵ áŁĴáŀĺáŀ¶áŀĵ
àºĻàº± àºģàº
Ġk al
Ġáŀı áŀ¶
áŀŁáŀ·áŀĢ áŁĴáŀŁ
±áĢĨ áĢ¬áĢĦáĢ¹
ĠáĢľ áĢ¾
áŀĢ áŁĴáŀĶáŀ¶áŀĽ
áŀ¶áŀĻ áŀ¶áŀĺ
à®¿à®ļ à¯įà®ļ
Ġak u
e ka
§à¸´à¸ Ĺà¸¢
ag e
ĠP ro
h on
áŀ¶áŀĬ áŁĥ
Ġà®ĩ à®¯
ĠáĢģ áĢĦáĢ¹áĢ
ĠáĢĽáĢ½áĢŃ áĢ±áĢĶ
ĠáĢ±áĢĢáĢº áĢ¸áĢĩ
áĤıáĢ½ áĢ¶
áĢ¸áĢľ áĢ¯áĢķáĢ¹áĢ
ĠáĢ±áĢĲáĢ¬ áĢĦáĢ¹áĢ
áĤĲ áĢ½áĢŃ
áĢľ áĢ¯áĢķáĢ¹
Ġáģ¾áĢĢ áĢĬáĢ¹áĢ·
ĠáĢĳ áĢ¯áĢŃ
ĠáĢĢ áĢ°áĢĬáĢ®
ĠáŀĶ áŀ»áŀİáŁĴáŀĻ
ĠáŀĬ áŀĢ
áŁĨ áŀŁ
áĢĽ áĢĢáĢº
è ²
æĶ ¿
áŁĦáŀĴáŀ· áŁį
áŀĸ áŀ¶áŀĵáŁĭ
« àº»àº§
à¹Ģà¸£à¸ ·à¹Īà¸Ńà¸ĩ
áŀĴáŀł áŀıáŁĴáŀĲ
áŀĬ áŀ¾
Ġà»ľ à»īàº²
Ġàºŀ àº²àºļ
à®¿à®Łà¯įà®Ł à¯ģ
Ġv iá»ĩc
áŀ¥ áŀı
Ġàºį àº±àºĩ
ç ³
áŀŁáŁĴáŀľ áŀ¶áŀĻ
áŀ¶áŀļáŀ Ĭ
Ħà¸£à¸ ĩà¸
Ġà®ķà¯Ĥ à®Ł
A G
Ġre s
àº°àºĸ àº²àºĻàº
ĠáĢĢáĢ» áĢ±áĢ¬áĢĦáĢºáĢ¸áĢ
áŀ¶áŀ Ĵ
® à¸
ĠáŀķáŁĴáŀĬ áŀĽáŁĭ
ga l
æĺ İ
ĠáŀĢáŀ¸áŀ¡ áŀ¶
ĠáĢ±áĢĽ áĢ¬
ĠáĢ¡ áĢ±áĢĽáĢ¸áĢ
áĢ¸áĢħ áĢ®áĢ¸áĢ
ĠáĢ¡ áĢĢáĢ¼
Ġáŀ¢ áŀºáŀļáŁīáŀ»áŀĶ
áĢĢáĢ¬ áĢľ
łà¸²à¸ ¢
à¯ģà®³ à¯į
ĠáĢĴáĢ«áĢ±áĢķáĢĻ áĢļáĢ¹áĢ·
ĠáĢĲ áĢĶáĢ¹áĢ
ĠáĢĲ áĢ±áĢ¬áĢĦáĢº
áŀŁ áŀ»
áŀĺ áŀ¶áŀıáŁĭ
il is
áŀĸ áŀ·áŀŁáŁģáŀŁ
¸ à»Īàº¡
áŀħáŀĽ áŀĵ
áŀ¶áŀ¢ áŁĴáŀĵáŀĢ
à¹ Ĭ
åı £
à¹ģà¸ ¥à¸°à¹Ģà¸
à®µ à®°
Ġáŀĵáŀ¶áŀĻáŀĢ áŀļáŀĬáŁĴáŀĭáŀĺáŀĵáŁĴáŀıáŁĴáŀļáŀ¸
ĠáŀĬ áŀ¾áŀļ
ĠáŀģáŁģáŀıáŁĴáŀı áŀĢáŁĨáŀĸáŀĦáŁĭ
Ġi P
áŁ¢ áŀĵáŀ¶áŀĢáŁĭ
áŀıáŀ»áŀĽ áŀ¶
áŀ¶áŀķáŁĴáŀĳ áŁĥ
áŁĨáŀĶ áŀ¶áŀĢ
áĢĳ áĢĢáĢ¹
áĢŀ áĢ¯
ĠáŀŁáŁĴáŀĲ áŀ¶áŀĶáŁĲáŀĵ
ana n
uy Ãªn
ķà»Īàº²àºĩ à»Ĩ
à¹Ģà¸£à¸µà¸ ¢à¸Ļà¸
ĠáŀĶ áŀ¹áŀĦ
Ġáŀħ áŁĦáŀĽ
áĢ¬áĢĽ áĢĦáĢ¹áĢ¸
ĠáĢ¡ áĢŃáĢĻáĢº
æĥ ħ
ð Ł
áŀŁ áŀ»áŀľ
áŀļáŀĬáŁĴáŀĭ áŀĺáŀĵáŁĴáŀļáŁĴáŀıáŀ¸
áŀĹáŀ¶áŀĤ áŀ¸
áŀĦáŁĴáŀļ áŁĢáŀĵ
ŀ à¸£à¸°à¸
ĳ áŁĩ
Ľà¸£à¸°à¹Ģà¸ łà¸
Ġáŀľ áŁĲáŀĻ
ĠáĢŀ áĢ½
áŁĴáŀľ áŀ¶áŀĻ
ĠáŀĬ áŁĦáŁĩáŀŁáŁĴáŀļáŀ¶áŀĻ
áŁĲ áŀĵáŁĴáŀĳ
à®² à®ķ
na l
áŀŁáŁĬ áŀ¼
áŀŁ áŀ¸
à»ĢàºĤ àº»à»ī
±à¸ĩà¸ ģà¸¤à¸
áŀĸáŁĴáŀļáŁĩ áŀŁáŀ¸áŀłáŀĵáŀ»
áŀĶ áŀĵáŁĴáŀĲáŀĻ
áŀĲ áŁĴáŀĵáŀ¶áŁĨ
áŀĩáŀ¶áŀĺáŀ½áŀĻ áŀĵáŀ¹áŀĦ
ĭ Ĺ
æĢ İ
Ġhtm l
áĢ®áĢĴáĢ® áĢļáĢ¬
å ¢
Ġpa da
áŀĦáŁĴáŀł áŁĦáŁĩ
Ġæĸ ĩ
ĠáŀŁáŁĨáŀİ áŀĦáŁĭ
ķáĢ« áĢĲáĢļáĢº
áĢ»áĢĸ áĢĦáĢ·áĢ¹
áĢĻáĢ½ áĢĲáĢ¹áĢ
áĢĻáĢº áĢ¸áĢĲ
ĠáŀĢáŀĦ áŀĳáŁĲáŀĸ
à¸£à¸µà¹Ģà¸ ¡à¸µà¸¢
Ĺà¸ ¢à¸
àºľ àº»àºĻàº
à¹Ī à¸Ń
áŁĴáŀļáŀĢ áŁĭ
iv e
Ġnam in
ļà¸ Ĺà¸
ab i
áŀľ áŀ·áŀħáŁĴáŀĨáŀ·áŀĢáŀ¶
Ĺà¸µà¹Īà¸ Īà¸°à¸
áŀĶ áŀīáŁĴáŀĩáŀ¼áŀĵ
Ã¡ p
pa k
áŀ· áŀĳáŁĴáŀĴáŀĹáŀ¶áŀĸ
ı áŀ¸
áĢĶáĢ¹áĢĳ áĢĻáĢ¹áĢ¸
áĢĳáĢ¬áĢ¸áĢ ĲáĢ¬
áĢ¼ áĢŃáĢĻáĢº
àºļ àº²àºį
ç« ł
áŁĴáŀļáŀ» áŁĩ
áŁĴáŀī áŀ¾
àºķ àº»àº§
áŁĦ áŀļ
±áĢĽ áĢ¬áĢĢáĢ¹
ĠáĢĺ áĢĿ
áŀł áŀ¶áŀļ
Ġæĸĩ ç«ł
Ġæĸĩç«ł å¯
Ġæĸĩç«łå¯ ¼
Ġæĸĩç«łå¯¼ èĪ
Ġæĸĩç«łå¯¼èĪ ª
Ġáŀļáŀ¶áŀĩ áŀļáŀĬáŁĴáŀĭáŀ¶áŀĹáŀ·áŀĶáŀ¶áŀĽ
ĠáŀĤ áŀ¸áŀ¡
ĠáĢĢ áĢĻáĢ¹áĢĺáĢ¬
Ġà®ª à®ķ
æº Ĳ
ķ à¹Īà¸²à¸ĩà¸
Ġáŀ¢ áŀ¶áŀļáŀĺáŁĴáŀĺáŀİáŁį
Ġe h
àºĩàº Ī
Ġma ng
àº¥ àº²
å¿« ä¸ī
Ġæĸ °
áŀĶ áŀ¼
áŀıáŁĴáŀı áŀ·áŀŁ
åķ Ĩ
Ġkam i
ĠJ an
áŁĩ áŀĤáŀĵáŁĭ
áŀļáŀ ľáŀ¶áŀĦ
e g
æĹ¶ å½©
Ć ć
äº ¤
à»ĥàºª à»Ī
áŀĴ áŁĴáŀĵáŀ¼
áŀĪ áŁĴáŀĵáŁĩ
ĠáŁ¡ áŁłáŁł
ĠáŀķáŀĽáŀ·áŀı áŀķáŀĽ
ĠáŀĳáŁģáŀŁ áŀħáŀļáŀİáŁį
ĠH air
ug an
áĢĽ áĢĦáĢ¹áĢ¸áĢŀ
áĢģáĢ²áĢ· áĢķáĢ«áĢĲáĢļáĢº
±áĢĶ áĢ¬áĢ¹
ĠáĢ±áĢĴáģļáĢ±áĢ¡áĢ¬áĢĦáĢ¹áĢĨáĢĶáĢ¹áĢ¸ áĢħáĢ¯
áĢĲ áĢŃáĢ¯áĢĢáĢº
ĠáŀĤáŁĴáŀļáŁĦáŁĩ áŀĲáŁĴáŀĵáŀ¶áŀĢáŁĭ
à»ģàºĶ àºĩ
ĠáŀģáŁĤáŀĺ áŀ·áŀĲáŀ»áŀĵáŀ¶
à® ·
áŀŁ áŀ¼áŀĺ
áŀı áŁĴáŀļáŀ¸
res s
áŀİ áŁĴáŀĭ
ŀà¸±à¸ Ĵ
Ġda pat
ĥ n
éĽ Ĩ
ļà¸£à¸´à¸ ģà¸²à¸£
ĠåĮ Ĺäº¬
ĠáĢĲ áĢĦáĢº
ç ģ
Ġà®ĩ à®¤à¯ģ
àºģ à»Īàº½àº§àºģàº±àºļ
ªà¸ ¡à¸±à¸
áŀĢáŁĴáŀĵáŀ»áŀĦ áŀŁáŁĴáŀļáŀ»áŀĢ
ĠáŀŁáŀł áŀļáŀĬáŁĴáŀĭáŀ¢áŀ¶áŀĺáŁģáŀļáŀ·áŀĢ
áĢĻáĢº áĢ¸áĢĽ
di a
una s
ĠáŀŁ áŀĸáŁĴáŀľ
Ġb an
łà¸±à¸ ĵà¸ĳ
ĠáŀľáŁģáŀĽ áŀ¶
Ġáŀľ áŀ¸áŀĬáŁģáŀ¢áŀ¼
Ĭ àºµ
Ġáŀ¢ áŀ¼
à¸£à¹Īà¸§à¸ ¡à¸
Ġ0 2
áŀĳáŁĨáŀĵ áŀ·áŀī
áĢĻ áĢŁáĢ¯áĢĲáĢ¹
áĢ¸áĢĲ áĢħáĢ¹áĢ
áĢ±áĢ¬áĢº áĢĻ
áŀ·áŀŁáŁĦ áŀĴáŀĵ
èµ Ľ
àºĶàºĸ àº°àºģàº´àºĶ
áĢļáĢ· áĢ¹
áĢĻáĢºáĢ¬áĢ¸ áĢĢ
ĠáĢĻáĢ½ áĢĲáĢ¹áĢ
áĢĶ áĢ½
Ĺàºµà»Īàº ª
ĩà¸´à¸Ļà¸ Īà¸£à¸´à¸ĩ
à¸´à¸ ĩ
ĠáŀĺáŁī áŁĤáŀıáŁĴáŀļ
áĢģ áĢ½áĢĦáĢ·áĢº
ĠáŀķáŁĴáŀŁ áŀĸáŁĴáŀľáŀķáŁĴáŀŁáŀ¶áŀĻ
ĠáŀħáŁĨáŀİ áŀ¶áŀĻ
« à¹īà¸Ńà¸ĩà¸
Ĭà¸²à¸ ķà¸´
Ġáŀ¯ áŀĦ
Ġáŀ¢áŀ¶áŀł áŀ¶áŀļ
Ã² n
Ġà®ķ à®£
Ġáģ¾ áĢŀ
áĢ¡ áĢģáĢ»áĢŃáĢĶáĢº
ou n
ĠâĢĭ âĢĭâĢĭâĢĭâĢĭ
Ĺ à¹Įà¸
ĠáŀŁ áŀ¶áŀļáŀĸáŁĲáŀıáŁĮáŀĺáŀ¶áŀĵ
Ġáŀĺ áŁĴáŀŁ
åĪ ¶
ĠáŀĢ áŀĢáŁĴáŀĢáŀĬáŀ¶
áŀĶáŁĴáŀļáŀĺ áŀ¶áŀİ
áŀĩáŀĵ áŀļáŀĦáŀĤáŁĴáŀļáŁĦáŁĩ
áŀ¸ áŀĵ
ķà¸ ¥
Ĭ à»Īàº§àºį
Ġpa s
.... ....
ĠáĢľ áĤĬáĢĲáĢ¹áĢ±áĢĲáĢ¬áĢ¹áĢ
Ġ8 0
ģáĢº áĢĢáĢ¹
áĢŀáĢŃ áĢĻáĢ¹áĢ¸
áĢĻ áĢ¹
áĢ±áĢŀáĢ¬ áĢ¹
ĠáĢĦ áĢº
Â «
Ġáŀħ áŁģáŁĩ
ĠáŀĤ áŁĴáŀļ
Ġà®ķ à¯ģà®Ł
ģàº ±àºĻàº
áŀľáŀ· áŀĩáŁĴáŀĩ
Ħà¸ ³à¸
di o
Ġp um
áŀ½áŀĵ áŀ¶áŀĳáŀ¸
ĠáŀĲ áŀı
å° Ĩ
Ġà»ĢàºĬ àº´à»Īàºĩ
á» ı
y e
Ġ2 7
áŀľ áŁĲáŀĻ
áŀļáŀŁáŁĭ áŀĵáŁħ
à¹Ģà¸ Ħà¸£à¸Ķà¸´à¸ķ
Ġ `
±à¸ģà¸ ©à¸
Ġbit amina
Ġs ina
áŀ¢ áŁģ
Ġà®ħà®µ à®°à¯į
ĠáŀĺáŁī áŀ¶áŀĢ
ĠáŀģáŁĤ áŀıáŀ»áŀĽáŀ¶
ĠáŀĢáŀĺáŁĴáŀ ĸáŀ»áŀĩ
ĠáŀĢáŀ¾áŀı áŀ¡áŀ¾áŀĦ
áŁ£ áŁł
áŀĺáŁĴáŀĽ áŀ¶áŀĢáŁĭ
Ġáŀľ áŀĤáŁĴáŀĤ
ĠáŀĶáŁĴáŀļáŀĺ áŀ¼áŀĽ
áŀĶ áŀĦáŀĶáŁĴáŀ¢áŀ¼áŀĵ
áŀĵáŀ¶áŀĻáŀĢ áŀĬáŁĴáŀĭáŀ¶áŀĵ
áŀĢ áŁĴáŀĶ
Ġàºª àº²àº¡àº²àºĶ
ç ²
Ġa d
«à¸¥à¸²à¸ ¢à¸
Ġnag s
áŀĢ áŀĽ
ĠâĢĭ !
ĠáŁ¢áŁł áŁ¢áŁł
ĠáŀŁáŀĺáŁĴáŀ Ĺ
ĠáŀĵáŁħ áŀıáŁĤ
àºĹ à»Īàº²àºĻ
ĠáŀĵáŁĦáŁĩ áŀĳáŁģ
ĠáŀĲ áŁĴáŀĽáŁĥ
éĢ Ł
à®±à¯įà®ķ à¯ģ
ĠáŀĬ áŁĴáŀĭ
àºĶàº ¹
áŀģáŁĴáŀĽáŀ½áŀĵ áŀ¯áŀĦ
ang an
áŀ¸áŀĻ áŀĬáŁĴáŀĭáŀ¶áŀĵ
Ġth Ãłnh
ĠáŀĶáŀīáŁĴáŀħ áŀĶáŁĭ
ĠáŀĶáŀĦáŁĴáŀĢ áŀ¾áŀĵ
Ġ à¸£à¸²à¸¢à¸
ĠáŀĲáŁĴáŀĺáŀ¸ áŁĹ
Ġè Ģ
Ġáŀĥ áŀ¶áŀıáŁĭáŀģáŁĴáŀĽáŀ½áŀĵ
áŁĨáŀķáŁĴáŀĽ áŀ¶áŀī
Ġka pag
ļ à¹Ģà¸
áŀĴ áŁĴáŀĽáŀ¶áŀĶáŁĭ
áŀĬáŁĦáŀĻ áŀŁáŀ¶áŀļáŀ
Ġáŀĺáŀ»áŀģ áŀļáŀĶ
Ġáŀĳáŀ¸ áŀķáŁĴáŀŁáŀ¶áŀļ
Ġnat in
ĠáŀĢáŁĨáŀĸ áŀ¼áŀĽ
ĠàºĪ àºµàºĻ
ªà¸´à¸ Ĺà¸ĺ
Ġáŀ Ĵáŀ¶áŀĵ
àº»àº¡ àºļ
ĠRep ly
ul l
Ġsa b
Ġ} }
áŀĦ áŁĴáŀļáŀ¸áŀĢ
Ġàº® à»Īàº§àº¡
Ġàº¥ àº±àºĶ
Ġà®® à¯ģà®±
àºģàº²àºĻàº ª
ĠáĢ±áĢ ĺ
Ġ0 7
áĢ¡ áĢĢáĢ¼
áŀ¶áŀļáŀ ĶáŀŁáŁĭ
Ġà¸ ¨
Ġk ina
æ¬ ¡
Ġph áº£i
ĠáŀĳáŁĨáŀĵ áŀ¶áŀĢáŁĭáŀĳáŁĨáŀĵáŀĦ
ĠáŀĬáŁĦáŀĻáŀŁáŀ¶áŀļáŀ ıáŁĤ
àº°àº¡ àº²àºĻ
áĢŃ áĢ°
áĢ² áĢĲ
áĢ±áĢĳ áĢ¼
áĢĽ áĢŀáĢĬáĢ¹
áĢļáĢ¹áĢ Ģ
áĢĢáĢ¹áĢ ĻáĢ½áĢ¬
áĢ±áĢ¸áĢ ħ
Ġáŀĩ áŀ»áŁĨáŀľáŀ·áŀī
à®¾à® ª
ĠàºĶ àºµ
à»ī àº³
à¹Ģà¸ģà¸´à¸ Ķà¸
Ġmem b
áŀĶáŁĴáŀļáŀ ı
áŀĳáŁĨáŀĵ áŀ¶áŀĢáŁĭáŀĳáŁĨáŀĵáŀĦ
ala ng
áŀĤ áŀ·áŀļáŀ¸
áŀ¼áŀĽ áŀļáŀ½áŀĺ
Ġáŀľ áŀ·áŀħáŁĴáŀĨáŀ·áŀĢáŀ¶
à»ī àº½àº¡
Ġáŀ ªáŀĸáŀ»áŀĢ
áŀĵáŀ¶áŀĤ áŀı
±áĢ ģáĢº
ĠáĢĽáĢģ áĢŃáĢ¯áĢĦáĢ¹áĢ
ĠáĢŀ áĢĦáĢ¹áĢ·
ĠáĢķ áĢĲáĢº
áŀĢáŀ¶áŀļáŀ ĴáŁĴáŀľáŀ¾
Ġà®® à®ķ
é ª
áĤ ģ
áĢĦáĢļáĢ¹áĢ ģáĢºáĢĦáĢ¹áĢ¸
áĢ±áĢĢáĢº áĢ¬áĢ¹áĢ
ĸ áĢ¯áĢŃáĤĶ
ĠáĢĻ áĢ¬
à»Ħ àº¡à»ī
Ġâ Ĩ
ĠáŀĸáŁĴáŀĻ áŀ¶áŀĶáŀ¶áŀĽ
Ġn ot
ĠIn st
áŁĴáŀļáŀ ĵ
Ġà®® à®Łà¯įà®Ł
ĠáĢĲ áĢļáĢ¹
áĢĶ áĢ±áĢ¬áĢº
áĢĲ áĢĲáĢº
un it
áŀŁáŁģ áŀľ
Ń àºĩ
Ĺ à»Īàº½àº§
¸ à¹Īà¸¡à¸
Ġhá»į c
áŀĶáŁĴáŀļáŀĢ áŀ¶áŀĵáŁĭ
áĢ¶áĢ¯áĢ¸áĢ »áĢķáĢ³
áĢĻáĢºáĢ¸áĢ Ĩ
p k10
è ¢
áŀĢáŀ¶áŀļáŀ ļ
or k
ĭà¸ ·à¹īà¸Ń
ĠáŀĽ áŀ½áŀħ
à¹ģà¸Ļà¸ °
Ġim p
Ġáŀĩ áŁĴáŀļ
ļà¸²à¸ ĩà¸
Ġáŀ¢ áŀĶáŁĭáŀļáŁĨ
ĠáĢĽáĢĶáĢº áĢĢáĢ¯áĢĶáĢº
ĠáĢĽ áĢ²áĢ·
áĢĳ áĢ¶
Ġà®İ à®²à¯įà®²
áŁĴáŀļáŀ ĳ
áŁĴáŀĵ áŀĦ
áŁ¡áŁ ¢
áŀĺáŁĴáŀ ¢
áĢ±áĢĽ áĤĬ
áĢĻ áĢĢ
Ġpa l
áĢĦáĢ¹áĢ¸ áĢĢ
áĢĢáĢ¼ áĢŀáĢĬáĢº
áŀĩ áŀ¶áŀĤ
Ġàº £
Ġà®ħ à®²à¯įà®²
Ġkah it
áŀħ áŀ¶áŀŁáŁĭ
àºĽ àº°
Ġáŀļáŀłáŀ¼áŀı áŀĬáŀĽáŁĭ
Ġáŀļáŀ ĺ
àºĻà»ī àº³
ĠáŀĻáŁĦáŀĦ áŀıáŀ¶áŀĺ
áŁĴáŀīáŀ¶áŀĢáŁĭ áŀķáŁĴáŀ¢áŀ¾áŀĽ
áŀļáŀ¼áŀĶ áŀĹáŀ¶áŀĸ
áŀļ áŁĢáŀĶ
ĠáŀĲ áŀľáŀ·áŀĢáŀ¶
ª à¸Ńà¸ļà¸
ĠL e
áŀķáŁĴáŀĳ áŁĥ
áŀĶáŁī áŁĩáŀĸáŀ¶áŀĽáŁĭ
± c
ok ep
Ġpara an
áŀĳ áŀ·áŀī
Ġà¸ ¡à¸²
ªà¸ ³à¸Ħà¸
Ġà»ģàº¥ à»īàº§
áŀħ áŀ¶áŀĺ
áŀ» áŀıáŁĴáŀıáŀ·
áŀ·áŀŁáŁĦáŀĴáŀĵ áŁį
Ġke pada
±áĢľ áĢ¸áĢ
ĠáĢĿ áĢ«
àº°àºĻàº ±
çİ ©
áĢŀ áĢ¬áĢĽ
æ Ĳ
ĠáŀŁ áŀ¶áŀĴáŀ¶áŀļáŀİáŁĪ
Ġáŀĸ áŀ¶áŀĵáŁĭ
ģ à»į
ĠAug ust
áŀĸ áŁĴáŀļáŀ¹
±áĢ »áĢķ
r uary
ĠáĢĻ áĢŁáĢ¬
áĢ¶áĢĢ áĢŃáĢĶáĢ¹áĢ¸
¡ áĢ¬áĢ¸
q u
ç Ī
ĭ à¸µ
p it
áĢķ áĢĲáĢ¹áĢŀ
ĠáĢ»áĢĻáĢĶáĢ¹áĢĻáĢ¬ áĢ·
áĢŀ áĢ¬áĢ¸áĢ
áŀĶáŁĴáŀļáŀĢ áŀ½áŀı
ģáĢ²áĢ· áĢĲáĢ¬
ĠáĢŀáĢĺáĢ¬ áĢĿ
ĠáŁ¥ áŁł
áŀŁ áŀ¶áŀħáŁĭ
áŀ¡ áŁĤáŀĢ
ĠáŀĢáŁĴáŀĵáŀ»áŀĦ áŀĢáŀ¶áŀļ
ĠáĢĨáĢŃáĢ¯ áĢĲáĢ²áĢ·
ĠáĢ¡áĢ±áĢ»áĢģ áĢ¡áĢ±áĢĶ
Ġu rl
áĢĻáĢ½áĢ¬ áĢķáĢ«
±áĢľ áĢ¸áĢ±áĢĲáĢ¼
áĢĢáģł áĤĴ
áĢ¼ áĢŃáĢ¯áĢ·
Ġ! !
áŁĴáŀĵ áŁĥ
áŀķ áŁĤáŀĵ
áĢ¸áĢĢ áĢ¯áĢŃ
áĢ±áĢ ŁáĢ¬
ĠáĢ¡ áĢĤáģ¤
áĢŃáĢĻ áĢ·áĢº
Ľà¸ ¥à¸²à¸
è´ ¹
à¸£à¸ ĸ
áŀĶáŀ» áŀĤáŁĴáŀĤáŀĽ
áŀ¸ áŀŁ
h ah
åĬ ¿
u c
áĢĽ áĢ½áĢ¬
ĠáĢķáĢ¼ áĢĦáĢº
ĠáŀŁ áŀĹáŀ¶
Ł ³
ĠáŀĸáŁĲáŀıáŁĮáŀĺáŀ¶áŀĵ áŀĩáŀ¶áŀıáŀ·
ĠáŀĬáŁĨáŀİáŀ¾ áŀļáŀĢ
Ġà®ħà®µ à®°
«à¹ĩ à¸Ļ
àº· à»Ī
Ġk ita
ĠáŀĨáŁĴáŀĵ áŁĦáŀı
Ġth Ã¬
ĠáŀļáŀĦ áŁĴáŀľáŀ¶áŀĵáŁĭ
ĠáŀĹáŀ¶áŀĤ áŀ¸
Ġáŀĳ áŁĨáŀłáŁĨ
àº±àºĩàº ģàº
ģà¸ §à¹Īà¸²à¸
ĠN at
à®µ à®¿à®²à¯įà®²à¯Ī
Ġáŀ ±áŀĢáŀ¶áŀŁ
Ġta ong
Ġal l
Ġ0 5
áŀŁ áŀĦáŁĴáŀĢáŀ¶áŀıáŁĭ
Ġáŀĩ áŀ¿
l u
ĠFeb ruary
áĢ¯áĢ¶ áĢ¸áĢĻ
áŁĴáŀļáŀ¹ áŁĩ
å ĭ
Ġáŀĩáŀĵ áŀļáŀĦáŀĤáŁĴáŀļáŁĦáŁĩ
áŀ¶áŀĺ áŁĹ
áŀ¶áŀĵ áŀ¹áŀĦ
áº¡ o
à»īàºŃ àºĻ
Ġç Ļ
ĠáŀĸáŁĴáŀļáŁĩ áŀ¢áŀĦáŁĴáŀĤ
áĤıáģ ¶
áĢºáĢ¬ áĢ·
ĠáĢķ áĢĬáĢ¬áĢĽ
Ġáŀĩ áŀ¸áŀľ
à®¿à®±à¯įà®ķ à¯ģ
áŀļáŀ ł
ĠãĢ ĭ
ĠáĢ¡ áĢĸáĢ¼áĢ²áĤĶ
áĢĨáĢŃáĢ¯áĢĦáĢº áĢĽáĢ¬
áŀĴ áŁĴáŀĽáŀ¶áŀĢáŁĭ
Ħà¸ ·à¸Ń
et a
áŀĤ áŀ¶áŁĨáŀĳ
áŀĢ áŀĵáŁĴáŀĽáŀĦ
áŀĢ áŀĢ
una n
áĢĨ áĢ²
æķ Ļ
ĠáĢĳ áĢŃáĢ¯áĤĶ
áĢŀ áĢľáĢ²
áĢĻáĢ½áĢ¬ áĢ±áĢĲáĢ¬áĢ·
ĠáĢĲ áĢħáĢ¹
áĢĶ áĢ±áĢŀ
àº°àº¡ àº²àºĬ
ĠáŀķáŁĴáŀŁ áŀ¶áŀļ
ĠáŀĬ áŀĬáŁĤáŀĽ
Ġ2 6
áŁĴáŀļáŀ¾ áŀĶáŁĴáŀļáŀ¶áŀŁáŁĭ
à»ĢàºĪ àº»à»ī
à¹Ĥà¸¥à¸ ģ
Ġm y
in i
áŀļáŀĬáŁĴáŀĭ áŀĶáŀ¶áŀĽ
áŀĳáŀ¸ áŀıáŀ¶áŁĨáŀĦ
àºĶ àºģ
áŀĲáŁĴáŀĺáŀ¸ áŁĹ
vi ous
ĠáŀĢáŀ¶áŀļáŀ Ģ
Ġà®ħ à®³
Ãº c
àº²àº ķ
áŁĴáŀĻ áŀ¼
s er
Ġk ong
Ġno ong
áŀĶáŀīáŁĴáŀħ áŀ¼áŀĽ
¢àº¹à»Ī à»ĥàºĻàº
åº Ĺ
¡à¸ ±à¸Ļà¸
áŀħ áŀ¶áŀĻ
ĠáŀŁáŀ» áŀľáŀıáŁĴáŀĲ
Ġáŀļ áŁĢáŀĦ
Ġáŀĵáŀ·áŀĦ áŀ¢
áĢģ áĢŃáĢ¯áĢĢáĢº
å ²
áŀŁáŀ¶áŀļáŀĸ áŁĲáŀıáŁĮáŀĺáŀ¶áŀĵ
áŀĹ áŁģáŀĳ
áº± ng
áŀĶ áŀ¢
Ľàº°àº ª
à ¤
à®µ à¯Ī
áŀĬ áŀ¼áŀĦ
ĠáŀĬáŁĦáŀĻ áŀĺáŀ¶áŀĵ
Ĥ à¹īà¸Ńà¸
ĠáŀģáŁĤ áŀĺáŀ¸
áŀ»áŀĳáŁĴáŀĴáŀ ĵ
ĠáŀŁ áŀĦáŁĴáŀĥ
áĢĢáĢŃáĢ¯ áĢĦáĢº
ĠáŀĹáŁĴáŀĽ áŀ¾áŀĦ
Ľ àº°à»ĢàºĹàºĶàº
ĠáŀģáŁĤ áŀľáŀ·áŀħáŁĴáŀĨáŀ·áŀĢáŀ¶
ĠáŀĢ áŁĴáŀıáŀ¸
em b
áĢ¡ áĢĸáĢ¼áĢ²áĤķ
ĠáĢŀáĢ° áĤķ
ĠáĢĵ áĢ¬áĢĲáĢ¹áĢ
ĠáĢĲ áĢŃáĢ¯áĢĦáĢºáĢ¸áĢ
áŀĽáŁĴáŀĶ áŀ¸
áģ¾áĢĢ áĢĲáĢ¬
áĢħáĢ¹áĢ Ļ
áĢ¶áĢ¯ áĢ¸áĢŀ
ĳ áĢ¼áĢĢáĢ¹áĢ
ĠáĢĢáĢ» áĢ±áĢ¬áĢĢáĢº
à¸²à¸ ¡
¡à¸ ±à¸Ļ
áŀĳáŀ¶áŁĨáŀĦ áŀĸáŀ¸
áĢ¡ áĢĲáĢ½áĢĦáĢºáĢ¸
Ġáŀ¢ áŀ¶áŀĢáŀ¶áŀŁ
èµ ·
Ħ àº°àºĻàº°
Ġà¸ Ĥà¸Ńà¸ĩ
Ġà»ĢàºĬ àº´à»Īàºĩàº
áŀĳáŀ»áŀĢ áŁĴáŀģ
ĠáŀĬ áŁĦáŁĩ
ĠáŀĨáŁĴáŀĽáŀ¾áŀĻ áŀıáŀĶ
áŀļáŀ¶áŀĩáŀĴáŀ¶áŀĵáŀ¸ áŀĹáŁĴáŀĵáŁĨáŀĸáŁģáŀī
áŀĹ áŁĴáŀīáŁĢáŀľ
ķà¸ ģà¸
Ġalis in
áŀıáŀ¶áŁĨáŀĦ áŀĸáŀ¸
à®© à¯įà®ª
Ġbaba e
y os
h one
ĠáŀļáŀĶáŀŁáŁĭ áŀģáŁĴáŀĽáŀ½áŀĵ
±áĢĶ áĢĽáĢ¬
x x
Ĳ áĢ¯áĢŃáĤĶ
Ģ áĢ¬áĢ¸
ĠáĢ±áĢĲáĢ¬ áĢ·
áĢģáĢº áĢŃáĢ³áĤķ
áĢĢáĢŃáĢ¯ áĢľáĢĬáĢ¹áĢ¸
±áĢ»áĢĻ áĢ¬áĢĢáĢ¹áĢ
ĠáģĤáģĢáģģáģ ī
ĠáĢĺáĢļáĢ¹áĢ ŀáĢ°
áĢŀáĢ¼ áĢ¬áĢ¸
áĢľáĢ»áĢ¾ áĢĦáĢº
ĠáŀıáŁĴáŀļ áŁĢáŀĺ
ĠRe ad
áŀĬ áŀ¶áŀħáŁĭ
ig ing
é »
áŀĩ áŀ¶áŀĽ
áŀģ áŀ¶áŀĵ
ĠàºĦ àº·
à»ĪàºŃ àºį
» ¿
p l
Ġï »¿
ĠáŁ¢áŁłáŁ¡áŁ ¥
áŀĺáŀ¼áŀĽ áŀĬáŁĴáŀĭáŀ¶áŀĵ
æľ į
áŀĹáŁĴáŀĽ áŀº
áĢĲ áĢĶáĢ¹áĢ¸
áĢ±áĢ¸áĢ ķ
áŀ·áŀŁ áŀ¸
ĠáŀŁáŁĴáŀĵ áŀĦ
à¸£à¸´à¸ ¡à¸
ĠáŀŁáŀĺáŁĴáŀıáŁģáŀħ áŀıáŁģáŀĩáŁĦ
ĠáŀŁáŀ¸áŀł áŀ¶
ĠáŀĺáŀĢ áŀĸáŀ¸
à¹ĩà¸ Ħ
àº²àº¡ àºµ
Ĺà¸ ±à¸
á»ĳ ng
Ġ2 9
áŀĶáŁĴáŀļáŀŁ áŀ¶áŀŁáŀĵáŁį
Ġsa ya
Ġè ¯
áŀĶ áŀļ
áĢ±áĢ ļáĢ¬áĢĢáĢ¹áĢ
ĠáĢķáĢŃáĢ¯ áĢĻáĢŃáĢ¯
áŀı áŁĴáŀļáŀĦáŁĭ
Ġà® Ĳ
gam it
áŀ¶áŀĲ áŁĴáŀĺáŀ¸
Ġor ang
ĠáŀŁ áŀĢáŀĺáŁĴáŀĺ
ĠáŀĺáŀĵáŁĴáŀĳáŀ¸ áŀļ
ĠáŀĸáŁĴáŀļáŁĩ áŀŁáŀ¸áŀłáŀĵáŀ»
ĠáŀĶ áŀİáŁĴáŀĮáŀ·áŀı
ĠáŀĲáŁĴáŀĦáŁĥ áŀĵáŁģáŁĩ
àº»àºļàº® àº»àº¡
Ĺ àº±àºļ
ĠáŀģáŁĤáŀĢ áŀīáŁĴáŀīáŀ¶
áŁĴáŀĦ áŀ¶áŀĻ
áĢĿ áĢĿ
áĢ¬áĢ¸áĢĻ áĢ¾áĢ¬
Ĺà¸ĩà¸ ļà¸Ńà¸¥
à¸Ńà¸ ·à¹Īà¸Ļ
áŀł áŁħ
Ġàº«àº¼ àº²àºį
or n
Ġy an
Ġf ung
Ġd ala
à»įàº²àºĻàº §
à»ĪàºŃàºĩàº Ĺà»Īàº½àº§
ĠáĢ§ áĢĽáĢ¬
áĢ½áĢº áĢĦáĢ¹
ĠáĢ±áĢ ģáĢº
áĢħ áĢĬáĢº
Ġà®Ĩà®© à®¾à®²à¯į
åħ ĭ
áŀŁáŀĺ áŀıáŁĴáŀĲáŀĹáŀ¶áŀĸ
áŀĩáŀĵ áŀŁáŀĦáŁĴáŀŁáŁĲáŀĻ
ĠV O
áŀľ áŀı
£ p
áĢ¬áĢ¸áĢĲ áĢ½áĢĦáĢº
Ġa lam
à¹Ģà¸ Ķà¸
áŀļáŀĶáŀŁáŁĭ áŀĤáŀ¶áŀıáŁĭ
Ġat ing
ĺà¸¸ à¸£à¸
àºŃàºļ àºĦ
¸à¸ ¡à¸
áŀıáŁĴáŀĲ áŀ·áŀĹáŀ¶áŀĸ
Ġt i
d uk
áŀĩáŁĴáŀ Ī
áŀ¶áŀļáŀ ĳ
à®¾à® ªà¯įà®ª
ag i
áŀ¶áŀĻ áŀĺáŀ¶áŀĵáŀĩáŁĲáŀĻ
ĠâĢĭ. âĢĭ
ĠáŀŁáŁĨáŀİ áŀ¶áŀĦ
ĠáŀĺáŁī áŀºáŀĵ
ĠáŀĵáŁħ áŀıáŀ¶áŀĺ
àºĻà»įàº² à»ĥàºĬà»ī
àº²àº Ń
Īà¸ ³
Ġáŀħ áŀ¶áŀĢáŁĭ
ĠáŀĢáŀ¶áŀļáŀ Ĭ
ä¸ ľ
Ã´ n
áŁģ áŀļáŀ¸
Ġà®ĩ à®²
áŁ¢áŁł áŁ¢áŁł
áŀĽ áŀĢáŁĴáŀģáŀİáŁĪ
àº±àºĶàº Ī
Ġmer eka
Ġå ¯
áŀħ áŁĴáŀĨ
à¹ ĭ
áŀ¢ áŀıáŁĭ
à®µ à®°à¯į
ĠáŀĶáŁī áŀ¼áŀĽáŀ·áŀŁ
¨à¸²à¸ ªà¸
ĠáŀĶáŀīáŁĴáŀħ áŁģáŀī
Ġna sa
àº« àº¡
«àº¼ àº·
ĤàºŃàºĩàº Ĺà»Īàº²àºĻ
ĠáŀĤ áŀ¼
áŀ¶áŀļáŀ ħ
Ĥ áŀ¶áŀĽáŁĭ
Ġà®¤ à®°
æĹ¶ æĹ¶å½©
è§ Ĩ
ĠáŀŁáŀĺ áŀ¶áŀĤáŀĺ
ĠáŀļáŀĶ áŁĢáŀĶ
Ġà»ģàº ľ
áĢ¬áĢ¸áĢĲ áĢļáĢ¹
ĠáĢ¡áĢ±áĢ»áĢģ áĢģáĢ¶
áĢĶ áĢ±áĢĽáĢ¬
ĠáŀĪ áŀ¶áŀĵ
à»īàº²àºŀàº°à»Ģàº Īàº»à»īàº²
àºŀ àº§àºģ
ĠáŀĢáŁĴáŀļáŁĦáŀĻ áŀĸáŀ¸
ĠM ore
áŀĳáŁħ áŀĽáŀ¾
àº²àº ¥àº°àº
«à¸ į
åı Ĭ
àº° à»ľ
áŀĳáŀ»áŀĢ áŀĬáŀ¶áŀĢáŁĭ
Ġà®µ à¯Īà®¤à¯įà®¤
à¸£à¸²à¸ ¢
áŀºáŀĺáŁī áŀĦáŁĭ
Ġbah ay
Ġd o
Ġf rom
Ġw e
w an
áŀ¶áŀĢáŁĭáŀĳ áŀ¶áŀī
Ġà®® à®¿à®ķ
Ġà¸ªà¸¡à¸±à¸ Ħà¸£
Ħà¸£à¸ ·à¹Īà¸Ńà¸ĩ
æ Ĵ
it ut
ĠáŀŁáŁĴáŀļ áŀ¶áŀľáŀĩáŁĴáŀļáŀ¶áŀľ
ģà¹Ģà¸ Ħà¸£à¸Ķà¸´à¸ķà¸Łà¸£à¸µ
ŀà¸´ à¹Īà¸¡à¸
ĠáŀŁáŀĺ áŁĲáŀĻ
raw an
áĢĶ áĢ®áĢ¸áĢ
ĠáŀĢ áŀİáŁĴáŀıáŀ¶áŀĽ
à¸Ńà¸²à¸ Īà¸
ĠN ext
áŀĽ áŀ¿áŀĵ
áĢħáĢ¹áĢħ áĢĬáĢº
á»ĭ ch
çĽ ´
ĠH e
áŀĺáŁī áŀºáŀĵ
áŀĺáŀ·áŀĵ áŀĶáŀ¶áŀĵ
Ġg ra
àº§ àºĶ
os e
áŀĶáŀħáŁĴáŀħ áŀ»áŀĶáŁĴáŀĶáŀĵáŁĴáŀĵ
áŀĬ áŁĤáŀĵ
áĢ¶áĢ¯ áĢ¸áĢħ
áĢĻáĢ¾áĢ¯ áĢĢáĢŃáĢ¯
áŀĢáŀ¶áŀļáŀĶ áŁĴáŀļáŀĢáŀ½áŀı
Ġf ace
Ġbag o
ĠáŀłáŁģáŀıáŀ» áŀĢáŀ¶áŀļáŀİáŁį
ĠáŀĶáŁī áŁĩáŀĸáŀ¶áŀĽáŁĭ
Ġ à»Ģ
åĨ ħ
ĠáŀĶ áŁĨáŀĸáŁģáŀī
àºģàºĩ àº²àºĻ
ĠáŀĳáŁĨáŀĵ áŀ·áŀī
àº±àºļàºªàº´àºĻàºĤàºŃàºĩàº ¥àº±àºĶ
® àº½àºĻ
Ġáŀħ áŁĴáŀļáŀĢ
ĠáŀĢ áŀ»áŀĺáŀ¶áŀļ
Ġáŀ¢ áŀĹáŀ·áŀľáŀĮáŁĴáŀįáŀĵáŁį
áŀĸ áŀ¶áŀĵ
áŀİáŁĴáŀĮ áŀ¶
ic k
m o
Ġà¸§à¸´à¸ĺ à¸µ
Ġà®¨ à®¾à®Ł
à¸µ à¹īà¸
' '
àº°àºŃ àº»àºĩ
Ġáŀļáŀ» áŀŁáŁĴáŀŁáŁĬáŀ¸
ĠáŀĺáŁĴáŀı áŀĦ
Ġàºļ à»įàº¥àº´
ĠáŀĶáŁĴáŀļáŀĩ áŀ¶
áŁģ áŀĩáŁĴáŀļ
áŀ·áŀĶ áŀ¶áŀĢ
Ġàºģàº §
áĢħ áĢ¬áĢ¸áĢľ
àºŃ àº²àºĶ
at an
łà¸²à¸© à¸²
áŀ¶áŀĺ áŀĸáŀĽ
áĢĸ áĢĢáĢº
ĠáŀĶáŁĴáŀļáŀ ıáŀ·áŀĶáŀıáŁĴáŀıáŀ·
åı ·
áĢ¶ áĢķ
ĠáŀĶáŀļáŀ· áŀŁáŁĴáŀĲáŀ¶áŀĵ
ĠáŀĶáŀĳ áŀĽáŁĴáŀĺáŀ¾áŀŁ
ĠáŀĴáŁĴáŀľáŀ¾ áŀ²áŁĴáŀĻ
áŁĨáŀİ áŁĦáŀĻ
áŀŁáŀĺ áŁĴáŀıáŁģáŀħ
áŀŁ áŀ·áŀĵ
Ġre m
Ġ201 1
ar dia
Ġka pa
áŀĸáŁĴáŀļáŀĺ áŀĸáŁĴáŀļáŁĢáŀĦ
Ġà¸ ľà¸¥à¸
à¸µà¸¢à¸ §à¸
áŀ»áŀıáŁĴáŀıáŀ· áŀĴáŀĺáŁĮ
® àº¹àºļ
áŀ¢ áŁģáŀŁ
m e
Ġé ĩ
ĠáŀŁáŁĴáŀĲáŀ·áŀı áŀĵáŁħ
im b
ĠáŀŁáŀ» áŀľ
Ġáŀľ áŀĶáŁĴáŀĶáŀĴáŀĺáŁĮ
áĢ±áĢľ áĢ¬áĢĢáĢ¹
áĢ ĮáĢ¬áĢĶ
ĠáĢķáĢ¼áĢĬáĢº áĢŀáĢ°
Ã ¨
áĢĲ áĢŃáĢ¯áĢĢáĢ¹áĢ
áĢ±áĢķáĢĻ áĢļáĢ¹áĢ·
ĠáĢ¡ áĢĲáĢ°
«àº¼ àº§àºĩ
ĠáŀļáŀĢ áŁĴáŀŁáŀ¶
Ġ áĤĶ
áĢģáĢ²áĢ· áĢŀáĢĬáĢ¹
ķ áĢ¯áĢ¶
Ġà®ķ à¯ģà®´
æĦ ı
ĠáĢĴáĢ® áĢĢ
ĠáŀĶáŁĴáŀļáŀĩ áŀ»áŁĨ
Ĺ àº¸àºģàº
ĠáĢĢ áĢŃáĢħáģ¥
ĠáĢ±áĢ»áĢĻ áĢ¬áĢĢáĢ¹áĢ
ĠáĢ¡áĢŀ áĢ¶
ª à¹Īà¸ĩ
Ġb aga
ĠáŀĶ áŁĨ
Ġáŀ¢áŁĬáŀ¸ áŀļáŁī
áĢ¸áĢĻáĢº áĢ¬áĢ¸
áĢŃ áĢħáĢ¹áĢħ
Ġw eb
Ġ0 3
áŀĹ áŀ·
Ġà¹ģà¸ ¥
áŀĢ áŁĴáŀıáŀ¸
áĢĽ áĢĢáĢ¹áĢ
áĢĸáĢ¼áĢħáĢº áĢķáĢ«áĢĲáĢļáĢº
Ļ áĢ»
Ġà»ģàº« à»Īàºĩ
Ġàºŀ àº°
àº· àºĻàº
áŀĢ áŀĺáŁĴáŀļáŀ·áŀı
c l
ľà¸¥à¸´à¸ ķà¸
± à¹īà¸Ļ
Ġàºĩ àº²àºĻ
Æ¡ i
àºģàº§ à»Īàº²
à¯ģà®ķ à®¿à®©à¯įà®±
Ġáŀł áŁģáŀĦ
Ġáŀļáŀ Ĭ
6 6
æ¯ Ķ
à¹ĩà¸ Ķà¸
ĺ à¸£à¸£à¸¡à¸
Ġáŀĺ áŀ¶áŀŁ
ĠáŀĶáŁĴáŀļáŀ Ĭ
ĠáŀŁáŁģ áŀļáŀ¸
ĠáŀıáŁĴáŀļ áŀ¶áŁĨ
ĠáŀģáŁĤáŀĺáŀ¸ áŀĵáŀ¶
Ġ ro
ĠáŀĢ áŀ¶áŀŁ
à»Ŀ àº»àºĶ
Ġmawala n
Ġpana hon
ĠPre vious
áŀŁ áŀļáŀ»áŀĶ
áŀĴáŀ¶ áŀıáŀ»
à¸Ļà¸²à¸ Ķ
r ou
à»ģàºģ à»ī
c to
ĠáŀĺáŁī áŀ¶
ķ áĢĦáĢ¹áĢ
ĠáĢĲáĢķáĢ¹áĢĻ áĢ±áĢĲáĢ¬áĢ¹áĢ
ĠáĢ±áĢĴáĢ« áĢĢáĢ¹áĢĲáĢ¬
áĢĶáĢ¹ áĤķ
áĢ±áĢ ĸáĢ¼
ĠáŀĶ áŀ¶áŀĢáŁĭ
ĠáĢĻáĢŃ áĢĺ
ĠáĢ±áĢĲáĢ¬ áĢĦáĢ¹áĢ¸
áĢŀ áĢħáĢº
à»Ģàº« àº±àºĻ
ĠáŀĴáŀĵ áŀ¶áŀĤáŀ¶áŀļ
ĠáŀĳáŁħ áŀĽáŀ¾
ļà¸ ¸
ĠáŀĳáŁħ áŀĢáŀ¶áŀĵáŁĭ
Ġà®µà®¿à® ³
à¹ģà¸ Ľà¸
æĢİ ä¹Ī
Ġå ¥
Ġs u
áĢ±áĢĶ áĢĲáĢ¬
Ġon line
áĢľ áĢ»
® à»Īàº²àºĩàºģàº²àºį
Ġáŀĳ áŀĵáŁĴáŀĽáŁģ
il ing
Ġáŀĩ áŀ¶áŀĵáŁĭ
ĠáŀĢáŀ¶áŀļáŀ ĴáŁĴáŀľáŀ¾
ç³ »
Ġàºģàº »
àºĹàºµà»Ī àº¡àºµ
ĠáŀĢ áŀ¼áŀļáŁīáŁģáŀģáŀ¶áŀĦ
áŁĨáŀİáŀ¾ áŀĵ
áŀŁáŀĺ áŁĴáŀĽáŀ¶áŀĶáŁĭ
áŀļáŀĶáŀŁáŁĭ áŀĻáŀ¾áŀĦ
áŀĺáŁĴáŀĽ áŁĦáŁĩ
áŀĺáŀ·áŀĵ áŀ¢áŀ¶áŀħ
e lah
áĢ»áĢķ áĢ®áĢ¸áĢ
áĢ±áĢĢ áĢ¬áĢĦáĢ¹áĢ
áĢ¯áĢŃ áĢ¸áĢĽ
áĢ¯áĢŃ áĢ¸áĢ
ĠáĢĽáĢ¬ áĢģ
d er
ĠáĢ¡ áĢĸáĢ¼áĢ²áĤķ
áĢĶáĢ±áĢ ĲáĢ²áĢ·
áĢ±áĢĶ áĢ¬áĢĢáĢ¹áĢ
áĢ¬áĢ¸áĢĻ áĢ¾áĢ¯
Ġp os
Ġà¸ Īà¸°à¸
Ã¢ m
áŀħ áŀ¹áŀĦ
éĻ ¢
áŀĤáŁĴáŀļáŁĦáŁĩ áŀĲáŁĴáŀĵáŀ¶áŀĢáŁĭ
ĠáŀŁ áŀ¶áŀĴáŀ¶áŀļáŀİ
Ġáŀĺ áŀ·áŀĲáŀ»áŀĵáŀ¶
±à¸ĩà¸ģà¸¤à¸ ©
áŀľáŀ· áŀĴáŀ¶áŀĵ
áŀľ áŁģ
çĿ Ģ
Ġb u
à®Łà¯įà®Ł à¯ģ
áŀļáŀ ģ
àºķ à»Īàº²àºĩ
Ġ à¹ĥà¸«à¹īà¸
áŀĺáŀ·áŀĵ áŀĳáŀ¶áŀĵáŁĭ
Ġáģģáģ Ĩ
áŀ·áŀľ áŀıáŁĴáŀı
à¹Ģà¸ Ĥà¹īà¸²à¸
à®Ļà¯įà®ķà®³ à¯Ī
áŀ¡ áŀ¶áŀĻ
o h
áĢķáĢ¹áĢ ŀ
áĢħ áĢ¶áĢ¯
áĢ±áĢ¸áĢ ģáĢ»
ĠáŀĽ áŀ·áŀģáŀ·áŀı
àº²àº Ī
T 00
ŀà¸Ļà¸ ±à¸Ļ
à¸µà¸¢à¸ §
ĠáŀļáŀĶ áŀ¶áŀĻáŀĢáŀ¶áŀļáŀİáŁį
ĠáŀĬ áŁĤáŀĵ
Ġw r
Ġma p
àºª àº³
áĢ¡ áĢ±áĢ»áĢģ
áĢĽ áĢĲáĢļáĢ¹
áĢĻ áĢľáĢ²
áĢĦáĢº áĢ¸áĢĢ
ĠáŀĢáŀ¶áŀļáŀ Ĥ
ar k
Ġ à¸£à¸±à¸ļà¸
Ġ00 Z
ģà¸ İ
Ġà®ļ à¯ĩà®°
Ġï¼ Ł
ĠáŀĢ áŀ¼áŀļáŁīáŁģ
Ġila ng
Ġáŀ¢ áŀĹáŀ·áŀľáŀĮáŁĴáŀį
áĢģáĢº áĢħáĢ¹áĢ
áĢ°áĢ¸áĢ ļ
éĺ ³
ĠJan uary
áŀĳáŀ¸ áŁ¡
áŀĦáŁĴáŀļ áŁĴáŀĤ
ģ n
ĠáŀĶáŁĴáŀļáŀ Īáŀĺ
ĠáŀĶ áŀĬ
¡ áĢĽ
ĠáŀĨáŁĴáŀĵáŀ¶áŁĨáŁ¢áŁłáŁ¡áŁ §
ĠR es
áŀŁáŀł áŀĶáŁĴáŀļáŀıáŀ·áŀĶáŀıáŁĴáŀıáŀ·
áŀŁáŀĺ áŁĲáŀĻ
ĠáĢĽáĢ½ áĢĦáĢ¹áĢ¸
ĠáĢ¡ áĢĢáĢ»
? ?
æ± Ł
ç» ĵ
ŀ àº²àºį
áŀĵ áŀ·áŀĢ
à®® à¯ģà®®à¯į
áŀĩ áŀ¶áŀĸ
áĢŀ áĢĲáĢĦáĢ¹áĢ¸
±áĢĢáĢ¬áĢĢáĢ¹áĢ ķáĢ¼áĢ²
Ġáģģáģ ī
ļà¸£à¸´à¸©à¸±à¸ Ĺ
Ġà®ı à®±à¯įà®ª
áŀħáŁĨáŀİ áŁĦáŀĺ
Ġáģģáģ ĩ
Ķà¸ §à¸
Ľà»Īàº½ àºĻ
e ch
ĠáĢĸ áĢ½
ĠáŁ¢ áŁ¢
Ġáŀľ áŀıáŁĴáŀĲ
ç ±
Ġ. âĢĿ
p ina
ĠáŀĺáŁĴáŀı áŀ¶áŀĻ
Ġáŀĳ áŀ·áŀľ
ĠáŀģáŁĤ áŀĴáŁĴáŀĵáŀ¼
ĠÂ ®
áŀŁ áŀ»áŁĨ
à¸² à¸Ļà¹Ģà¸
áŀļáŀı áŁĭ
ĠáŀŁ áŀĦáŁĴáŀŁáŁĲáŀĻ
Ġáŀļ áŁĨ
áĤĪ áĢŃ
áĢĶáĢ¾ áĢ¯áĢĶáĢº
ĠáŀĢ áŁĨáŀİ
ĠInst itut
áŀļ áŁĦáŀĤ
áŀĳáŁĴáŀĴáŀ· áŀĸáŀĽ
Ġà®ª à¯ģà®¤
à¹Ī à¸Ńà¸ĩà¸
áŀĳ áŀ¾áŀĶ
Ġà» ĤàºŃ
à»Ĥ àºĹ
à¹ģà¸ Ī
áŀ¼áŀı áŁĴáŀļ
áŀ·áŀĵáŁĴáŀĵ áŀĵáŁĲáŀĻ
t as
or ld
ic h
Ĵáŀ ¶áŀıáŀ»
ªà¸ ³
à®¨à¯įà®¤ à¯ģ
ĠáŁĸ âĢĭ
ĠáŀŁ áŁĴáŀĦ
ĠáŀĢáŀ¾áŀı áŀłáŁģáŀıáŀ»
Ġáŀ¯áŀĢ áŀŁáŀ¶áŀļ
»áĢĸáĢħáĢ¹áĢ ŀáĢĬáĢ¹
ĠáĢ¡ áĢŃáĢķáĢ¹áĢ
áĢĦáĢ¹áĢ±áĢ »áĢķ
áĢļáĢ¹áĢľ áĢ¯áĢŃáĤĶ
áĢĻáĢ» áĢ¬áĢ¸áĢ
ĠA pp
áŁģáŀŁ áŀ¶áŀĳ
áŀļáŁĨáŀĽ áŁĤáŀĢ
áŀķáŀĽáŀ·áŀı áŀķáŀĽ
áŀĵáŀ» áŀľáŀıáŁĴáŀı
è ¨
áŀĳáŁĴáŀĴáŀ Ł
áŀİ áŀ¼
Ġb ut
áŀĩ áŀ¶áŀļáŀ
Ġh al
à¯įà®¨à¯įà®¤ à¯ģ
áŀħáŀĺ áŁĴáŀļáŀ¾áŀĵ
áŀĢáŁĨáŀĸ áŀ¼áŀĽ
à¹Ģà¸£à¸ ´
ħ n
ĠáŀĶ áŀİáŁĴáŀĬáŀ¶áŀĽ
ĠáŀĶ áŀĦáŁĴáŀĤ
ĠáŀĢáŁĤ áŀľ
Ġáŀ¢ áŁĨáŀİáŀ¶áŀħ
àºĹ àº±àºĩ
æ »
Ġáŀ¢ áŀ¶áŀİ
áŁĲ áŀİáŁĴáŀĮ
áŀĩ áŀ¿
Ġà®ķ à®µ
d e
áŀĢáŁĴáŀļ áŀ¶áŀĺ
cto ber
.. .
Ġáŀļáŀ Ĳ
Ġà¹Ģ à¸£à¸²à¸
áĢ³ áĢ¶
ĠáĢħ áĢĢáĢº
Ġà»ĥ à»Ŀà»Ī
ĠàºĹ àº°
àº½ àº§
iá»ģ n
Ġh angga
Ĺà¸²à¸ ĩà¹Ģà¸
Ġ ć
è į
Ġáŀĸ áŀĦáŁĴáŀļáŀ¹áŀĦ
Ġáŀıáŀ»áŀĽ áŀ¶
áĢĢáĢ» áĢ±áĢ¬áĢº
ĠáŀĢ áŀ¶áŁĨ
ĠO ctober
áŀŁáŀĺáŁĴáŀĶ áŀıáŁĴáŀıáŀ·
à¯ģà® Ļà¯įà®ķ
áŀĸ áŁĦáŁĩ
áŀĶáŀ¶áŀĵ áŀĴáŁĴáŀľáŀ¾
éĩ ı
áĢĢáĢ¹áĢĨ áĢ¶
Ġáģ¿ áĢĦáĢŃáĢĻáĢ¹áĢ¸áĢģáĢºáĢĻáĢ¹áĢ¸
ĠáĢĽ áĢ¼áĢ¬
ĠáĢĺáĢ¬ áĢĻáĢ½
ĠáĢĸ áĢĻáĢ¹áĢ¸áĢĨ
ĠáĢ¦ áĢ¸
ĠáĢ¡áĢģáĢ¯ áĢľáĢŃáĢ¯
ĠáĢ¡ áĢĸáĢ½áĢ²áĢ·
Ġàºļ àº±àºĻ
àºĻ à»Ħ
áŀ¶áŀĺ áŀ·áŀĵ
· à¸Ļ
Ġà®®à¯ĩ à®²
iá»ĥ m
àº¸àºļ àº±àºĻ
ep t
V I
Ī áŀĶáŁĭ
ĠáŀļáŀĶáŀŁáŁĭ áŀĽáŁĦáŀĢ
áĢģáĢ¶ áĢ³
ľ áĢ¬áĢ¸
ĠáĢĲáĢĢ áĢļáĢ¹áĢ
Ġb log
áĤĲ áĢ¯áĢķáĢ¹áĢ
áĢĲ áĢ¶
Ġáŀĸ áŀĵáŁĴáŀĴáŀ
ĠáĢķ áĢ»
ĠáŀĲ áŁĴáŀĵáŀ¶áŁĨ
kar oon
à¹ģà¸ ¡à¸
¥à¸·à¸Ńà¸ Ķà¸
Ġáŀı áŁĴáŀĶáŀ¼áŀĦ
§à¸±à¸Ļ à¸Ļà¸µà¹ī
Ġ/ /
áŀĶ áŀ¶áŀļáŀ¶áŁĨáŀĦ
ĠáĢĢ áĢ¯áĢĶáĢº
àº¸àºĶàº Ĺ
ªà¸´ à¹Īà¸ĩà¸
Ġb o
áŀıáŀ· áŀľáŀ·áŀĴáŀ¸
å¸ Ī
áŀ¶áŀĢ áŁĴáŀļáŀĢáŁĭ
àº¡ àº°àº
áŀ¢ áŀ¶áŀĻáŀ»
Ġáŀľáŀ· áŀĴáŀ¶áŀĵ
ĠáŀĶáŁĴáŀļáŀŁ áŀ¶áŀŁáŀĵáŁį
çī ©
Ġáŀĵ áŀ¶áŀļáŀ¸
ĠáŀĤ áŁĦáŀļáŀĸ
ĠA nd
áŁĴáŀĺ áŀ»áŁĨ
áŁĴáŀı áŀĽáŁĭ
Ĥ àº¶à»īàºĻ
áĢŃáĢĲáĢ¹áĢ Ĩ
áĢĢáĢ¹áĢ Ķ
áĢľ áĢĬáĢ¹áĢ
áĢģáĢº áĢĢáĢ¹
ĠáĢĻ áĢŃáĢ¯áĢ¸áĢ
áģĢáģĢ áģĢ
áŀŁáŀĦáŁĴáŀĤ áŁĴáŀļáŁĦáŁĩ
áŀŁ áŁĴáŀıáŀ¸áŀĸáŀ¸
áŀļáŀĢ áŀĥáŀ¾áŀī
áĢĲáĢĬáĢ¹áĢ¸ áĢĢ
»áĢĻ áĢĦáĢ¹áĢ
ĠáĢĲ áĢ½áĢĦáĢº
Ġi ka
am il
à¯Īà® ®
áŀĶ áŀļáŀĳáŁģáŀŁ
áŀĵ áŀ·áŀĻáŀĺ
áŀĵ áŀ¶áŀŁ
ĠàºĬ àº¶à»Īàºĩ
áŀħáŁĨáŀİ áŀ¼áŀĽ
Ġ à¹Ħà¸Ķà¹īà¸
à¯Īà®ķà¯įà®ķ à¯ģ
áĢĻáĢ¬ áģ»
Ĩ áĢĽáĢ¬
ĠáĢķáĢ¼ áĢ²
ĠáĢĴáĢ«áĢ±áĢķáĢĻ áĢ²áĢ·
áĢħ áĢ¯áĢ¶
áŀ½áŀī áŀĬ
áŀ¶áŀĳ áŁħ
Ġàºģàº ´
Ġà¸Ńà¸ ±à¸
ĠB uh
ĠA N
E S
Ġáŀı áŁĴáŀļáŀ¡áŀĶáŁĭ
ila la
à®Ł à¯įà®ļ
ĠáŀĤáŁĴáŀļáŀ¶áŀĵáŁĭ áŀıáŁĤ
áĢ¬áĢ¸áĢĽ áĢ½áĢŃ
Ľ áĢķáĢ¹áĢ
ĠáĢĶ áĢ¬áĢ¸áĢľ
¡à¸·à¸Ńà¸ ĸà¸·à¸Ń
5 5
à¹ģà¸ ŀà¸
ĠÄĳ i
ĠáŀĢáŀĺáŁĴáŀ Łáŀ¶áŀĵáŁĴáŀı
ĠáŀĢ áŁĨáŀł
ĠáĢ±áĢľ áĢ·áĢľáĢ¬
áĢĳ áĢĢáĢº
à®µ à®°à¯įà®ķà®³
ĠáŀĢ áŀ»áŀĺáŁĴáŀĹáŁĪ
Ġ201 0
áŁģ áŀĩ
áŀĽ áŀ·áŀħ
å¤ ĩ
àºĻ àº²
áŀĶ áŀĦáŁĴáŀĤ
Ġj uga
ag o
Ġw as
Ġ' ]
ªà¸¹à¸ ĩà¸
áŀı áŁĴáŀļáŀ¼
áŀħ áŁģáŁĩ
áŀĢáŀ¶áŀļáŀ ·áŀĻáŀ¶áŀĽáŁĲáŀĻ
åİ »
áŀ·áŀĹ áŀ¶áŀĢ
áĢ¦ áĢ¸
áŀ¶áŀĺ áŀ¸
à»ĥ à»Ŀà»Ī
áŀ¡ áŀ¶áŀĵ
áĢ®áĢ¸áĢĲ áĢ±áĢ¬áĢ·
ĺ áĢ¯áĢĽ
ĠáĢĹ áĢ¯áĢĴáģ¶
áģļ áĢº
áĢĶáĢ¹áĢ Ķ
áĢĲ áĢģáĢ¯
ħ áĢ¥áĢ¹áĢ
ĠáĢ»áĢĸáĢħáĢ¹áĢ ±áĢĶ
áģ¿ áĢĸáĢħáĢ¹áĢ
áĢĨáĢŃáĢ¯ áĢĽáĢĦáĢ¹
ĲáĢ²áĢ· áĢ¡áĢģáĢ«
ĠáĢ¡áĢ±áĢĻáĢĽáĢŃáĢĢ áĢĶáĢ¹
ĠáĢľáĢŃáĢ¯ áĢ¡áĢķáĢ¹áĢ
ĠáĢľáĢ° áĢĻáĤĪ
ĠáĢĻ áĢ¾áĢ¬
ģ áĢĦáĢ¹áĢ
ĠáģĤáģ ħ
áĢĻáĢ¼ áĢ±áĢ¬áĢĢáĢº
ĠC om
à®ļ à¯į
à»Ģàº¡ àº·à»ĪàºŃ
er b
Ĩ áŁĴáŀĽ
ļà¸Ļà¸ ±à¸
Ġà¸ Ĥà¸Ńà¸ĩà¸
ĠáŀĽáŁĴáŀĶ áŀ¸
áĢĲ áĢķáĢº
áŀħáŁĨáŀİ áŁĤáŀĢ
«à¸Ļà¸ ±à¸ĩà¸
áŀħáŀ·áŀıáŁĴáŀı áŀĳáŀ»áŀĢáŀĬáŀ¶áŀĢáŁĭ
áŀĤ áŁĴáŀļáŀ½áŀŁáŀ¶áŀļ
àºĻàº ±àºļ
ĠP ang
Ã ¾
ĠáŀŁáŀ»áŀľáŀıáŁĴáŀĲ áŀ·áŀĹáŀ¶áŀĸ
àºķ à»įà»Īàº
Ġï¼ ģ
ĠáŀļáŀĶ áŀĶ
ĠáŀĹ áŀ¼áŀĺ
Ġ2 8
Łà¸¸à¸ķà¸ ļà¸Ńà¸¥à¸
§à¹ĩà¸ļ à¹Ħà¸ĭà¸
Ġè ®
ĠáŀĶ áŁĨáŀĶ
ĠáŀĲ áŁĴáŀĺ
áĢ¸áĢĽ áĢ½
áĢ´ áĢ¸áĢ
ĠáĢĳ áĢ°áĢ¸áĢ
à¯Ĭ à®°
l ot
à¹ī à¸Ńà¸Ļà¸
Ã¡ y
a u
áĢĨ áĢ¯
ĠS A
ay s
Ġáŀħ áŀ¶áŀŁáŁĭ
áĢ¼ áĢĶáĢ¹áĤĶ
ĠáĢĳ áĢ²
ĠáĢĲáĢĽ áĢ¬áĢ¸áĢħ
áŁĴáŀļáŀł áŀŁáŁĴáŀĶ
áŀŁáŀ·áŀĢ áŀļ
áŀĶ áŀıáŀ¸
áŀĩ áŁĦáŀĤáŀĩáŁĲáŀĻ
àºĬ àº²àºį
ĠáĢ¡ áĢ¯áĢķáĢ¹áĢ
ĠN ov
áĢ¼áĢĶáĢ¹áĢ ľ
áĢ»áĢķ áĢĦáĢ¹áĢ
ĠáĢŁ áĢ¯áĢĲáĢ¹áĢ
ĠáĢ±áĢĶ áĢ¬áĢĢáĢ¹
ĠáĢ¡ áĢĻáĢºáĢ³áĢŃáĢ¸áĢŀ
ģáĢ» áĢĢáĢº
áŀĤ áŁĨáŀĵáŀ·áŀı
áŀ·áŀĹáŀ¶áŀĢ áŁĴáŀŁáŀ¶
Ġà¸ģà¸ ¥
áŀ·áŀĹ áŀ¶áŀĢáŁĴáŀŁ
ĠáŁ¢ áŁ¤
ĠáŀŁ áŀĵáŁĴáŀĵ
àº²àº ģàº²àºĻàº
ĠáŀĤ áŁĨ
ą ć
çĽ ®
AN G
Ġg an
áŁĴáŀļáŀĶáŁĭ áŀĤáŁĴáŀļáŀĦ
áŀĹ áŁĴáŀĩáŀ¶áŀĶáŁĭ
áĢŀ áĢĦáĢ¹áĢ·
±áĢĨ áĢ¬áĢĢáĢ¹áĢ
ĠáĢĶ áĢ¾áĢĦáĢ·áĢº
¨à¸²à¸ªà¸ ķà¸£
ib ig
àº±àºģ àºĻà»īàºŃàºį
áŀĵáŁĴáŀĻ áŀ¶
áŀĳ áŁĦáŁĩ
Ġà®ħà®µ à®°à¯įà®ķà®³
e at
Ġt ulad
Ġb r
Ġak ong
s yon
áŀĳ áŀ·áŀŁ
áŀħáŀ¶áŀĶáŁĭ áŀķáŁĴáŀıáŀ¾áŀĺ
Ĥ àº¶à»īàºĻàº
áŀģáŁĴáŀŁ áŁĤ
à®® à¯įà®®
ªà¸ °à¹Ģà¸
Ġà¸ ģà¹ĩà¸
æĹ Ĺ
i en
Ġáŀł áŀ¶áŀĦ
ĠãĢ Ĳ
1 8
Ġà®® à®¾à®¤
åĽ ¢
áŁĨáŀĬ áŀ¶áŀĶáŁĭ
ot el
[ '
à¹Ģ à¸Ńà¸
à»Ĥ àº«àºį
é ¤
áŀŁáŁĴáŀŁ áŀĵáŀ¶
ĠE 1
áĤĪáĢķáĢ¹áĢ ĽáĢ½
áģĢ áĢĦáĢ¹áĢ¸
áĢĲ áĢĢáĢ¹áĢ
ŀ áĢŃáĢ¯áĤĶ
Ľ áĢĦáĢ¹áĢ¸
ĸ áĢŃáĢ¯áĢ·
ĠáĢĲáĢħáĢ¹áĢ ±áĢļáĢ¬áĢĢáĢ¹áĢ
áĢĨ áĢ±áĢ¸áĢ
áŀŁáŁĴáŀŁ áŀ¶áŀł
àºµàº§ àº´àºĶàº
ç ĥ
Ġà¸ Ŀà¸²à¸ģ
Ķà¸µà¸ Ĺà¸µà¹Īà¸ªà¸¸à¸Ķ
Ġn Æ°á»Ľc
Ġà®ħ à®ªà¯įà®ª
áĢ¬áĢ¸áĢ ±áĢĶ
±áĢŀ áĢ¸áĢ
ĠáĢ¡ áĢ¬áĢ¸
¥à¸ ¥
áŀŁáŀĺáŁĴáŀ Ĭ
áŀĹ áŁĴáŀĵáŀ¶áŀĢáŁĭáŀĦ
áĢĳ áĢŃáĢ¯áĢĦáĢ¹áĢ
áĢĲ áĢ±áĢ¬áĢĦáĢº
Ġà®ī à®±
Ġt ina
áŀĵáŁĴáŀĽ áŀº
®à»Īàº§àº¡ àº¡àº·
Ľàº°àºģàº Ńàºļ
áĢĦáĢ¹áĢĲ áĢĶáĢ¹áĢ¸
ĠáĢĩ áĢ°
ĠáĢ¡ áĢĻáĤĪ
áĢķ áĢ½
áŀĩ áŀ¶áŀ
áŀ¶áŀĽ áŁĴáŀĽ
ª àº³
ŀà¸ ¢à¸²à¸
áĢ±áĢĽ áĢŃáĢĢ
çĻ ¾å®¶
å·¥ ä½ľ
áŀ¢áŀ¶áŀĩáŁĴáŀīáŀ¶áŀĴáŀ ļáŀ
ĠáŀŁáŁĴáŀĲáŀ¶áŀĵ áŀĹáŀ¶áŀĸ
Ġn ya
uh an
Ġà®¤ à¯ĭ
ĠáŀŁáŀĺ áŀıáŁĴáŀĲáŀĹáŀ¶áŀĸ
·à¹Ī à¸Ńà¸Ļ
ĠáŀļáŀĬ áŀ¼áŀľ
é¢ ĺ
áĢ¡ áĢĸáĢ¼áĢ²áĤĶ
áĢ¡ áĢ¬
ĠáŀĻ áŁĦáŀĴáŀ¶
ĠáŀĬ áŀ¶áŀħáŁĭ
ĳáĢ² áĢĢ
¹ à¹īà¸
A S
t y
an c
áĢģ áĢ¼áĢ¬áĢ¸áĢ
à®² à®¿à®²à¯į
Ġáŀ§ áŀıáŁĴáŀıáŀĺ
ĠI to
áŁĬ áŀ¼
Ġàºª àº´à»Īàºĩ
áŀļáŀ¶áŀĩ áŀļáŀĬáŁĴáŀĭáŀ¶áŀĹáŀ·áŀĶáŀ¶áŀĽ
áŀĹ áŁĴáŀĵáŁĤáŀĢ
ģà¸³à¸ ¥à¸±à¸ĩà¸
Ġè µ
ric ult
ik e
Ġáŀľ áŁģ
áĢĻáĢ½ áĢĶáĢ¹áĢ
áĢķ áĢ®
áº¯ t
àºµ àºļ
Ġáŀĵáŀ·áŀĦ áŀĺáŀ¶áŀĵ
áĢħ áĢķáĢº
è§ £
Ġkay sa
ĠáŀĤ áŀĦáŁĭ
áŀıáŁĴáŀĬ áŀĺ
áŀĦáŁĴáŀĤ áŀĽ
áŀĢáŀĺáŁĴáŀ ĸáŀŁáŁĭ
áŀĢ áŀŁáŀ·áŀĢáŀĺáŁĴáŀĺ
Ķ áŁĴáŀļáŀ
ĠáŀŁáŁĴáŀľ áŀ¶áŀĻ
ĠáŀĶáŁĴáŀļáŀĸ áŀĵáŁĴáŀĴ
ĠáŀĴáŀ ¸
áŀĶ áŁĨáŀĶ
½ àº¡
Ġà®ī à®¯
Ģ áĢŃáĢ¯áĢĦáĢ¹áĢ
áĢķáĢ±áĢĻ áĢļáĢ·áĢº
áŀ» áŀļáŀŁ
¥àº±àºĶàºĸ àº°àº¡àº»àºĻàºķàºµ
áĢģ áĢ½áĢ²
Ġáŀ¥ áŀ¡áŀ¼áŀľ
à»ĥàºĻàº ģàº²àºĻ
«à¸¥à¸ ±à¸ĩ
áŁģáŀł áŁį
áŀŁáŀĺáŁĴáŀ Ĺ
áŀĤáŀ·áŀı áŀĲáŁĴáŀĽáŁĥ
áŀ ±
ĠáŀŁ áŀ¶
ĠáŀĶ áŁĤáŀĢ
Ġà¸Ń à¹Īà¸²à¸Ļ
Ġà¸ ľ
ļ à¸£
å ŀ
Ġd ownload
Ġb in
áĢ±áĢ ģáĢ»
Ġin f
ĠHome áŀĸáŁĲáŀıáŁĮáŀĺáŀ¶áŀĵ
áŁĴáŀĻ áŀĽáŁĭ
Ĭ à¸Ļ
Ġà®ļ à®¨à¯įà®¤
áĢ¡ áĢģáĢ¼
Ġp eng
àºģàº »
Ġl unas
áŀļáŀ· áŀı
Ĺà¸³ à¹ĥà¸«à¹īà¸
ĠA s
uyá» ĩ
on ym
ĠâĢ ¢
áŀļáŀ ļáŀ
Ġb ang
ĠáĢ¡ áĢģáĢ«
áĢľ áĢ¬áĢĽ
åį ģ
à®Ļà¯įà®ķà®³ à®¿à®²à¯į
àº²àºļ à»įà»Ī
áŀıáŁĴáŀĲ áŀĺáŁĴáŀĹ
Ġáŀļáŀ¸ áŀĢ
y s
áĢģ áĢĦáĢ¹
ĠáĢ¡ áĢ±áĢĢáĢ¬áĢĦáĢ¹áĢ¸
áģ¾áĢĢ áĢĬáĢ·áĢ¹áĢ
áĢ»áĢĻ áĢĦáĢ¹áĢ·
ĠáĢĸ áĢŃ
Ġáŀĺáŀ¸ áŀĵáŀ¶
ŀàº£ àº°à»Ģàº
ĤàºŃàºĩàº ŀàº§àºģ
ĠáŀĶáŀ»áŀĤáŁĴáŀĤáŀĽ áŀ·áŀĢ
ura l
Ġáŀı áŀĺáŁĴáŀļáŀ¼áŀľ
¢à¸ ¡
ĠáĢĢáĢ¯ áĢľ
áĢĭ áĢ¹áĢ
áĢĤ áĢ¹áĢĤ
as e
ŀà¸ §à¸
ĠáŀĤáŁĴáŀļáŀ¿áŀĦ áŀīáŁĢáŀĵ
áŀĸ áŁĲ
áŀĸ áŀİáŁĮ
Ġà»ģàº ģ
áĢ± áĢ¸áĢĢáĢŃáĢ¯
æī Ģ
Ġàºŀ àº²àºį
áŀĶáŀ¶áŀıáŁĭ áŀĬáŁĨáŀĶáŀĦ
áŀĵ áŀ¶áŀĵ
A Y
onym ous
Ġi na
áŀĢáŀ¶áŀļáŀ Ļ
áº¡ t
áĢ¯áĢŃ áĢ¸
ĠáĢ¡ áĢģáĢ»áĢŃáĢĶáĢº
áŀ»áŀĢ áŁĴáŀļ
ĠàºĤ à»įà»ī
Ġt ayo
áŀ·áŀĹ áŁĲáŀĻ
Ġb okep
Ġk ala
à®µ à®°à¯įà®ķà®³à¯į
à»ĢàºĻàº· à»īàºŃ
ĠáŀĶáŁĴáŀļáŀĸ áŁĴáŀļáŀ¹áŀıáŁĴáŀı
ĠáŀĢáŁĴáŀļáŁħ áŀĸáŀ¸
à»ĢàºĻàºµ àºĻàº
ĠáŀĢáŀ¶áŀļáŀ ļáŀ
¸à¸ ģà¸
ĠáŀĢ áŀ¶
áŁĦáŀĶ áŀĽáŁĭ
áĢĻáĢ¹áĢ¸ áĢŀáĢ¬
±áĢĲáĢ¬ áĢĦáĢ¹
ĩ áĢ¬áĢ¹áĢ
Ĩ áĢ¯áĢ¶áĢ¸áĢ
Ġà®ķ à®¿à®Ł
áŀľáŁģáŀĽ áŀ¶áŀĺáŁīáŁĦáŀĦ
áŀĺáŁĴáŀı áŀ¶áŀĻ
à¸£à¸¹à¸ Ľ
áŀĬ áŀ¶áŀĵ
àºķ àº²àº¡
ĠáŀŁ áŀĸ
ĠáŀĶáŁĴáŀļ áŁģáŀĦ
ĠáŀıáŁĤáŀĦ áŀıáŁĤ
ck les
ot e
ĠáĢĻáĢº áĢ¬áĢ¸
ĠáĢĢáĢ¼áģ½ áĢĶáĢ¹áĢ±áĢĲáĢ¬áĢ¹áĢ
áĢĽáĢ½áĢŃ áĢĲáĢ²áĢ·
áĢĴ áĢ¹áĢ
áĢ¡ áĢĲáĢŃáĢ¯áĢĦáĢ¹áĢ¸
áĢ¡ áĢĲáĢ¼áĢĢáĢ¹áĢ
±áĢķ áĢ¸áĢķáĢ«
áĢŀ áĢħáĢ¹áĢ
áĢ±áĢŀ áĢ¸áĢĲáĢļáĢ¹
áĢ±áĢĽ áĢ¬áĢĦáĢ¹áĢ
áĤĢáĢĢáĢ®áĢ¸ áĢĢ
ĠáĢĢáĢºáĢ±áĢĶáĢ¬áĢ¹áĢ ĲáĢŃáĢ¯áĤĶ
áĢĻ áĢļáĢ¹áĢ
Ĺ áĢºáĢ¬
ĠáĢľ áĢ¶áĢ¯
ĠáĢĴáĢ¯ áĢĢáģ¡
ĠáĢħ áĢĬáĢ¹áĢ¸
áģ º
áĢ ł
ara p
à®¿à®¯ à®¿à®©à¯į
ĠáŀĢáŁĴáŀļáŀ»áŀĺ áŀĶáŁĴáŀļáŀ¹áŀĢáŁĴáŀŁ
áŀľáŀ· áŀłáŀ¶áŀļ
áŀĴáŁĴáŀĻ áŀĺ
áŀĬ áŀĢ
»áĢķ áĢ®áĢ¸áĢ
Ġáģĭ âĢĿ
áŀĩ áŀ½áŀĽ
áĢĶáĢ¹áĤĢáĢĢáĢ®áĢ¸áĢ ĮáĢ¬áĢĶ
áĢĶ áĢĬáĢº
Ġà¸ª à¹Īà¸§
áŀ· áŀĺ
áŀ¶áŀĽáŁĴáŀĽ áŀºáŀĺáŁīáŀĦáŁĭ
ç ¼
Ġgam it
Ġà¹ģà¸ ķà¹Ī
» áŀĦ
áĢħ áĢ½
i re
ĠáŀĹáŀ¶áŀĤ áŀļáŀĻ
Ġt iáº¿
p e
±à¸ Ķà¸
ĠáŀĶ áŀĦáŀĶáŁĴáŀ¢áŀ¼áŀĵ
Ġa rt
áŁĦáŀĦáŀħ áŀĢáŁĴáŀļ
áŀŁáŁĴáŀı áŁĤáŀĦ
Ġa g
æ ·
àº´ àºļ
áŀŁ áŀĲ
áŀŁ áŀ¼áŀľ
Ġà®ª à¯ĩà®ļ
ģ áĢ²áĤĶ
ĠáĢŀáĢ° áĢĲáĢ¯áĢŃáĤĶ
ĠáĢĴ áĢ±áĢ«áĢº
ŀà¸ ¹à¸
áĢ±áĢľ áĢ¸áĢĢáĢŃáĢ¯
ĠáĢ¡áĢģáĢºáĢŃ áĢĶáĢ¹áĢ
áĢĶ áĢ±áĢĽ
Ġdi a
ĭĹ ä¸ĩ
åĲ Ĺ
áŀĽ áŁĨáŀĵáŁħ
æĸ ¯
g an
áŀĹ áŁĴáŀĵáŁĨ
áĢı áĢ¹
áĢ¡ áĢľáĢ¯áĢķáĢ¹áĢ
áĢľáĢ¬ áĢĲáĢ²áĢ·
áĢĻ áĢĽáĢ¾áĢŃ
à¯Ĥ à®°
¢à¸´à¸ĩà¸ Ľà¸¥à¸²
«à¸Ļà¸ ¶à¹Īà¸ĩ
áŀĴáŁĴáŀĦ áŀļ
àº±àºĶàº ŀ
un od
àº± àº¡
áŀĤáŁĴáŀļáŀĶáŁĭ áŀĤáŁĴáŀļáŀĦ
áŀ¶áŀĬ áŁĨáŀĶáŀ¼áŀĦ
à®¿à®¯ à¯ĩ
áŀ¢áŀ¶áŀľáŀ» áŀĴáŀłáŀıáŁĴáŀĲ
· áŀĵáŀ¸
ĠáŀĶáŀĦáŁĴáŀĢ áŁĴáŀļáŀ¶áŀĶ
ĠáŀĢáŁĤ áŀĶáŁĴáŀļáŁĤ
ĠáŀĢ áŀŁáŀ¶áŀĦ
ĠiP hone
áŁĤ áŀĳ
áŀĳáŀ¶áŁĨáŀĦ áŀĵáŁģáŁĩ
àºª àº±àºĶ
áĢĬáĢ¹áĢ ¡
±áĢ ĦáĢ¼
ķáĢ« áĢĲáĢ®
ĠáĢĲ áĢŃáĢ¯áĢ·
la t
Ġpa k
Ľà¸ ı
t u
áŀ·áŀĽ áŀĺáŀ·áŀī
áŀ·áŀĵáŁĴáŀĳ áŀ»
ĠáĢĢ áĢ¶
áĢĶ áĢ±áĢĲ
áĢĲáģ± áĢ¬
áĢĲ áĢ²áĤķ
áĢ°áĢ¸áĢ ľ
Ġse c
i y
ŀàº±àºĶàºĹàº°àºĻ àº²
Ġà®ªà¯ĭ à®²
Ġáŀĸ áŁĦáŀĽ
ĠáĢĦáĢ« áĢ·
áĢĶ áĢ±áĢ¬áĢĢáĢº
ģàº ±àºĻ
Ġáŀı áŁĴáŀļáŀĦáŁĭ
ĠáŀĬáŁĨáŀİáŀ¾áŀļáŀĢ áŀ¶áŀļ
Ġt Ã´i
à¹īà¸²à¸ ¢à¸
ĠáŀĪ áŁĴáŀĺáŀ½áŀī
Ġáŀ¢ áŀĦáŁĭáŀĤáŁĴáŀĽáŁģáŀŁ
áĢĲ áĢ¯áĢŃáĢĦáĢ¹áĢ¸
áĢĤáģ¢ áĢŃáĢ³
áĢĢáĢŃáĢ¯ áĢļáĢ¹áĢ
áĢĢáĢ¹áĢ ĳ
áĢ±áĢķáĢ« áĢĲáĢļáĢº
ĠáĢķ áĢ¯áĢĴ
áĢĿ áĢĲáĢ®
áĢĺáĢ¬ áĢľ
áŁģ áŀĬáŁĴáŀĭ
áŀŁáŁĴáŀŁ áŀ¸
áŀŁáŁĨáŀİ áŀ¶áŀĢáŁĭ
àºĬ àº§àºĩ
Ī àºµàºĻ
áŀķáŁĴáŀĬ áŀ¾áŀĺ
Ġà»ľ àº¶à»Īàºĩ
»áĢķáĢĬáĢ¹áĢ ĶáĢļáĢ¹áĢ
±áĢŀ áĢ¬áĢĢáĢ¹áĢ
Ĵ áĢ®
ĠÂ ¡Â
Ì Ģ
áº© m
Ĳ áĢĲáĢ¹áĢ
ĠáĢĢáĢ¯ áĢĻáģ¸áĢıáĢ®
ĠáĢ»áĢĻáĢĶáĢ¹áĢĻáĢ¬ áĤıáĢ¯áĢŃáĢĦáĢ¹áĢĦáĢ¶
ĠáĢ»áĢķáĢĬáĢ¹áĢ ĲáĢ¼áĢĦáĢ¹áĢ¸
ĠáĢ¡ áĢŃ
áĢļáĢº áĢľáĢŃáĢ¯áĢ·
áĢ½áĢ±áĢ¸áĢĶ áĢ½áĢ±áĢ¸áĢ
Ġmaa ari
áŀĩ áŀĶáŁīáŀ»áŀĵ
áŀĤáŀ»áŀİ áŀĹáŀ¶áŀĸ
áĢ±áĢ ļáĢ¬
áŀ¶áŀķ áŁĴáŀĽáŀ¼áŀľ
Ġà»ĢàºĤ àº»àº²
Ġàºķ àº·à»ī
Ġà®ĩ à®±
ĭà¸ ·à¹īà¸Ńà¸
à»Ģà»ľ àºµ
ĠáŀĬáŀ¹áŀĦ áŀĲáŀ¶
Ġáŀħ áŀĦ
áŁ ĸ
áŀľáŁģáŀĽ áŀ¶
Ġhangga ng
Ġà¸ Ĭà¸±
áº¥ n
áŀĻ áŀ»áŀľáŀĩáŀĵ
áŀķáŁĴáŀŁáŁģáŀĦ áŀĳáŁĢáŀı
Ļ áĢ¾áĢ¬
ĠáĢĳ áĢŃáĢ¯áĢ·
ŀà¸ ±à¸ģà¸
Ġå½ ©
èµ Į
à»Ģàº«àº¼ àº·àºŃ
Ġæľ ī
ª à¸²à¸£à¸
áŀĩ áŀ·áŁĩ
áĢĻ áĢ®áĢ¸
ĠáĢŀ áĢĦáĢ¹áĢ
áĢŀáĢĬáĢº áĢ·
à¯Īà®¯ à®¾à®ķ
ĠáĢľ áĢ¯áĢķáĢ¹
ĠáĢ¡ áĢĻáĢº
áŀħáŀĽáŀĵ áŀĳáŁĴáŀļáŀĸáŁĴáŀĻ
ĠáŀĺáŁģ áŀĬáŀ¹áŀĢáŀĵáŀ¶áŁĨ
áĢĻáĢ¼ áĢĶáĢº
àº· à»Īàº
Ġa nak
ĠáŀĸáŁĴáŀļáŁĩ âĢĮ
ĠáŀĶ áŁĴáŀ¢áŀ¼áŀĵ
Ġáŀī áŁī
ĠáŀĩáŁĨáŀĵ áŀ½áŀĻ
áŁĭ áŀħáŀ¶áŁĨ
ĠL ang
ah usay
áŀŁáŁĴáŀŁáŀ¶áŀł áŀĢáŀĺáŁĴáŀĺ
5 0
à¹Ģà¸ģà¸ µà¹Īà¸¢à¸§à¸
Ġg usto
áŀŁáŁĴáŀĵ áŀĦ
áĢĶáĢº áĢ·
áŀŁ áŀĹ
i e
Ġna b
áŀĵáŁħ áŀıáŁĤ
æĢ »
áŀĢ áŀī
áŀ½ áŀļáŀŁ
áŀ¼áŀľ áŀ¸áŀĬ
Ġmata pos
áŀ»áŁĩ áŀĶáŀİáŁĴáŀıáŀ¶áŀĽ
áŀ¶áŀļáŀĩ áŀ¶áŀıáŀ·
àºª à»īàº²àºĩ
Ġà¹Ģà¸ ª
áŀ¶áŀļáŀ İ
á»Ļ c
æµ ģ
Ġà¹Ģà¸ŀ à¸£à¸²à¸°à¸
áŀ¢áŀĵáŀ» áŀīáŁĴáŀīáŀ¶áŀı
à¸Ńà¸µà¸ ¢à¸
ĠáĢ¡ áĢĻáĢŃ
áĢļáĢ¹áĢħ áĢ¬áĢ¸áĢľáĢ½
áĢĳ áĢ¼áĢĶáĢ¹áĢ¸
áĢ¶áĢ¯ áĢ¸áĢ¡
áĢ¡ áĢ¯áĢķáĢº
Ġà®® à®±
áŀ¡áŀ¾áŀĦ áŀľáŀ·áŀī
łà¸ ¹à¸
al is
Ġà»Ĥ àº¥
ĠâĢĭ âĢĿ
àºŀ àº°àºį
ĠáŁ¢ áŁ¡
ĠáŀŁáŁĨ áŀ¡áŁģáŀĦ
Ġa r
à¹īà¸²à¸ ĩà¸
Ġà®ļ à®°
Ġlo ans
áĢĲáģ ³
áĢĢáĢ¹áĢ ķ
¡áĢħ áĢŃáĢ¯áĢ¸áĢĽ
Ġcom ments
áĤı áĢ½áĢŃ
áĢħ áĢĻáĢ¹áĢ¸
áĢ¬áĢ¸áĢ ĲáĢ¬
áĢ« áĢĲáĢ¹áĢ
áģ¤ áĢ¬
áĢĽ áĢķáĢ«
ĠáŀĶáŁĴáŀļáŀ ¡
Ġå Ĩ
ĠáŀĢ áŀŁáŀ·áŀĢáŀĺáŁĴáŀĺ
áŁĨáŀĸ áŀ¹áŀĦ
±áĢķ áĢ¸áĢĽ
ľ áĢķáĢ¹áĢ
ĠâĢ¦ áģĭ
ĠáĢŀ áĢĬáĢº
àºĻàº¶ à»Īàºĩ
à¹Ģà¸ Ī
àºģàº ±àºĻàº
h ing
áŀŁáŁģ áŀļáŀ¸
ï¿½ï¿½ ï¿½ï¿½
ç ¦
áŀĶáŁĴáŀļáŀł áŁĤáŀĽ
à®¿à®°à¯ģà®¨à¯įà®¤ à¯ģ
9 9
Ħ à¹Īà¸²
Ġada lah
Ĥ à»Īàº²àº§
Ġt ab
Ġe dad
áŀĢáŀ¶áŀļáŀ ģ
Ġàºĸ à»īàº²àº
un ta
Ġå ·
ĠáŀŁáŀ»áŀľ áŀİáŁĴáŀİ
ĠáŀŁ áŁĴáŀ¢áŀ¶áŀı
ªà¸ ļà¸
ĠáŀĦ áŀ¶áŀĻ
ĠáŀĢáŀ¶áŀļáŀ ĳ
Ġáŀ¢ áŀ¶áŀľáŀ»
áŀľ áŀ·áŀĵáŀ·áŀĻáŁĦáŀĤ
áŀĳ áŁĴáŀľ
Ġàºķ àº»àº§
áŀĩ áŀ¶áŀĳ
is s
æķ °
Ġsa l
Ĺ à¸´à¸
à»Ģàº®àº±àºĶ àº§àº½
Ġqu an
ĠáĢĻ áĢŁáĢ¯áĢĲáĢº
áŀ§ áŀŁáŀĹáŀ¶
ĠáŁ¢ áŁ£
ĠáŀŁ áŀ¶áŀĦáŀŁáŀĦáŁĭ
ĠáŀļáŀŁ áŁĴáŀĺáŀ¸
ĠáŀĶ áŀ¾áŀıáŀ¶áŀĺ
Ġáŀħ áŀĺ
ĠáĢĹ áĢ®
áŁĴáŀļáŀ½ áŀĻ
ov e
in is
àºĹàºµà»Īàº ªàº¸àºĶ
Ġkan ya
ur ing
áŁĲ áŀİáŁĴáŀİ
ĠáĢ¡ áĢ±áĢķáģļ
áĢķáĢ±áĢ« áĢ·
ut in
à¹Ħà¸¡ à¹ī
Ġsa na
áŀĶáŁĴáŀļ áŁĤáŀĦ
áŀĳáŁĢáŀı áŀĲáŀ¶
áĢħ áĢ±
Ġb ay
áŀīáŁĴáŀī áŀ¶áŀİ
áŀīáŁĴáŀħ áŀĶáŁĭ
Ġ'] ['
à¹Ī à¸Ńà¸¢
áŀ¢ áŀĵáŁĴáŀı
im ula
áĢ¬áĢ¸áĢĲ áĢħáĢ¹áĢ
¥ áĢķ
ĠáŁ¢ áŁ¦
ĠáŀŁáŀł áŀĹáŀ¶áŀĸ
Ġà®İà®© à¯į
ĠáŀĶáŁĴáŀļ áŁĤ
ĠáĢĻ áĢĶ
ĠáĢĳ áĢŃáĢĶáĢ¹áĢ¸
ĠáĢĲ áĢĬáĢº
Ġà®Ĩ à®°
Ħ à¸²à¸ªà¸´à¹Ĥà¸Ļ
à¹Ģ à¸Ńà¸µà¸¢à¸
Ġáŀĳ áŀĵáŁĴáŀĳ
áŀł áŁĴáŀŁ
à»ģàº® àºĩ
«à¸¥à¸ ±à¸ģà¸
Ġé Ģ
áŀĸáŁĴáŀĻ áŀ¶áŀĶáŀ¶áŀĽ
áŀĶáŁīáŀ» áŀĵáŁĴáŀıáŁĤ
ti b
áŀ¢ áŀīáŁĴáŀĩáŀ¾áŀī
ģà¸²à¸ ¨à¸
ĠáŀŁ áŀĶáŁĴáŀıáŀ¶áŀłáŁį
à»ĢàºŃ àº»àº²
à® ľ
ĠáŀĶ áŀ¼
Ġáŀĳáŀ¸ áŁ¢
Ġáŀĩ áŀ¶áŀŁ
áĤĲ áĢ¯áĢ¶
áĢķáĢºáĢĻ áĢĲáĢ±áĢ¬áĢº
è® °
áĢ· áĢ²
áĢ¡ áĢ»áĢĸáĢħáĢ¹
ĠáĢ±áĢĳ áĢ¬áĢĦáĢ¹áĢ
áĢŀáĢĬáĢ¹áĢ ŁáĢ¯
ur ance
ĠáĢľ áĢ»áĢ¾
Ġáŀ¢áŁĨáŀĸ áŀ¶áŀľáŀĵáŀ¶áŀľ
ĠIn ter
ĠA r
áŁĴáŀļáŀ» áŀĽ
áŁĤáŀļáŀĢ áŁĴáŀļáŀłáŀĺ
áŀļáŀĶ áŁĢáŀĶ
áŀĬ áŀĳáŁĥ
àºĶ àº±à»Īàºĩàºģà»Īàº²àº§
ĠáĢ¡ áĢĲáĢ½áĢĢáĢº
áĢĬáĢ¹áĢ Ľ
áĢľáĢŃáĢ¯ áĢĢáĢ¹
áĢľ áĢ¯áĢ¶áĢ¸
æĭ Ľ
å¸ ĥ
áŀ¼ áŀĻ
Ĺ à¸£
d l
Ġáŀĺ áŀ¶áŀıáŁĭ
Ġáŀ¢áŀĤ áŀ¶áŀļ
à®¿à®ķà¯įà®ķ à¯ģ
áŁĴáŀĵ áŁĦáŁĩ
áŀł áŀ·áŀļáŀīáŁĴáŀīáŀľáŀıáŁĴáŀĲáŀ»
áĢĳ áĢ½áĢĢáĢº
áŀĺáŁī áŁĤáŀıáŁĴáŀļ
Ġv ideo
Ġtr ans
áŀĺáŀ·áŀĵ áŀĺáŀ¶áŀĵ
lim ming
Ġpina g
ĠáŀŁáŁĴáŀĽ áŀ¶áŀĢ
ĠáŀŁ áŁĴáŀļáŀŁáŁĭ
ĠáŀŁ áŁĢáŀľáŀĹáŁħ
¢ à¸´
ĠáŀļáŁĨáŀĽ áŁĦáŀĹ
Ġàºļ àº±àºĻàº
Ġáŀĺ áŀĩáŁĴáŀĪáŀĺáŀİáŁĴáŀĮáŀĽ
à»įà»īàº¡ àº¹àºĻàº
Ġáŀħ áŀ·áŀīáŁĴáŀħáŀ¹áŀĺ
Ġáŀ¢áŀĵáŀ» áŀīáŁĴáŀīáŀ¶áŀı
áĢĲáĢº áĢľ
à¯ĩ à®¯
ç§ ĳ
àºª àº²àº¡àº²àºĶ
áŀŁáŀ·áŀĢ áŁĴáŀŁáŀ¶
ĺ à¸´à¸
áŀŁ áŁĴáŀļáŀŁáŁĭ
ĠM an
áŀĺáŀĵáŁĴáŀĳáŀ¸ áŀļáŀĸáŁģáŀĳáŁĴáŀĻ
áŀĶáŀļáŀ· áŀŁáŁĴáŀĲáŀ¶áŀĵ
áŀģáŀ¶áŀĦ áŀĺáŀ»áŀģ
A M
ĠAn onymous
ur i
áŀ·áŀĵ áŁĲáŀĻ
áĢ±áĢľ áĢ¬áĢĦáĢ¹áĢ¸
áĢ¯ áĢŀ
Ġáŀł áŀ»áŀĦ
ĠáŀĢáŁĴáŀĽ áŀ¹áŀĶ
ĠáĢĲáĢ¬ áĢĿáĢĶáĢ¹áĢ
áĢĨ áĢĦáĢ¹áĢ¸
áĢ¡ áĢĸáĢ¼áĢħáĢº
áº« n
áŁģáŁĩ áŀĬáŀ¼áŀĦ
áŀł áŀ¶áŀıáŁĭ
Ľà¸£à¸°à¹Ģà¸Ĺà¸ ¨à¸
áŀŁ áŁĴáŀĦ
Ļ à¯įà®ķà®³à¯į
Ľ à»īàºŃàºĩàº
Ù İ
Ġbo leh
áŀľ áŀĤáŁĴáŀĤ
çĽ ¸
áŀĸáŀ¸ áŀĵ
áŀĶáŀİáŁĴáŀı áŀ¶áŀī
Ġre c
Ġfre ckles
a a
Ġ out
it s
Ġma da
áŀĶ áŀ¶áŀīáŁĭ
Ġà»ĥ àºĪ
áŀĴáŁĴáŀľáŀ¾ áŀ±áŁĴáŀĻ
Ġàº® àº¹àºļ
ĠáĢķ áĢĽ
ĤàºŃ àºļ
áŀĬ áŁĦáŁĩáŀŁáŁĴáŀļáŀ¶áŀĻ
áŀĩ áŀ»áŀĽ
áŀ· áŁį
áŀ¢ áŁĨáŀİáŀ¶áŀħ
Ġ201 3
áĢĦáĢºáĢ¸áĢ ĳ
áŀ¢ áŀıáŁĴáŀĲ
Ġáŀļáŀ½áŀĺ áŀĺáŀ¶áŀĵ
ĠàºĻ àº²
ĠàºĪ àº²àºģàº
à¯įà®ļ à¯įà®ļ
ĠáŀĹ áŀ¶áŀŁáŀ¶
Ġlo ob
áĢ±áĢ¬áĢº áĢķáĢ¼
ç ĸ
Ġs áº£n
à»Ģàº¡ àº·àºŃàºĩàº
ķ à¸²
ĠáŀĪ áŀĶáŁĭ
¥à¸ ¢à¸
áŁĴáŀĽ áŀ¶
ĠáĢĶ áĢĬáĢº
áŁĲ áŀŁ
Ġma r
ªà¸ ¥à¹ĩà¸Ńà¸ķà¸
ļ à¸Ļ
Ġà®®à¯ģà®© à¯įà®©
áŀŁáŀĺ áŀ¶áŀĩáŀ·áŀĢ
áŀŁ áŁĴáŀ¢
Ġhá» £p
áŀĺáŀ½áŀĻ áŁĹ
àºģàº »àºĶà»Ŀàº²àºį
Ġt ub
áģ¿áĢĸ áĢŃáĢ³
áĢŀáĢ½ áĢļáĢº
Ġä¸ Ĭ
áŀĶáŀĦáŁĴáŀĢ áŀ¾áŀĵ
å¼Ģ å¥ĸ
Ġç ĭĹä¸ĩ
Ġå Ń
áŀģáŁĴáŀĺ áŁħ
Ĭà¹Īà¸§à¸ ¢à¸
áŀĢ áŀ¶áŀĶáŁĭ
ĠàºĻàº Ń
áŀ¾áŀŁ áŀ»áŁĨ
à¹īà¸ ³
éĢ ī
áŀ¢ áŀ¶áŀĢáŀ¶áŀŁ
ĠP er
áĢŀ áĢĬáĢ·áĢ¹
áĢĽ áĢ®áĢľ
Ġàº« àº²
ĶáĢ¾ áĢĦáĢºáĢ·
ĠáĢĽ áĢ¯áĢķáĢ¹áĢ
ĠáĢ±áĢ Ŀ
áĢŀ áĢĦáĢ·áĢº
Ġà®ªà¯Ĩ à®°
Ġd am
àºĽ àºµ
Ĳ áŀ¶
¹ à¸Ļà¸
ĠáŀŁ áŁħ
ĠáŀļáŀŁ áŁĢáŀĽ
Ġáŀļáŀ¸ áŀ¯
ĠáŀĶ áŁģáŀĢáŁĴáŀģ
Ġáŀĩ áŁĦ
ĠáŀĤ áŀ¹áŀĺ
ĠáŀĢ áŀ¹áŀĺ
ĠáŀĢ áŀ¶áŀĶáŁĭ
Ġna s
ĠAg ricult
áŀĳáŀ¹áŀĢ áŀħáŀ·áŀıáŁĴáŀı
áĢ±áĢĽáĢŃáĢĢ áĢĶáĢº
Ġch ÃŃnh
Ġà¸ Īà¸²à¸ģà¸
ä» Ģ
áŀĬáŁĤáŀĽ áŀ¢áŁĴáŀĵáŀĢ
Ĥ à¸²
àºĬ àº§àºĩàº
àº¸ à»Īàº¡
b l
º «
áŀĩ áŀĺáŁĴáŀĦáŀº
áŀ¶áŀĺáŀĳ áŀ¶áŀļ
áĢ±áĢ ģáĢ«áĢĦáĢ¹áĢ¸
±áĢ »áĢģ
ĠáģĤáģ ģ
Ġb uw
áŀ²áŁĴáŀĻ áŀĺáŀ¶áŀĵ
ĠáŀĴ áŁĴáŀĵáŀ¼
ĠáŀĨáŁĴáŀĵáŀ¶áŁĨáŁ¢áŁłáŁ¡áŁ ¦
Ġart ic
áŁĴáŀľáŀ¸ áŀĽáŀ¸
áŁģáŀı áŀĵáŀ¶
áŀļáŀĺ áŁĴáŀĻ
áŀĸáŁĴáŀļáŁĩ áŀ¢áŀĦáŁĴáŀĤ
áŀĸ áŀĽáŀļáŀĬáŁĴáŀĭ
ĠáĢļ áĢ±áĢĶáĤĶ
ĠáĢĢáĢ¯ áĢŀ
áĢħáĢ¬áĢ¸áĢŀ áĢĻ
áŀĶáŁĴáŀĬ áŀ¶áŀłáŁį
áŀĶ áŀļáŀĺ
// //
ļ à»įàº¥àº´
áŀĤáŀİáŁĪ áŀĢáŀĺáŁĴáŀĺ
áŀĤ áŀ¸áŀ¡
Ġan da
ĠáĢĽ áĢĦáĢ¹áĢ
ĠáĢķáĢ« áĢĿáĢĦáĢº
Ĺ à¹Īà¸²
áŀ¶áŀĢáŁĭ áŀĢáŀ¶áŀĽ
Ĺ àº»à»Īàº§
Ġáŀļáŀı áŀĵ
Ġáŀĳáŀ¶áŁĨáŀĦ áŀĵáŁĦáŁĩ
ĠáŀĨ áŀ¶áŀĶáŁĭ
ĠáŀĤáŁĦáŀĽ áŀĬáŁħ
Ġf ull
Ġa pp
è ĥ
à®¿à®¯ à®²à¯į
ul oy
Ġgi a
âĢĭâĢĭâĢĭâĢĭâĢĭâĢĭâĢĭâĢĭâĢĭâĢĭâĢĭâĢĭâĢĭâĢĭâĢĭâĢĭâĢĭâĢĭâĢĭâĢĭâĢĭâĢĭâĢĭâĢĭâĢĭâĢĭâĢĭâĢĭâĢĭâĢĭâĢĭâĢĭâĢĭâĢĭâĢĭâĢĭâĢĭâĢĭâĢĭâĢĭâĢĭâĢĭâĢĭâĢĭâĢĭâĢĭâĢĭâĢĭâĢĭâĢĭâĢĭâĢĭâĢĭâĢĭâĢĭâĢĭâĢĭâĢĭâĢĭâĢĭâĢĭâĢĭâĢĭâĢĭâĢĭâĢĭâĢĭâĢĭâĢĭâĢĭâĢĭâĢĭâĢĭâĢĭâĢĭâĢĭâĢĭâĢĭâĢĭâĢĭâĢĭâĢĭâĢĭâĢĭâĢĭâĢĭâĢĭâĢĭâĢĭâĢĭâĢĭâĢĭâĢĭâĢĭâĢĭâĢĭâĢĭâĢĭâĢĭâĢĭâĢĭâĢĭâĢĭâĢĭâĢĭâĢĭâĢĭâĢĭâĢĭâĢĭâĢĭâĢĭâĢĭâĢĭâĢĭâĢĭâĢĭâĢĭâĢĭâĢĭâĢĭâĢĭâĢĭâĢĭâĢĭâĢĭâĢĭâĢĭâĢĭâĢĭâĢĭâĢĭâĢĭâĢĭâĢĭâĢĭâĢĭâĢĭâĢĭâĢĭâĢĭâĢĭâĢĭâĢĭâĢĭâĢĭâĢĭâĢĭâĢĭâĢĭâĢĭâĢĭâĢĭâĢĭâĢĭâĢĭâĢĭâĢĭâĢĭâĢĭâĢĭâĢĭâĢĭâĢĭâĢĭâĢĭâĢĭâĢĭâĢĭâĢĭâĢĭâĢĭâĢĭâĢĭâĢĭâĢĭâĢĭâĢĭâĢĭâĢĭâĢĭâĢĭâĢĭâĢĭâĢĭâĢĭâĢĭâĢĭâĢĭâĢĭâĢĭâĢĭâĢĭâĢĭâĢĭâĢĭâĢĭâĢĭâĢĭâĢĭâĢĭâĢĭâĢĭâĢĭâĢĭâĢĭâĢĭâĢĭâĢĭâĢĭâĢĭâĢĭâĢĭâĢĭâĢĭâĢĭâĢĭâĢĭâĢĭâĢĭâĢĭâĢĭâĢĭâĢĭâĢĭâĢĭâĢĭâĢĭâĢĭâĢĭâĢĭâĢĭâĢĭâĢĭâĢĭâĢĭâĢĭâĢĭâĢĭâĢĭâĢĭâĢĭâĢĭâĢĭâĢĭâĢĭâĢĭâĢĭâĢĭâĢĭâĢĭâĢĭâĢĭâĢĭâĢĭâĢĭ âĢĭâĢĭâĢĭâĢĭâĢĭâĢĭâĢĭâĢĭâĢĭâĢĭâĢĭâĢĭâĢĭâĢĭâĢĭâĢĭâĢĭâĢĭâĢĭâĢĭâĢĭâĢĭâĢĭâĢĭâĢĭâĢĭâĢĭâĢĭâĢĭâĢĭâĢĭâĢĭâĢĭâĢĭâĢĭâĢĭâĢĭâĢĭâĢĭâĢĭâĢĭâĢĭâĢĭâĢĭâĢĭâĢĭâĢĭâĢĭâĢĭâĢĭâĢĭâĢĭâĢĭâĢĭâĢĭâĢĭâĢĭâĢĭâĢĭâĢĭâĢĭâĢĭâĢĭâĢĭâĢĭâĢĭâĢĭâĢĭâĢĭâĢĭâĢĭâĢĭâĢĭâĢĭâĢĭâĢĭâĢĭâĢĭâĢĭâĢĭâĢĭâĢĭâĢĭâĢĭâĢĭâĢĭâĢĭâĢĭâĢĭâĢĭâĢĭâĢĭâĢĭâĢĭâĢĭâĢĭâĢĭâĢĭâĢĭâĢĭâĢĭâĢĭâĢĭâĢĭâĢĭâĢĭâĢĭâĢĭâĢĭâĢĭâĢĭâĢĭâĢĭâĢĭâĢĭâĢĭâĢĭâĢĭâĢĭâĢĭâĢĭâĢĭâĢĭâĢĭâĢĭâĢĭâĢĭâĢĭâĢĭâĢĭâĢĭâĢĭâĢĭâĢĭâĢĭâĢĭâĢĭâĢĭâĢĭâĢĭâĢĭâĢĭâĢĭâĢĭâĢĭâĢĭâĢĭâĢĭâĢĭâĢĭâĢĭâĢĭâĢĭâĢĭâĢĭâĢĭâĢĭâĢĭâĢĭâĢĭâĢĭâĢĭâĢĭâĢĭâĢĭâĢĭâĢĭâĢĭâĢĭâĢĭâĢĭâĢĭâĢĭâĢĭâĢĭâĢĭâĢĭâĢĭâĢĭâĢĭâĢĭâĢĭâĢĭâĢĭâĢĭâĢĭâĢĭâĢĭâĢĭâĢĭâĢĭâĢĭâĢĭâĢĭâĢĭâĢĭâĢĭâĢĭâĢĭâĢĭâĢĭâĢĭâĢĭâĢĭâĢĭâĢĭâĢĭâĢĭâĢĭâĢĭâĢĭâĢĭâĢĭâĢĭâĢĭâĢĭâĢĭâĢĭâĢĭâĢĭâĢĭâĢĭâĢĭâĢĭâĢĭâĢĭâĢĭâĢĭâĢĭâĢĭâĢĭâĢĭâĢĭâĢĭâĢĭâĢĭâĢĭâĢĭâĢĭâĢĭâĢĭâĢĭâĢĭâĢĭâĢĭâĢĭâĢĭâĢĭâĢĭâĢĭâĢĭâĢĭâĢĭâĢĭâĢĭâĢĭ
áŀļáŀ·áŀĻ áŀ¶
ķ à¹īà¸Ļà¸
Ħ àº§
áŀĺ áŀ¶áŁĨ
áŀķáŁĴáŀŁ áŀĸáŁĴáŀľáŀķáŁĴáŀŁáŀ¶áŀĻ
áŀĬ áŁĦáŁĩ
ĠáĢ¡áĢ±áĢĻáĢĽáĢŃáĢĢ áĢĶáĢ¹áĢ
» áĢĦ
ĠáĢ¡áĢ²áĢ· áĢĴáĢ®
ĠáĢ¡ áĢ±áĢ¬áĢĦáĢº
áŀ·áŀŁ áŁģ
Ġà»Ħ àº¥
áŀ¶áŀĵ áŀ»
ĠáŀĽ áŀ¿áŀĵ
ĠàºĶ àº±à»Īàºĩ
à®Ł à¯į
à¹ģà¸ Ķà¸
Ġáŀĸ áŀ¶áŀĵ
Ġu ri
Ġáŀģáŀ¶áŀĦ áŀĺáŀ»áŀģ
Ġ0 6
áŁĨáŀĬ áŁħ
áĢĽ áĢ¯áĢķáĢº
àºŀ àº±àºĻàº
±à¸Ļà¸ ĺ
áŀļáŀ Ĺ
áĢĽ áĢ¯
áŀĳ áŀĵáŁĴáŀĽáŁģ
Ġ200 9
ĠBuh ok
ar t
áĢ¬ áĢĦáĢ·áĢ¹áĢ
Ĩ áĢŃáĢ¯áĢĦáĢ¹áĢ
ĠáĢĻ áĢĢ
áĢĦáĢ¹áĢĨ áĢĦáĢ¹áĢ
áĢĤáģ¤ áĢľáĢ¬
ĠáĢĲ áĢĶ
Ġà¹Ģ à¸Ļà¸
ĠáĢĢáĢº áĢĶáĢ¹áĢ
áĢĺ áĢĿ
ĠS an
Ġæ ²
áĢĸ áĢĲáĢ¹áĢ
áĢ¶áĢ¯ áģ¾áĢĢáĢĬáĢ¹áĢ
ŀ áĢ¶
ĠáĢ¡áĢĽ áĢĻáĢ¹áĢ¸
áĢŀ áĢ¬áĢ¸áĢ±áĢĲáĢ¼
áĢĳ áĢ°áĢ¸áĢ
áŀĩ áŀ»áŁĨ
áŀ»áŀı áŀ¶áŀĦ
áĢĺ áĢĢáĢ¹áĢĢ
áĢ»áĢĻ áĢĦáĢ¹áĢ
áĢ¬áĢ¸áĢĻ áĢŃ
I L
ul it
Ġáŀļáŀ¼áŀĶ áŀĲáŀı
ĠáŀĶáŁĴáŀļáŀ ı
Ġáŀıáŀ¶áŁĨáŀĦ áŀĸáŀ¸
áĢ¬ áĢľ
« àº¥àº²àºį
æĹ ©
Ġáŀģ áŁĴáŀĳ
à®Ł à¯ģà®ķà¯įà®ķ
áŁĤ áŀľ
áŀłáŁĴáŀľ áŀ¼áŀĵ
¥àº»àºĩàº Ĺàº¶
ģ à»Īàº½àº§àºģàº±àºļ
il e
ĠáĢĶ áĢ½
áŀŁáŀ»áŀľ áŀıáŁĴáŀĲáŀ·áŀĹáŀ¶áŀĸ
áŀŁ áŀ¶áŀĴáŀ¶áŀļáŀİ
áŀļáŀ¸ áŀĢáŀļáŀ¶áŀĻ
Ĭà¸ ¡
å§ Ķ
áĢĻáĢ» áĢ¬áĢ¸áĢĶáĢ¾áĢĦáĢ·áĢº
áŀĸ áŀ·áŀŁáŁĦáŀĴáŀĵáŁį
æ ¼
à»ĢàºĽàº±àºĻàº ª
à®ķ à®°
à¹ĥà¸ ģà¸¥
s o
áŀĶ áŀ·áŀĳ
áŀĩ áŀ¶áŀĻ
Ġrem ed
Ġma m
«à¸¡à¸²à¸ ¢à¸
ĠáŀŁ áŀ¶áŀĺ
ĠN G
er n
æ° Ķ
Ġáŀķ áŁĴáŀĢ
àº´àºĶàºķ àº²àº¡
àº°àº¡ àºµ
Ġkay o
Ġnh Ã¢n
Ġbum ili
Ġib ig
ĠáŀĶáŁĴáŀļ áŁĢáŀĶ
ĠU S
Ġ0 4
áŁĴáŀļáŀłáŀŁáŁĴáŀĶ áŀıáŀ·
áŀŁ áŁĴáŀļáŀ»áŀĦ
áŀĺáŀł áŀ¶áŀĢáŁĴáŀŁ
áŀĶáŁĴáŀļáŀł áŀ¶áŀļ
áŀĶ áŀĦ
i gay
æ ¨
Ġà®ªà®¾à®° à¯įà®¤à¯įà®¤
áŀĤ áŀİ
áĢĦáĢ¹áĢ ľáĢĬáĢ¹áĢ¸
Ķ áĢ®
¹áŀĦ áŀĶáŁĴáŀļáŁĤáŀĦ
Ġáŀł áŀ·áŀļáŀīáŁĴáŀīáŀľáŀıáŁĴáŀĲáŀ»
ħ áĢĽáĢ¬
¥à¸·à¸Ńà¸ ģ
áģ¿áĢĻáĢŃáĢ³áĤķ áĢĶáĢļáĢ¹áĢ
áĢ¡ áĢĿ
à¯Īà®ļ à¯į
ĠáŀĽ áŁĤáŀĦ
ĠáŀĢáŀ¶áŀļáŀ ·áŀĻáŀ¶áŀĽáŁĲáŀĻ
¢à¸ ¸
»áĢķáĢĬáĢ¹áĢ ĶáĢļáĢ¹
ĠáĢľ áĢŃ
áŀŁáŁĴáŀĳ áŀ¹áŀĦ
áŀŁáŀł áŀĤáŀĺáŀĵáŁį
ĠáĢľ áĢ¯áĢ¶
Ġæ ¶
áŀĶáŁĴáŀļáŀĩ áŁĤáŀĦ
àº¹ àºģ
ĠPa ano
Ġ201 5
áĢĻáĢ¹áĢ ķ
Ġd aw
ul i
áŀĶáŁĴáŀļáŀĩ áŀ¶áŀĩáŀ¶áŀıáŀ·
áŀĶ áŁĨáŀĸáŀ¶áŀĢáŁĭ
áŀĴ áŁĴáŀĽáŀ¸
áŀĳ áŀİáŁĴáŀĮ
Ġå ¸
àº· à»ĪàºĻàº
áŀıáŁĭ áŀķáŁĴáŀĤ
áŀ¢ áŀºáŀļáŁīáŀ»áŀĶ
ĠN am
áĢĲáĢ¼ áĢ²
ĠáĢľáĢ° áĢĳáĢ¯
áĤıáĢŃáĢ¯áĢĦáĢ¹áĢ ķáĢ«áĢĲáĢļáĢ¹
áĢĸáĢ¼áĢħáĢº áĢŀáĢĬáĢº
áŀ¢ áŀ¶áŀŁáŁĬáŀ¸
ĵ áŁħ
àº²àº§ à»Īàº²
àº® àº¹àºļ
ĠâĢĭ :
ĠáŀŁ áŁĢáŀĺáŀļáŀ¶áŀĶ
Ġáŀĸáŀ½áŀĢ áŀĤáŀ¶áŀıáŁĭ
Ġáŀħ áŀĺáŁĴáŀļáŁĢáŀĦ
ib le
ĠáŀĢáŀ¶áŀļáŀ Ľ
æ ¹
áŁĴáŀŁ áŀĸáŁĴáŀľáŀķáŁĴáŀŁáŀ¶áŀĻ
Ġà¹Ģà¸¡à¸ ·à¹Īà¸Ńà¸
à¯ģà®¤ à¯į
Ġkam ay
Ã Ķ
ĠÄĳá»ĭ nh
áŁģ áŀĶ
áŀĩáŀ¼áŀĵ áŀĬáŁĨáŀİáŀ¹áŀĦ
áŀĨáŁĴáŀĵ áŀ¶áŁĨáŀĦ
áŀ· áŀĳáŁĴáŀĴáŀ·
áŀ¶áŀĲ áŁĴáŀĦáŁĥ
áŀ¶áŀĢ áŁĴáŀĵáŀ»áŀĦ
ĠáŀŁáŁĴáŀļáŀ¶áŀĶáŁĭ áŀıáŁĤ
ĠáŀĸáŁĴáŀļáŀ¹ áŀıáŁĴáŀıáŀ·áŀĢáŀ¶áŀļáŀİáŁį
Ġt ah
Ĭ àºŃàºļ
å± Ģ
u pa
à»Īàº§ àºĩ
ĠáŀĲáŁĴáŀĵáŀ¶áŀĢáŁĭ áŀĬáŀ¹áŀĢáŀĵáŀ¶áŁĨ
ģà¸ µà¸
ĠáŀĪ áŀ¶áŀĺ
à®ªà¯įà®ªà®Ł à®¿
áŁłáŁł áŁł
áŀŁáŀ· áŀŁáŁĴáŀŁ
áŀĵáŁģáŁĩ áŀĶáŀ¶áŀĵ
Ġà®¤ à¯ĩà®°
è¢ «
àºĦ àº»àºĻ
áŀĴáŀ¶ áŀľáŀ¸
áŀıáŁĴáŀļ áŀ¶
Ġi f
ķà¹Īà¸²à¸ĩ à¹Ĩ
ĠPilip inas
il ya
ĠáĢĽáĢ½ áĢĻáĢ¹áĢ¸
ĠáĢ¡ áĢ»áĢģ
áģ¿ áĢĦ
áĢĲáĢ° áĢĬáĢ®
áŀĢáŀ¶áŀļáŀĶ áŀĦáŁĴáŀĢ
áŀ·áŀŁ áŀĵáŀ¸
±à¸ Ķ
áŀ¶áŀ ĨáŁĴáŀĵáŀ¶áŁĨ
à¸²à¸£ à¹Į
ĠáŀŁáŁĴáŀĶ áŁĤáŀĢ
Ġà®® à®¤
ĠÂ ¹
Æ° a
ĠáŀŁ áŁĴáŀĸáŀ¶áŀĵ
ĠáŀĶáŀīáŁĴáŀĩáŀ¶áŀĢáŁĭ áŀĲáŀ¶
Ġ ðŁ
å· ²åħ³éĹŃè¯Ħè®º
áŀľáŀı áŁĴáŀŁ
àº¶àºģàºª àº²
áĢ³áĢŃ áĢ¸áĢ
áĢĲáĢ½ áĢ±áĢĽ
áĢ¬áĢĻ áĢģáĢ¶
ĸ àº²àºĻ
Ġbag ong
ĠáģĤáģ Ħ
Ġàºª àº»àº¡
Ġ) {
àºĻ àº²àºĶ
ķ à¹īà¸Ļ
ĠáĢĢáģ½áĢ¼áĢĶáĢ¹áĢ ±áĢĲáĢ¬áĢ¹
ĠáĢĢáĢŃáĢ¯ áĢļáĢ¹
ĠáĢ±áĢĽ áĢ¬áĢĦáĢ¹áĢ¸
ĠáĢ¡ áĤıáĢ¯
áĢĶáĢ¹áĢĻ áĢº
áĢħáĢ¹áĢ Ģ
Ġáģ īáģ
Ġb as
ĠáĢŀ áĢĶáĢ¹áĢ¸
ĠáĢģ áĢĶáĢ¹áĤĶ
áĢĶáĢ¹ áĤĢáĢĢáĢ®áĢ¸
áĢĳ áĢĦáĢ¹áĢ
ŀ áĢľáĢŃáĢ¯
ħ áĢ®
ĠáĢŀáĢ® áĢģáĢºáĢĦáĢ¹áĢ¸
áĢĶáĢ¹áĢ ĵ
àº ĸàº·àºģàº
is yo
à¯įà®¸ à¯į
áŀļáŀĽ áŀ½áŀĻ
áĢħ áĢ®áĢ¸áĢ
Ġ( '
ac k
à¹Ģà¸ ŀ
áŀĥ áŀ¶áŀıáŁĭáŀģáŁĴáŀĽáŀ½áŀĵ
áŀĤáŁĴáŀĤ áŀ¸
áŀĢ áŁĴáŀļáŀĢ
áŀ¢ áŀĹáŀ·áŀľáŀĮáŁĴáŀįáŀĵáŁį
k h
s p
ĠáģĤáģĢáģģáģ Ī
ĠáĢĩ áĢ¬
Ġáŀĺáŀ·áŀĵ áŀĳáŀ¶áŀĵáŁĭ
ĠáŀĶáŁī áŁĩ
ĠáĢĦ áĢ½
çľŁ äºº
å ĸ
Ġsar ili
Ġáŀĳ áŁĲáŀĸ
ĠáĢĢ áĢ¼áĢĶáĢ¹áĢ
ĠáĢ±áĢ»áĢķáĢ¬ áĢ»áĢķ
áĢ»áĢĸáĢħáĢ¹ áģ¿áĢķáĢ®áĢ¸
áĢ±áĢĶ áĢĽ
áĢ¾ áĢ±áĢ·
áº£ ng
ĠáŀħáŁĨáŀİ áŀ¼áŀĽ
áŀŁ áŁĴáŀļáŀĶ
è İ
áŀļ áŀ¶áŀĤáŀĺáŀĵáŁį
áŀĺáŀł áŀ¶áŀķáŁĴáŀĳáŁĥ
áŀĳáŀ¶áŁĨáŀĦ áŀĵáŁĦáŁĩ
à¹Ĥà¸ Ķ
Ġla rawan
à®² à®®à¯į
áŀ¾ áŀļáŀ
Ġd ag
b as
¡ áĢĲáĢ¼áĢĢáĢ¹
es e
ĠáĢĴ áĢ±áĢŀ
áŀ½áŀŁ áŀĩáŀ»áŀĽ
áŀ¶áŀĵ áŁĦáŁĩ
à¸£à¸°à¸ļà¸ ļà¸
ĠáŀĶáŁĴáŀļáŀĻ áŁĦáŀĩáŀĵáŁį
Ġáŀĳáŀ¶áŁĨáŀĦ áŀĵáŁģáŁĩ
áŀĽ áŀĳáŁĴáŀĴáŀķáŀĽ
áŀķ áŁĴáŀĢ
Ġàºģ à»Īàº½àº§àºģàº±àºļ
à»Ĥàºį àºļàº²àºį
à»ģàº §
Ħà¸´à¸ Ķà¹Ģà¸
à °
à®¿à® ¸
§à¸´à¸Ĺà¸¢ à¸²à¸
áŀĲ áŁĤáŀĺ
áŀıáŁĭáŀķáŁĴáŀĤ áŀĦáŁĭ
à»ĢàºŃ àºģàº°
áŀĢ áŁĨáŀİáŀ¾áŀı
ç« ¯
áŀĢ áŀ¶áŁĨ
ĠáĢħáĢĢ áĢ¬áĢ¸áĢ
Ġbaga y
un e
ĠâĢĭáŁĸ âĢĭ
áŀĶáŁīáŀ»áŀĵ áŁĴáŀĺáŀ¶áŀĵ
áŀĥ áŁĴáŀĺáŀ»áŁĨ
áŀĢ áŁĴáŀļáŀłáŀĺ
áĢľáĢ¯áĢķáĢ¹áĢ ĦáĢĶáĢ¹áĢ¸
áĢĲáĢº áĢĻáĢ¾áĢĲáĢº
Ġç Ľ
ĠáŀŁáŀĺ áŁĴáŀĽ
ĠáŀĬáŁĦáŀĻ áŀ¡áŁĤáŀĢ
ĠS ept
áŁĴáŀļáŀłáŀŁáŁĴáŀĶáŀıáŀ· áŁį
à»Ģàºª àºĶàºĸàº°àºģàº´àºĶ
áŀĽ áŀľáŀ·áŀĳáŁĴáŀĻáŀ¶áŀĽáŁĲáŀĻ
à»Ģàº§àº¥ àº²
áŀļ áŁĦáŀĦ
áĢģáĢº áĢ³áĢķáĢ¹
áĢ½ áĢ¾
áŀĺáŁĴáŀ Ģ
áŀĴáŀĺáŁĴáŀĺ áŀĩáŀ¶áŀıáŀ·
Ġh Æ¡n
áŀĳ áŀ¶áŀĢáŁĭáŀĳáŀĦ
ģà¸±à¸ Ķ
ä» »
ev el
ĠáŀĺáŁĴáŀĬ áŀĦ
ĠáŀĨáŁĴáŀĵáŀ¶áŁĨ áŁ¢áŁłáŁ¢áŁł
ĠáŀĢáŀ¶áŀļáŀ İáŁį
¸à¸ ĩà¹Ģà¸
àºĩàº ģàº²àºĻ
y al
à®¿à®µ à¯ģ
ĠáĢĸáĢ¼áĢħáĢº áĢŀáĢĬáĢº
à¹ĩà¸ Ķ
¥à¸° à¹Ģà¸Ńà¸µà¸¢à¸
àº²àºģàº» àºĻ
áŁģáŁĩ áŀĬáŀ¹áŀĦ
àº Ŀ
ķà¹īà¸Ńà¸ĩà¸ Ŀà¸²à¸ģ
Ġà¹Ģà¸¡à¸ ·à¹Īà¸Ń
áŀŁáŁĴáŀľ áŁĤáŀĦáŀļáŀĢ
Ġà¸ Ħà¸£à¸±à¹īà¸ĩ
áŀŁáŀĵáŁĴáŀı áŀ·áŀĹáŀ¶áŀĸ
Ġ256 2
Ġà¸ ¡à¸²à¸
åĽ ŀ
áŀŁ áŁĦáŁĩ
Ġà¹Ģ à¸£à¸
áŀĶáŀ» áŀļáŀ¸
áŀıáŀ¶áŀĺ áŀļáŀĻáŁĪ
® àº½àºĻàº
à®¿à®ķà¯įà®ķ à¯ģà®®à¯į
áŀīáŁĴáŀ ĪáŀĶáŁĭ
áŀ¶áŀĵ áŀĻáŀĵáŁĴáŀı
ĠáĢ¡áĢħ áĢ¬áĢ¸áĢ¡
ĠáŁ¤ áŁł
ĠáŀŁáŀĵáŁĴáŀı áŀ·áŀĹáŀ¶áŀĸ
ĠáŀĶáŀīáŁĴáŀħ áŀ¼áŀĽ
7 7
à¹Ģà¸ Ħà¸
áĢĲáĢħáĢ¹áĢ ±áĢļáĢ¬áĢĢáĢ¹áĢ
ĠáĢĲáĢ¬ áĢĿáĢĶáĢº
Ġt u
ĠáĢĢáĢ¬ áĢĢáĢ¼áĢļáĢ¹áĢ
ĠB ur
áĢļáĢ¹áĢ Ľ
áĢħáĢ¹áĢ Ĳ
áĢ¸áĢŀ áĢĬáĢ¹
Ġc an
áĢŃ áĢĲáĢŃ
ä¹ ¦
Ġà¸ķ à¹īà¸Ńà¸ĩ
ĠáŀĢáŀ·áŀħáŁĴáŀħ áŀĶáŁĴáŀļáŀĩáŀ»áŁĨ
ĠSept ember
ĠE n
Ľà¸ ģà¸£à¸
áŁĴáŀł áŀ¼áŀĶ
áŁĴáŀľáŀ¸áŀĽáŀ¸ áŀĸáŀ¸áŀĵ
áŁ¡áŁ ¡
áŀŁáŁĴáŀĽ áŀ¶áŀĢ
Ħ à»īàº²àº
áŀĻ áŀĵáŁĴáŀĬ
áŀĩ áŀ¶áŀħ
uh ay
áĢĻáĢ¹áĢ¸ áĢ¡áĢĶ
ĳ áĢ¬áĢ¸áĢŀ
à¸£à¸²à¸ ĩà¸
Ġat au
çĦ ¶
áŀ·áŀŁáŀ¸ áŀĳ
àº°à»Ģàº ¥
áŀ¶áŀŁáŁĬáŀ¸ áŀİáŀ¼
Ġak in
Ġáŀĺáŀ¼áŀĽ áŀłáŁģáŀıáŀ»
ĠáŀĶáŁĴáŀļáŀĩ áŀ¶áŀĴáŀ·áŀĶáŀıáŁģáŀĻáŁĴáŀĻ
ĠáŀģáŁĤ áŀ§áŀŁáŀĹáŀ¶
ģ à¸£à¸£à¸¡
i pag
Ġáŀ¢áŀ¶áŀŁ áŁĬáŀ¶áŀĵ
áŀĶáŁĤáŀĶ áŀĵáŁģáŁĩ
Ġà®ªà¯Ĩ à®±à¯įà®±
R ta
ĠáŀĶáŁĴáŀļáŀľ áŀıáŁĴáŀıáŀ·
Ġáŀĵ áŀ¶áŀľ
ĠáĢķáĢ¼áĢĶáĢº áĢľáĢĬáĢº
à¹Ģà¸ Ħà¸£à¸·à¹Īà¸Ńà¸ĩà¸
Ġs ig
à¹ģà¸« à¹Īà¸ĩà¸
Ġáŀĳáŀ·áŀľ áŀ¶
ĠáŀĤ áŁĨáŀĵáŀ·áŀı
àº°àºĻ àº²
ĠàºŃ àºµ
à¯Ĩ à®©
Ġáŀ§áŀĶ áŀĢáŀļáŀİáŁį
ĠáĢĨ áĢ®
am b
äº Ľ
áŀŁáŀīáŁĴáŀī áŀ¶áŀİ
ĠàºĬ àº²àºĶ
Ġàº¥ àº»àºĩ
à»įà»Īàºª àº²àº¡àº²àºĶ
áŀĻáŁīáŀ¶áŀĦ áŀģáŁĴáŀĽáŀ¶áŁĨáŀĦ
ĠáĢĽáĢŁ áĢĶáĢ¹áĢ¸
ĠáĢĢ áĢ±áĢľ
áĢķáĢ¼áĢĬáĢº áĢĶáĢļáĢº
áŀĹáŀ· áŀļáŀĢáŁĴáŀŁ
áĢķáĢ¹áĢĸáĢ¼ áĢ²áĤķ
ĠáĢĻ áĢ»áĢĸáĢħáĢ¹áĢ
ĠDec ember
áĢĹ áĢº
áŀĶ áŁĦáŁĩáŀĨáŁĴáŀĵáŁĦáŀı
ªà¸¹à¸ ĩ
à»ĥàºª à»Īàº
áĢ¡ áĢĻ
Ġspot s
one y
Ġma ga
áŀĩ áŁĨáŀļáŀ»áŀī
¡à¸ ŀ
áŀ¶áŀļáŀĢ áŀ·áŀħáŁĴáŀħ
ag es
ĻáĢ½ áĢºáĢ¬áĢ¹áĢ
ĠáĢ±áĢĽ áĢ¸áĢ
ĠáĢ±áĢħ áĢ¬áĢĦáĢ¹áĢ·
ĠáĢ¡áĢĳ áĢ°áĢ¸áĢŀ
ĠáŀŁáŀĺ áŁĴáŀıáŁĤáŀĦ
ĠáŀĺáŀĵáŁĴáŀĳáŀ¸ áŀļáŀĸáŁģáŀĳáŁĴáŀĻ
Ġáŀĸ áŀ¼áŀĩ
ĠáŀĶ áŀ¶
ĠáŀģáŁĤáŀĺ áŁģáŀŁáŀ¶
Ġáŀģ áŁģáŀĺ
ĠáŀĢáŀ¶áŀļáŀ ĩ
ĠÂ £Â¬
Ġkh o
à»ĢàºĤàº»à»īàº²àº ®à»Īàº§àº¡
ĠA b
Ġà¸ķ à¸²à¸£à¸²à¸
ĠP ero
Ġd is
Ġáŀ¢áŀĦáŁĴáŀĤ áŀĹáŀ¶áŀĸ
áŁģáŀŁ áŁĴáŀı
Ġap k
ĠA p
áĤĤ áĢĢáĢ¼
áĢĸ áĢ¯áĢŃáĤĶ
ĠáĢĻ áĢŀ
à¸Ļà¸ ±à¸ģà¸
ĠáĢħ áĢŃáĢĲáĢ¹
ĠáĢ¡ áĢ±áĢ¬áĢĢáĢº
àºĹ à»Īàº²àºĻàº
áŀŁ áŀĦ
áŀľ áŁīáŀ¶
à®± à¯ģ
o o
h i
áĢľáĢ½ áĢĶáĢº
áŀĹ áŁĦáŀĤ
àºĩàº ª
áŀĶ áŁĦáŁĩ
áŀı áŁĮáŀĺáŀ¶áŀĵ
áŀģáŀ»áŀŁ áŀıáŁĴáŀļáŀ¼áŀľ
áĢĲáĢ¹áĢ Ĩ
áĢ¶ áĤĶ
áĢ±áĢĲ áĢº
áŀ½ áŀļáŀĶ
áŀ¢ áŀĹáŀ·áŀĶáŀ¶áŀĽ
ĠáŀŁ áŀĦáŁĭ
àºĩ àº²àº¡
Ġà¸Ħà¸ ·à¸Ń
ĠáŀĴáŀĵ áŀĴáŀ¶áŀĵ
ĠáŀģáŁĴáŀĽáŀ½áŀĵ áŀ¯áŀĦ
Ġáŀ¢ áŀĵ
àºģàº ŃàºĩàºĽàº°àºĬàº¸àº¡
ah ul
áŀĺáŀł áŀ¶áŀļáŀ¸áŀĢ
áŀĳáŀ¼ áŀĳáŁħ
àº²àºĻàº ª
áŀı áŁĴáŀĻ
áŀģáŀ¶áŀĦ áŀıáŁĴáŀĶáŀ¼áŀĦ
Ġban sa
ģà¸´à¸ Ī
±áĢĢ áĢ¬áĢĦáĢ¹áĢ
ĠáģĤáģ Ĥ
à¯Ĩ à®²à¯įà®²
áŀ»áŁĨ áŀļáŀ¿áŀĦ
I S
ĠâĢĭ Â«
ĠáŀŁáŁĨ áŀļáŀ¶áŀĶáŁĭ
Ġáŀļáŀ ¹
Ġáŀĺ áŀıáŀ·
¥ àº°àº«àº§à»Īàº²àºĩ
ĠáĢĻ áĢ»áĢĢáĢº
ĠáŀĶáŀ¶áŀĵ áŀ²áŁĴáŀĻáŀĬáŀ¹áŀĦáŀĲáŀ¶
Ġáŀĥ áŀ¶áŀıáŁĭ
à¹Ģà¸ ģ
ĠD e
áŁĨáŀŁ áŀ¶áŀĵáŁĴáŀı
à¹Ģà¸ ŀà¸·à¹Īà¸Ńà¸
áŀŁáŁĴáŀĲáŀ¶áŀĵ áŀĹáŀ¶áŀĸ
áŀŁáŀ¶áŀĦ áŀŁáŀĦáŁĭ
à¯Īà®ļ à¯įà®ļ
áŀŁ áŁĴáŀĸ
áŀĸáŁģáŀĽ áŀĵáŁģáŁĩ
áŀĵáŀ¶áŁĨ áŀĸáŀ¶áŀĢáŁĴáŀĻ
Ġà®ħ à®¤à¯ģ
áŀĴ áŁĢáŀĶ
ĠáĢ±áĢķ áĢ¸áĢ
ĠáĢ¡áĢŀ áĢ¯áĢ¶áĢ¸áĢķáĢ¼áĢ¯
áŀĩ áŁĨáŀĳ
áŀ¢ áŀ¶áŀĩáŀ¸áŀľáŀĢáŀĺáŁĴáŀĺ
Ĺ à»ĪàºŃàºĩàºĹà»Īàº½àº§
U v
ĠáŀĳáŁĨáŀĵ áŀĦ
æİ ¥
Ì £
Ã ĭ
Ġm Ã¬nh
ĠáŀĬ áŀ¾
Ġáŀħáŀ¶áŀĶáŁĭ áŀķáŁĴáŀıáŀ¾áŀĺ
áŁĴáŀĸ áŁĦáŁĩ
Ġà¸ľà¸ ¥
· à¸Ńà¸ĩà¸
à®¾à®£ à¯įà®Ł
áŀŁ áŀ¶áŀıáŁĭ
áŀĽáŀ¾áŀĢ áŀ¡áŀ¾áŀĦ
±áĢ ģáģļ
ģáĢ²áĢ· áĢĽ
áŀıáŁĴáŀļáŀ¹áŀĺ áŀıáŁĴáŀļáŀ¼áŀľ
ĠP ina
áŀıáŁĴáŀı áŀŁáŀīáŁĴáŀīáŀ¶áŀİ
ĠáĢĢ áĢĻáĢ¬áģ»
áģ¿ áĢģ
áĢķáĢ¼ áĢ±áĢ¬áĢĦáĢºáĢ¸áĢ
áŀĨ áŀ¶áŀĶáŁĭ
Ġs inh
Ġo ras
áŀĢáŀ¶áŀļáŀĩ áŀ¶áŀĺáŀ½áŀĻ
áŀ»áŀı áŁĴáŀļ
ĠàºĻàº± àºģ
æĪ ¿
à»Ĥ àºĻ
áŀ¶áŀŁáŁĴáŀļ áŁĲáŀĻ
ou ld
ĠáŀŁáŀĺ áŀ»áŀĳáŁĴáŀļ
à¹Ħà¸§ à¹ī
áĢĲáģ ±áĢ
áĢģ áĢ²áĤĶ
áĢ® áĢĲ
èī ²
d it
ĠáĤĲ áĢ¯áĢķáĢ¹áĢ
ĠáĢ±áĢŀ áĢģáĢºáĢ¬
ĠáĢ±áĢĽ áĢ½áĤķ
áĤıáĢŃáĢ¯áĢĦáĢ¹áĢ Ļ
áĢŀ áĢ¯áĢŃáĤĶ
áĢķ áĢĬáĢ¬áĢĽ
àºŃ àºį
ĠáŀŁáŀ» áŀĹ
ĠáŀŁ áŁĴáŀļáŀ¡áŀ¶áŀīáŁĭ
Ġáŀļ áŀ¶áŀĦ
ĠB y
Ġn in
ĠáŀĶ áŀĺáŁĴáŀļáŀ¾
áŁĴáŀļ áŀ¶áŀĢ
áĢĨáĢŃáĢ¯ áĢ±áĢĲáĢ¬áĢ·
áĢĢáĢ¹áĢ ĻáĢ½
ĽáĢ½ áĢĦáĢ¹áĢ
ĠáĢķáĢ¼áĢ¯ áĢľáĢ¯áĢķáĢº
ĠãĢ Ĭ
ĠPh ilip
duk to
á»¥ c
Ġy un
o ra
áŀĶáŁĴáŀļáŀĺ áŀ¼áŀĽ
Ġs c
áŀĳáŁħ áŀĵáŀ¹áŀĦ
àº±àºĻàº Ń
Ġga win
à®¾à®¤ à¯įà®¤
· à¸Ļà¸
áŀĦ áŀ¶áŀĻáŀŁáŁĴáŀļáŀ½áŀĽ
urg ery
Ġpagla go
in ut
Ġáŀł áŁĬáŀ¶áŀĵ
ĠáŀķáŁĴáŀĳ áŀ»áŁĩ
é¤ Ĳ
Ġáŀ¥ áŀı
ĠC on
áŀŁáŁĴáŀĽ áŀ¶áŀĺ
Ĺà¸µà¸ ¡à¸
áŀĩ áŀ¶áŀĵáŁĭ
áŀħ áŀ¶áŀĢáŁĭ
Ġo leh
ĩ à¹Īà¸²à¸¢
áŀĢáŀĦ áŀĳáŁĲáŀĸ
Ġå Ĭ
Ġà®ħ à®£
àº§àº½ àºĩàºĪ
à»Ĥàº¥ àºģàº
Ġb re
ilip ino
Ġk ang
ĠáĢ¡ áĢ¬áĢĽ
áŀ¼áŀħ áŀģáŀ¶áŀı
«à¸±à¸ §à¸
Ġæ ±
áŀ¯áŀĢ áŀŁáŀ¶áŀļáŀ
ä¼ ģ
ĠáŀŁáŀļáŀŁ áŁģáŀļ
Ġáŀĺáŀ·áŀĵ áŀ¢áŀ¶áŀħ
ä¸Ń åĽ½
ĠáŀĶ áŀĵáŁĴáŀĽ
ĠáŀıáŁĴáŀļáŀ¹áŀĺ áŀıáŁĴáŀļáŀ¼áŀľ
à¹ģà¸ ķà¹Ī
Ġga wa
ĠáŀĬáŁĤáŀĽ áŀĩáŀ¶
ĠáŀĬ áŁĨ
Ġáŀĩ áŁĦáŀĤáŀĩáŁĲáŀĻ
Ġáŀħ áŀĽ
Ġ ã
æ´ »
ĠáĢķ áĢ°
ĠáŀĤáŁĴáŀļ áŁĦáŀĦ
à»ģàº ŀ
Ġc ao
Ġáŀ§ áŀĳ
ĠáĢĲ áĢ¯áĢŃáĢĢáĢ¹áĢ
ĠáĢ±áĢĴáĢŀ áĢģáĢ¶
áĤıáģ ±áĢ
áĢ¡áĢŀ áĢĦáĢ¹áĢ¸
±áĢ »áĢĸ
áĢ±áĢĽ áĢ¬áĢĢáĢ¹
ĠM edia
ķ áĢ±áĢ«
na p
ŀà¸´ à¹Īà¸¡à¹Ģà¸
áŀłáŀĳáŁĨáŀĸáŁĲ áŀļ
ĠáĢ¡áĢĻ áĢ±áĢĽáĢŃáĢĢáĢĶáĢº
áŀĳáŀ¼ áŀĳáŀ¶áŁĨáŀĦ
Ĭ à¸µ
àº¹ àºĶ
áŀĢ áŀİáŁĴáŀĬáŀ¶áŀĽ
Ġà®ķ à®¿à®°
Ġka ilangan
àº· à»Īàº¡
Ġáŀł áŀ¶áŀĢáŁĭ
ĠáŀŁáŁĴáŀĺ áŀ¾
ĠáŀŁáŁģ áŀľ
à¹Īà¸Ńà¸ĩ à¹Ģà¸Ĺà¸µà¹Īà¸
ĠáŀŁáŀł áŀļáŀĬáŁĴáŀĭ
Ġáŀľ áŀİáŁĴáŀİ
Ġáŀķ áŁĴáŀĽáŁĤ
ĠáŀĶáŀĵáŁĴáŀĳ áŀĶáŁĭ
ĠáĢ¡ áĢĻáĢºáĢ¬áĢ¸
áģ¾áĢĢ áĢŃáĢ³
áĢŀáĢ° áĢĢ
ĠáŀĶáŀħáŁĴáŀħáŁģáŀĢ áŀľáŀ·áŀĳáŁĴáŀĻáŀ¶
ĠáŀĴáŀĺáŁĴáŀĺ áŀĩáŀ¶áŀıáŀ·
Ġáŀĩ áŁĴáŀļáŀ¾áŀŁáŀļáŀ¾áŀŁ
Ġngh iá»ĩ
Ġi pina
áŀļáŀĬ áŀ¼áŀľ
å ¦Ĥ
áĢ¡ áĢ»áĢķáĢĦáĢ¹
±áĢĸ áĢ¬áĢ¹áĢ
ĠáĢĿ áĢĦáĢ¹áĢ
ĠáĢ»áĢĻáĢĶáĢ¹áĢĻáĢ¬ áĢ»áĢķáĢĬáĢ¹áĢ
ĠáĢ±áĢ ŁáĢ¬
ĠáĢ¡áĢħáĢ® áĢ¡áĢħ
àº²àºį àº»àºģàº
àº£ àºĶ
àº¡àºµ àºĦàº§àº²àº¡
áĤĲ áĢ½
áĢĻ áĢļáĢ¹áĢĨáĢŃáĢ¯
áĢĺ áĢ®
er a
áŀĸ áŀī
áŀĶáŁĴáŀļáŀĸ áŀĵáŁĴáŀĴáŀ
áĢĢáĢº áĢĦáĢ¹áĢ·
áĢ¸áĢ ģáĢ¼
áŀģáŀ¶áŀĦ áŀĢáŁĴáŀļáŁĦáŀĺ
) ,
Ġà»ģàº ¡
áŀ¶áŀĺáŁģ áŀļáŁī
»áĢĸáĢħáĢ¹áĢ ±áģ¾áĢĢáĢ¬áĢĦáĢ¹áĢ¸
ĠáĢĴáĢ« áĢ±áģ¾áĢĢáĢ¬áĢĦáĢ¹áĢ·
áĢĬáĢºáĢ¸áĢ¡ áĢĿ
ľ áĢº
Ġáŀĺáŀ·áŀĵ áŀĺáŀ¶áŀĵ
Ġàº¥ àº²
à»Īàº½àº§ àºĤ
ĠV iá»ĩt
Ġl ib
à¯ĭ à®ķ
ĠÄĳá» ģ
ĠáĢľáĢ¯áĢķáĢ¹áĢ ±áĢĨáĢ¬áĢĦáĢ¹áĢ
áĢŃáĢ¯áĢĦáĢº áĢĽáĢ¬
Ĭà¹Īà¸§à¸ ¢
Ġáŀĺ áŁĴáŀłáŀ¼áŀĶ
åİ ħ
ĠáŀĶáŁĴáŀļáŀ ĤáŀĽáŁĭ
ĠáŀĬáŁĨáŀİ áŀ¹áŀĦ
Ġáŀħ áŁĲáŀĵáŁĴáŀĳ
ĠáŀģáŁĤáŀĢ áŀ»áŀĺáŁĴáŀĹáŁĪ
ĠáŀĢáŁı áŀĬáŀ¼áŀħ
Ġartic le
áŀĶáŁĴáŀļ áŀ¶áŀŁáŀ¶áŀĳ
à»ģàº ª
à®¾à®µ à®¤à¯ģ
Ġà¸ģà¸²à¸£à¸ ŀà¸Ļà¸±à¸Ļà¸
¨à¸¶à¸ģà¸© à¸²à¸
ç¤ º
áŀĳáŀ¸ áŀķáŁĴáŀŁ
áŀ¼ áŀĢáŁĴáŀļáŀ¶áŀĺ
áŀ¶áŀĵ áŀ·áŀĦ
ŀà¸£ à¹īà¸Ńà¸¡à¸
ĠáŀŁáŀĦáŁĴáŀĤ áŁĴáŀļáŀ¶áŀĺ
»áĢĻ áĢĦáĢ¹áĢ·
ĠáĢĲ áĢķáĢ¹áĢ
áĢŀ áĢ»áĢĸáĢĦáĢ¹áĢ·
áĢĻáĢ½áĢ¬ áĢķáĢ²
ĠáĢĲ áĢŃáĢ¯áĢ¸áĢĲ
Ġt at
àºŃàºļàºĦ àº»àº§
ĠáĢ¥áĢķ áĢĻáĢ¬
ĠáĢ¡ áĢĦáĢ¹áĢ¸
áĢŃáĢ³ áĤĶ
áĢĶ áĢħáĢ¹
áĢ¼ áĢ¬áĢ¸
ĠáĢĽ áĢŃáĢ½
ĠáĢķáĢ« áĢĿáĢĦáĢ¹áĢ
ĠáĢ±áĢĻ áĢ¸
ĠáĢ± áģĢ
ĠáĢ¡áĢ¬ áĢı
à¹ĥà¸ ķ
Ġáŀľáŀ· áŀĩáŁĴáŀĩ
ĠáĢ¡ áĢĻáĢ¾áĢ¯
àºĪ àº°àº
áĢĳáĢ±áĢ¬áĢĦáĢº áĢħáĢ¯
Ġáŀ¢ áŁĨáŀ¡áŀ»áŀĦ
à¯įà®ķ à®¿à®±
ĠY ou
áŀŁáŁĴáŀı áŁĴáŀļáŀ¸
áŀŁáŀł áŀļáŀĬáŁĴáŀĭáŀ¢áŀ¶áŀĺáŁģáŀļáŀ·áŀĢ
Ġkas ama
áŀĶáŁĴáŀļáŀ Ĭ
áŀĵáŁĴáŀĽ áŁĦáŁĩ
áĢıáĢ¹áĢ į
äº ī
à¯Īà® ª
áŀĢáŀ¶áŀļáŀ Ĺ
uga r
½ áŀĽ
«à¸¡à¸²à¸ ¢
ĠáŁ¢ áŁ¨
Ġáŀĺáŀ·áŀĵ áŀĶáŀ¶áŀĵ
Ã ĸ
Ġt á»ĳ
àº¥ àº°àºļ
áĢ¶áĢ¯ áĢ¸áĢĢáĢŃáĢ¯
áĢ¥áĢķ áĢ±áĢĴ
ĸáĢ¼ áĢĲáĢº
Ġáŀĵáŀ· áŀŁáŁĴáŀŁáŀ·áŀı
Ġáŀĳáŀ¼ áŀĳáŀ¶áŁĨáŀĦ
Ġáŀĳ áŀ¼áŀļáŀĳáŀŁáŁĴáŀŁáŀĵáŁį
Ġä» ĸ
ĠInstitut e
ĠD a
Ġ3 1
áŀĸáŁĴáŀļ áŁĨáŀĬáŁĤáŀĵ
ĠáĢľáĢĢáĢ¹áĢ Ķ
áĢĽáĢ½ áĢĦáĢ¹
áĢļáĢ¹áĢ ¡
w e
ĠáĢŁ áĢ°
áŀĵáŀ¶áŀĺ áŁĲáŀĻ
áŀĳ áŀĽáŁĭ
Ġà»Ģàºģàº ¡
à»ģàº Ī
ĠáĢĳ áĢĻáĢĦáĢ¹áĢ¸
ĠáĢĲáĢĦáĢ¹áĢ »áĢķ
ĠáĢĲ áĢ¶
áŀħáŁĨáŀİ áŀ¶áŀĻ
ŀà¸£à¸ °
ĠáĢ±áĢĲáĢ¬áĢ¹áĢ ±áĢĲáĢ¬áĢ¹áĢ
ĠáĢ±áĢ»áĢķáĢ¬ áģ¾áĢĢ
áĤıáĢ½ áĢĦáĢ·áĢ¹áĢ
áĢľ áĢ¶áĢ¯áĢ¸áĢ
áĢĦ áĢ»
áĢ¸áĢĢáĢ» áĢĦáĢº
Ġà¸ģà¸ ¡
Ġa pa
à¯ģà®Ł à¯Īà®¯
áŀĢáŁĤ áŀľ
àºĻà»Ħ àº«àº§
à¹Ĥà¸£à¸ ĩà¸
àºĦàºŃàºĻàº «àº¼àº§àºĩ
áŀ¶áŀ¡ áŁģáŀŁáŁĬáŀ¸
n i
an k
Ġ à¹Ĥà¸£à¸ĩà¹ģà¸£à¸¡
Ġáŀľáŀ·áŀĳáŁĴáŀĻ áŀ¶áŀŁ
¸ à¹Īà¸¡
ĠáĢ±áĢķ áĢºáĢ¬áĢ¹áĢ
áĢķáĢ±áĢ« áĢĦáĢºáĢ¸
ĠáŀĶ áŀĢ
Ġáŀĵáŀ·áŀĦ áŀŁ
àº§ àº²àºĩ
Ġà®ªà¯Ĭ à®°
Ġáŀı áŀĶ
Ġáŀģ áŁĢáŀľ
ĠáŀĢ áŁĴáŀĬáŀ¸
àº ĸàº·
ĠáŀĢ áŀ¾áŀĵáŀ¡áŀ¾áŀĦ
áĢĶáĢ¹áĢ¸ áĢĢáĢº
áĢģ áĢı
à¹ģà¸£à¸ ĩà¸
áŁĦ áŀĴáŀ
áŀŁáŀ»áŀģ áŀ¶áŀĹáŀ·áŀĶáŀ¶áŀĽ
áŀŁ áŁĴáŀĵáŀ¶áŀĢáŁĭ
ĠáĢķáĢ¼áĢ±áĢ¬ áĢķáĢ«áĢĲáĢļáĢº
áĢĽáĢŃ áĢļáĢ¬
Ã Ģ
ĠÄĳá»ĵ ng
áŀĺáŀł áŀ¶áŀŁ
áŀĶáŁĴáŀļáŀĳáŁģáŀŁ áŀĢáŀĺáŁĴáŀĸáŀ»áŀĩáŀ¶
áŀĶ áŁĴáŀŁ
áŀĳáŀ¶áŁĨáŀĦ áŀĸáŀ¸áŀļ
h ang
áŀİ áŁĤáŀĵáŀ¶áŁĨ
áŀ¶áŀ Į
¡ àº±àºĻ
Ġmen y
áĢģ áĢĶáĢ¹áĤĶ
±áĢĶ áĢĽ
ĠáĢĲ áĢ°
ªà¸ĸ à¸²à¸Ļà¸
ra c
il y
Ġáŀļ áŁīáŀ¶
Ġáŀĳ áŁĴáŀļáŀĸáŁĴáŀĻ
ĠãĢĳãĢĲ ãĢĤ
ç¤ ¾
Ġáŀı áŁĴáŀı
ĠáŀĬ áŀ¶áŁĨ
ĠS p
áŀŁ áŀ¶áŀŁáŀĵáŁį
ĠáĢĲ áĢ®
ĠÃ £
Ã Ĵ
iá»ĥ u
áŀļ áŀ¶áŀĻáŀĢáŀ¶áŀļáŀİáŁį
Ġin s
áĢ½ áĢĦáĢºáĢ·
ĠáĢĨ áĢ¯áĢ¶áĢ¸áĢ
èģ Ķ
à¯Ĭ à®´
áŀĵ áŀ¶áŀĻ
Ġ es
áŀĬ áŁĤáŀĢ
áĢŃáĢ¯áĢ¸áĢ ķ
áŀĤ áŀĦáŁĴáŀĤ
áŀ·áŀı áŀģáŁĨ
áŀ¶áŀĳ áŀ»áŀĢ
áŀ¢áŀ¶áŀł áŀ¶áŀļ
à»ĥ àºķà»ī
Ġáŀĳ áŀ¼áŀĽ
ĠáŀĤ áŁģáŀħ
ĠáŀĢáŀ¶áŀļáŀ ľ
áŁĴáŀĶ áŀ·áŀı
áŀļ áŁĢáŀĽ
áŀĺáŁī áŀ¶áŀŁáŁĬáŀ¸áŀĵ
áĢĽ áĢĬáĢº
¨à¸¶à¸ģà¸© à¸²
Ġka ra
áŀĶ áŀ¶áŀļáŀĺáŁĴáŀĹ
Ġà¸Ħ à¸Ļ
áŀĲ áŀ¶áŀĩ
å° ĳ
à»ģàºģà»ī à»ĦàºĤ
Ī à¸²à¸£à¸
áŀıáŁĴáŀļ áŁĢáŀĺ
áŀİ áŀ¸áŀĻáŀĬáŁĴáŀĭáŀ¶áŀĵ
áŀĦáŁĴáŀĢ áŀıáŁĭ
ĠáĢŀáĢŃáĢĽ áĢķáĢ«áĢĲáĢļáĢ¹
ĠáĢ±áĢĨ áĢ¼áĢ¸áĢ±áĤıáĢ¼áĢ¸áĢ
áĢĽ áĢŃáĢ¯áĢĢáĢº
áŀº áŀı
àº°àºĻ àº²àºĦ
¡à¸ ·à¸Ń
áŀ·áŀĦ áŁĴáŀł
ĩ áŀĵ
ĠâĢĭ ?
Ġà»Ģàºģàº »
à»Ģàº«àº¼ àº»à»Īàº²àºĻàº
Ġà®ª à®±à¯įà®±
ĠáŀŁáŁĴáŀľ áŁĤáŀĦáŀļáŀĢ
Â µÃ
Ġd á»±
ĠáŀŁáŀĺ áŁĴáŀļáŀ½áŀĽ
ĠáŀŁ áŀĶáŁĴáŀĶáŀ¶áŀĻ
ĠáŀĺáŁī áŀ¶áŀŁáŁĬáŀ¸áŀĵ
áĢĻáĢ¼áĢŃáĢ¯áĢ· áĢĶáĢļáĢº
áĢĻáĢº áĢ¸áĢŀ
ĠS i
ĠáŀĹáŁģáŀĳ áŀĶáŁĴáŀļáŀ»áŀŁ
ĠáŀĹáŀ¶áŀĤ áŀħáŁĴáŀļáŀ¾áŀĵ
ŀà¸´à¹Ģà¸¨à¸ ©
à¸Ńà¸ ¥
æ Ĥ
Ġáŀĸ áŁģáŀĩáŁĴáŀļ
Ġw ill
áŁĴáŀļáŀ¸ áŀĢáŁĴáŀļ
áŀļáŀ Ĺáŀ¶áŀĸ
à¹Ĥà¸£à¸ĩà¹ģà¸£à¸ ¡à¸
áŀĺ áŁĴáŀļáŀ¶áŀĶáŁĭ
ula y
áŀĵáŀ¶áŀŁ áŀĺáŁĴáŀ
Ľà¸ ģà¸
áŀĵáŀ¶áŀĻáŀĢ áŀļáŀĬáŁĴáŀĭáŀĺáŀĵáŁĴáŀıáŁĴáŀļáŀ¸
áŀıáŁĤ áŀĺáŀ½áŀĻ
i kan
áĢĶ áĢ±áĢĲáĢ¬
Ġà® Ī
æĪ ĺ
áĢĳáĢ¬áĢ¸áĢ ķáĢ«áĢĲáĢļáĢ¹
áĢħáĢ® áĢĻ
áĢ¶áĢ· áĢĸáĢ¼
àºĻàº µ
áŀı áŁĨáŀİáŀ¶áŀĦ
Ġta ga
áŀĩáŀĵ áŀĩáŀ¶áŀıáŀ·
ľ áĢ°
ĠáĢĽ áĢ±áĢ¬áĢĢáĢº
Ġthe o
àºģ à»ī
áŀĤ áŁĴáŀļáŀ¸
áŀ·áŀĹ áŀ¼
ĠáĢĢáĢ»áĢ½áĢĶáĢºáĢĲáĢ±áĢ¬áĢº áĢĲáĢŃáĢ¯áĢ·
áŀ·áŀĦ áŁĴáŀŁáŀ¶
áŀ§áŀĶ áŀĢáŀļáŀİáŁį
Ĭà¸ ¡à¸
ti onal
ĠâĢľ âĢĭ
áĢ±áĢĴáĢŀ áĤĢáĢĢáĢ®áĢ¸
ĠáĢŀáĢ° áĢĦáĢļáĢ¹áĢģáĢºáĢĦáĢ¹áĢ¸
ĠáĢļáĢ¬ áĢ¥áĢ¹áĢ
ĠáĢĢáĢ» áĢĦáĢºáĢ¸áĢķ
or ang
Ġà®¨ à®²à¯įà®²
àº°àºŀ àº±àºĻàº
ĠáŀļáŁī áŀ¼
Ġáŀļáŀ¶áŀĩáŀĴáŀ¶áŀĵáŀ¸ áŀĹáŁĴáŀĵáŁĨáŀĸáŁģáŀī
Ġáŀĳ áŀĺáŁĴáŀĦáŀĵáŁĭ
àº°àºĻàº µ
áĢĶáĢº áĢ¸áĢĲ
æł ¼
Ĥà¸Ńà¸ĩà¸ Ħà¸¸à¸ĵ
Ġáŀĳ áŀ·áŀŁ
ŀáĢ° áĢ±áĢĲáĢ¼
ĠáĢħ áĢŃáĢ¯áĢ¸áĢĽ
Ġà®® à®£
ĠáŀģáŁģáŀıáŁĴáŀı áŀŁáŁĢáŀĺáŀļáŀ¶áŀĶ
áŁĴáŀļáŀĩ áŀ¶áŀĢáŁĭ
ĠáĢ¡áĢŀ áĢ¶áĢ¯áĢ¸áĢ»áĢķáĢ³
áģ īáģ
±áĢĲáĢ¼ áĢĶáĢ²áĤĶ
L D
ĠáĢľ áĢ¬áĢĻ
áģ «
áĢ»áĢĸ áĢ´
Ĳ áĢŃáĢ¯
Ĳ áĢ½
áŀĺáŁĴáŀĬ áŀĦ
áŀĵ áŀ¶áŀļáŀ¸
áŀ¶áŀŁ áŀĵ
ĠáĢķáĢ°áĢ¸áĢ ±áĢķáĢ«áĢĦáĢ¹áĢ¸
ĠáĢĲ áĢ¯áĢŃáĢĦáĢ¹áĢ¸
áģ¾áĢĢ áĢĻáĢ¹áĢ¸
áĢĽ áĢ±áĢħ
ŀ áĢŃáĢĶáĢ¹áĢ¸
Ĭ áĢ®
ĠáĢļ áĢ¯áĢ¶
Ġà¸ŀà¸£ à¹īà¸Ńà¸¡à¸
àº°àº¥ àº±àºĶ
ģà¹ĩà¸ Ķà¹Ģà¸
à¹Ĥà¸ ķ
Ġma lak
Ġla gi
Ã ¼
{ \
ĠáŀŁáŁĴáŀľ áŁĤáŀĦ
Ġà®ħà®µ à®°à¯įà®ķà®³à¯į
ĠáŀŁ áŁĨáŀĶ
ĠáĢĳáĢ¯áĢĲáĢ¹áĢ »áĢķáĢĶáĢ¹áĢ
ĠáĢĳ áĢ½áĢĢáĢº
Ġb et
Ġ365 bet
æİ ¨
ĠáĢ¡ áĢĦáĢ¹áĢĲáĢ¬
ŀáĢ¼ áĢĦáĢ¹áĢ¸
ĠáĢŀ áĢ¶áĢ¯áĢ¸áĢ
ĠáĢĲ áĢģáĢ¯
ĠáĢĢáĢŃáĢ¯áĢļáĢ¹áĢ ħ
ĠáĢ¡ áĢĶáĢ¬
Ġsak it
àº§ àº±àºĻàºĹàºµ
áĢ±áĢľ áĢ¬áĢ·
Ŀ áĢĶáĢº
à»įà»Īàºª à»īàº²àºĩ
Ġáŀļáŀ ¾
à¹Ĥà¸ «à¸¥à¸
Ġà¸£à¸ ¸à¹Īà¸Ļ
±à¸ ĩà¹Ģà¸
Ġáŀĺ áŁĴáŀĻ
à»ĥàºĻàº ª
ĠáŀĶáŁī áŀ»áŀŁáŁĴáŀıáŀ·áŁį
Ġáŀĳ áŀ¶áŀĺáŀĳáŀ¶áŀļ
Ġp la
ĠáĢ±áĢ»áĢķáĢ¬ áĢĨáĢŃáĢ¯
áĢĶáĢºáĢ¸áĢĻ áĢ¬áĢĽ
app ä¸ĭè½½
çº §
ĠáŀĢ áŀŁáŀ·áŀĢáŀļ
Ġáŀ¢ áŀıáŀ·áŀĲáŀ·áŀĩáŀĵ
Ġáŀ¡ áŀ¶áŀĵ
aga i
ĠI t
Ġc os
áŁ¡áŁ ¥
áĢĲáĢ¹áĢ Ļ
áĢ¹áĢ ķ
áĢ±áĢ· áĢľáĢ¬
áŀĺ áŀĦáŁĴáŀĤáŀĽ
áŀĢ áŁĨáŀł
Ġn Ãªn
à®³ à¯įà®µ
áŀ·áŀľáŀıáŁĴáŀı áŀĵáŁį
áŀ¢ áŀĦáŁĴáŀĢáŁģáŀı
à¹ įà¸²
ªà¸´à¸Ļà¸Ħ à¹īà¸²à¸
à¹Ħà¸ Ĺà¸¢à¸
ĠDi yos
Ġà¸ Ķà¸µ
ļ à¸£à¸£à¸
ç¬ ¬
al th
Ġg o
±áĢĨ áĢ¼
áĢľ áĢ¼
áĢĻáĢ½áĢ¬ áĢľáĢĬáĢ¹áĢ¸
áĢħáĢ¹áĢ ĢáĢŃáĢ¯
áĢ±áĢ ģáĢ¶
Ġb al
e i
P ost
Ġáŀľ áŀ·áŀĶ
ĠáŀĢ áŁĴáŀļáŀĺ
ĠHomeáŀĸáŁĲáŀıáŁĮáŀĺáŀ¶áŀĵ áŀĢáŁĴáŀĵáŀ»áŀĦáŀŁáŁĴáŀļáŀ»áŀĢ
ĠHomeáŀĸáŁĲáŀıáŁĮáŀĺáŀ¶áŀĵáŀĢáŁĴáŀĵáŀ»áŀĦáŀŁáŁĴáŀļáŀ»áŀĢ Content
áŁĴáŀļáŀłáŁĴáŀĺ áŀĳáŀİáŁĴáŀĮ
áŁĴáŀļáŀĽ áŀ¶áŀīáŁĭ
áŁĴáŀļáŀ¼áŀľ áŀĶáŀ¶áŀĵ
Ġà®ĩà®²à¯įà®² à¯Ī
à»ģàºĹ à»ī
ķ à¸£à¸§à¸Īà¸
áŀŁ áŀ¶áŀĴáŀ¶áŀļáŀİáŁĪ
ĠáģĢ áĢĦáĢ¹áĢ
Ġáģ¾áĢĢ áĢŃáĢ³
ĠáĢĽ áĢ¯áĢķáĢº
am ang
àº²àº¥àº°àº ģàº
áŀļáŀĶáŀŁáŁĭ áŀĸáŀ½áŀĢáŀĤáŁģ
à®µ à¯įà®µ
àº± à»ĪàºĻàº
ĠáĢ±áĢĻ áĢ¼áĢ¸áĢ
Ġ201 4
áĢĲáĢ½ áĢ±áĢĶáĢ²áĢ·
áĢĨ áĢ¶
áŀı áŁĴáŀļáŀ¡áŀĶáŁĭ
¡ à¸´
áĢħ áĢŃáĢĲáĢº
Ġin ter
«àº¼ àºµ
Ġàºª àº±àºĩàºĦàº»àº¡
àºĦ àº³
ªà¸°à¹Ģà¸ ģà¹ĩà¸Ķà¹Ģà¸
ªà¸ ±à¸ĩà¸
áŀĩáŁĨáŀĵ áŀ½áŀĻ
æł ·
Ġ à¹Ħà¸Ĺà¸¢
áŀĤáŁĴáŀļ áŀ¶áŀŁ
¡ áŀ¾áŀĦ
Ġà¸ŀ à¸£à¸µà¹Ģà¸¡à¸µà¸¢
¨à¸±à¸ ŀà¸
áĢĦáĢ¹ áģ¾áĢĢ
áĢ¶áĢ¯ áĢ¸áĢĢ
áĢ¬ áĢıáĢ¹áĢ
ĠáĢĳ áĢĬáĢ¹áĢ·
áĢľ áĢ±
Ġc Æ¡
ĠáŁ¢ áŁ§
ĠáŀŁáŁĬáŀ¸ áŀľáŀ·áŀĽ
àºģ àº²àºĶ
áĢ¡ áĢŃáĢ¯
ĠáŀŁáŀĦáŁĴáŀĥ áŀ¹áŀĺ
àº¸ àºĩàº
Ġsi yang
ĠáŀĶáŁĴáŀļ áŀ¶áŀļáŀĸ
à®Ł à®¿à®¯
Ġmo re
áŁĨáŀł áŀ¶áŀĵ
áŀĸáŁģáŀĽ áŀĬáŁĤáŀĽ
Ĺà¸± à¹Īà¸§
àº²àºģàº ±àºļ
áŀĸáŀ¶áŀĢáŁĭ áŀĸáŁĲáŀĵáŁĴáŀĴáŀ
áŀĶ áŁĨáŀĸáŁģáŀī
Ġpinakam ahusay
áŀıáŁĴáŀļáŀ¹áŀĺ áŀıáŁĤ
ĠáĢħ áĢ¥áĢ¹áĢ¸
áĢĲáĢ½ áĢ±áĢ¡
áĢĨ áĢĦáĢ¹áĢ·
áĢĨ áĢ±áĢ¬áĢĢáĢº
Ġmaram ing
áŀĩ áŀ¸áŀľ
ķ àº»à»īàºĻ
áŀģ áŁĴáŀħ
f ul
Ġáŀł áŁĴáŀŁ
ĠáŀŁáŁĴáŀĳ áŀ¹áŀĦ
ĠáŀĴáŁĴáŀľáŀ¾ áŀ±áŁĴáŀĻ
Ġáŀĩáŀĺ áŁĴáŀļáŀ¾áŀŁ
åĮ Ĺ
Ġà»Ģàºŀ àºµà»Īàº¡
Ġà»Ģàº ķ
Ġáŀħ áŁĴáŀļ
Ġp e
áŁĲáŀı áŁĴáŀļ
Ġàºģàº ŃàºĩàºĽàº°àºĬàº¸àº¡
à»ĢàºĤ àºĶàº
áŁĤ áŀŁ
áŀĺáŀ½áŀĻ áŀĵáŁģáŁĩ
p x
à¸£à¸¹ à¹ī
Ġà®¨ à¯ĭ
Ġc Ã²n
ĠáģĤáģĢáģģáģ ĩ
áĢĸáĢ¼ áĢĦáĢ¹áĢ·
áĢĲ áĢĬáĢ¹áĢ
áĢĬáĢ¹áĢ ŁáĢ¯
áĢĨ áĢŃáĢ¯áĢĦáĢ¹áĢĽáĢ¬
ĠáĢĿ áĢĦáĢº
áŀĶ áŀ¹áŀĦ
áŀĳáŁħ áŀĬáŀĽáŁĭ
áŀı áŁĨáŀİáŁĤáŀĦ
ja di
àºĪ àº´àºĩ
§à¸ Ķà¸
áŀĬáŀ¼áŀħ áŁĴáŀĵáŁģáŁĩ
ļà¸ ±à¸Ļ
è Ļ
àº»àºļ àºĽ
áĤĬáĢĲáĢ¹áĢ ±áĢĲáĢ¬áĢ¹
áĢĨ áĢĶáĢº
áŀĩáŀ¶áŀĦ áŀĤáŁģ
àº¹ àº¡
áŀ¶áŀļáŀ ıáŀ¸
ĠáŀĺáŁī áŀ¼
Ġb akit
Ġáŀĸ áŀ»
áĢ®áĢ¸ áĢĢáĢŃáĢ¯
ĠáŀĶáŀīáŁĴáŀĩ áŀ¸
I T
IN G
Ġl e
ĠS o
Ġ) áŁĸ
áŁĴáŀļáŀ Ļ
æł ĩ
ģáĢ¼ áĢ²
ĠáĢľ áĢļáĢ¹áĢ
ĠáĢĻáĢº áĢ¬áĢ¸áĢ
áĢ±áĢĽ áĢ½áĢ¬
áĢ¯áĢŃ áĢĢáĢ¹
ic al
Ġáģ¾áĢĢ áĢ¬
ĠáĢ±áĢĽ áĢ¸áĢŀ
áģĤ áģĢ
áĢĸ áĢº
à¹Ĥà¸ Ħà¸£à¸ĩà¸
áŀł áŀ¶áŀĦ
Ġà®¤ à®µ
áŀľáŀ·áŀĳáŁĴáŀĻ áŀ¶áŀŁ
w ed
àº±à»ī àº¡
Ġtub ig
àº°àºģàº ³
áĢĦ áĢļáĢ¹
áĢ±áĢ ģ
Īà¸ ³à¸Ļà¸
Ġs á»Ń
áŀĻáŀĢ áŀĳáŁħ
áŀĺáŀ·áŀĵ áŀĺáŁĤáŀĵ
áŀĩ áŁĴáŀļáŀ¾áŀŁáŀļáŀ¾áŀŁ
áŀĢáŀī áŁīáŀ¶
ĠáŁ¢ áŁ©
ĠáŀŁáŀł áŀĢáŀ¶áŀļ
Ġáŀļ áŁĦáŀĦáŀħáŀĢáŁĴáŀļ
ĠáŀĻáŁīáŀ¶áŀĦ áŀİáŀ¶
ĠáŀĻ áŀ¼áŀļ
è ª
Ġà®ªà¯Ĩ à®£
éĹ ®
à¯Īà®¯ à¯ĩ
àº°àº¡àº²àºĬ àº´
áĢ¯áĢĴ áĢ¹áĢ
Ġáŀĸ áŀ·áŀĹáŀ¶áŀĢáŁĴáŀŁáŀ¶
ĠáŀĢáŁı áŀĺáŀ¶áŀĵ
Ġáŀ¢áŀĵáŀ» áŀĶáŁĴáŀļáŀĴáŀ¶áŀĵ
Ġ9 E
áŁģáŀŁ áŀĵáŁį
ģàº° àºĹàº»àºļ
Ġe k
áŁ¡áŁ ¦
áŀŁáŀ· áŀĽáŁĴáŀĶáŁĪ
Ġ5 00
ĠáĢŀáĢŃáĢĽ áĢŀáĢĬáĢº
¥à¸ ¢
ĠáĢĻ áĢ±áĢľ
áŀļáŀ¼áŀĶ áŀĵáŁģáŁĩ
áŀĳáŀ¸ áŁ£
áŀħ áŁĦáŀĳ
áĢ½ áĢĲáĢº
áŀ§áŀıáŁĴáŀıáŀĺ áŀŁáŁģáŀĵáŀ¸áŀĻáŁį
à®¿à®ªà¯įà®ª à¯ģ
áŀ§ áŀıáŁĴáŀĬáŀĺ
áŀ¢ áŀĵ
ĠáŀŁáŀĺáŁĴáŀ ĸ
ĠáŀŁ áŁĴáŀĢ
ļà¸±à¸ ķà¸´à¸
ĠáŀŁ áŀĵáŁĴáŀĽ
ĠáŀĶáŁĴáŀļáŀĢ áŀĶáŀĬáŁĦáŀĻ
ĠáŀĬ áŀĳáŁĥ
Ġà»Ŀ àº²àºį
Ġàºª à»Īàº§àºĻ
Ġ: :
at i
áŁĴáŀĵ áŀ½áŀĽ
áŀŁ áŁĴáŀĸáŀ¶áŀĵ
à»īàº²àºĻ à»īàºŃàºį
ĠáĢ±áĢ ļáĢ¬áĢĢáĢ¹áĢ
Ġ": "
áĢ¸áĢĽ áĢ½áĢŃ
áĢ± áĤı
ĠáĢŀáĢŃ áĢĶáĢ¹áĢ¸
ĠáĢŀ áĢĦáĢ·áĢº
à»Ģàºģàºµ àºĶàº
ĠG i
Ġmab ilis
Ĺà¸±à¹īà¸ĩà¸ «à¸¡à¸Ķ
áŀľ áŀĵ
ĠçľŁ äºº
åĨ Ľ
áŀļáŀĵ áŁħ
ina l
Ġà®®à¯ģà®Ł à®¿à®¯
áŀĺáŁī áŀ¼áŀı
áŀĬáŀ¹áŀĢ áŀĩáŀīáŁĴáŀĩáŀ¼áŀĵ
Ð ¾
Ġ') .
g et
ªà¸ ±à¹Īà¸ĩà¸
áŀĤ áŁĦáŀļáŀĸ
áŀ·áŀħ áŀ¶áŀļáŀİ
à¹ĥà¸«à¸¡ à¹Īà¸
áŀ¢ áŀŁáŁĴáŀħáŀ¶áŀļáŁĴáŀĻ
Ġnag ing
à¯įà®¤ à®¾à®©à¯į
P P
ĠáŀĶáŀİáŁĴáŀı áŀ¶
ĠáŀĵáŁħ áŀĲáŁĴáŀĦáŁĥáŀĳáŀ¸
Ġà®Ĩ à®¯
Ľà¸£à¸ ªà¸´à¸
ĠáŀĢáŀ¶áŀļáŀĶ áŁĴáŀļáŀĢáŀ½áŀı
Ġà¸ ľà¸¹à¹ī
áŀļ áŁĦ
áŀĺáŁĴáŀĦ áŀ¶áŀĻ
ĠáĢķ áĢħáĢ¹áĢ
ĠáĢĢáĢ¬ áĢľ
ĠáĢ¡áĢĤáģ¤ áĢľ
ĠáĢ¡ áĢ±áĢĽáĢ¸
áĢķ áĢĲáĢ¹áĢ
áĢ¯áĢŃ áĢľáĢ¹áĢ
ĠáĢķáĢĲáĢº áĢŀáĢĢáĢº
Æ°á» Ł
àºĻ à»īàº²àº
Ľà¸ ±à¸
ĠâĢĭ ]
Ġàºģàº²àºĻàº ª
ĠáĢ»áĢĸáĢħáĢ¹áĢ ľáĢ¬
ĠáĢ¥áĢķ áĢĴ
áŀĺáŀ¶áŀĵ áŀĹáŀ¶áŀĸ
æĹ ł
Ġpagb ab
áģµ áĢº
áĢŃ áĢķáĢ¹
áĢĽ áĢ±áĢ¬
à»ĢàºŃ àº»
ala h
áŀĸáŀ½áŀĢ áŀĤáŀ¶áŀıáŁĭ
áŀĶ áŁĦáŀĢ
à¯Īà®¯ à®¾à®©
áŀıáŁĴáŀĲ áŀĽáŁģáŀģ
Ġà¹ģà¸ ¡
áŀıáŁĤ áŀĺáŁĴáŀıáŀĦ
à»Ģàºļ àº´à»Īàºĩ
áŀĩ áŀ¶áŀĵ
å· ²
áŀĦáŁĭ áŀĬ
áĢĻáĢºáĢŃáĢ³ áĢ¸áĢ
áĢĻáĢ¹áĢķ áĢıáĢ®
or y
f t
ĠáŀŁ áŁĴáŀĬáŀ¸
Ġáŀļáŀ· áŁĩáŀĤáŀĵáŁĭ
ĠáŀĶ áŁĨáŀİáŀĦ
ĠP e
áŀŁáŀļáŀŁ áŁģ
áŀĽáŁĴáŀĶ áŀĦ
ug o
áŀĳ áŁĴáŀļáŀĦáŁĭ
Ġsab ihin
áŀĲ áŁĴáŀĵ
áĢĦ áĢĶáĢºáĢ¸áĢĻ
Ġmá» Ľi
áŀı áŀĺáŁĴáŀļáŀ¼áŀľ
àºĶàº ½
áĢ±áĢķ áĢ¸áĢķáĢ«
áĢ¬áĢ¸áĢĻ áĢ¾
r il
à¹Ĥà¸£à¸Ħà¸ ªà¸°à¹Ģà¸ģà¹ĩà¸Ķà¹Ģà¸
ķà¸±à¸ Ķà¸
ara l
Ġä½ Ĩ
áŀĭ áŀĺ
áŀĢ áŁĴáŀļáŀ·
áŀ¶áŀŁ áŀ¶áŀĽ
áŀ¶áŀĹ áŀ¶áŀĸ
áŀ²áŁĴáŀĻ áŀĶáŀ¶áŀĵ
ĠáŀĺáŁĴáŀĻ áŁīáŀ¶áŀĦ
Ġ ed
Ġáŀĺáŀ»áŀģáŀļáŀĶ áŀļ
Ġáŀĺ áŀİáŁĴáŀĮáŀĽ
ĠáŀĶáŁĴáŀļáŀĢ áŀ¶áŀĵáŁĭ
Ġà®ª à¯ĩà®°
«à¸ķà¸ ¸à¸
àºĶàº ³
Ļ áĢļáĢ¹
ĠáĢ¡áĢĶ áĢĬáĢ¹áĢ¸
áĢŃáĢ¯ áĢ¸áĢĢ
Ġti yan
Ġpa st
on s
áĢľ áĤĬ
áĢľ áĢ»áĢĢáĢº
ĠcÃ¡c h
Ġáŀĳ áŀĶáŁĭáŀŁáŁĴáŀĢáŀ¶áŀıáŁĭ
Ġáŀħ áŀĵáŁĴáŀĳ
ana p
Ġs ite
áŀŁáŁģáŀħáŀĢ áŁĴáŀĬáŀ¸
áŀļáŀ¾ áŀĵ
àºĤ à»įà»ī
áŀĺáŁĴáŀĽ áŀ¶áŀĶáŁĭ
áĢ¸áĢŀ áĢ¼áĢ¬áĢ¸áĢ
áĢ¬áĢĢáĢ¹áĢ ¡
áĢ¬áĢ¸áĢĲ áĢ½
ĸ áĢ°áĢ¸áĢ
ĲáĢ¬ áĢķáĢ«
ĠáĢĤ áĢ¯áĢıáĢ¹áĢ
ĠáĢĢáĢ» áĢ±áĢ¬áĢº
Ġà®ļ à¯Ĥ
áŀĺáŁĴáŀļ áŀ¶áŀĶ
áŀĵáŀ·áŀĻáŀ¶áŀĻ áŀĲáŀ¶
Ġsa bi
àº´àºĩàº ¥àº²àº§
® àº±àºģàºª
áŀĢ áŀ»
áŀ¶áŀıáŀ» áŀĢáŀĺáŁĴáŀĺ
áĢŃáĢ³áĢĦáĢ¹áĢ ķáĢ¼áĢ²
áĢ¸áĢľáĢ¯áĢķáĢ¹áĢ ĦáĢĶáĢ¹áĢ¸
ĠáĢķáĢ« áĢĲáĢļáĢ¹
áĢĶáĢ¹áĢ Ľ
áĢĦáĢº áĢĻ
áŀ¶áŀİáŀ¶áŀħ áŀĢáŁĴáŀļáŀĢ
áŀ¢ áŀ¶áŀı
Ġs urgery
i o
ra to
«à¸¥à¸²à¸ ¢
ŀ áĢĬáĢº
ol og
ı áŁĭ
Ġtab let
ŀ àº²àºģàº
p ort
Ġáŀļáŀ ħ
Ġáŀĺ áŀ¶áŀı
ĠáŀĸáŁĴáŀļáŁĩ áŀĶáŀ¶áŀĳ
Ġáŀĵ áŀ¶áŀĸáŁģáŀĽ
ĠáŀĴáŀĺáŁĴáŀĺ áŀıáŀ¶
ķà¸ ±à¹īà¸ĩà¸
Ġt aba
Ġmap up
Ħàº¸à»īàº¡àºĦ àºŃàºĩ
à®¤à¯įà®¤ à®¿à®¯
Ġà»ĥàºĻàº ģàº²àºĻàº
Ġs limming
uk sa
na y
ĠáŀĳáŁĨáŀĸáŁĲ áŀļ
Ġáŀĩ áŀ¶áŀĺ
à»Ħ àºª
Ġáŀħáŀ»áŀĦ áŀĢáŁĴáŀļáŁĦáŀĻ
åĪĨ å½©
åı Į
Ġbaw at
ĠáŀĦ áŀ¶áŀļ
ĠáŀĢ áŁĴáŀļáŀ¡
Ġ) âĢĭ
æģ ¯
áŁĤ áŀļáŀĩ
áŁ¥ áŁł
áŀļáŀ¶áŀĩ áŀ¢áŀ¶áŀľáŀ»áŀĴáŀłáŀıáŁĴáŀĲ
áŀĵáŀ· áŀĴáŀ·
áŀĴ áŁĴáŀĵ
na s
áŀĬ áŀĬáŁĤáŀĽ
Ġà®¤à¯Ĩà®° à®¿à®µ
Ġth áº¿
áŀ¢ áŀĶáŁĭáŀļáŁĨ
Ġà¸ªà¸³à¸« à¸£à¸±à¸ļà¸
ĠâĢĿ áŁĶ
eb ih
è¿ ĺ
ĠáĢĺáĢļáĢº áĢľáĢŃáĢ¯
ĠáĢĹ áĢŁáĢŃáĢ¯
Ġáŀłáŀ¾áŀĻ áŀĢáŁı
àº¸àºĶàº ª
Ġáŀł áŁĬ
ĠáŀŁ áŀ·áŀĵ
Ġáŀļ áŀ¶áŀĻáŀĢáŀ¶áŀļáŀİáŁį
ļà¸ ±à¸įà¸
ĠáĢĨáĢĢáĢ¹áĢ ŀáĢ¼áĢļáĢ¹áĢ
ĠáĢĢáĢŃáĢ¯ áĢļáĢ·áĢº
ĠáĢ ĮáĢ¬áĢĶ
ĠáŀĻáŀĵáŁĴáŀı áŀłáŁĦáŁĩ
Ġà®ĩà®°à¯ģà®ķà¯įà®ķ à¯ģà®®à¯į
àº§àº½àºĩàºĪ àº±àºĻ
ĸ àº´
áĢħ áĢŃ
b ar
ra l
¶à¸ ģ
ĠáŀĵáŁħ áŀĲáŁĴáŀĦáŁĥ
ĠáĢŀáĢĲáĢ¹áĢ ĻáĢ½áĢĲáĢ¹áĢ
ĠáĢĸáĢ¼ áĢĦáĢ¹áĢ·
ĠáĢĢáģ½áĢ¼áĢĶáĢ¹áĢ±áĢĲáĢ¬áĢ¹áĢ ĲáĢŃáĢ¯áĤĶ
áĢ±áĢľ áĢ¸áĢĢ
ĠáĢŀ áĢĺáĢ±áĢ¬
ĠáŀĳáŀĵáŁĴáŀĳ áŀ¹áŀĺ
ĠJ une
áŁĦáŀĴáŀ·áŁį áŀŁáŀ¶áŀıáŁĭ
áŀĶáŀĵáŁĴáŀĳ áŀĶáŁĭ
áŀĶ áŁĨ
-- -
Ġk ar
áŀĶ áŀĵáŁĴáŀĽ
à¸Ńà¸²à¸« à¸²à¸£à¸
áŀĲ áŀľáŀ·
áŀĩáŀ¶áŀĺ áŀ¶áŀĵ
ĠáĢĶ áĢļáĢ¹áĢ
ĠáĢĴáĢ®áĢĻáĢŃáĢ¯ áĢĢáĢ±áĢĽáĢħáĢ®
ĠáĢĨ áĢŃáĢ¯áĢĦáĢ¹áĢ
ĠáĢħ áĢĲ
áŀĥ áŁĴáŀĽ
àºŀ àº£
àºľ à»Īàº²àºĻàº
áŀĢáŀ¶áŀļáŀħ áŀ¼áŀĽáŀļáŀ½áŀĺ
áŀ¥áŀı áŀĤáŀ·áŀıáŀĲáŁĴáŀĽáŁĥ
æ ¥
áŀ¢ áŀ¶áŀİ
Ġà¹ģà¸ ļà¸
» áŀĵ
àº´àºģ àº²
el y
Ī à¸Ļà¸
Ġáŀł áŀ¶áŀĺ
åį İ
ĠáŀĽáŁĦáŀĢ áŀĶáŀ¶áŀĵ
áĤĢáĢĢáĢ®áĢ¸áĢ Ļ
áĢħ áĢģáĢĶáĢ¹áĢ¸
áĢ»áĢĸáĢħáĢ¹áĢ ±áģ¾áĢĢáĢ¬áĢĦáĢ¹áĢ¸
áĢ»áĢķ áĢĬáĢ¹áĢ·
áĢ±áĢĲáĢ¼ áĢŁáĢ¬
ĠáĢħ áĢĲáĢĦáĢº
ĠáŀĸáŁĴáŀļáŁĩ áŀļáŀ¶áŀĺ
ĠáŀĶ áŀ¶áŀĽ
ĠáŀĶ áŀ¶áŀĻ
ĠáŀĳáŁĨáŀĵ áŀ¾áŀĶ
ĠÂ ³
Ã ı
iá»ĥ n
à¯ģà® ¨
æĥ ³
Ġáŀĳáŀ¶áŀī áŀĻáŀĢ
Ġáŀĳ áŀ¼áŀĢ
Ġáŀı áŁĨáŀİáŁĤáŀĦ
àºª àºµ
ĠáŀħáŁĨáŀİ áŁĦáŀĺ
ent e
à¯Ĭ à®£à¯įà®Ł
ĠáŀģáŁĴáŀĽ áŀ¶áŀħ
ĠD evel
áŁĴáŀľáŀ¸ áŀĶ
¶ à¹Īà¸ĩà¹Ģà¸
ŀ àº´
ĠáĢ±áĢĻ áĢ¬áĢ¹áĢ
ĠáĢ±áĢĢ áĢ¬áĢĦáĢ¹áĢ
ĠáĢ¡áĢŀ áĢĦáĢ¹áĢ¸
áĢķáĢ« áĢĲáĢ¹
áĢħ áĢĢáĢº
à®¾à® ¨
áĢĢ áĢ°áĢ¸áĢ
à®£ à®®à¯į
æĽ ´
áŁĴáŀľ áŁģáŀĦ
Ŀ à»Īàº²àºį
ķàº´àºļ àº±àºĶ
áŀŁ áŀ¶
áŀļáŀĦ áŀļáŀĶáŀ½áŀŁ
áŀĶáŁĴáŀļáŀĢ áŀĶáŀĬáŁĦáŀĻ
áŀĳ áŁĴáŀļ
ĩ àº²àºĻàº
ĠáĢĲ áĢĢáĢº
áŀĩ áŀ¶áŀĩ
Ġgum awa
Ġàº«àº¥ àº·
àºŀ àº±àºĻ
ĠáĢĤáĢº áĢķ
áĢŀáĢ° áĢĻáĢºáĢ¬áĢ¸
áĢĸáĢ¼áĢħáĢº áĢķáĢ¼áĢ®áĢ¸
áŀĨ áŁģáŁĩ
àº¹àºĻàº Ħ
áŀģáŁģáŀıáŁĴáŀı áŀĢáŁĨáŀĸáŀĦáŁĭ
áŀ¶áŀı áŀłáŁĴáŀľáŀ¼áŀĵ
àº´ à»īàºĻ
ĠÂ ¼
Ġtr Æ°á»Ŀng
ĠáŀĽ áŀ·áŀħ
ĠáŀĶáŀİáŁĴáŀı áŀ¶áŀī
Ġà®ªà¯ĭ à®Łà¯įà®Ł
ĠáŀĢáŁĴáŀĵáŀ»áŀĦ áŀĹáŀ¼áŀĺáŀ·
Ġfung us
ot her
áŁĴáŀĸ áŀĦáŁĭ
Ġng unit
àº§àº½ àºģàºĩàº²àºĻàº
áŀł áŁģáŀı
ģàº ´
áŀŁ áŀ½áŀļ
áŀļáŀ ¹áŀĦ
áŀĺ áŁĲáŀı
à®ķà¯įà®ķ à®®à¯į
áŀķáŁĴáŀĳ áŀ»áŁĩ
·à¹Ī à¸Ļà¸
áĢķáĢ±áĢ« áĢĢáĢº
p is
áŀĶáŀĵáŁĴáŀĳ áŀ¶áŀĻáŀĺáŀ¶áŀĵáŀĩáŁĲáŀĻ
áŀĶáŀħáŁĴáŀħáŁģáŀĢ áŀĳáŁģáŀŁ
Ġà®ħà®± à®¿à®µ
áŀĴáŁĴáŀĻ áŁĦáŀĶáŀ¶áŀĻ
ä»Ģ ä¹Ī
Ġà»ģ àºĻàº§
áŀĳáŀ¹áŀĢ áŀĬáŀ¸
áŀĳ áŀ¶áŀłáŀ¶áŀĵ
áĢĢ áĢĶáĢ±
áĢ±áĢĸ áĢ¬áĢ¹áĢ
Ĳ áĢļáĢ¹áĢľáĢŃáĢ¯áĤĶ
Ĩ áĢ¶áĢ¯áĢ¸
ĠáĢľáĢĢáĢº áĢĽáĢ¾áĢŃ
«à¸ §à¹Īà¸²à¸
áŀģáŁĴáŀĽ áŀ¶áŀħ
Ġà»ĢàºĤ àºĶ
ĠáĢĺ áģĢ
ĠáĢħ áĢ¶
l ic
Ġå½© ç¥ŀ
ä½ ł
ĠàºĶ àº³
áº¿ u
Ġs ya
Ġpar ang
áŀĢáŀ¼áŀļáŁīáŁģáŀģáŀ¶áŀĦ áŀıáŁĴáŀĶáŀ¼áŀĦ
áŀĢ áŁĴáŀıáŀ·
àº¶ àºģàº
áŀ·áŀĶ áŀ¶áŀı
op ment
ĠáŀĽ áŁĭ
ĠáŀĽ áŀĢáŁĴáŀģ
áĢĢáĢ¼áĢ±áĢ¬áĢĦáĢº áĢ·
Ġtim e
áĢ¹áĢ ¡
áĢ¸áĢ ģáĢº
±áĢľ áĢ¬áĢĢáĢ¹
ĠáĢķáĢ¼áĢĬáĢº áĢĶáĢļáĢº
ĠT o
ink les
Ġbuw an
ĠáŀĹ áŁĴáŀĩáŀ¶áŀĶáŁĭ
áĢ±áĢķáĢ« áĢĢáĢ¹áĢ
áĢ¯ áĢĶáĢ¹áĤĶ
ŀ áĢŃ
ĠáĢĴáĢ® áĢ¡
ĠáĢħ áĢ¬áĢ¸áĢŀ
à®¤ à¯ģà®®à¯į
« àº§àº½àºĶàºĻàº²àº¡
Ń àºŃàºģà»ģàºļàºļ
Ġm ela
Ġáŀĸ áŀ·áŀĵáŁĴáŀĳáŀ»
ĠáĢ»áĢķ áĢĬáĢ¹áĢ·
áĢģ áĢ±áĢ«áĢº
Ġà»ĦàºĶà»ī àº®àº±àºļ
ro w
ri end
ĠN o
Ġà®İà®´ à¯ģà®¤
ĠáŀĶáŁĴáŀļ áŀ¶áŀĢáŀĬ
à»ĢàºĦàº·à»ĪàºŃ àºĻà»Ħàº«àº§
Ġà¸§à¸´à¹Ģà¸Ħà¸£à¸²à¸°à¸« à¹Įà¸
Ħ à¸Ļà¹Ģà¸
Ġà®ª à®¾à®Ł
Ġáŀĳ áŁĦáŀŁ
à»Ģàºª àºĶ
Ġà®ī à®¤
Ġáŀı áŀ½
ĠáŀĤ áŁĴáŀļáŀ¹áŁĩ
áĢ¸áĢ»áĢĻ áĢĶáĢ¹áĢ¸
ĠáĢľáĢ° áĤĶ
ĠáĢĹ áĢŃáĢ¯áĢľáĢº
ĠS c
áŀļ áŀ¶áŀĻ
0 e
à¹īà¸²à¸ ¢
àº¹àºĻàº ģàº²àºĩ
áŀĶáŁī áŀ»áŀŁáŁĴáŀıáŀ·áŁį
áŀĳáŀ¹áŀĢ áŀĶáŁĴáŀļáŀ¶áŀĢáŁĭ
áŀĬáŀ¹áŀĦ áŀĲ
áŀĩáŀ¶áŀĺ áŁĴáŀħáŀ¶áŀŁáŁĭ
áĢĢáĢ¼áĢ®áĢ¸áĢ ĮáĢ¬áĢĶ
à¹īà¸ ¡
»áĢĻ áĤĩ
±áĢĻ áĢ¬áĢĦáĢ¹áĢ
áĢŀ áĢ±áĢĺáĢ¬
áĢĽáĢ±áĢ¸áĢ ¡
áŀĩ áŀ¶áŀĬáŀ¾áŀĺ
àº¸ àºĽàº°àºģàº
¥ à¸µà¸ģ
Ľà¸ı à¸´à¸
áŀĢáŀ¶áŀļáŀ¢ áŀĹáŀ·áŀľáŀĮáŁĴáŀį
áŀĢ áŁĴáŀĬ
Ġàºŀ àº´
áĢĽ áĢ¼áĢ¬
áĢĬáĢ¹ áĤĶ
áĢ±áĢĢáĢº áĢ¬áĢ¹
áĢ® áĢļáĢ¶
Ġàºģ à»įà»Ī
à»ģàº «àº¼
ĠGi ardia
Ġsa ng
åº Ķ
áŀ¾áŀĶ áŀ¢áŀĦáŁĴáŀĢáŁģáŀı
Ġà®ĩ à®ªà¯įà®ª
ĠáŀĸáŁģáŀĽ áŀĵáŁģáŁĩ
¸à¸ ģ
Ġit log
Ġb ig
Ġáŀĵ áŀ·áŀĻáŀĺ
ŀ áĢĦáĢ¹áĢ·
Ĳ áĢĦáĢ¹áĢ
Ĩ áĢ¶
ĠáĢĲáĢħáĢ¹áĢ ģáĢ«
ĠáĢĲ áĢķáĢºáĢĻáĢĲáĢ±áĢ¬áĢº
ĠáĢģ áĢ¼áĢ²
ĠáĢ±áĢĽáĢ¬ áĢĤáĢ«
ĠáĢ±áĢĽ áĢ½
ĠáĢ±áĢ ĻáĢ½áĢºáĢ¬áĢ¹áĢ
áĤıáĢŃáĢ¯áĢĦáĢ¹áĢ ĲáĢ²áĢ·
áĤĢáĢĢ áĢŃáĢĻáĢ¹áĢ
áĢŀ áĢĲ
à»Ģàºģàº ¡
áĢķáĢ« áĢĲáĢ®
it as
Ġáŀĳ áŀŁáŁĴáŀŁáŀĵáŀ¶
em p
àºĻ àº²àºĩ
áĢ¬áĢ¸áĢĶ áĢ¾áĢĦáĢºáĢ·
ĠáĢĵ áĢ¬áĢĲáĢº
áº¡ nh
Ġáŀī áŁĢáŀĵ
àºĬ àºµ
Ġà®ī à®²à®ķ
Ľà¸£à¸ °
ĠáŀĢ áŁĭ
Ġáŀ¢áŀĤáŁĴáŀĤ áŀĵáŀ¶áŀĻáŀĢ
áŁĴáŀļáŀ· áŀĻ
áŀŁáŁĨ áŀļáŀ¶áŀĶáŁĭ
áŀŁ áŀĵáŁĴáŀĵ
áŀľ áŀ¶áŀĦ
áŀĵáŀ» áŀīáŁĴáŀī
Ġga ga
§ à»Īàº²àº
ĠáĢĴáĢ® áĢ±áĢĶáĤĶ
áĤıáĢ½ áĢ®áĢ¸áĢ
áĢħáĢ¹áĢ ¡
áĢ¬áĢ¸áĢľ áĢĬáĢ¹áĢ¸
áĢ¦ áĢ¸áĢ
áŀĪ áŀĶáŁĭ
Ġa ga
áŀĩáŁĨáŀĳ áŀ¶áŀľ
áŀħ áŁĴáŀļ
áŀĢáŁĴáŀı áŁħ
Ĺà¸ ±à¹īà¸ĩ
é¡ µ
ĠáĢĽ áĢĦáĢ¹áĢ¸
ĠáĢ»áĢķáĢĶáĢ¹áĢ ľ
áĢĻáĢ» áĢŃáĢ¯áĢ¸
Ġæĺ ¯
ik ita
áŀ¹ áŁĩ
īà¸ ŀà¸²à¸
áŀ·áŀı áŁĴáŀĬ
áŀ¶áŀļáŀ ¼áŀĶ
g h
Ġáŀľáŀ· áŀĽ
áĢĶ áĢķáĢ¹áĢ
áĢĲáĢļáĢ¹áĢ ĨáĢŃáĢ¯
áĢ±áĢĨáĢ¬áĢĦáĢ¹áĢ ĽáĢ¼áĢĢáĢ¹áĢ
ar m
ĳ áĢŃ
Ġáŀĸ áŁģáŀĳáŁĴáŀĻ
Æ°á»Ł ng
ĠáĢľ áĢ½áĢº
ĠáĢĢ áĢ±áĢ¬áĢĦáĢºáĢ¸áĢ
ĠáŀĶáŁĴáŀļáŀ ĸáŁĲáŀĵáŁĴáŀĴáŀ
oc k
ung an
ĠáŀĬáŁĴáŀĭ áŀ¶áŀĵ
Ġáŀħáŀ¶áŀĶáŁĭ áŀģáŁĴáŀĽáŀ½áŀĵ
Ġáŀĥ áŁĴáŀĽ
ĠáŀĢáŀ¶áŀļáŀ ļ
ĠáĢ¡ áĢķáĢ¼
ra p
ĠáŀĢ áŀ¾áŀĵ
Ġà®ĩ à®©
Ġh abang
Ĥ àº±à»īàºĻàº
Ġd es
áŀŁáŁĴáŀı áŁĴáŀļ
å Ļ
Ġà»ģàº Ķ
Ġàºķ à»īàºŃàºĩ
áŀļáŀ» áŀŁ
Ľà¸£à¸°à¸ Ĭà¸²à¸
áĤĢáĢĢ áĢŃáĢĻáĢ¹
áĢľ áĢ¶áĢ¯áĢ¸
áĢ¯áĢŃáĢĦáĢ¹áĢ ĽáĢ¬
áĢ¬áĢ¸áĢħ áĢ½áĢ¬
áŀĹ áŁĲáŀĻ
àºľ àº´àºĶàº
áŀĶ áŀ¶áŀĻ
áŀĳáŁħ áŀĢáŁĴáŀĵáŀ»áŀĦ
è º«
áŀİ áŀ¶áŀĢáŁı
à®ķ à®®à¯į
àºĻ à»į
Ġà¸ Ĭà¸¸à¸
Ġ, "
«à¸±à¸ §
áŀĬ áŀ¶áŀĻ
¸à¸ ĩà¸
áŀħ áŁĴáŀĵáŁĥ
áŀĥáŀ¾áŀī áŀĲáŀ¶
Ĺ à¹Īà¸Ńà¸ĩà¹Ģà¸Ĺà¸µà¹Īà¸
áŀĢáŀĵáŁĴáŀĽáŀĦ áŀĺáŀĢ
Ġr áº¥t
áŀ¶áŀļáŁī áŀ¶áŀĶáŁĭ
ĠáŀĺáŀĢ áŀĬáŀĽáŁĭ
ĠáŀĶáŀħáŁĴáŀħáŁģáŀĢ áŀĳáŁģáŀŁ
Ġà®ª à¯Ĥ
Ġáŀĳáŀ¹áŀĢ áŀĬáŀ¸
s in
ĠáŀĪ áŀº
± àºĶ
ĠáŀģáŁĴáŀĺ áŁħ
Ġáŀģ áŁĴáŀľáŁĩ
ĠáŀĢáŀĵáŁĴáŀĽáŀĦ áŀĺáŀĢ
Ġáŀ¢ áŀĵáŀ¶áŀĤáŀı
±áĢĢáĢº áĢ¬áĢ¹
ŀáĢ¼ áĢ¬áĢ¸áĢĻ
ħ áĢ¼áĢ¬
áĢľáĢ¬ áĢĲáĢ¬
áĢĲ áĢŃáĢ¯áĢĦáĢºáĢ¸
Ġf rac
áŁĲ áŀĤ
å¯ ¼
áŁĦ áŀĶáŁĴáŀļáŀľ
u ar
it ong
áĢ¸áĢĻ áĢŃ
ķ áĢĲáĢ¹áĢ
ĠáĢŀáĢŃáĢ¯áĢ· áĢĻáĢŁáĢ¯áĢĲáĢº
áŁģáŀĩ áŁĴáŀī
áŁ£ áŀĵáŀ¶áŀĢáŁĭ
áŁ¢ áŁ¥
áŀĺáŁī áŀ¶áŀĢ
áŀķáŁĴáŀĬ áŀĽáŁĭ
áŀĶáŁĴáŀļáŀŁ áŀ·áŀĳáŁĴáŀĴáŀĹáŀ¶áŀĸ
ĠàºĻ àº²àºĩ
áŀı áŁĤáŀĢ
Ġàºĸ à»īàº²
åģ ļ
áŀ· áŀĢáŀĺáŁĴáŀĺ
áŀ¶áŀħ áŀĺáŁĴáŀļáŁĢáŀĦ
áŀ¢ áŁĩáŀ¢áŀ¶áŀĦ
áŀ¡ áŀ·áŀħ
àº²àºįàº»àºģàº ¥àº±àºĶàºĸàº°àº¡àº»àºĻàºķàºµ
àº°àºģàº ´àºĶàº
ĠáŀļáŀĬáŁĴáŀĭ áŀŁáŀĹáŀ¶
Ġáŀİ áŀ¶áŀĺáŀ½áŀĻ
Ġà®¨ à®¿à®©
Ġà¹Ģà¸ ĩà¸´à¸Ļ
Ġà¸ªà¸¡à¸±à¸ Ħà¸£à¸
«à¸Ļà¸ ¶à¹Īà¸ĩà¸
Ġnag b
Ġáŀĩ áŀ»áŁĨ
àº°àº«àº¼ àº²àºĶ
ĠáŀĢáŁĴáŀĽáŀ¶áŀĻ áŀĩáŀ¶
Ġthá» Ŀi
Ġáŀ¢áŁĴáŀĵáŀĢ áŀĵáŀ¶áŁĨáŀĸáŀ¶áŀĢáŁĴáŀĻ
áŁĴáŀļáŀ Ĥ
àº¢ àº²àº¡
å¾ ·
áŁĴáŀĻ áŀ¶áŀĶáŀ¶áŀĽ
áŀĸ áŁĴáŀĳ
à®¿à®ķà¯įà®ķ à®ªà¯įà®ªà®Łà¯įà®Ł
áŀķ áŀ»áŀı
ĠW e
ĠI nd
ent s
ĤàºŃàºĩàº ķàº»àºĻ
áŀĳáŁħ áŀĳáŁĢáŀı
áŀĢ áŁĨáŀĶ
Ĥ àº°àº«àºįàº²àºį
Ġà»ģàº ļàºļ
áŀ¼áŀĺáŁī áŁĤáŀıáŁĴáŀļ
O R
Ġp re
Ġàºŀ àº²
Ġàºŀ àº±àºģ
ĠàºĽàº°àº Ĺàº²àºĻàº
Ġàºķ àº±à»īàºĩ
da m
Ġàº§ àº½
à»ģàºģ à»Ī
áŀ·áŀĢ áŁĴáŀŁ
Ġà¸ «à¸¡à¸
áŀ¢ áŀıáŀ·áŀĲáŀ·áŀĩáŀĵ
T M
ĠáŀŁ áŀ½áŀļ
ĠE 0
§à¸ Ķ
ĠáŀĺáŁģ áŀļáŁĦáŀĤ
à»ģàº Ĭ
r ang
Ġáŀĺáŀł áŀ¶
à¯Ī à®¤à¯į
--- |
dag dagan
à»Ģàº¥ àº·à»ĪàºŃ
Ġpr ot
ĠáŀĸáŁĴáŀĻ áŀ¶áŀĻáŀ¶áŀĺ
Ġ) ;
¢à¸ ¡à¸
ä¸ ĵ
ĠáŀĶáŁĴáŀļáŀĢ áŀĶ
ªà¸ ¡à¸²à¸
is yon
Ġp un
Ġáŀĵáŀ·áŀĦ áŀĶáŀ¶áŀĵ
à¹ģà¸ Ł
é¦ ĸ
ĠC ent
áŁĦáŀĶáŁĴáŀļáŀľ áŁģáŀŁáŀĵáŁį
Ġthá» ©
àºŃ àºŃàºģàº
à¸£à¸°à¸ «à¸§à¹Īà¸²à¸
áŀŁáŁĴáŀĸ áŀº
áŀŁáŁĴáŀĶ áŁĤáŀĢ
Ġber k
áŀŁáŀĺáŁĴáŀ Ĥáŀ¶áŀĽáŁĭ
áŀĹáŁĴáŀĽ áŁĢáŀĦ
à¯ģà®® à¯ĩ
áŀħáŀ¶áŁĨ áŀĶáŀ¶áŀħáŁĭ
éĹ »
áŀħ áŀĵáŁĴáŀĳ
àºķ àº»àºģàº
áŀ» áŁĨáŀĵ
ĠáŀĸáŁĴáŀļáŁĥ áŀĪáŀ¾
ĠáŀĶáŀĵáŁĴáŀı áŀ·áŀħ
æĸ Ļ
Ġáŀģ áŀ½áŀĶ
ĠáŀĢ áŀİáŁĴáŀĬáŀ¶áŀĽ
ĠáĢĲáĢĽ áĢ¬áĢ¸
Ġins urance
ĠáĢĶ áĢļáĢº
Ġáŀ¢áŀ¶áŀĩáŁĴáŀīáŀ¶áŀĴáŀ ļáŀ
å¾ Ī
ĠT ra
à¹ ĭà¸
ĠApp le
áŁĴáŀļáŀľ áŀ¹áŀĦ
àº¸àºģàº į
àº¡ àº±àºĻ
áŀļáŀĳ áŁħ
ĠáĢĲ áĢĶáĢº
Ĳ à¸²à¸Ļà¸
Ġà®ª à¯ģà®°
áŀĸ áŀ»áŁĨ
ĠáĢ»áĢķáĢĬáĢ¹áĢŀáĢ° áĤĶ
áĢŀ áĢĦáĢ¹áĢ¸
áĢ®áĢ¸áĢļ áĢ¬áĢ¸
Ġmapup uksa
Ġdag dagan
ub ong
áŀĶáŀīáŁĴáŀĩ áŀ¸
áŀĢ áŀ¶áŀı
Ľàº° à»Ĥàº«àºį
áŀ·áŀı áŀ¶
áŀ¶áŀ¢ áŀ¶áŀħ
ĠáģĤ áĢĿ
ĠáĢĻáĢº áĢĢáĢ¹áĤıáĢ½áĢ¬
ĠáĢĲáĢ¬ áģĢáĢĶáĢ¹áĢ
ĠáĢħ áĢĢáĢ¹áĢĲ
ĠáĢĤ áĢ»
re e
re at
Ġi yon
ĠàºĻ à»īàº³
ĠàºĤ àº¶à»īàºĻ
áŀ¢ áŀĦáŁĭáŀĤáŁĴáŀĽáŁģáŀŁ
Ġre p
à»ľ àº¶à»Īàºĩ
Ġà®ĩà®° à¯ģà®ªà¯įà®ª
Ġt elah
à¹Ģà¸ Ĥà¹īà¸²
i onal
Ĭ áŁĤáŀĽ
Ġáŀĸ áŀ»áŀĢ
Ġáŀĩ áŀĺáŁĴáŀĽáŁĦáŁĩ
Ġpina ka
Ġáŀħ áŀ¶áŀĢ
ĠáŀģáŁģáŀıáŁĴáŀı áŀĢáŀİáŁĴáŀıáŀ¶áŀĽ
Ġáŀģáŀ»áŀŁ áŀħáŁĴáŀĶáŀ¶áŀĶáŁĭ
Ġh as
ĠC o
áŀŁ áŀĢáŀĺáŁĴáŀĺ
áŀĽáŀ¾ áŀŁ
áŀļáŀ ¹
áŀĶáŁĴáŀļáŀ ĤáŀĽáŁĭ
Ġà¸¥ à¸µà¸ģ
Ġ à¸£à¸§à¸¡à¸
áŀĵáŁĴáŀĻ áŀĽáŁĭ
Ġsa u
áŀıáŀ»áŀĽ áŀ¶áŀĢáŀ¶áŀļáŀ
æ² ³
áŀĦáŁĴáŀģ áŁĨ
Ġh um
áŀĤáŁĴáŀĵ áŀ¶áŀĵáŁģáŁĩ
áŀ¢áŀ¶áŀŁ áŀĵáŁĴáŀĵ
ĠâĢĭÂ» âĢĭáŁĶ
ĠáŀŁáŁĴáŀĲáŀ·áŀı áŀĢáŁĴáŀĵáŀ»áŀĦ
ĠáŀĻ áŀ¼
Ġáŀĸáŀ¸ áŀĸáŁĴáŀļáŁĦáŁĩ
ĠáĢģáĢº áĢĢáĢ¹áĢ
ĠáĢ¡ áĢ±áĢŀ
áĢ±áĢ¸áĢ Ĩ
Ġáŀĸáŀ·áŀı áŀĩáŀ¶
ĠáŀĶáŀ¾ áŀŁáŀ·áŀĵ
à¹ģà¸£à¸ ģ
ĠáŀĤáŀº áŀĺáŀ¶áŀĵ
ç» Ł
à¯Īà®¤à¯įà®¤ à¯ģ
ĠáŀĢáŁĴáŀļáŀ»áŀĺáŀĶáŁĴáŀļáŀ¹áŀĢáŁĴáŀŁ áŀ¶
ĠáŀĢáŁĴáŀĵáŀ»áŀĦ áŀŁáŁĴáŀļáŀ»áŀĢ
Ġáŀ ĭ
áŁĨ áŀļáŀ¼
áŀľ áŀĶáŁĴáŀĶáŀĴáŀĺáŁĮ
áĢ±áĢ¬áĢĢáĢº áĢ¡
Ġà¸ Ŀ
áŀĽáŁģáŀģ áŀ¶áŀĴáŀ·
áŀīáŁĴáŀī áŀ¶áŀĶ
ŀà¸´à¹Īà¸¡à¹Ģà¸ ķà¸´à¸
áŀī áŁī
Ġu nang
áŀĥ áŀ¶áŀıáŁĭ
áŀĤ áŁģáŀŁ
à»ĢàºŃ àº»àº²àº
Ġà¸ Ł
à®¾à® ¨à¯įà®¤
Ġ ä¹
±áĢ ģáĢ«áĢĦáĢ¹áĢ¸
Ģ áĢ°áĢ¸áĢ
ĠáĢĨ áĢĦáĢ¹áĢ¸
ĠáĢ¡áĢŀ áĢ¯áĢ¶áĢ¸áĢ
¸à¸ĩà¹Ģà¸ Ĺà¸
à¸Ļ à¹Īà¸²à¸
áŀģ áŁĴáŀĳ
áŀĢ áŀ»áŁĨ
áŀ¶áŀĺ áŀĢ
à»ĢàºĤ àº»
r id
áĢľ áĢ±áĢ¸áĢĲ
ĠáŀĽáŁĦáŀĢ áŀ¢áŁĴáŀĵáŀĢ
ĠáŀĶáŀĵáŁĴáŀĳáŀ¶áŀĶáŁĭ áŀĺáŀĢ
Ľà¸£à¸°à¹Ģà¸łà¸ Ĺà¸
áĢĢáĢ¹áĢ ĲáĢ²áĢ·
ĳáĢ¬áĢ¸áĢ ±áĢŀáĢ¬
áĢľ áĢ¹
áĢķáĢ¼ áĢ®áĢ¸áĢ
æī ĵ
ĠáŀĶáŀ¶áŀıáŁĭ áŀĶáŀĦáŁĭ
Ġáŀĵáŀ·áŀĻáŀ¶áŀĻ áŀĲáŀ¶
Ġim ages
ĠE x
ĠDevel opment
áŁģáŀŁ áŀĢ
Ġ à¹ĥà¸«à¹ī
áŁ¡áŁ ¤
áŀŁáŁĴáŀľáŀ¶áŀĻ áŀļáŁĢáŀĦ
áŀĩ áŀ¶áŀģ
1 6
Ġu 0e
ªà¸¸à¸ Ĥà¸
Ġh Ã¬nh
¡ áĢĳáĢŃ
ĲáĢ¬ áĢĢáĢŃáĢ¯
Ĳ áĢ²áĤĶ
ĠáĢŀ áĢ¬áĢ¸
ĠáĢģáĢ» áĢħáĢº
ĠáĢ±áĢŀ áĢ¬áĢĢáĢ¹áĢ
áĢĻ áĢ¼áĢĶáĢ¹áĢ
áĢħ áĢĦáĢº
Ĥà¸Ńà¸ĩ à¹Ģà¸
áŀĤ áŁĦ
áŀ¶áŀļ áŁĢáŀĵ
ga ling
áŀ¶áŀĶ áŁĴáŀļáŀ·áŀĻ
u ch
ĠáŀŁáŀ» áŀĳáŁĴáŀĴáŀ
áĢĦáĢ¹áĢ ±áĢĲáĢ¬áĢ·
áĢ¸áĢľ áĢ¬
æ ¢
ĠáŀľáŀıáŁĴáŀĲ áŀ»
áĢ¡ áĢķáĢ±áĢ«áĢº
ON T
la la
àºŃ àºŃàºģ
Ġà®ķà¯Ĭ à®³à¯įà®³
ĠáŀĶáŀīáŁĴáŀĩ áŀ¶
ĠáŀĶ áŁĨáŀĸáŀ¶áŀĢáŁĭ
Ġp k10
å½ ±
ĠáŀĴáŀ ·
ĠáŀĢáŁĴáŀĶ áŁĤáŀļ
Ġà¹ģà¸ ¥à¸°à¹Ģà¸
ĠáŀĢáŀ¶áŀļáŀ ı
Ġáŀ¢ áŀ¶áŀĩáŀ¸áŀľáŀĢáŀĺáŁĴáŀĺ
N am
ĠáĢĺ áĢ¯áĢĶáĢ¹áĢ¸
áĤĲ áĤĪ
áĤĢáĢĢ áĢ¶
áĢĶ áĢ¬áĢĽáĢ®
Ġáŀ «
àºĽàº°àº Ĭ
ĠáĢķ áĢŃáĢ¯áĤĶ
ĠáĢħáĢ¯ áĢħáĢ¯
ĠF ore
áŀĻ áŁīáŀ¶
ĠáĢ¡áĢ²áĢĴáĢ® áĢľáĢŃáĢ¯
áĢĽáĢ¬ áĢĩ
áŀĵáŁħ áŀıáŀ¶áŀĺ
f er
Ġà»ĥ àº«àºį
ĠàºĦ àº»àºĻàº
Ġpal ig
áĢķ áĢĶáĢ¹áĢ¸
áĢ±áĢĳ áĢ¬áĢĦáĢ¹áĢ
±áĢĶ áĢ¬áĢĢáĢ¹
áĢŀ áĢĶ
áŀı áŁĦáŀĵ
áŀĭ áŀ¶áŀĵ
áĢĻáĢ»áĢ¬áĢ¸ áĢĢ
Ġ @
ib igay
áŀ¼áŀı áŀĽáŀ¶áŀŁáŁĭ
áŀ¹áŀĢ áŀłáŀ¶áŀıáŁĭ
à»īàº²àºŀàº°à»ĢàºĪ àº»à»īàº²àº
Ġà¸ĸ à¸Ńà¸Ļ
à¹Ħà¸ «à¸Ļà¸
å®ĺæĸ¹ ç½ĳç«Ļ
éĢ ģ
áŀ¶áŀĤ áŁĴáŀĵ
à»Ĥ àºĽ
Īà¸²à¸ ģà¹Ģà¸
ĵ áŀ¹áŀĦ
ĠÃ ´
ĠáŀĺáŁģ áŀĴáŀ¶áŀľáŀ¸
ĠáŀĶáŀ» áŀļáŀ¶áŀİ
ç Ł¥
à»Ģàºģàº »
à®£à¯įà®Ł à¯ģà®®à¯į
ĠáŀĶ áŁĴáŀıáŀ¸
ĠáŀĴáŀ¶áŀĵ áŀ¶
áŁģáŀł áŀ¶
áŀļáŀłáŀ¼áŀı áŀĬáŀĽáŁĭ
un d
áŀļáŀ ļáŀĶáŀŁáŁĭ
ķà¸ ³
áŀĶáŁĴáŀĽ áŁĤáŀĢ
àºĤàºŃàºĩàº Ĺà»Īàº²àºĻ
áŀĶáŁĴáŀļáŀĹ áŀĸ
áĢĻáĢºáĢ¬áĢ¸áĢ ĲáĢ¼áĢĦáĢ¹
áĢ»áĢĸáĢħáĢ¹áĢ ĲáĢ²áĢ·
ĽáĢ½ áĢĦáĢ¹
ĠáĢľ áĢ¯áĢŃ
áĢľáĢŃáĢĻáĢ¹áĢ· áĢĻáĢļáĢ¹
áĢĻáĢ¬ áĢı
áŀĶáŀ¶áŀıáŁĭ áŀĶáŀĦáŁĭ
à¯įà®Ł à¯į
k in
àº°àºŀàº² à»ģàº«à»ĪàºĩàºĬàº²àºĶ
Ĥà¹īà¸Ńà¸¡à¸¹à¸ ¥à¸
áŀĤáŁĦáŀĽ áŀĬáŁħ
Ħàº¸à»īàº¡àºĦ àºŃàºĩàº
Ĥ à»įà»ī
è¯ ·
áĢ±áĢķ áĢ¸áĢĽ
ĲáĢ¼ áĢ²
ĲáĢ¬ áĢĢ
ĠáĢ»áĢĸáĢħáĢ¹áĢ ±áģ¾áĢĢáĢ¬áĢĦáĢ¹áĢ¸
ĠN LD
áĢŀ áĢĲáĢ¹áĢ
Ġo il
Ġni yang
áĢĲáĢ¬ áĢ±áĢĲáĢ¼
áĢĥ áĢ¬
áĢ¯áĢ¶ áĢ¸áĢĢ
áŀ¼ áŀļáŀĶ
á»© ng
Ġl it
Ħ à¸²à¸
ĠáŀļáŀŁáŁĴáŀĺáŀ¸ áŀĢáŀĺáŁĴáŀĸáŀ»áŀĩáŀ¶
Ġáŀİ áŁĤáŀĵáŀ¶áŁĨ
Ġáŀ¡ áŀ¶áŀĻ
áŁ¡áŁ ¨
áŀĵáŁħ áŀĢáŀĺáŁĴáŀĸáŀ»áŀĩáŀ¶
áŀĢáŀ¸áŀ¡ áŀ¶áŀĢ
å° Ķ
ĠáŀŁ áŁĴáŀıáŀ¸
in ig
ĠáŀŁ áŀīáŁĴáŀīáŀ¶
ľ áĢĦáĢ¹áĢ·
ĠM P
áĢĶáĢ¹áĢĻ áĢ½
áĢĴ áĢº
Ġà»ĢàºĦàº·à»ĪàºŃ àºĩ
ĠáŀļáŀĦ áŀĤáŁĴáŀļáŁĦáŁĩ
ĠáŀĻ áŀ»áŀĳáŁĴáŀĴáŀĵ
Ġàº¥àº° àºļ
Ġáŀĺáŀ»áŀĵ áŀĸáŁģáŀĽ
ĠN A
ah a
Ġnag t
à»ģàºĹ àºĻàº
ĠáŀĶ áŁĴáŀĬ
Ġà®ĩ à®©à¯įà®©
ĠáŀĢ áŁħ
Ġáŀ¢ áŀĺ
Ġáŀ¡ áŀ»áŀĦ
áŁĴáŀļáŀ»áŀĺ áŀłáŁĬáŀ»áŀĵ
áŀŁ áŁĨáŀĶ
Ħà¸ ·à¸Ńà¸
àºµ à»Īàº
áĢĢáĢ¹áĢ ±áĢĲáĢ¼
Ŀ áĢĦáĢº
Ġthá» ±c
à®¿à® ªà¯į
áŀļáŀŁ áŁĢáŀĽ
áŀĺáŁĴáŀļ áŁģáŀħ
áŀĩáŁĨáŀĵ áŀ»áŁĨ
áŀ¸ áŀĽ
áŀ¶áŀ ĥ
an i
ĠáŀĸáŁĴáŀļ áŁĤáŀĢ
ĠáŀķáŁĴáŀĽáŀ¼áŀľ áŀĢáŀ¶áŀļ
ĠáŀĶ áŀ¶áŀļáŀĺáŁĴáŀĹ
Ġà®İ à®Łà¯ģà®¤à¯įà®¤
ĠáŀĨáŁĴáŀĵáŀ¶áŁĨáŁ¢áŁłáŁ¡áŁ ¥
ĠáŀĤáŀ»áŀİ áŀĹáŀ¶áŀĸ
ĠáŀĢáŀ¶áŀŁ áŁĤáŀı
àºµ àºĶàº
ĠÂ ©
áŁ ķ
áŀŁáŁĴáŀļ áŀ¶áŀľáŀĩáŁĴáŀļáŀ¶áŀľ
ĠáĢ»áĢķ áĢĶáĢ¹
áĢļ áĢ½
áŀĽáŀ¾áŀĢ áŀĳáŀ¸
áĢĻ áĢŃáĢ¯áĤĶ
áĢĳ áĢ¬áĢ¸áĢĲ
áĢ¬áĢ¸áĢ ĶáĢ²áĤĶ
»áĢķ áĢ®
******** ********
ĳáĢ¬áĢ¸áĢ ķáĢ«áĢĲáĢļáĢ¹
ĠáĢĻ áĢŃáĢĲáĢ¹áĢ
áŀļáŀı áŀĵ
áŀĶ áŀ¶áŀĢáŁĭ
áŀĴáŁĴáŀľáŀ¾ áŀ¡áŀ¾áŀĦ
Ġà®İà®©à¯įà®ª à®¤à¯ģ
ĠáĢķáĢ¼áĢĦáĢº áĢĨáĢĦáĢº
àº²àºĻàº µà»ī
Ġ256 1
ľ à¸´à¸Ķà¸
áŀĳáŁģáŀŁ áŀħáŀļ
àº±àºļàºĽ àº¸àºĩ
áŀĢáŀ¶áŀļáŀĶ áŀļáŀĳáŁģáŀŁ
àº°àºļ àº±àºļ
Ġsa ys
áĢĻáĢ¾áĢ¬ áĢĲáĢ±áĢ¬áĢ·
áŀ¾áŀĻ áŀıáŀĶ
áĢĲ áĢ¯áĢĶáĢ¹áĢ¸
áĢĢáĢ¹áĢ ±áĢĶ
áĢ±áĢĶ áĢŃáĢ¯áĢĦáĢº
áŀ¶áŀĩ áŀ¸
ah o
áŀ¶áŀħ áŀ¶áŀļáŁĴáŀĻ
áŀ¶áŀĢ áŁĤáŀľ
ĠáŀŁáŁĨáŀİ áŀ¶áŀĢáŁĭ
ĠáŀĽ áŀ»áŀĶ
àº°àºĻàº¸ àºĶ
ĠáŀĻ áŀ»áŀıáŁĴáŀıáŀ·áŀĴáŀĺáŁĮ
å®¢ æĪ·
ĠáŀĩáŁĨáŀĵ áŀ¶áŀĵáŁĭ
à¹Ģ à¸Ńà¸²à¸
Ġáŀħ áŀ»áŀħ
Ĥà¹īà¸Ńà¸¡à¸¹à¸ ¥
ä» ·
ĠáŀĢ áŁĴáŀļáŀĶ
áŁĢáŀŁ áŀľáŀ¶áŀĦ
àº¡ àº²àº
áŀĶáŀ» áŀļáŀ¶áŀİ
Ġber s
Ġth Ã´ng
áŀĳáŁħ áŀľáŀ·áŀī
áŀİáŁĴáŀ ł
à¹ģà¸ķ à¹Īà¸ĩà¸
Ġmag s
áŀĬáŁĤáŀĽ áŀ¢áŀ¶áŀħ
ut an
áĢ±áĢ¬áĢºáĢĻ áĢĲáĢ®
é© ¬
m ese
ĠáĢĽáĢ² áĢĲ
áĢļáĢ¹áĢ ļáĢ°
áĢĨáĢ±áĢ¬áĢĦáĢº áĢĽáĢ½áĢĢáĢº
§à¸ ¥à¸²à¸
áŀĬ áŀ»áŁĨ
áŀĢ áŀĢáŁĭ
áĢĢáģ ¤
áĢĢáĢ¼áĢ®áĢ¸áĢ Ļ
Į áŀ·áŀı
s ung
Ġit ong
ĠáŀļáŀĬáŁĴáŀĭáŀĺáŀĵáŁĴáŀıáŁĴáŀļáŀ¸ áŀĢáŁĴáŀļáŀŁáŀ½áŀĦ
Ġáŀļáŀ½áŀĺ áŀĳáŀ¶áŁĨáŀĦ
ĠáŀĺáŁī áŁħ
ŀ àº½àºĩ
ĠáŀĵáŁģáŁĩ áŀĤáŀº
Ġáŀĵ áŀ¶áŀĺ
ĠáŀĬ áŀ»áŀĽáŁĴáŀĽ
áĢĢáĢ¼ áĢķáĢ«áĢĲáĢļáĢº
ľ áĢ¯áĢŃáĤĶ
ĠáĢľ áĢŃáĢ¯áĢĢáĢº
Ġà®µ à®³
ĠáŀĬ áŀ¶
ŀ àº·à»īàºĻàº
Ġáŀ¢áŀĹáŀ·áŀĶáŀ¶áŀĽ áŀģáŁģáŀıáŁĴáŀı
áŁĴáŀĺ áŀ½áŀĻ
áŁĴáŀģ áŀ¶áŀŁáŀ¶áŀĽ
áŀŁ áŁĴáŀļáŀ¡áŀ¶áŀīáŁĭ
áŀľáŀ· áŀĶ
ĠáĢ¡áĢĢáĢº áĢ¥áĢ¹áĢ¸
áĢĭáĢ¹áĢ Į
áĢĨáĢŃáĢ¯ áĢĲáĢ²áĢ·
áĢ±áĢŀ áĢ¬áĢĢáĢ¹áĢ
ĠáĢľáĢŃáĢ¯ áĢ¡áĢķáĢº
Ġd al
áŀĽ áŁĴáŀĻ
áŀļáŀĺ áŀ¶áŀĵ
à¹Ģà¸£à¸´ à¹Īà¸¡à¸
áŀĶáŁĴáŀļáŀĻ áŁĲáŀıáŁĴáŀĵ
e e
Ġk om
çľ ģ
áŀĢáŁĨáŀĸ áŀı
áŀ¼áŀĢ áŁĤ
áŀ¶áŀľ áŀ·
Ġà»Ĥàº® àºĩ
çī ĩ
áŀ¢áŁĨáŀĸ áŀ¾
à®Ļà¯įà®ķ à¯ģ
op le
ĠáŀŁ áŀ¶áŀĻ
Ġáŀĸ áŀ·áŀŁ
ĠáŀĶáŁĬ áŀ»
Ġáŀĩ áŀ¶áŀĶ
ĠáŀĤáŀİáŁĪáŀĢáŀĺáŁĴáŀĺ áŀĢáŀ¶áŀļ
ĠáŀĤáŀ¸ áŀĺ
ĠáŀĢáŀ¶áŀļáŀĶ áŁĦáŁĩáŀĨáŁĴáŀĵáŁĦáŀı
Ġàºģ à»Īàº½àº§
à»ģàºķà»Īàº ¥àº°àº
ĠáŀĢ áŁĨáŀİáŀ¾áŀĵ
ĠáŀĢ áŀ¼
ĠáŀĢ áŀ¶áŀĻ
à»ģàºģ à»Īàº
ĠÂ ·
ĠÂ ½
Ġl u
à¹Īà¸ĩà¸ Ĥà¸
áŀŁ áŀīáŁĴáŀīáŀ¶
Ġà®µ à®ķ
áŀĻ áŁģáŀŁ
áŀĶáŁĴáŀļáŀ ĳáŁĩ
áŀĩáŀĵ áŀĶáŀĳ
áŀħ áŀ¶áŀīáŁĭ
áŀ¶áŀĩ áŀ¶áŀĺáŀ½áŀĻ
à»ģàº ļ
ĠáĢ»áĢĸáĢħáĢ¹áĢ ±áĢķáģļ
ĠáĢ¡áĢľ áĢ¼áĢĶáĢ¹áĢ
Ġ... áģĭ
áĢ¾ áĢļáĢº
n om
== ==
ĠáŀŁáŁĴáŀĵáŀ¶áŀĢáŁĭ áŀĵáŁħ
Ġáŀĺáŀ¶áŀĵ áŀľáŀ¸áŀĬáŁģáŀ¢áŀ¼
ĠáŀĨ áŁģáŁĩ
ĠáŀĢáŀĺáŁĴáŀ ĸáŀŁáŁĭ
áŀŁ áŀĶáŁĴáŀıáŀ¶áŀłáŁį
áĢ±áĢ¸áĢĽ áĢ½áĢ¬
ĠáĤĢáĢĢáĢŃáĢ³ áĢ¸áĢħ
ĠáĢĢ áĢ±áĢĶ
áĢķ áĢ¶áĢ·
áŀĸáŁĴáŀļáŁĩáŀļáŀ¶áŀĩ áŀ¶áŀİáŀ¶áŀħáŀĢáŁĴáŀļáŀĢ
áŀĸ áŁģáŀĢ
áŀĢ áŀŁáŀ¶áŀĦ
áŀ¢ áŀ¶áŀĩáŁĴáŀī
áŀ ªáŀĸáŀ»áŀĢ
ĵ áŀ¶áŀĤáŀ¶áŀļ
áĢĶáĢ¾ áĢ¬
àºĹàºµà»Īàº ª
ĠáŀŁáŀĢáŀĺáŁĴáŀĺ áŀĩáŀĵ
ĠáŀŁ áŁĴáŀ¢
Ġáŀľáŀ·áŀĴáŀ¶áŀĵ áŀĢáŀ¶áŀļ
Ġáŀľáŀ·áŀĳáŁĴáŀĻ áŀ¶áŀĽáŁĲáŀĻ
Ġáŀļáŀ ¹áŀĦ
Ġáŀĺáŀĵ áŁĴáŀļáŁĴáŀıáŀ¸
¹ à¹ī
ing s
ĠM al
ĠáŀĶáŁĴáŀļáŀ ĳáŁĩ
ĠK as
Ġk á»
ĠC O
Ġ!! !
áŁ¢ áŁłáŁł
áĢĶ áĤĶ
áĢħáĢ¹áĢ Ĩ
áŀļáŀ» áŀŁáŁĴáŀŁáŁĬáŀ¸
à¯ĭ à®Łà¯ģ
à¸£à¸±à¸ģà¸© à¸²à¸
Ġà®ĩ à®£
áŀļ áŁĪ
áŀĺáŁĴáŀ ł
aw ag
ĺ à¸£à¸£à¸¡
áŀĸ áŀ·áŀĹáŀ¶áŀĢáŁĴáŀŁ
áŀĵ áŀĹáŀ¶áŀĸ
áŀĳ áŁĨáŀłáŁĨ
àºĬ àº²àºĶ
áĢģáĢ¼áĢĦáĢ¹áĢ· áĢ¡
áĢ±áĢĳ áĢŃáĢ¯áĢĦáĢº
áŀĬ áŁĨ
áŀĬ áŀ¶áŀĽ
àºµàºĻàº Ĺàº²àºĩ
a di
áŀĪ áŀ¶áŀĵ
áŀĩáŀ¶áŀı áŀ·áŀħ
áŀĤáŁĴáŀļáŀ¶áŀĵáŁĭ áŀıáŁĤ
áŀĢáŀ¸áŀ¡ áŀ¶
áŀĢ áŁĦáŀŁ
ķà¸ ¥à¸²à¸
áŀ½áŀīáŀĬ áŀ¼áŀļ
ĠáŀŁ áŁĴáŀļáŀ¼áŀľ
ĠáŀŁ áŀ¶áŀŁáŀĵáŀ¶
± à¹Īà¸Ļ
ĠáŀļáŀĦ áŀļáŀĶáŀ½áŀŁ
Ġà¹ģà¸ ªà¸Ķà¸
ĠáŀļáŀĢ áŁĴáŀŁ
Ġáŀĸ áŁģáŀĢ
ĠáŀĶáŁĴáŀļáŀĻ áŀ»áŀĳáŁĴáŀĴ
in ya
à¹Ħà¸ Ĥ
Ġb ab
ĠáŀĶáŀ¶áŀıáŁĭ áŀĬáŁĨáŀĶáŀĦ
ĠáŀĳáŀŁáŁĴáŀŁáŀĵ áŀĢáŀ·áŀħáŁĴáŀħ
Ġáŀĳáŀ¶áŁĨáŀĦ áŀĸáŀ¸áŀļ
Ġáŀı áŁĴáŀļáŀ½áŀıáŀĸáŀ·áŀĵáŀ·áŀıáŁĴáŀĻ
Ġáŀħ áŀ¶áŀīáŁĭ
æ² ¡
v a
ļà¸Ńà¸¥à¸ ªà¸Ķ
ª à¸²à¸£
re h
Ġáŀ¢áŁĴáŀľáŀ¸ áŀĬáŁĤáŀĽ
Ġ} {
áŁģáŀı áŁĴáŀĬ
áŀł áŀ¼áŀı
áŀŁáŀĵáŁĴáŀı áŀ·áŀŁáŀ»áŀģ
áŀĺáŀĢ áŀłáŀ¾áŀĻ
ĠáĢĻ áĢ¾áĢĲáĢº
Ġà®®à¯ģà®¤ à®²à¯į
áŀĶ áŀĦáŁĴáŀļáŁĢáŀĵ
áŀıáŁĴáŀļáŀ¼áŀľáŀĶáŀ¶áŀĵ áŀĤáŁģ
à¹Ģà¸ķ à¸Ńà¸£à¹Į
à¹Ģà¸ ļ
àº²àºį àº²àº¡
áŀĦáŁĴáŀĢ áŀļ
áŀĤ áŀ¶áŁĨáŀĳáŁĴáŀļ
ĠAl lah
Ġk es
ig it
áŀĢáŁı áŀĬáŁĦáŀĻ
ĠáĢħáĢĢáĢ¹áĢĲ áĢĦáĢ¹áĢĺáĢ¬
ĠáĢ±áĢĴáģļáĢ±áĢ¡áĢ¬áĢĦáĢ¹áĢĨáĢĶáĢ¹áĢ¸áĢħáĢ¯ áģ¾áĢĢáĢĬáĢ¹áĢ
áĤĥ áĤĪ
áĢľáĢ¬ áĢģáĢ¶
áĢ»áĢķ áĢĬáĢ¹
áĢ±áĢĶ áĢĶáĢ²áĤĶ
ĠáĢĬ áĢ®áĢĻ
ĠáĢģ áĢ«
Ġ à¸£à¸±à¸ļ
Ġà¹ģ à¸Ńà¸
áĤ ħ
áĢŀ áĢŃáĢ¯áĢľáĢº
Ĺ à¸Ńà¸ĩ
à¸Ļà¸µ à¹Ī
áĢķ áĢŃáĢ¯áĢĦáĢºáĢ¸
á»ķ i
áŀĢáŀ¼áŀļáŁīáŁģáŀģáŀ¶áŀĦ áŀĩáŀ¾áŀĦ
áŀĢáŀ¶áŀļáŀĶ áŁĴáŀļáŀ¾áŀĶáŁĴáŀļáŀ¶áŀŁáŁĭ
àº±àºĻàº ª
áŀ¶áŀı áŁĴáŀļáŀ¸
Ġà®¤ à¯Ĩ
Ġç º
áŀ¢áŁĴáŀľáŀ¸ áŀĬáŁĤáŀĽ
Ĺ áŀĸ
Ħà¸£à¸ ±à¹īà¸ĩà¸
ĠáŀŁáŀĺáŁĴáŀĶ áŀıáŁĴáŀıáŀ·
ĠáŀĹáŁĴáŀĽ áŀ¶áŀĺ
áĢ½ áĢĦáĢ¹
áĢ±áĢĶ áģ¾áĢĢ
áĢ±áĢ Ĭ
ä¸Ģ ä¸ª
ĠáŀķáŁĤáŀĵ áŀĢáŀ¶áŀļ
ĠáŀĶáŁĴáŀļáŀ¡ áŀĦ
ĠáŀĬáŀ¹áŀĢ áŀĩáŀīáŁĴáŀĩáŀ¼áŀĵ
ŀ àº°àºį
ĠáŀĢáŁĴáŀĵáŀ»áŀĦ áŀħáŁĨáŀİáŁĦáŀĺ
ĠáŀĢ áŁĴáŀļáŀłáŀĺ
ĠÂ ¤
Ġg et
áŀŁáŀĺ áŁĴáŀĽ
áŀŁ áŀ½áŀļáŀ
at ay
áŀĶ áŀĦáŁĴáŀ¢
à¯ģà®³à¯įà®³ à®¾à®°à¯į
sp ot
ľ áĢ¯áĢŃáĢĢáĢ¹áĢ
ĠáĢľ áĢ²
ĠáĢĺ áĢĤáģ¤
ĠáĢĢáĢ¬ áĢĢáĢ½áĢļáĢº
áŀİ áŀ¶áŀĺáŀ½áŀĻ
Ġl ebih
Ġà®¤à®®à®¿à®´ à¯į
à¯ģà®ļ à¯į
Ġd um
Ľàº°àº Ĺàº²àºĻàº
áĢĻ áĢŀáĢŃ
ķáĢ« áĢ¸
¥à¸ Ķà¸
ĠàºŃ àº»àºĩàºģàº²àºĻàº
áŀĢáŀ¶áŀļáŀŁ áŀł
áŀ¶áŀĳ áŀ¶áŁĨáŀĦ
ĠáģĤáģ ĥ
Ġàºļ àº²àºĩ
ĠáĢĢ áĢ±áĢľáĢ¸
ĠáĢ¡áĢĻáĢ»áĢŃáĢ¯áĢ¸áĢ ŀáĢĻ
áĢĽ áĢķáĢ¹áĢ
áĢĻáĢ½ áĢĶáĢ¹áĢ¸
áĢĺ áģĢ
áĢ»áĢĸáĢħáĢ¹áĢ ±áĢĶ
áĢ» áĢ¬áĢ¸áĢĢáĢŃáĢ¯
Ã© n
ro id
ĠáŀŁ áŁĦáŁĩ
ĠÄĳ iá»ģu
ĠáŀŁ áŁĦ
ĠáŀĴáŁĴáŀĦáŀĵáŁĭ áŀĴáŁĴáŀĦáŀļ
ĠáŀĳáŁģáŀŁ áŀħáŀļ
Ġáŀı áŀľáŁīáŀ¶
e ed
Ġh d
Ġwr inkles
Ġbay ar
Ġam ing
Ħà¸´à¸ Ķà¸
Ġm ed
ĠA d
áŀŁ áŀĦáŁĴáŀļáŁĴáŀĤ
áŀŁ áŀ»áŀĳáŁĴáŀĴáŀ
Ġà®µ à®¿à®Łà¯įà®Ł
áŀŁ áŀ¶áŀĺ
áŀľáŀıáŁĴáŀı áŀĺáŀ¶áŀĵ
on d
Ġà®ħ à®²
áŀĽ áŀ¶áŀĢáŁĭ
Ġàºķ àº²
áĢ¡ áĢĲáĢ½
à»Ģàº¥ àºµà»Īàº¡
à¸£à¸²à¸ĩà¸ §à¸±à¸
Ġnag papa
à¹Ħà¸Ķ à¹īà¸Ńà¸¢
áŀĹáŁĴáŀĽ áŀ¶áŀĺáŁĹ
áŀķáŀĦ áŀĬáŁĤáŀļáŀ
»áĢĸ áĢ´
Ľ áĢ²áĢ·
ĻáĤĪ áĢ±áĢĲáĢ¼
ķ áĢŃáĢ¯áĢĦáĢ¹áĢ
ĠáĢĲ áĢŃáĢ¯áĢ¸áĢ
ĠáĢ»áĢķ áĤĨáĢĶáĢ¬
ĠáĢ±áĢľáĢ¬ áĢĢ
áĢŀ áĢĦáĢ¹áĢ
áĢĻáĢ» áĢĢáĢº
áŀĵáŁħ áŀĳáŀ¸
ĠÂ ±
Ã ģ
Ġt in
áŀıáŁĴáŀļ áŁĤáŀĦ
áŀī áŀ¶áŀıáŀ·
áŀĦ áŀ¶áŀĻ
àº¸ àºĤ
áĢĻáĢºáĢ¬áĢ¸ áĤıáĢ½áĢĦáĢ¹áĢ·
áĢ±áĢ¸áĢ ģ
çİ ¯
Ġnaka ka
áŀĢ áŁĴáŀļáŀ¼
1 2
Ġs bo
Ġ$( '
à¹Ĥà¸ Ĺà¸£à¸
àº²àºª àºµ
Ġà®ķà¯Ĭà®£à¯įà®Ł à¯ģ
áŀ±áŁĴáŀĻ áŀĺáŀ¶áŀĵ
ģáĢ²áĢ· áģ¿áĢķáĢ®áĢ¸
ĠáĢľáĢ¯áĢķáĢº áĢĨáĢ±áĢ¬áĢĦáĢº
èµ° åĬ¿
Ġæ Ĭ
un do
àº£ àºµ
Ġf ind
àºĪ àº°à»Ģàº
Ġáŀľ áŁģáŀĳ
Ġáŀļáŀ¼áŀĶ áŀĵáŁģáŁĩ
ĠáŀĶáŁĴáŀļáŀĺ áŀ»áŀģ
ĠáŀĬ áŁģáŀī
Ġà®ĩà®°à¯ģà®¨à¯įà®¤ à¯ģ
ĠáŀĪ áŀļ
Ć ą
å Ķ
ĠáĢĻ áĢĬáĢº
ĠáŀģáŁĴáŀĺ áŁĤáŀļáŀĢáŁĴáŀļáŀłáŀĺ
ĠáŀĢáŀ¼áŀļáŁīáŁģáŀģáŀ¶áŀĦ áŀĩáŀ¾áŀĦ
Ġáŀ± áŀŁáŀĲ
ĠS am
ĠC up
áŁĴáŀļ áŁĥ
áŀķ áŁĴáŀīáŀ¾
áŀĶáŁĴáŀļáŀĳáŁģáŀŁ áŀħáŀ·áŀĵ
Ãª u
¸à¸ Ķà¸
Ġï¼ Ľ
áŀīáŁĴáŀħ áŀ¹áŀĦ
áŀĩ áŀ¶áŀĳáŀ¸
ª à¸Ńà¸ļ
tib ong
àº²àºĶ à»īàº§àºį
y ari
áŀĢ áŀ»áŀĺ
ni j
ĠâĨ Ĵ
ĠáŀŁáŁģ áŀľáŀ¶
à¯ģà®± à¯Ī
ģà¹Ī à¸Ńà¸Ļ
àº¥ àº±àºĶàºĸ
ĠáŀĶáŁģáŀĢáŁĴáŀģ áŀĩáŀĵ
ĠáŀĴáŀ ¶
Ġáŀĩáŀ¶áŀĢáŁĭ áŀŁáŁĴáŀıáŁĤáŀĦ
ĠáĢ¡ áĢĿ
è£ ħ
ĠáŀĢ áŁĴáŀı
Ĺ àº±àºĩ
áĢĽ áĢķáĢ«áĢĲáĢļáĢº
áĢģáĢºáĢŃ áĢĶáĢ¹áĢ
áĢģ áĢĽáĢ®áĢ¸áĢ
áŁĴáŀĻáŀ¼ áŀĳ
Ġà¸£ à¸Ńà¸ĩ
ľà¸´à¸ §à¸
à®¾à®± à¯ģ
Ã Ī
uyá»ĩ n
åħ ¶
ala k
áŁ¡áŁ £
Īà¸±à¸ Ķ
áŀŁ áŀĵáŁĴáŀĽ
áŀĹáŀ¶áŀĤ áŀħáŁĴáŀļáŀ¾áŀĵ
Ī àº°àºª
Ġ Ø
j ar
à®¿à®¯ à®¤à¯ģ
ĵà¸ °
ĳ áĢĦáĢ¹áĢ
ĠáĢĽáĢĶáĢ¹áĢĢáĢ¯áĢĶáĢ¹ áģ¿áĢĻáĢŃáĢ³áĤķ
ĠáĢĻ áĤıáģ±áĢ
ĠáĢĻ áĤĪ
ĠáĢĺ áĢ®
áŀĳáŁģáŀŁ áŀħ
ĠàºŃ àºŃàºģ
Ġàºª à»įàº²àº¥àº±àºļ
Ġ+ "
à»ĢàºĤ àº±à»īàº¡
ĠáĢ±áĢĢáĢº áĢ¬áĢ¹
ĠáĢ¡áĢĨ áĢĦáĢ¹áĢ±áĢ»áĢķ
áĢŃáĢ¯áĢĢáĢ¹áĢ ĲáĢ¬
áĢĸ áĢ±áĢ¬áĢº
áŀĳ áŀ¼áŀĽ
àºĦ àº´àºĶ
ĠQ u
Ġpagka in
áŀĥ áŀ¶áŀı
áŀģ áŁĴáŀĽáŀ¸
áĢķ áĢ±
áŀĢáŁĴáŀļáŀ»áŀĺ áŀĶáŁĴáŀļáŀ¹áŀĢáŁĴáŀŁ
áŀ¶áŀģ áŁģáŀıáŁĴáŀı
Ã± Ãº
ĳ áŁģáŀħ
ĠáŀŁáŁĴáŀļ áŁĤ
ĠáŀļáŀĢ áŀĥáŀ¾áŀī
àº²àº« àº²àºĻ
Ľà¸£à¸° à¹Ĥà¸¢à¸
ĠáŀĻáŀĢ áŀĳáŁħ
ĠáŀĹ áŁĴáŀĵáŁĤáŀĢ
á»į n
lo w
ag ong
áĢ¶áĢĢ áĢŃáĢĶáĢº
ħ áĢ¶áĢ¯
ģáĢº áĢŃ
ĠáĢľáĢĢáĢ¹áĢ ģáĢ¶
ĠáĢľáĢ¯áĢķáĢº áĢĦáĢĶáĢº
ĠáŀĶáŀĵáŁĴáŀı áŀĲáŀ¶
ĠáŀĶáŀ¾ áŀĳáŁĦáŁĩ
ĠáĢĽ áĢĽáĢ¾áĢŃ
Ð µ
¡à¸µà¸ Ħà¸§à¸²à¸¡à¸
l ong
Ġáŀı áŀ½áŀĵáŀ¶áŀĳáŀ¸
ĠáŀĢ áŁĴáŀĬ
k u
Ġà®ļ à¯ĩ
Ġn ew
áŀĽ áŁĴáŀĦáŀ¶áŀħ
àº²àº «àº¼àºµ
àº±à»īàºĩàº Ĺàºµ
á» £
áŀĶáŁĴáŀļáŀŁ áŀ¾áŀļ
áŀĶáŀĵáŁĴáŀı áŀ·áŀħ
áŀĳ áŁĨáŀł
àº° àºĶàºµ
áŀĳ áŀ¶áŀī
as i
áŀı áŀ¶áŀĽáŀ¸
ĠáĢĲáĢħáĢº áĢģáĢ¯
Ľà¸£à¸°à¸ ģ
Ġà®ªà¯ĭ à®°
áŀĩáŀ¶áŀıáŀ· áŀĽáŁģáŀģ
áŀĩ áŀ»áŁĨáŀľáŀ·áŀī
Ġpro dukto
Ġx u
p uti
Ġ ung
pa l
àº ¢àº¹à»Īàº
áŀ¶áŀĳ áŁĦáŀŁ
áŀ¢ áŀıáŀ¸áŀı
Ġvi dio
it ang
áŀ «
E dl
ĠáŀŁáŀ»áŀĳáŁĴáŀĴáŀ ıáŁĤ
ĠáĢħáĢ®áĢ¸áĢķ áĢ½áĢ¬áĢ¸áĢĽ
ĠáŀŁáŀ· áŀĽáŁĴáŀĶáŁĪ
Ġà¹Ģà¸ Ľà¹ĩà¸Ļ
Ġáŀĸ áŀĵáŁĴáŀĴ
Ġáŀķ áŁĴáŀĤ
ĠáŀĶáŁĴáŀļáŀĸ áŁĥáŀİáŀ¸
Ġà¹Ģà¸ Ķ
ĠáĢ¹áĢ ¸
áģ¿áĢķ áĢ¬
±áĢľ áĢ·
ĸáĢ¼áĢħáĢº áĢŀáĢĬáĢº
ĠáŀĶáŁĴáŀļáŀ¶áŀļáŀĸ áŁĴáŀĴ
ĠáŀĶáŁĴáŀļ áŀ¶áŀŁáŁĭ
Ġà®µà®´ à®Ļà¯įà®ķ
ĠáŀĶáŀ¶áŀĵ áŀĳáŀĳáŀ½áŀĽ
æĮ ģ
ªàº°àº« àº°àºŀàº±àºĻà»ģàº¡à»Īàºį
Ĺàºµà»Īàº ªàº¸àºĶ
ĠáŀĢ áŁĨáŀİáŀ¾áŀı
Ġà¹Ģà¸ ķ
ĠáŀĢ áŁĨ
à¹Ģ à¸Ļà¸µà¸
Ġepek to
Ġáŀ¢ áŁĨáŀİáŁĦáŀĻ
ĠW orld
áŁĴáŀļáŀĶ áŀŁáŀĺáŁĴáŀļáŀ½áŀĽ
áŁĤáŀĳ áŀ¶áŁĨ
áŀŁáŁĴáŀıáŁĴáŀļ áŀ¶áŀĽáŀ¸
áŀŁ áŁį
Ġbu ong
áŀļáŁĦ áŀıáŁĴáŀıáŀĺ
áŀĺáŁĴáŀ Ł
áŀĶáŀ»áŀĤáŁĴáŀĤáŀĽ áŀ·áŀĢ
áŀĶ áŀİáŁĴáŀĬáŀ¶áŀĽ
áŀĶ áŀĬ
áŀĵáŀ¸ áŀĻ
Ġà»ĥàºĻàº §
áº¡ ng
Ġs er
áŀĳ áŀ¼áŀļáŀĳáŀŁáŁĴáŀŁáŀĵáŁį
è® º
áŀı áŀ¹áŀĦ
las s
cl ub
Ð °
«à¸¡à¸²à¸ °à¸
áŀģ áŁĲáŀİáŁĴáŀĮ
áŀĢáŀ¶áŀļáŀĶ áŁĦáŁĩáŀĨáŁĴáŀĵáŁĦáŀı
Ġe v
Ġd ura
ak e
áŀĢ áŀ¼áŀľáŀ¸áŀĬ
Ġà®ķ à®£à¯įà®Ł
áŀ»áŀŁ áŀĽ
ĠâĢĭ âĢ¦
ĠáŁ¥ áŁłáŁł
ĠáŀŁ áŀ¶áŀģ
ĠáŀĸáŁĴáŀļáŁĩ áŀĸ
ĠáŀķáŁĴáŀı áŀ¾áŀĺ
Ġàºļà»įà»Ī àº¡àºµ
ĠáĢķ áĢħáģ¥áĢĬáĢ¹áĢ¸
áĢĿáĢ« áĢĴ
r an
ĠáŀĶáŀ¶áŀĵ áŀ±áŁĴáŀĻ
Ġáŀĳ áŀ¶áŀłáŀ¶áŀĵ
áŁĴáŀļáŀ¼ áŀĦ
áĢĻáĢº áĢ¸áĢľ
áŁ¡áŁ §
áŀŁ áŁĲáŀĢ
éĻ Ĳ
áŀĸáŀ» áŀĴ
Ġà¸ģ à¸£à¸°à¸
áŀĸ áŁĴáŀļáŀĽ
¡à¸²à¸ ĵ
áŀĶáŁĴáŀļáŀ ¡
áŀĳáŁĨáŀĵ áŀ¾áŀĶ
à»Īàºĩàº Ĥ
áŀĳáŁħ áŀłáŀ¾áŀĻ
áŀĩ áŀ¶áŀľ
åŁ º
ip s
Ġd ark
us h
ab ing
áŀĨ áŁĴáŀĦáŀ¶áŀĻ
áĢĶ áĢŃ
áĢģáĢº áĢ®
áĢ±áĢĶ áĢ¬áĢĢáĢ¹
ĠáĢĻ áĢ°áĢ¸áĢļ
Ġp in
ĠáĢĢáĢŃáĢ¯áĢļáĢ¹áĢ Ĳ
ĠáĢ¡áĢħ áĢĬáĢ¹áĢ¸
áĢĻ áĢ¯áĢŃ
áĢĲáĢ¹áĢħ áĢ¼áĢ¬
áĢģáĢ¼ áĢĦáĢºáĢ¸áĢĻ
áŀ¼áŀİ áŀ¶áŀĽáŁĭ
áŀ¢ áŁĨáŀ¡áŀ»áŀĦ
Ġà®ķà¯ģà®± à®¿à®ªà¯įà®ª
Ġ4 0
à¸Ńà¸ĩà¸ Ħà¹Įà¸
à»ĢàºĬ àºį
Ã±Ãº g
tion s
ĠáŀŁáŁĴáŀĲ áŀ¶áŀĶ
r u
å½ ĵ
Ġáŀĺáŀ¶áŀĵ áŀĶáŁĴáŀļáŀŁáŀ¶áŀŁáŀĵáŁį
Ġáŀĸ áŁĲáŀĵ
Ġpam ah
Ġáŀķ áŁĴáŀīáŀ¾
uyá» ģn
Ġáŀķ áŀ»áŀı
à»Ģàºģàºµ àºĶ
ĠáŀĶ áŁĨáŀĸ
Ġ el
¡à¸µà¸ ģà¸²à¸£à¸
ĠáŀĶ áŀĦáŁĴáŀłáŁĦáŁĩ
ĠáŀĶ áŀ¼áŀĢ
ĠáŀıáŁĴáŀļáŀ¼áŀľ áŀıáŁĤ
áĢ±áĢ¬áĢĢáĢº áĢķáĢ½áĢ²
ĠáŀĢ áŀıáŁĭ
Ġáŀ¢áŀ¶áŀĵ áŀĶáŀĵáŁĴáŀı
Ġp i
ĠM ad
áŁĨáŀĶ áŀ·áŀĽ
áŀŁáŁĨáŀİ áŀ¶áŀĦ
áŀľ áŀ¶áŀĳ
»áĢĸ áĢĦáĢ·áĢ¹
ĻáĢºáĢ¬áĢ¸ áĢĢ
ĠáĢĻ áĢ®áĢĴáĢ®áĢļáĢ¬
áŀĽáŁĴáŀ¢ áŀĶáŁĨáŀķáŀ»áŀı
ira p
Ġblog spot
áĢŀáĢĬáĢ¹áĢ ĻáĢ½áĢ¬
áĢĻáĢº áĢ¬áĢ¸áĢħáĢ¼áĢ¬
áĢĶáĢº áĢ¸áĢĢ
Ġà®¤ à¯Ģ
áŀļáŀ¶áŀĩ áŁĲáŀĻ
áĢĨ áĢŃáĢ¯áĢ¸áĢ
ĠIs ang
áŀĹáŀ¶áŀĸ áŀĻáŀĵáŁĴáŀı
áĢĤáģ¢áĢŃáĢ³ áĢľáĢ¹áĢ
áĢ¬áĢ¸áĢ ķáĢ¼
àºĪ àº²àºģ
à¹Ĥà¸Ńà¸ ģà¸²à¸
Ġæ Ľ
Ġan ong
áŀĶáŁĴáŀļáŀĸ áŁĥáŀİáŀ¸
Ġh ari
áŀĶáŀīáŁĴáŀĩ áŀ¶áŀĢáŀ¶áŀļáŀ
áŀĵáŁĴáŀĽ áŀ¹áŁĩ
áŀ»áŁĨáŀĸ áŁĴáŀĻáŀ¼áŀĳ
ĸà¸ ·à¸Ńà¸
ľ áĢŃáĢ¯áĢ·
ĳ áĢ¼áĢĶáĢ¹áĢ¸
Ĳ áĢ½áĢĦáĢº
è Ħ
c es
I C
ĠðŁ ĺ
ĠáŀŁ áŀĦ
ĠáŀĽáŀ¾áŀŁ áŀĸáŀ¸
Ġà¸ªà¸ ĸ
Ġáŀķ áŁĴáŀĽáŀ¶áŀŁáŁĭ
os s
Ġika w
ĠáŀĵáŁħáŀĸáŁģáŀĽ áŀĬáŁĤáŀĽ
àº¸àºĻ àºĻàº°
àº´à»Īàºĩàº Ĺàºµà»Īàº
à®© à®®à¯į
Ġáŀĳáŀ¼ áŀĳáŁħ
à¹ĩà¸ ķ
¥àº° àºĶàº±àºļ
Ġç ½
Ġgra tis
ic s
áŀŁ áŀĽáŁĭ
¨à¸ ¹à¸Ļà¸
Ġà®ª à®¿à®©à¯įà®©
A P
Ġhe he
imb awa
áŀļáŀł áŁĲáŀŁ
ķ àºŃàºĻ
æĴ Ń
áŀĶáŀ»áŀļáŀŁ áŀĺáŁĴáŀĵáŀ¶áŀĢáŁĭ
áŀĶ áŀĺáŁĴáŀļáŀ¾
Ġkh Ã¡ch
áŀĵáŁģáŁĩ áŀĤáŀº
Ġh er
is a
Ġà¸§à¸´à¹Ģà¸Ħà¸£à¸²à¸°à¸« à¹Į
¢ à¸²
áŀİáŀ¶áŀĢáŁı áŀĬáŁĦáŀĻ
Ġà»ĢàºŃ àº»àº²
ĠàºĽàº°àº Ĺàº²àºĻ
åĲ ĳ
ĠàºĻàº ´
Ġà¸ªà¸¹à¸ ķà¸£
Ľ à¸µà¸
à»īàº½àº¡ àº¢àº²àº¡
áŀĪ áŁĴáŀĺáŀ½áŀī
áŀħ áŁĴáŀļáŀĢ
e ga
áŀ· áŀŁáŁĴáŀŁ
ĠâĢĭ âĢĭâĢĭâĢĭâĢĭâĢĭâĢĭâĢĭâĢĭ
ĠáŀŁ áŀİáŁĴáŀĭ
Ġi yo
à»ĦàºĶà»īàº®àº±àºļ àºģàº²àºĻàº
Ġà®ªà¯Ĩ à®¯
ĠáĢľ áĢ¼áĢĶáĢ¹áĢ
ĠáĢħ áĢĲáĢĦáĢ¹áĢ
áĤĬ áĢĶáĢ¹
Ĵ áĢıáĢ¹áĢ
ģáĢ¼ áĢĦáĢºáĢ¸áĢ
in om
ĠáŀĶáŀ¶áŀĵ áŀĶáŁĴáŀļáŀĢáŀ¶áŀŁ
ĠáŀĴáŁĴáŀľáŀ¾ áŀ¡áŀ¾áŀĦ
ĠáŀħáŁħ áŀĢáŁĴáŀļáŀĺ
A H
Ġk ual
Ġkual itas
Ġa aral
Ġáŀħ áŀĺáŁĴáŀĽ
Ľ à¸´à¸Ķà¸
à»ģàº¥àº°àº ģàº²àºĻàº
à»ģàº Ń
ĠáŀĢ áŁĨáŀĶ
Ġà®®à®ķà¯įà®ķ à®³
¸ à¹īà¸¡à¸
çķ Į
ĠáŀĢ áŀ»
à¸£à¸§à¸ ¡
Ġl Ã½
ĠP r
Ġt Uv
áŁĲáŀĤ áŁĴáŀļáŀħ
ĠáĢŀ áĢĢáĢ¹áĢĨ
ĠáĢĲáĤĲ áĢ¯áĢĲáĢ¹áĢ
ĠáĢħ áĢ½
áŁĦáŀŁ áŀīáŁĴáŀħ
áŁĥ áŀı
Ġà®¤à®² à¯Īà®µ
§ à¸´
áŀŁ áŀĸáŁĴáŀľ
à»Ģàºģàº ±àºļ
áŀĶáŁĴáŀŁ áŀļáŀ¶
áŀĶáŁĴáŀļáŀ ½áŀĽ
áŀĶ áŁĨáŀĸ
áŀĳ áŀ»áŀĵ
áŀĨáŁĴáŀĽáŀĦ áŀĢáŀ¶áŀıáŁĭ
b ay
àº±àºĩàº «àº¡
àº±àºģàºª àº°àºĻàº°
à®ªà¯įà®ªà®Ł à¯ģà®®à¯į
Ĥà¸ ±à¹īà¸Ļà¸
áŀ»áŀĳáŁĴáŀĴáŀ ĩáŀĵ
áŀ¸ áŀı
áŀ¶áŀł áŁĴáŀľáŁģ
ľà»Īàº²àºĻàº ¡àº²
áĢķáĢ« áĢ¸
à¹Ģà¸Ļà¸ ´à¸Ļà¸
áĢĶáĢº áĢ¸áĢŀ
å¼ º
áŀ¶áŀĽ áŀĬáŀ¶áŀĽ
Î ¼
an ks
ĠâĢĭ( âĢĭ
ĠáŀŁ áŀĢáŀĽ
ĠáŀļáŀĬáŁĴáŀĭ áŀĺáŀĵáŁĴáŀļáŁĴáŀıáŀ¸
ĠáŀĺáŁĴáŀĬ áŀ¶áŀĻ
ĠáŀĶáŀ¶áŀĵ áŀĲáŁĴáŀĽáŁĤáŀĦ
ĠáŀĵáŁħ áŀĳáŀ¸
áĢĢ áĢĻáĢ¹áĢ¸
áĢ¶áĢ¯ áĢ¸áĢĽ
áĢ³áĢŃ áĢ¸
ĠáĢ±áĢĽáĢ¼áĢ¸áĢ ±áĢĢáĢ¬áĢĢáĢ¹áĢķáĢ¼áĢ²
áĢĳ áĢ¬áĢ¸áĢľ
Ġà¸§à¸´à¸ĺ à¸µà¸
ĠáŀĢáŁĴáŀĽ áŀ·áŀĶ
Ġbe en
ĠT ech
áŁģ áŀļáŀľ
áŀł áŀıáŁĴáŀĲáŀĽáŁģáŀģ
ĠÃ Ĭ
Ġq uy
áŀŁ áŀĶáŁĴáŀĶáŀ¶áŀĻ
Ĭ àº·à»ī
áŀļáŀľ áŀıáŁĴáŀı
ķáĢ« áĢĢ
à¹ĥà¸Ļà¸ ģà¸²à¸£
áŀĺáŀłáŀ¶áŀĢáŁĴáŀŁ áŀıáŁĴáŀļ
áŀĺ áŀİáŁĴáŀĮáŀĽ
áŀĳáŁħ áŀıáŀ¶áŀĺ
Ġà»Ħ àº§
ĠáĤıáĢŃáĢ¯áĢĦáĢ¹áĢĦáĢ¶ áĢĲáĢĢáĢ¬
ĠáĢĻáĢŃ áĢĶáĢ¹áĢ¸áĢĻ
ĠáĢĴáĢ« áĢŁáĢ¬
ĠáĢĲáĢĽ áĢ¬áĢ¸áĢĻ
Ġà»Ģàº« àº±àºĻ
áŀĤ áŀ»áŀĢ
áŀģáŀ»áŀŁ áŀħáŁĴáŀĶáŀ¶áŀĶáŁĭ
Ġàºŀ àº±àºĻ
Ġàº® àº¹à»ī
Ġà®¤ à¯Ĥ
ĠáĢĲ áĢĲáĢŃáĢļ
ç ¯
Ġàº¡ àº°
à»įàº²àº Ń
áŀ¼áŀļáŀŁ áŀĸáŁĴáŀĳ
à»Ģàº¥ àºµàºį
ç ı
ĠáĢħ áĢ¬áĢĽ
áŀ·áŀĻ áŀŁ
áŀ¶áŀĵ áŁĥ
Ġ <
à¸²à¸ªà¸´ à¹Ĥà¸Ļà¸
áŀ¶áŀĢ áŁĴáŀļ
Ĺà¸ ĩ
ķ à¸µ
àº´ àºĹàº°àºį
ĠáĢ±áĢ ļáĢ¬
áĢŃáĢ¯áĢľ áĢ¹
áĢŀ áĢľáĢ¬áĢ¸
áŀ¢áŀ¶áŀŁ áŁĬáŀ¶áŀĵ
áŀ¡áŀ·áŀħ áŀıáŁĴáŀļáŀ¼
ĠáŀŁáŁģáŀľ áŀ¶áŀĢáŀĺáŁĴáŀĺ
áĢľ áĢ¯
áĢĻáĢ¼ áĢĦáĢ·áĢº
Ġl ugar
ĠáŀŁ áŀĦáŁĴáŀĢáŁģáŀı
Ġà®ķ à®¾à®£
ĠáŀĶáŁĴáŀļáŀŁ áŀ¾áŀļ
Ķà¸ ·à¸Ńà¸Ļ
ĠáŀĶ áŀĦáŁĴáŀł
Ġs et
ĠáŀĵáŀĤ áŀļ
ĠH u
ĠDa ily
ĠA P
áŁĦáŁĩ áŀ¢áŀ¶áŀŁáŀĵáŁĴáŀĵ
à¹ĥà¸«à¸į à¹Īà¸
áŀŁáŀļáŀŁ áŁĥ
Ã Ĥ
uá»ĳ c
¨ å¤©
áŀŁáŀĦáŁĴáŀĥ áŀ¹áŀĺ
áŀĹáŀ¶áŀĤ áŀļáŀĻ
ç« ĭ
áŀĹ áŀ¶áŀŁ
àº°à»ģ à»ľ
àºª àº²àºĻ
áĢĵ áĢ¬áĢĲáĢº
à¯Īà®ķà®³ à¯Ī
áŀĴáŀĵ áŀĴáŀ¶áŀĵ
áŀĳáŁĢáŀı áŀķáŀĦ
áŀħ áŁĴáŀĶ
áŀħ áŀ·áŀīáŁĴáŀħáŀ¹áŀĺ
áŀĢ áŁĴáŀļáŀĶ
áŀ·áŀĬáŁĴáŀĭ áŀĹáŀ¶áŀĸ
ª à»Īàº§àºĻàº
áŀ¶áŀİ áŀ¶áŀĬ
Ġc Ã¹ng
áĢ±áĢĲáĢ¬áĢ¹áĢ ĻáĢ°
ķáĢ¼áĢĬáĢº áĢĶáĢļáĢº
ĠáĢŀáĢŃ áĢķáĢ¹áĢ
ĠáŁł áŁł
ĠáŀŁ áŁĭ
Ġáŀĸ áŀ·áŀĶáŀ¶áŀĢ
ĠãĢĳãĢĲãĢĤ ãĢĳãĢĲ
Ġå ¿
ĠáŀĶáŁĴáŀļáŀıáŀ·áŀĶáŀıáŁĴáŀıáŀ· áŀĢáŀ¶áŀļ
ĠáŀĶáŀĬ áŀ·áŀŁáŁģ
é£ İ
ĸ àº²àºĻàº
Ġáŀĩ áŀ¶áŀĶáŁĴáŀļáŀ
Ġk et
ĠáŀĢáŀ·áŀħáŁĴáŀħ áŀĢáŀ¶áŀļ
ĠVO A
áŁĢ áŀļ
Ġà¸ªà¸²à¸ ¡à¸²à¸£à¸
áĢĻáĤĪ áĢ±áĢĲáĢ¼
áĢĻ áĢĬáĢ¹áĢ·
áĢ±áĢķáģļ áĢĻáĢ½áĢ¬
ĠáĢĻ áĤıáģ²
ĠáĢĶ áĢ±áĢĽáĢ¬
áŀĽ áŀĢáŁĴáŀģ
la g
Ġkat ut
Ġà®®à¯ģà® ´
áŀļáŀİ áŀ¶
« à¸²à¸£à¸
áŀĶáŀĵáŁĴáŀĳ áŀ»áŀĢ
áŀĶ áŁĨáŀķáŁĴáŀĽáŀ¶áŀī
ĠP EN
ĠA T
Ġp end
Ġgam bar
um ang
Ġà»ĢàºĽ àºµàºĶ
Ġàº« àº§
à»į àº²àº¡
Ġvá» ¥
àºĻàº§ àºĻ
áŀĵáŁĴáŀĳ áŀ¶áŀĳáŁĦáŀŁ
áŀħ áŀĺáŁĴáŀļáŁĢáŀĦ
áŀĤáŁĴáŀļáŀ¿áŀĦ áŀīáŁĢáŀĵ
áŀĤáŁĦáŀĽ áŀĶáŁĨáŀİáŀĦ
áŀģáŀ¶áŀĦ áŀĩáŀ¾áŀĦ
à¹Ģà¸ ĩà¸´à¸Ļà¸
à¸£à¸±à¸ ģ
ĠáĢĬ áĢ±áĢĶ
áĢŁ áĢ¬áĢĽ
³à¸Ļà¸ ±à¸ģà¸
Ġpalig id
àºĶà»ī àº²àºĻ
áĢľáĢ° áĢĳáĢ¯
áĢķ áĢħáĢ¹áĢħáĢĬáĢº
å¼Ģ æĪ·
ä¼ ł
b a
áŀĢáŀ¶áŀļáŀ Ĳ
Ġà®ª à®´
·à¹Ī à¸Ńà¸Ļà¸
áŀ» áŀĩ
ķ áĢĦáĢ¹
ĠáĢķ áĢ®
àºĤ àº¶à»īàºĻàº
ĠáĢģáĢĦáĢ¹áĢ ĹáĢº
ĠáĢ¡áĢľáĢ¯áĢķáĢ¹áĢ ŀáĢĻ
ĠáĢ¡ áĢķáĢ«áĢ¡
Ġna pa
áĢļáĢ¹áĢ Ļ
re dit
Ġáģħ áģĢ
E D
Ĭ áŀ¶áŀļ
ĠáŀłáŁĴáŀľ áŁģ
ĠáĢļ áĢ¶áĢ¯áģ¾áĢĢáĢĬáĢ¹áĢ
ĠáĢĻ áĢĤáģ¤áĢľáĢ¬
ĠáĢĴ áĢıáĢ¹áĢ
áĢĹ áģº
áĢĶ áĢ±áĢķáĢ¼
Ġáŀļáŀ¸ áŀĢáŀļáŀ¶áŀĻ
ĠáŀĶáŁĴáŀļáŀŁ áŀ·áŀĳáŁĴáŀĴáŀĹáŀ¶áŀĸ
ĠáŀĢáŁĴáŀļáŁĦáŀĻ áŀĺáŀĢ
ĠáŀĢáŁı áŀĶáŁīáŀ»áŀĵáŁĴáŀıáŁĤ
ä¸ ĸ
ĠPh nom
ĠAgricult ure
áŁĴáŀĽáŀ¶áŀŁáŁĭáŀĶáŁĴáŀı áŀ¼áŀļáŀ
àºģàº µàºļ
àºģ à»Īàº½àº§àºĤ
áĢĳáĢ¯áĢĲáĢº áĢľáĢ¯áĢķáĢº
à®¤à¯įà®¤ à¯ģ
Ġà¹ģà¸ «
áŀŁáŁĴáŀĵ áŀ¾
ĠáĢģáĢº áĢĦáĢ¹áĢ¸
áĢĽ áĢĽáĢ½áĢŃ
áĢĲáĢ²áĢ· áĢŀáĢ°
áĢĦáĢºáĢ¸ áĢĢáĢŃáĢ¯
áŀŁ áŁĴáŀıáŀ¸
ŀà¸ ¥
Ġdura si
Ġsa ja
Ġs us
àº²àº £
áĢģáĢ²áĢ· áģ¿áĢķáĢ®áĢ¸
áĢ¡ áĢĻáĢ»áĢŃáĢ¯áĢ¸áĢ
á»ĳ c
áŀĽáŁģáŀģ áŀ¶áŀĴáŀ·áŀĢáŀ¶áŀļ
áŀĽ áŀ·áŀģáŀ·áŀı
áŀļáŀĵ áŁĴáŀı
Ķ áĢŃáĢ¯áĢĦáĢ¹áĢ
ĠáĢĻáĢŃ áĢĶáĢ¹áĢ¸áĢĢ
ĠáĢ¡ áĢŃáĢ¯
ĠLang sung
Ġtan pa
Ġpend ek
Ġc uma
ONT ON
Ġsec ara
Ġpast i
Ġh oney
ĠPEN ONTON
nh i
áŀĶáŁĴáŀļáŀĴáŀ¶áŀĵ áŀ¶áŀĴáŀ·áŀĶáŀıáŀ¸
à¹ĥà¸ ļà¸
áŀĶáŀĵáŁĴáŀĳáŀ¶áŀĶáŁĭ áŀĸáŀ¸
àºª àº°à»Ģàºŀàº²àº°
ib a
áĢ±áĢ Ĺ
áŀģ áŁĴáŀĵáŀĦ
áĢ¡ áĢĸ
Ľ áĢĲáĢ¬
ĸ áĢŃáĢ¯áĤķ
Ġáģģ áģĢáģĢ
áŀĢáŀ·áŀħáŁĴáŀħ áŀĶáŁĴáŀļáŀĩáŀ»áŁĨ
áŀ½ áŀļáŀĢ
Ġà®µà®¾à® Ļà¯įà®ķ
à¹ĩ à¸Ļà¸
áŀ¸áŀł áŁĦ
áŀ·áŀıáŁĴáŀı áŀ·áŀĻáŀŁ
¢ áŀ¶áŀı
na tional
ĠáŀŁ áŀĶáŁĴáŀĬáŀ¶áŀłáŁį
ĠáŀŁ áŀ½áŀĵ
ĠáĢĶ áĢ±áĢ·
Ľ à¹ĭ
ĠáŀĸáŁĴáŀļáŀĺ áŀ¶áŀĵ
ĠáŀĶáŀ¶áŀĵ áŀĶáŀĦáŁĴáŀłáŀ¶áŀī
Ġà®µ à®¿à®µ
æĶ ¶
e y
ĠáŀĩáŁĨáŀĵ áŀ½áŀĶ
ĠáŀĤ áŀĻ
ĠáŀĢáŀĵáŁĴáŀĽáŀĦ áŀĳáŁħ
Ġáŀ¢ áŀ¶áŀĻ
ĠáĢĲ áĢ»áĢģ
ĠáĢĩáĢ° áĢľ
¸ à¹Īà¸Ļà¸
Ġpe ople
Ġl ike
ĠR F
ĠB o
ĠAnd roid
áŀłáŁĴáŀľ áŁģáŀŁáŀĶáŁĬáŀ»áŀĢ
áŀľáŀ· áŀĹáŀ¶áŀĤ
áŀĹ áŀİáŁĴáŀĮ
Ĭ àº²àºį
áŀĸ áŀĦáŁĴáŀļáŀ¸áŀĢ
ĠáĢĢ áĢ±áĢĲáĢ¬áĢ·
áĢķáĢ« áģ¿áĢķáĢ®
áĢģáĢºáĢŃ áĢĶáĢ¹áĢĻáĢ½áĢ¬
áĢĢáĢ¼ áĢ²
±áĢĲáĢ¬ áĤĶ
± áģĢ
ĠáĢľáĢ° áĢ±áĢĲáĢ¼
ĠáĢĽáĢģ áĢŃáĢ¯áĢĦáĢº
áĢķ áĢ»áĢĢáĢº
à®¿à®² à®¿à®°à¯ģà®¨à¯įà®¤à¯ģ
Ġkan ila
Ġà¸ §à¸±à¸Ļà¸Ĺà¸µà¹Ī
áŀĶáŁĴáŀĶ áŀ»áŀļáŀŁ
áŀĶáŀĳ áŀĽáŁĴáŀĺáŀ¾áŀŁ
ģàº° àºķàº´
6 0
Ġà¸ §à¸´à¸
áŀĶ áŀ·áŀı
áŀĶ áŀ¶áŀĽáŁĭáŀĳáŀ¶áŀıáŁĭ
áŀĢáŀ¶áŀļáŀ¢ áŀĵáŀ»áŀľáŀıáŁĴáŀı
Ġbat ang
¹ áŀĢ
Ħ áŀ¶áŀıáŁĭ
ĠáŀŁ áŁĴáŀıáŁģáŀħ
áĢ¼ áĢĲáĢ¹
±áĢĨ áĢ¸
ħ áĢ¬áĢ¸áĢ
Ġáģ¿áĢķáĢ®áĢ¸áĢ ±áĢĲáĢ¬áĢ·
ĠáĢŀ áĢĬáĢ¹áĢ
ĠáĢĽ áĢķáĢ¹áĢ
ĠáĢĻ áĢ±áĢĢáĢ¬áĢĦáĢ¹áĢ¸
ĠáĢķáĢĽáĢŃáĢŀ áĢĲáĢ¹áĢ
ĠáĢķáĢ¼áĢĬáĢº áĢĳáĢ±áĢ¬áĢĦáĢºáĢħáĢ¯
ĠáĢģ áĢı
áģ¿áĢĻ áĢ²
áģ¿ áĢģáĢ¶áĢ³
áĢĽáĢ½áĢŃ áĢĲáĢļáĢ¹
Ŀ áĢĦáĢ¹áĢ¸
ĠáĢķ áĢŃáĢĲáĢ¹áĢ
ĠáĢ±áĢ»áĢķáĢ¬áĢĦáĢ¹áĢ¸ áĢľáĢ²
áģ £
áĢŀ áĢ¶áĢ¯áĢ¸áĢ
áĢ¬áĢ¸áĢ¡ áĢ¬áĢ¸
Ġà¸ §à¸±à¸
ur ang
ĠáŀĽ áŁĨáŀĶáŀ¶áŀĢ
å¸ ¸
Ġáŀļáŀ İ
¸à¸ ĩ
Ġáŀļáŀ º
ĠáŀĺáŁĴáŀŁ áŀ·áŀĽáŀĺáŀ·áŀī
Ġáŀĸ áŀıáŁĮáŀĺáŀ¶áŀĵ
ĠáŀĶ áŀĦáŁĴáŀ¢
Ģ áĢ±áĢĲáĢ¬áĢ·
ĠáĤı áĤĪ
ĠáģĤáģĢáģģáģ ħ
ĠáĢĲ áĢķ
ĠáĢħáĢ®áĢĻ áĢ¶
áĢħ áĢ¬áĢĽ
à¸£à¸°à¸ Ķà¸±à¸ļà¸
ĠáŀĵáŁģáŁĩ áŀĶ
Ġáŀĵáŀ·áŀĦ áŀĽáŁĦáŀĢ
Ġáŀĳ áŀ¶áŀĶ
Ġàºľ àº»àºĻ
Ġàº¡ àº·
s k
ula r
Ġ _
à»ī àºĩàº
áĢ¾ áĢĢáĢº
ĠáŀĲ áŀ¶áŀĺáŀĸáŀĽ
Ĥ à¹īà¸Ńà¹Ģà¸
ĠáŀĬáŀ¸ áŀĴáŁĴáŀĽáŀ¸
ĠáŀĤáŀİ áŀĵáŀ¸
Ġáŀģ áŀ·áŀıáŀģáŁĨ
Ġáŀ¢áŁĬáŀ¸ áŀħáŀ¹áŀĦ
Ġn ig
ĠV i
à¹Ħà¸Ķà¹īà¹Ģà¸ ĩà¸´à¸Ļà¸Īà¸£à¸´à¸ĩ
Ġà¸ ķà¸±à¸§
áŁĴáŀĵ áŁĦáŀı
áŁĤ áŀļáŀĢáŁĴáŀŁ
áŀŁáŀĺ áŁĴáŀıáŁĤáŀĦ
áŀĽáŁĴáŀĶ áŀ¿áŀĵ
áĢ» áĢĦ
ĠNov ember
áĢĽáĢ¾áĢŃ áĢŀáĢĬáĢº
à»ģàº į
¡à¸²à¸ģà¸ ¡à¸²à¸
ĠÃ Ķ
áŀļáŀĶ áŀ¶áŀĵ
áŀĺáŀ½áŀĻ áŀĬáŁĤáŀĽ
à»ĢàºĽ àºµàºĶ
c o
ra b
áŀĸ áŀļ
áŀĶáŁĴáŀļáŀĸ áŁĴáŀļáŀ¹áŀıáŁĴáŀı
áŀĵ áŀ¶áŀĸáŁģáŀĽ
à¸Ļà¸ Ķà¹Į
Ã ĩ
Ġc áº¥p
áĢ¶áĢ¯ áĢ¸áĢĻ
¡ áĢĳ
áŀĳ áŀ¶áŀĶ
ĠáĢļáĢ° áĢĨ
Ġà®ķà¯Ĥ à®Łà¯įà®Ł
ĠáĢĢáĢĻáģ» áĢ¬áĢ·
ĠáĢĢáĢº áĢķáĢ¹
ĠáĢ±áĢĶ áĢ»áĢķáĢĬáĢ¹áĢ
ĠáĢ±áĢ»áĢķáĢ¬ áģ¾áĢĢáĢ¬áĢ¸áĢ
ĠáĢ¡áĢĢ áĢ°
áŀıáŁĤáŀĦ áŀıáŁĤ
áŀı áŁĴáŀļáŀ½áŀıáŀĸáŀ·áŀĵáŀ·áŀıáŁĴáŀĻ
àº´ àºª
àº±àºĶàºĪ àº¸àºļàº±àºĻ
áŀİáŁĴáŀı áŀ¶áŀĶáŁĭ
áŀĤáŁĴáŀļáŀ¼ áŀĸáŁģáŀĳáŁĴáŀĻ
áŀ¶áŀĵáŀ» áŀĸáŀĽ
áĢŃáĢĶáĢ¹áĢ Ĵ
Ġnang ang
Ï Ģ
um p
ħ áŀ¸
Ġáŀł áŁĦáŁĩ
àº¡ àºŀ
Ġà¸Īà¸ ³à¸
à¹īà¸Ļà¹Ģà¸ ¥à¸·à¸Ńà¸Ķà¸
à¸£à¸°à¸ ¢à¸
t ur
ŀ àº»àºļ
áĢŀáĢ±áĢ¬áĢº áĢľáĢĬáĢºáĢ¸
à¯Īà®¯ à®¿à®©à¯į
ĠáŀŁáŀĺáŁĴáŀĬ áŁĤáŀĦ
ĠáŀŁáŀ¶áŀļáŀ Ĵáŀ¶áŀıáŀ»
ĠáŀŁ áŀ»áŀĢáŁĴáŀļ
ĠáŀĽáŀ¾áŀĢ áŀ¡áŀ¾áŀĦ
Ġáŀļáŀ ĵ
ĠáŀĹ áŁĲáŀĻ
Ġé ĺ
Ġáŀĵ áŁģáŀŁáŀ¶áŀĳ
Ġáŀĳáŀ»áŀĢ áŁĴáŀģ
ĠáŀĤáŁĴáŀļáŀ¼ áŀĸáŁģáŀĳáŁĴáŀĻ
is ip
ĠáŀĤáŁģ áŀłáŀĳáŁĨáŀĸáŁĲáŀļ
Ġ' ,
łà¸±à¸ ¢
Ł à¹īà¸²
Ġáŀ§áŀĶ áŀ¶áŀŁ
Ġáŀ¢áŀ¶áŀľáŀ» áŀĴ
Ġáŀ¢ áŀ¶áŀĢáŁĴáŀļáŀĢáŁĭ
Ġv iÃªn
ĠPe nh
Ġ. âĢĭ
ľàº°àº¥ àº´àºĶ
Ġà¸ŀà¸Ļà¸ ±à¸Ļà¸
Ġà¹ģà¸Īà¸ ģà¹Ģà¸Ħà¸£à¸Ķà¸´à¸ķà¸Łà¸£à¸µ
à¸Ļà¸²à¸ ¢à¸
áŁĴáŀĽáŀ¶áŀŁáŁĭáŀĶáŁĴáŀı áŀ¼áŀļ
Ĺàºµà»Ī àºĶàºµ
Ġà®ļà¯Ĩà®¯ à®²
Ġsa nhi
áŁĲáŀĤáŁĴáŀļáŀħ áŀ·áŀıáŁĴáŀı
æľ ¯
áŁĤáŀļáŀĢ áŁĴáŀŁáŀ¶
Ġpamam aga
Ġof f
áŀŁáŁĨáŀİ áŀ¶áŀĽ
áŀĺ áŀıáŀ·
l in
áŀĴáŁĴáŀĵ áŀ¶áŀĶáŁĭ
à¹ģà¸£à¸ ĩ
áŀĲ áŁĴáŀĽ
áŀıáŁĤ áŀĶáŁīáŀ»áŀİáŁĴáŀİáŁĦáŁĩ
Ġè ĩ
ĠF or
Ġy ear
A K
ĠV ideo
ip e
ino y
Ġnak at
áŀĩáŀ¶áŀĶáŁĴáŀļáŀ Ĵáŀ¶áŀĵ
áŀĢáŀ¶áŀŁ áŁĤáŀı
áŀĢ áŁĨáŀİ
ģ àº²àºĶ
áŀ·áŀĦáŁĴáŀł áŀĶáŀ»áŀļáŀ¸
áŀ¶áŀĩáŀ¸áŀľ áŁĪ
áŀ¯áŀĢ áŀ§áŀıáŁĴáŀıáŀĺ
áŀ¢áŁĬáŀ¸ áŀĵ
à¸´à¸ ¥à¸
è¿ ĳ
áĢĽ áĢļáĢ¹
áĢĽ áĢĬáĢ¹áĢ
áĢĲáĢŃáĢ¯áĢ· áĢĢáĢŃáĢ¯
Ġà®Ĩ à®¤
l l
O S
Ġáŀł áŁĬáŀ¸
ĠáŀļáŀĶáŀ½áŀŁ áŀĴáŁĴáŀĦáŀĵáŁĭ
ĠáŀķáŁĴáŀ¢ áŁĤáŀĢ
áĢĨ áĢĦáĢ·áĢº
Ġáŀĵáŀ¹áŀĦ áŀıáŁĴáŀļáŀ¼áŀľ
Ġáŀĳ áŀĽáŁĭ
ļà¸Ļà¸±à¸ ª
à¹Ħà¸ ¥à¸
Ķà¸²à¸§ à¸Ļà¹Į
Ġàºľ àº»àºĻàº
à¯ģà®µ à®°
¥ à¹Īà¸²à¸ªà¸¸à¸Ķ
ĠnhÆ° ng
Ġmah usay
Ġà¹Ģà¸ §à¸¥à¸²
Ġáŀģ áŁĴáŀī
Ġáŀģ áŀ»áŀĵ
ĠáŀĢáŁĨáŀĸáŀ»áŀĦ áŀıáŁĤ
« à¹īà¸Ńà¸ĩ
Ġáŀ¯áŀĢ áŀĩáŀĵ
àºį àº²àºĶ
áĢģáĢ²áĢ· áĢķáĢ¼áĢ®áĢ¸
Ġà¹Ģà¸§à¹ĩà¸ļà¸ ŀà¸Ļà¸±à¸Ļà¸ļà¸Ńà¸¥
´ à¸Ļà¹Ģà¸
Ġd ating
Ġáŀ¥ áŀĳáŁĴáŀĴáŀ·áŀĸáŀĽ
Ġre al
Ġ3 2
áŁĴáŀļáŀ ¢
áŁĴáŀ ķ
áŁĨáŀĬ áŁĦáŁĩ
áŀŁáŀĺ áŀ»áŀĳ
åıĳ å±ķ
ap on
Ġt ers
ç§ į
áŀĸáŁĴáŀļáŁĩáŀļáŀ¶áŀĩáŀ¶áŀİáŀ¶áŀħáŀĢáŁĴáŀļáŀĢ áŀĺáŁĴáŀĸáŀ»áŀĩáŀ¶
áŀĶáŀĵáŁĴáŀı áŀĲáŀ¶
áŀĶáŀ¢ áŀļáŀŁ
à®ķ à¯ģ
áŀĶ áŁģáŁĩáŀĬáŀ¼áŀĦ
Ġla laki
áŀĶ áŁģáŀı
áŀĶ áŀĦáŁĴáŀłáŁĦáŁĩ
áŀı áŁĤáŀĽ
àº±àºĻàº ķ
áŀİ áŀĳáŀ¶áŀĵ
áŀĩáŀ¶áŀĻ áŁīáŀ¶áŀĦ
áĢĢáĢ¹áĢĢ áĢŀáĢŃáĢ¯áĢľáĢº
ĠK aya
ĠO n
ĠAN G
t ed
A B
Ġgaga win
om as
áŀĢáŀ¶áŀļáŀ İ
áĢĢ áĢ²
áŀ¶áŀĲ áŀ¶
ga ng
à¹ģà¸Ļà¸ §à¸
ĠáĢŀáĢ¬ áĢŀáĢĶáĢ¬
ĠáĢĽáĢ¬ áĢŀáĢ®
ion s
ĵ áŀ¶áŁĨ
ĠáŀŁáŀł áŀĸáŁĲáŀĵáŁĴáŀĴ
à¹Ģà¸ ĩà¸´à¸Ļ
ĠáŀŁáŀ¼ áŀĺáŁĴáŀĶáŀ¸
àºª àº»àº¡
ĠáĢĢáĢĻáģ» áĢ¬
áģ£ áĢº
áĢĲ áĢĶáĢ¹áĢ
áĢĬáĢº áĢ·
áĢĨ áĢŃáĢ¯áĢĦáĢ¹áĢ
±áĢķ áĢĻáĢļáĢ¹áĢ·
ĠáĢĻ áģ¾áĢĢáĢ¬
ĠáĢĳ áĢ¯áĢŃáĢĦáĢ¹áĢ¸
ĠáĢħ áĢĬáĢº
§ à¹Į
ĠáŀŁáŀ¶áŀĢ áŀĽáŀľáŀ·áŀĳáŁĴáŀĻáŀ¶áŀĽáŁĲáŀĻ
Ġà®¨ à®¿à®°
ĠáŀŁ áŁĴáŀļáŀ½áŀĽ
áĢŃáĢ¯áĢ¸áĢ Ķ
ĠáŀĬáŁĨáŀİ áŀ¶áŁĨ
Ġáŀĩ áŁĴáŀļáŀ»áŀĽ
ĠáŀĨ áŀĢáŁĭ
ĠáŀģáŀİáŁĪ áŀĬáŁĤáŀĽ
Ġqu a
àº¥ àº°
ģà¹Ī à¸Ńà¸Ļà¸
Ġáŀ¢áŀĦáŁĴáŀĤ áŀ»áŀĻ
ĠG o
Ġ et
áŁĩ áŀĢáŀ¶áŀıáŁĭ
áĢĴ áĢ±áĢŀ
áŁĨáŀİ áŀ»áŀĽ
áŁģáŁĩ áŀŁáŁĨáŀİáŀ¶áŀĽ
áŀĺáŁĴáŀł áŀ¼áŀĶ
áŀĸ áŀ¼áŀĩ
Ġàºªàº³ àº¥àº±àºļ
à¯ĭ à®°
áŀĩáŁĴáŀĩ áŀĶáŀİáŁĴáŀĮáŀ·áŀı
áĢģáĢº áĢ³áĢŃáĤķ
áĢĢáģłáĢŀ áĢŃáĢ¯áĢľáĢ¹áĢ
áĢ¸áĢķáĢ« áĢĲáĢ®
áĢ±áĢľ áĢ·
áĢ®áĢĴáĢ® áĢļáĢŃáĢ¯
áŀħáŁĴáŀĨ áŁģáŀĳ
áŀĦáŁĴáŀľ áŀ¹áŀĢ
áŀĢáŀ¶áŀļáŀ ·áŀĵáŀ¸
áŀ¶áŀĵ áŀ·áŀĹáŁĲáŀĻ
ut ing
¿ áŀĵ
Ł áŁĭ
áĢ¢ áĢ¦
Ľ áĤĬ
ĠáĢŀ áĢ¬áĢĻ
ĠáŁ¦ áŁł
ĠáŁ¡áŁ© áŁ§
ĠáŀŁ áŀ¶áŀŁáŁĴáŀıáŁĴáŀļ
un tis
a ch
Ġl ing
Ġàº¥ àº§àº¡
Ġáŀļáŀ¾ áŀŁ
ĠáĢľáĢ° áĢĦáĢļáĢ¹áĢ
ĠáĢĻ áĢľáĢŃáĢ¯
Ġáŀĺ áŀĴáŁĴáŀĻáŀĺ
ĠáŀĶáŁĴáŀļáŀł áŀ¶áŀļ
à¹ģà¸ªà¸Ķà¸ ĩà¸
Ġa w
àºľàº´àºĶàº ĬàºŃàºļ
ĠáŀĶáŀ¶áŀĵ áŀħáŁģáŀī
ĠáĢħáĢħáĢ¹áĢ Ĳ
ĠáĢ»áĢķ áĢ®áĢ¸áĢ
ĠáĢ¡áĢ±áĢĽáĢ¸áĢ ļáĢ°
áĢķáĢ¼áĢ¯ áĢľáĢ¯áĢķáĢº
ĠáŀĲ áŁĴáŀľáŀ¶áŀĻ
ĠáŀĬ áŁģ
Ġáŀ¢ áŁģáŀŁ
àºª à»Īàº§àºĻàº
ç² ¾
Ġáŀ¡ áŀ¶áŀľ
áŁĨ áŀģáŀ¶áŀĵáŁĭ
k uha
à¹ģà¸ ¥à¸
à®¾à®³ à®°à¯į
áŀŁáŁĴáŀĽáŀ¶áŀĢ áŀĽáŁģáŀģ
áŀļáŀĵ áŁģáŁĩ
áŀļáŀħ áŀ¶
áŀĻ áŀ¶áŀĢáŀ¶áŀŁ
à¹Ģà¸ ¢
ŀàº§àºģ à»Ģàº®àº»àº²
Ġ365 ä½ĵèĤ²
æİ Ĵ
if e
ĠH ow
l ish
Ġt ag
áŀı áŀ½áŀħ
Ġà»ĥàº«àºį à»Ī
Ġà»ĥ àºª
Ġà»Ĥ àºĹ
áĢĢáĢ²áĢ· áĢŀáĢŃáĢ¯áĢ·
Ġà®ķ à®¤
æ Ł
áŀĩáŀ¶áŀıáŀ·áŀħ áŀ·áŀĵ
áŀħáŀ¼áŀĽ áŀĨáŁĴáŀĵáŀ¶áŁĨ
Ġàºª àº»à»Īàºĩ
áŀ¶áŀĶáŁĭ áŀ¢áŀ¶áŀļáŀĺáŁĴáŀĺáŀİáŁį
Ġst ud
à»ĢàºĹ àº£àºĶ
à»ĢàºĤ àº»àº²àº
áŀ¯áŀĢ áŀĩáŀĵ
à¯Ĭà®° à¯ģ
in ist
ĠáŀŁáŁĨ áŀĬáŁħ
ĠáŀŁ áŀ¶áŀĦ
á» «
Ġáŀļáŀ Ļ
ªà¹Īà¸§ à¸Ļ
Ġáŀĺáŀł áŀ¶áŀŁ
áĢĢ áĢ½áĢĢáĢº
Ġáŀĸ áŁĴáŀļáŀĽ
ĠáŀĶáŁĴáŀļáŀľ áŀıáŁĴáŀıáŀ·áŀŁ
áĢ¸áĢĲ áĢŃáĢ¯áĢ·
ĠáŀĴáŁĨ áŁĹ
ĠáŀĬáŁĤáŀĽ áŀ¢áŀ¶áŀħ
àºļ àº²àºĶ
Ġkatut ubong
Ġla in
à¯ģà®¤ à®¾à®©à¯į
Ġf ol
ĠP am
áº¥ u
æ¸ ¯
àº²àº¡ àº±àºĻ
ĠáŀĤáŀ½áŀļáŀ ıáŁĤ
a pan
Ġáŀģ áŁĴáŀħ
Ġà®İ à®¨à¯įà®¤
åħ ļ
Ġáŀģ áŁģáŀĦ
ĠN ew
Ġ ÏĢ
áŁĥ áŀĽ
áŀŁáŁĴáŀĲ áŀ¶áŀĶáŁĲáŀĵ
áŀŁáŀĺáŁĴáŀ ĸ
5 6
Ġæ °
áŀŁ áŀ¼
ķà¹īà¸Ńà¸ĩà¸ ģà¸²à¸£à¸
åı¯ ä»¥
d ong
áŀĽ áŀ¶áŀĹ
áŀĺáŀ¶áŀĵ áŁĭ
áŀĩáŁĨáŀĵ áŀ¶áŀĵáŁĭ
¡ àº²àº
áŀħáŀ¶áŀĶáŁĭ áŀĸáŀ¸
ķ à¸Ńà¸Ļ
áŀĢáŀ¶áŀļáŀļáŀ ĶáŀŁáŁĭ
áŀ¼ áŀĳáŁħ
a re
à¯ģà®µ à®¤à¯ģ
ģàº ³
h in
Ġbah agi
áŀ»áŀĶ áŁĴáŀķ
áŀ¶áŁĨ áŀĸ
¢à¸ ĩ
Ġsbo bet
à¹ģà¸ Īà¸
Īà¸ ±à¸ĩà¸«à¸§à¸±à¸
Ľà¸¥ à¸Ńà¸Ķà¸
áŀ¶áŀİáŀ¶áŀħ áŀĢáŁĴáŀļ
áŀ¶áŀĢáŁĭ áŀŁ
Ġà®ķà®° à¯ģà®¤à¯įà®¤
áŀ¶áŀĢ áŀĶáŀ¶áŀĳ
áŀ¥ áŀİáŁĴáŀĮáŀ¶
ĠáŀŁáŁĴáŀļ áŀ¶áŀĻ
ļ à¸£à¸´
ĠáŀĶáŀĦáŁĴáŀĤ áŁĦáŀĽ
ĠÄĳ ang
ĠáŀĶ áŁĨáŀķáŁĴáŀĽáŀ¶áŀī
Ġàºļàº±àºĻàºĶ àº²
Ġáŀĩ áŀ¶áŀĢ
Ġàº¥ à»īàº²àºĻ
Ġàº¡ àº²àºĶ
à»ĤàºŃ àºģàº²àºĶ
à»ĢàºĶ àº·àºŃàºĻàº
à®¿à®°à¯ģà®ķà¯įà®ķ à®¿à®±
Ġáŀħáŀ¼áŀĽ áŀħáŀ·áŀıáŁĴáŀı
Ġáŀħ áŀ¼áŀļ
Ġáŀģáŀ¶áŀĦ áŀĢáŁĴáŀļáŁĦáŀĺ
Ġáŀģ áŁĴáŀĵ
ĠáŀĢáŀĦ áŀĢáŀĺáŁĴáŀĽáŀ¶áŁĨáŀĦ
Ġáŀ¥ áŀİáŁĴáŀĮ
Ġáŀ¢áŁĬáŀ¸áŀļáŁī áŀ¶áŀĢáŁĭ
à®¿à®ķà¯įà®ķ à¯Ī
à¸£ à¸Ńà¸ĩ
Ġma pa
ĠÂ ¢
Ġse e
Ġinf orm
ĠW at
ĠRe al
áŁĴáŀļáŀ İ
áĢ¬áĢ¸áĢħ áĢĽáĢ¬
áŁģ áŀĻáŁį
ģáĢ²áĢ· áĢ±áģ¾áĢĢáĢ¬áĢĦáĢ¹áĢ¸
ģ áĢŃáĢ¯áĢĢáĢ¹áĢ
ĠáĢĶ áĢŃ
ĠáĢĨáĤıáģµ áĢ»áĢķ
áĢķ áĢŃáĢ¯áĢĦáĢ¹áĢ
áĢĭ áĢŃáĢķ
áĢĢáĢ²áĢ· áĢŀáĢŃáĢ¯áĤĶ
áĢĢ áĢ¯áĢĶáĢ¹
áĢ¯áĢ¶ áĢ¸áĢĢáĢŃáĢ¯
áŀŁáŁĴáŀĬ áŁĤáŀĦ
áŀļáŀĬáŁĴáŀĭ áŀĳáŀ¼áŀı
áŀĵáŁħ áŀ¡áŀ¾áŀĻ
áŀĢáŁĴáŀļáŀ· áŀĬáŁĴáŀĭ
áŀĢ áŁĨ
1 00
«à¸ §
à»Ģàº« àºĶ
Ġp wed
ap i
Ġè ´
ĴáĢ±áĢŀ áĢĢáĢ¼áĢ®áĢ¸áĢ
ģáĢ²áĢ· áĢŀáĢĬáĢ¹áĢ·
ĠáĢ±áĢĨ áĢ¬áĢĢáĢ¹áĢ
áĢŀ áĢĲáĢº
y eta
Ġb ar
áŀĢ áŀ»áŀĺáŀ¶áŀļ
à®¾à® ¸
áŀ· áŀİáŁĴáŀĮ
Ġ6 0
Ĺ à¸£à¸±à¸
Ģ â
ĠåĽ ½
áŀ¡ áŀ¶áŀī
ĩ áŀ¶áŀıáŀ·
Ġå· ²åħ³éĹŃè¯Ħè®º
ĠáŁ¢áŁłáŁ¡áŁ ¢
ĠáŀŁáŁĴáŀı áŀ¶áŀĶáŁĭ
ĠáŀŁ áŀĵáŁĴáŀĻáŀ¶
Ġáŀľ áŁĤáŀĦ
áĢĺáĢ¯áĢĽ áĢ¬áĢ¸
ä½ ķ
áĢĴáĢ« áĢĶáĢ¹áĢ¸
áĢĲ áĢĲáĢ¹
áĢħáĢ¬áĢ¸áĢľ áĢ¾áĢļáĢº
ĠáŀĽáŁĴáŀĶ áŁĤáŀĦ
ĠáŀĽáŁĴáŀĶ áŀ¿áŀĵ
ķà¸ ģ
áĢĤ áĢ¶
Ġph áº©m
áĢ¾ áĢº
ĻáĢ½ áĢ´áĢ¸
ĠáĢĲ áĢŃ
à»Ģàº« àº¥
Ġáŀļáŀ» áŀĢáŁĴáŀģ
Ġac c
àºĻàºŃ àºĻàº
Ġáŀĺ áŁĴáŀĽ
i w
Ġáŀķ áŁĴáŀĽ
ĠáŀĶ áŀĵáŁĴáŀĲáŀĻ
Ġx e
ĠáŀĪ áŁĴáŀĽ
àºģàº²àºĻàº ķ
Ġä» ¥
Ġáŀĩ áŀ¶áŀĳáŀ¸
Ġáŀĩ áŀ¶áŀ¢áŁĴáŀĵáŀĢ
áĢľ áĢļáĢº
Ġà®İà®©à¯įà®ª à®¤
Ġáŀģ áŀ¹áŀĦ
ĠáŀĢáŁĴáŀļáŁĦáŀĻ áŀĸáŁģáŀĽ
Ġáŀ¥ áŀİáŁĴáŀĮáŀ¶
à¸Ńà¸¢à¹Īà¸²à¸ ĩà¹Ģà¸
àº´ àº§
áŁĴáŀļáŀĸ áŀ¶áŁĨáŀĦ
áŁģáŀŁáŀĢ áŀĢáŀĺáŁĴáŀĺ
áŀļáŀĶáŀŁáŁĭ áŀĵáŀ¶áŀĦ
áŀĵ áŀ¶áŀĶ
àº±àºĩàº ¡àºµ
áŀĴáŀĺáŁĴáŀĺ áŀĵáŀ»áŀīáŁĴáŀī
Ġbre ast
ĠB at
áŀĳáŀ¸ áŀĵ
áŀ¹áŀĢ áŀĩáŀīáŁĴáŀĩáŀ¼áŀĵ
áŀ·áŀĹ áŀ¶áŀĤ
Ã Ł
ĠáŀŁáŀĺáŁĴáŀĹ áŀ¶áŀļáŁĪ
Ġáŀļ áŁĨáŀĸáŀ¹áŀĦ
uw ag
ĠáŀĶáŁĴáŀļáŀĳáŁģáŀŁ áŀ¢
áĢĻáĢº áĢ¸áĢķ
àº« àº²àºĻàº
Ġà¸ ĺ
Ġáŀĵáŀ¹áŀĦ áŀĺáŀ¶áŀĵ
Ġà®¤à¯Ĩà®° à®¿à®¯
Ġé Ļ
____ ____
Ġse x
ĠC ar
áĢĢáĢ¹áĢħ áĢ®áĢ¸áĢ
áĢĢáĢ¹áĢ¡ áĢģáĢ²
áĢ²áĢ¼ áĤĶ
áĢ¡ áĢ±áĢĿ
ĠáĢ¡áĢĳ áĢ°áĢ¸áĢ
Ķà¸ ±à¸ĩà¸
Ġáŀĳáŀ¹áŀĢ áŀĶáŁĴáŀļáŀ¶áŀĢáŁĭ
Ġáŀĩ áŁĴáŀļáŀ¾áŀŁ
àº¥ àº»àºĩàº
ga s
ĠáŀĢáŁĴáŀĵáŀ»áŀĦ áŀ±áŀĢáŀ¶áŀŁ
Ġáŀ§ áŀŁáŁĴáŀŁáŀ¶áŀłáŀĢáŀĺáŁĴáŀĺ
ĠáĢ¡áĢ±áĢĽ áĢ½áĤķ
áģĢ áĢĲáĢ®
áĢ¸áĢĲ áĢŃáĢ¯áĤĶ
áĢ¬áĢ¸áĢ ģ
Ġà®µ à®¿à®´
Ġáŀ¢áŁĴáŀĵáŀĢ áŀĵáŀ¶áŀĦ
n ess
Ġç §
ľ áĢŃáĢ¯áĤķ
ĽáĢ½áĢŃ áĢ±áĢĶ
ĠáĢĿ áĢŃ
ĠáĢĸ áĢº
ĠáĢķáĢ« áģĢáĢĦáĢ¹áĢ
ĠáĢ§áĢĽáĢ¬ áĢĿáĢĲáĢ®
áĢĻáĢ» áĢ¬áĢ¸áĢĲáĢ½áĢĦáĢº
ga t
Ġáŀ¢áŀĵáŁĴáŀı áŀļáŀ¶áŀĤáŀĺáŀĵáŁį
Ġáŀ¢ áŀŁáŁĴáŀħáŀ¶áŀļáŁĴáŀĻ
áŁĦáŀĻ áŀĶáŁī
áŁĥáŀı áŀĦ
à®¿à® £
Ġs en
áŁģáŀĬáŁĴáŀĭ áŀ¶áŀļáŀħ
à¹ĩà¸ ĩ
áŀŁáŁĨáŀİ áŀĦáŁĭ
áŀŁáŀĦáŁĴáŀĤ áŁĴáŀļáŀ¶áŀĺ
àº¥ àºµ
Ġà®¤ à®ķ
Ġtr Ã¬nh
áŀŁ áŁĴáŀļáŀĦáŁĭ
åĻ ¨
ķà»Īàº²àºĩ àºĽàº°à»ĢàºĹàºĶ
áŀŁ áŀ¼áŀıáŁĴáŀļ
áŀļáŁī áŀ¶áŀľ
Ġk un
áŀļáŀ½áŀĺ áŀĺáŀ¶áŀĵ
Ľà¸£à¸°à¹Ĥà¸¢à¸ Ĭ
ĠT aga
ķ àº²
Ġpro bl
Ġå İ
áŀĺáŁĴáŀĸ áŀ¸
áŀĸáŁĴáŀļ áŁĤáŀĢ
áŀĸáŁĲ áŀļáŀİáŁį
áŀĶáŀ¢áŀļáŀŁ áŀ¶áŀĳ
áŀĶ áŀ¶áŀı
Ġà®ªà¯ĭ à®©à¯įà®±
ŀà¸ ļà¸
ĠW h
ĠC ity
ĠçĶ µ
al o
áŀĳáŁĴáŀĴáŀŁ áŀĹáŀ¶
Ġä¸ º
áŀĳ áŀĺáŁĴáŀĦáŀĵáŁĭ
áŀıáŀ¶áŀĺ áŀ¸áŀĵ
áŀģ áŁĴáŀī
áŀĢ áŀļáŀ»
áŀ¶áŀļ áŁĢáŀĦ
Ķ àºµ
áŀ¶áŀĩáŀ¸ áŀĸ
od e
Ġdala wang
v ir
ut h
ģ ¡
Ġâ ģ¡
ĠáŀłáŁĴáŀľ áŁģáŀŁáŀĶáŁĬáŀ»áŀĢ
Ġáŀł áŀ·áŀĦáŁĴáŀŁáŀ¶
ĠáŀľáŀıáŁĴáŀı áŀĺáŀ¶áŀĵ
ĠáŀļáŀĦ áŁĭáŀħáŀ¶áŁĨ
áĢķáĢ¼ áĢ®áĢ¸áĢĲáĢ±áĢ¬áĢ·
áĢĲ áĢĢ
Ġáŀĵáŀ¸ áŀıáŀ·áŀľáŀ·áŀĴáŀ¸
Ġsa tu
ĠáŀĩáŁĨáŀĵ áŀ½áŀŁ
Ľà¸¥à¸µà¹Īà¸ ¢à¸Ļ
ĠáŀĨ áŁĴáŀĸáŁĦáŁĩ
Ġà®Ĵ à®©à¯įà®±
Ã ĥ
Ġl Ãªn
ĠáŀħáŁĨáŀİ áŀ¶áŀıáŁĭ
æ± Ĥ
áĢģ áĢŃáĢ¯áĢĢáĢ¹áĢ
ĠáĢĨ áĢ¼áĢ²
ĠáĢĢáĢ¯áĢľ áĢŀáĢĻ
ĠáŀĤáŀİáŁĪáŀĢáŀĺáŁĴáŀĺ áŀ¶áŀĴáŀ·áŀĢáŀ¶áŀļ
áĢľ áĢ±áĢ¬
Ġà»Ģàº®àº±àºĶ à»ĥàº«à»ī
ĠáŀĢáŀ¶áŀļáŀĶ áŀĦáŁĴáŀĢ
ĠàºĻàº ±àºļ
áĢĻáĢº áĢĢáĢ¹áĤıáĢ½áĢ¬
áĢĳáĢ² áĢĻáĢ¾áĢ¬
áĢĲáĢĽ áĢ¬áĢ¸áĢ
áĢħáĢº áĢģáĢ¯
ĠáŀĢ áŀĢ
ªà¸ ·à¹īà¸Ńà¸
ĠàºĦ àº±à»īàºĩ
Ġà¹Ģà¸ ĭ
Ġà®¨ à®©à¯įà®±
ĠÃ ©
Ġc l
ĠO ff
áŁĴáŀľ áŁĤáŀĦ
à¸£à¸ °
à®¯ à¯į
Ġàº¥ àº°àº«àº§à»Īàº²àºĩ
à»īàº²àºŀàº°à»ĢàºĪ àº»à»ī
à»Ĥ àº£
áŁĢáŀĢ áŀĶáŁĨáŀĸáŀ¶áŀĢáŁĭ
áŁ¦ áŁł
áŀĺáŀĢ áŀľáŀ·áŀī
ķà¸ °à¸
na m
áŀĺáŀ½áŀĻ áŀĲáŁĴáŀĦáŁĥ
åħ į
áŀķ áŁĴáŀĽ
à®¿à®© à®°à¯į
Ġla lo
áĢģ áĢĽ
Ĳ áĢĽ
à»Ģàºľ àºµàºį
ĠáĢĻ áĢ±áĢ¬áĢº
áŀĬ áŀ¼áŀĵ
áŀħ áŀĺáŁĴáŀĽ
å¹ ¿
ĠáĢĳ áĢ±áĢ¬áĢĢáĢº
ĠnÃ³ i
Ġsh ow
ĠA ko
ti ve
àº²àºģ à»į
áŀģáŀ·áŀı áŀģáŁĨ
áŀĢáŀ·áŀħáŁĴáŀħ áŀŁáŀłáŀĶáŁĴáŀļáŀıáŀ·áŀĶáŀıáŁĴáŀıáŀ·
áŀĢáŀ¶áŀļáŀĬ áŀ¶áŀĢáŁĭ
áŀ¸ áŀĦ
Ġtr eat
oun t
ol d
ul ing
è¾ ¾
áŀ¶áŀĸ áŁĴáŀļáŁĩ
áŀ¶áŀĸ áŀ¸
ĠáĢĨáĢĽáĢ¬ áĢĻ
áĤĢáĢĢáĢ®áĢ¸ áĢĢáĢŃáĢ¯
áĢŀáĢ¼ áĢĦáĢ¹áĢ¸
áĢħ áĢŃáĢ¯áĢĢáĢº
áŀ¶áŀĤ áŀº
àº§ àº±àºĻàº
à®¿à®¤ à¯į
à¸Ļà¸ ´
Ġpaggam it
Ġà¹Ħà¸¡à¹Īà¸ ķà¹īà¸Ńà¸ĩà¸Ŀà¸²à¸ģ
ļà¸¸ à¸£à¸µ
°à¹ģà¸Ļ à¸Ļ
¥ àº§àº¡
áŀ¢áŀ¼ áŀŁ
te p
áĢ¬áĢ¸áĢĶ áĢĬáĢ¹áĢ¸
Ġáģ¾áĢŀ áĢĤ
ĠáĢĸ áĢĲáĢ¹áĢ
ĠáĢ Ī
in ess
g er
ear ch
TM nij
ĠáŀĶáŁĴáŀļáŀľ áŁĤáŀĦ
Ġà®¤à¯ĩ à®µ
áĢŁ áĢ°
ĠáŀĶáŁĤáŀĶ áŀĵáŁģáŁĩ
ĠáŀĶ áŀ¶áŀĽáŁĭáŀĳáŀ¶áŀıáŁĭ
ĠáŀĵáŁħ áŀ¡áŀ¾áŀĻ
Ġáŀĵ áŁĲáŀĻ
áĢ±áĢľ áĢ½áĢºáĢ¬áĢĢáĢ¹áĢ
Ĳ áĢļáĢ¹áĢ
ħ áĢħáĢ¹áĢ
ĠâĢ¦ ..
ĠáģĤáģĢáģģáģ Ĩ
Ġma na
ĠáĢĽ áĢķáĢº
Ġáŀĩ áŀ½áŀĽ
ļà¸ ±à¸Ļà¸
Ġáŀĩ áŀ½áŀīáŀĬáŀ¼áŀļ
Ġáŀħáŀ¶áŀĶáŁĭ áŀıáŀ¶áŁĨáŀĦáŀĸáŀ¸
¡ àº·
ĠáŀģáŁģáŀıáŁĴáŀı áŀĶáŀĵáŁĴáŀĳáŀ¶áŀĻáŀĺáŀ¶áŀĵáŀĩáŁĲáŀĻ
Ġáŀģ áŁĨ
ĠáŀĢ áŀ»áŀĦ
ĠInter national
ĠC N
áŁĴáŀļáŀ ıáŀ¸
ĠáĢ¡áĤıáĢ¯ áĢķáĢĬáĢ¬
áĢĦáĢº áĢ¹áĢĤ
áŁĬáŀ¸ áŀŁ
áŁģ áŀ¢áŁĬ
áĢ» áĢ¬
áŀł áŀ»áŀĦ
áŀŁáŀĺáŁĴáŀĬ áŁģáŀħ
áŀŁ áŀ¶áŀŁáŁĴáŀıáŁĴáŀļ
ĠW ith
ĠD r
Ġh Ãłnh
ç© º
uh in
áĢ±áĢĽ áĢ¸áĢĢáĢŃáĢ¯
áĢ±áĢĻ áĢ¼
ķáĢ² áĢ¼
Ķ áĢŃáĢ¯áĢĦáĢºáĢĦáĢ¶
id get
Ġà¹Ĥà¸Ľà¸£ à¹ģà¸ģà¸£à¸
ªà¸²à¸ ¢à¸
áŀļáŀŁ áŁģ
Ľ àº±àºĻàº
à®¿à®¯ à®®à¯į
Ġk n
ĠMa a
áŀĻ áŁĦáŀĴáŀ¶
áŀĶáŁĴáŀļáŀĩ áŀ¶áŀĴáŀ·áŀĶáŀıáŁģáŀĻáŁĴáŀĻ
áŀĴáŀ º
ĲáĢ¬ áĢ±áĢĲáĢ¼
ĠáĢ±áĢĽáĢ¼áĢ¸áĢ ģáĢº
áĢŃáĤĪ áĢĦáĢ¹áĢ¸
áĢļáĢ¬ áĢ¥áĢ¹áĢ
áĢĲáĢĽ áĢ¬áĢ¸
áĢĲáĢ½ áĢ±áĢĻáĢ¾áĢ¬
áĢĲ áĢĻáĢ¹áĢ¸
áĢ½áĢº áĢ¬áĢ·
áĢ¬áĢķ áĢ°
±áĢĶ áĢ±áĢŀáĢ¬
ĠáĢĲ áĢ±áĢ¬áĢº
¨à¸²à¸ªà¸ķà¸£ à¹Į
áĢĲ áĢ¯áĢĶáĢ¹áĢ¸áĢĢ
áĢĢáĢ¹áĢ¡ áĢĽ
áĢ¹áĢ ¸
áĢ¶ áĢŀ
ķ àº»à»īàºĻàº
Ġà»ľ à»īàº²àº
Ġà»ģàº Ĺ
Ġà®µ à®¾à®°
ĠáģĤáģ Ĩ
ĠàºĻàº± àºģàº
ĠáĢľáĢ½ áĢ¾áĢĲáĢºáĢĲáĢ±áĢ¬áĢº
ĠáĢ¥ áĢĢáģłáĤĴ
áĢŃáĢĻ áĢ·
áĢ¹áĢ ¬
Ľ áĢŃáĢ½
Ľ áĢ²
ĠáĢŀáĢĻ áĢ®áĢ¸
áĢĽ áĢĽáĢ¾áĢŃ
Ġs ub
áŀıáŀ» áŀİáŁĴáŀł
áŀ¶áŀļáŀ ·
áŀ¢áŀĦáŁĴáŀĤ áŀĹáŀ¶áŀĸ
áŀ¢ áŀ¶áŀľ
Ġà¸ ģà¸²à¸£à¹Ģà¸
us iness
ĠáŁł áŁ¡
ĠáŀĽ áŀ¶áŀĦ
ĠáŀĹáŁĴáŀĽ áŀ¶áŀĺáŁĹ
ĠáŀĶáŁĴáŀļáŀ Ľ
ĠáŀĶáŁĴáŀļáŀ ¹áŀĢáŁĴáŀŁ
ĠáŀĵáŁħ áŀĸáŁĴáŀļáŀ¹áŀĢ
Ġáŀĩ áŀ¶áŀ¢
ĠáŀĢ áŀŁáŀ·
Ġ{ {
ĠMar ch
ĠA c
áŁĢáŀĦ áŀķáŁĴáŀĳ
áĢĻáĢºáĢ¬áĢ¸áĢ¡ áĢ¬áĢ¸
áĢĸáĢ¼ áĢ°
áŁĢáŀĦáŀķáŁĴáŀĳ áŀ¶áŀıáŁĭ
áĢ±áĢĶ áĤķ
áĢ±áĢ ĲáĢ²áĢ·
ķáĢ« áĢĲáĢļáĢ¹áĢ
ģáĢ²áĢ· áģ¾áĢĢ
ĠáģĢ áĢ«
ĠáĢĽ áĢĶáĢ¹áĢ
ĠáĢ»áĢķáĢĬáĢ¹áĢ ķ
ĠáĢ±áĢĲáĢ¬ áĢ¹
áģ¿ áĢģáĢĦáĢ¹áĢ¸
áĢļáĢ¹áĢľ áĢŃáĢ¯áĤķ
áĢĨ áĤıáģµ
áĢ±áĢ ŁáĢ¬áĢĦáĢ¹áĢ¸
ĠáĢŀáĢŃáĢ¯áĤĶ áĢ±áĢŀáĢ¬áĢ¹
ĠáĢĺ áĢ®áĢľ
áŀŁ áŁħ
áŀŁ áŀ¶áŀĵ
ĠáĢģáĢ¼ áĢĦáĢ¹áĢ·
ĠáĢ¡áĢŃáĢĻáĢ¹áĢ ±áĢĳáĢ¬áĢĦáĢ¹áĢ
ĠáĢ¡áĢŀ áĢĢáĢ¹áĢ
áģ¿áĢĸ áĢŃáĢ³áĢ¸áĢ
áĢŀáĢ¯ áĢĲ
à¯ģà®Ł à¯įà®Ł
Ġàºķ àºŃàºĻ
áŀĽáŁĴáŀĶ áŀ¶áŀī
à»Ħ à»Ŀ
áĢķáĢĲáĢº áĢŀáĢĢáĢº
E T
à¹Īà¸²à¸¢à¸ Ĺ
§à¸ ļà¸
Ġà®¤à¯Ĭ à®´
Ġm Ã¡y
æ ®
ĠK at
ro on
áŀļáŀĶ áŀĶ
áŀĺ áŁģáŀļ
à»ģàº« à»Īàºĩ
áŀĸáŀ»áŀĢ áŀļáŀĽáŀ½áŀĻ
Ġp em
Ġà®ļ à®Łà¯įà®Ł
áŀķ áŁĴáŀĽáŁĤ
áŀĶáŁĴáŀļ áŁģáŀĦ
Ġv al
à¹ģ à¸Ńà¸
èĢ ĥ
áŀĳáŁĴáŀĻ áŀ¶áŀĵ
à» ĭ
áĢĶ áĢŃáĢ¯áĢĦáĢ¹áĢ
áĢĲáĢ¬ áĢķáĢ²
áĢģ áĢŃáĢ¯áĢĦáĢ¹áĢ
áĢ¸áĢ ģáĢ»
àºļà»įà»Ī à»ĦàºĶà»ī
Ġb iáº¿t
aba ihan
áŀĲáŁĴáŀĵáŀ¶áŀĢáŁĭ áŀĬáŀ¹áŀĢáŀĵáŀ¶áŁĨ
áŀĦáŁĴáŀľ áŀ¾
ah e
áŀĢáŁı áŀĺáŀ¶áŀĵ
áŀĢ áŀħáŀĺáŁĴáŀļáŀ¾áŀĵ
áŀĢ áŀ¾áŀĵáŀ¡áŀ¾áŀĦ
s ite
ĺ áŀ¶áŀĵ
áĢ±áĢĲáĢ¬ áĢĦáĢ¹áĢ
ĠáĢĻáĢ° áĢľ
ä¾ Ľ
ĠáŀķáŁĴáŀı áŀ¶áŀħáŁĭ
ĠáĢ¡áģ¾áĢĢ áĢĻáĢ¹áĢ¸
ĠáĢ¡áĢĢáĢ° áĢ¡áĢĬáĢ®
ĠáŀĶáŀ¶áŀĵ áŀŁáŀĺáŁĴáŀļáŁģáŀħ
ĠáŀĶáŀ¶áŀĵ áŀħáŀ»áŁĩ
3 0
áĢ¸áĢħáĢ®áĢ¸áĢ ĮáĢ¬áĢĶ
áĢ±áĢ¸áĢĢ áĢ±áĢ¬áĢĢáĢºáĢķáĢ½áĢ²
ĠáŀĶ áŀ¶áŀĳ
ĠáŀĬáŁĥ áŀĤáŀ¼
Ġà¸ŀà¸ ¤à¸
Ġáŀħ áŀĵáŁĴáŀĽáŁĦáŁĩ
±áĢľ áĢ¸áĢĢ
¥áĢ®áĢ¸áĢ ħáĢ®áĢ¸áĢ
ĠáĢĻ áĢľ
±à¸Ļà¸ĺ à¹Į
ĠáĢĨáĢĢáĢº áĢľáĢĢáĢº
Ġáŀ¯áŀĢ áŀ§áŀıáŁĴáŀĬáŀĺ
Ġáŀ¢ áŀĦáŁĴáŀĢáŀļ
Ġáŀ¢ áŀ¶áŀĳáŀ·áŀıáŁĴáŀĻ
Ġma Rta
áŁĴáŀļ áŀ¶áŀĽ
áŀŁáŀ¸ áŀĽ
àºļ àº»àºĶ
¥àº°àºļ àº½àºļ
áŀŁ áŀ¶áŀŁáŁĴáŀļáŁĴáŀı
Ġà®µ à®²
ŀà¸ ¥à¸²à¸
Ľàº°àºĬ àº²àºĬàº»àºĻ
áŀľáŁī áŀ¶áŀĵáŁĭ
Ġ- --
áĢ±áĢĽ áĢĶáĢº
áŀľáŀıáŁĴáŀŁ áŀļáŁį
ļ àº±àºĻàºĶ
§à¸´à¸ĺ à¸µà¸
Ġi a
una y
áŀĽáŁĴáŀĶ áŁĤáŀĦ
áŀĶáŁĴáŀļáŀľ áŀıáŁĴáŀıáŀ·
áŀĶáŁĴáŀļáŀ Įáŀ·áŀı
¶à¸ ĩ
Ġà»Ģàºļ àº´à»Īàºĩ
è ±
áŀĶáŀ¾áŀĢ áŀĶáŀļ
Ġà»ĢàºĶ àº·àºŃàºĻ
ĠÂ ´
Ġkh Ã¡c
áŀĲáŁĴáŀĦáŁĥáŀĳáŀ¸ áŁł
áŀģ áŁĤáŀĺ
Ġà»ĢàºĪ àº»à»īàº²àº
od er
k ay
áŀĢáŀ¶áŀļáŀĸ áŀ¶áŀļáŀĩáŀ¶áŀıáŀ·
áŀĢáŀ¶áŀļáŀĵ áŁħ
áŀ¸ áŀĶ
ĠàºĽ àº°à»ĢàºĹàºĶ
áŀ· áŀĬáŁĴáŀĭáŀ¶áŀĵ
áŀ¶áŀĤáŁĴáŀĵ áŁģáŀĻáŁį
à¸Ńà¸° à¹Ħà¸£
à®¨à¯įà®¤ à®¿à®°
áŀ¶áŀ Ī
áĢ¬áĢ¸áĢĻ áĢ»áĢ¬áĢ¸
áŀ¡ áŀ¶
ay ag
Ġà¸Ħà¸ ³à¸
la nd
ç ¡
à®¾à®Ł à¯ģ
Ĺà¸ ±à¸Ļà¸
P a
B a
1 1
ĠáŀŁáŁĨáŀģáŀ¶áŀĵáŁĭ áŁĹ
ĠáŀŁáŀ¶áŀĽ áŀ¶áŀĬáŁĨáŀĶáŀ¼áŀĦ
Ġáŀľáŀ· áŀĹáŀ¶áŀĤ
ģà¸³à¸ «à¸Ļà¸
ĠáŀĸáŁĴáŀļáŁĩ áŀŁáŀĦáŁĴáŀĥ
ĠáŀķáŁĴáŀĳ áŀ»áŀĢ
ĠáŀĶáŀ¾áŀĢ áŀĶáŀļ
ĠáŀĤ áŀ½áŀļáŀĶ
Ġáŀģ áŁĴáŀĻáŀĽáŁĭ
à®¾à®µ à®¿à®²à¯į
Ġàºķàº·à»ī àºģàºµàºļ
Ġàºį àº²
Ġàºª àº¸àºĶ
à»Ģàºļ àº´à»Īàºĩàº
~~ ~~
ĠáĢĶáĢ¾ áĢĦáĢºáĢ·
ĠáĢĲáĢŃáĢ¯áĢĦáĢ¹áĢ¸ áĢĽáĢĦáĢ¹áĢ¸áĢŀ
áĢŃáĢ¯áĢ¸áĢ ĳ
ĠáŀĢáŁı áŀĬáŁĦáŀĻ
ç¾ ¤
áĢŀ áĢ®áĢ¸
áĢļáĢ¹áĢľ áĢŃáĢ¯
áĢ±áĢĺ áģ¤áĢ¬
áĢ¬áĢ¹áĢ »áĢĦ
±áĢŀáĢ¬ áĢ¹áĢľáĢĬáĢ¹áĢ¸
" )
ģáĢº áĢŃáĢĶáĢ¹
ĠáĢķ áĢŃáĢ¯áĢĢáĢ¹áĢ
ĠáĢ±áĢħ áĢºáĢ¸
ĠáĢ±áĢĢ áĢ¬áĢ¹áĢ
áĢķáĢ« áĢ¸áĢ
áĢĳ áĢķáĢº
Ġáŀ ®
àºľ àº°àº¥
áŁĴáŀļáŀ½ áŀħ
±à¸ ģà¹Ģà¸
áŁ¤ áŁł
áŀŁáŀĺ áŀ»áŀĳáŁĴáŀļ
àºģ à»įà»Īàº
àºģ à»Īàº²àº§
at ag
áŀŁ áŀİáŁĴáŀĭ
Ġà¸ģ à¹ĩ
áĢĲ áĢŃáĢ¯áĢĦáĢ¹áĢ
áĢħ áĢŃáĢ¯áĢĢáĢ¹áĢ
áĢ° áĢ¸áĢĢ
áĢ¯áĢķáĢº áĢĽáĢ¾
áŀĽáŀ¶áŀĵ áŀĬáŀ»áŀĽáŁĴáŀĽáŀ¶áŀļ
áŀļáŀĩ áŀ¾áŀĦ
à¹īà¸Ļà¹Ģà¸¥à¸·à¸Ńà¸Ķà¸ Ĥ
à¸£ à¸²
áŀĸ áŀĦáŁĴáŀļáŀ¹áŀĦ
è½ ¯
áŀĢáŁĴáŀļáŀ ħ
áŀĢáŀ¶áŀļáŀĳ áŀĳáŀ½áŀĽ
à®¿à®ķ à®´
Ġå¼ Ģ
ĠB 8
9 0
ĵ à¸²à¸
da te
Ĩ áĢ¶áĢ¯áĢ¸áĢ
Ĩ áĢ¯
ĠáĢĽ áĢļáĢ°
áŀ¶áŀł áŀļáŀİáŁį
ĠáĢķ áĢŃáĢ¯áĢĦáĢ¹áĢ
ĠáĢĳ áĢķáĢ¹áĢ
ĠáĢħáĢ®áĢĻ áĢ¶áĢĢáĢŃáĢĶáĢ¹áĢ¸
ĠáĢĦ áĢ¼áĢŃáĢĻáĢº
ĠM o
pa puti
Ġpags as
é¡ ¹
áŀ¶áŀĢáŀĶáŀ¶áŀĳ áŀĢáŁĴáŀļáŀłáŀĺ
ĨáŁĴáŀĽ áŀĦ
àº»àºĻ à»ĥàºĪ
Ġáŀł áŁĴáŀľáŀ¸áŀĽáŀ¸áŀĸáŀ¸áŀĵ
ĠáŀĻ áŀ»áŀĳáŁĴáŀĴáŀŁ
ĠáŀĶáŁĴáŀļáŀĳáŁģáŀŁ áŀħáŀ·áŀĵ
anya k
ĠáŀĶáŁĴáŀļáŀĳáŁģáŀŁ áŀĢ
ĠáŀĶáŁīáŀ»áŀĵ áŁĴáŀĬ
ĠáŀĶáŀ»áŀļáŀŁ áŀĺáŁĴáŀĵáŀ¶áŀĢáŁĭ
ĠáŀĶáŀ» áŀļáŀ¸
Ġáŀĵáŀ·áŀĦ áŀ¢áŁĴáŀĵáŀĢ
áĢĽ áĢ¯áĢ¶
Ġáŀĵáŀ¶áŀľ áŀ¶
Ġà¸ Ĭà¸
áĢĦáĢºáĢ¸áĢ ķáĢ¼
ģà¸İ à¸
Ġab out
m i
àº· àºĻ
áĢĦ áĢ¼áĢŃáĢĻáĢº
Ġsa g
ĠáŀĢ áŁĤáŀĺ
Ġáŀ¡áŀ¾áŀĦ áŀľáŀ·áŀī
áŁĦáŀĻáŀĶáŁī áŁĤáŀı
áŀŁ áŁĴáŀĬáŀ¸
ĠàºĽ àº°àºģàº
Ġpro g
áŀķ áŁĤ
áŀĶáŁĴáŀļáŀ İ
áĢ¸áĢķ áĢĬáĢ¬
áĢ±áĢĻ áĢ¬
Ġàºģàº Ńàºĩ
áĢ¥áĢķ áĢĴ
Ġ äºº
Ġd ugo
Ġàº ¢àº¹à»Īàº
ah in
áŀĳ áŀ¶áŀĢáŁĭáŀĳáŀ¶áŀī
ķáĢ« áĢ±áĢħ
ĠáĢĻ áĢľáĢ¯áĢķáĢ¹áĢ
ĠáĢĢáģ½áĢ¼áĢĶáĢ¹áĢ±áĢĲáĢ¬áĢ¹áĢ ·
ĠáĢ±áĢĢ áĢ¬áĢĢáĢ¹áĢ
áĢĽ áĢ¯áĢķáĢ¹áĢ
áĢĦáĢ¹áĢ ŀáĢ¬
áĢ¡áĢĶ áĢ±áĢĶáĢ²áĢ·
±áĢĲáĢ¼ áĤķ
ĠáĢŀáĢĻ áĢ®áĢ¸áĢ
ĠáĢŀ áĢĲáĢºáĢĻáĢ¾áĢĲáĢº
áŀħáŀ¼áŀĽ áŀħáŀ·áŀıáŁĴáŀı
àºļà»į àºĶàºµ
áŀĢáŀ¶áŀļáŀ ł
ĠáĢĻ áĢ½áĢĶáĢº
ibig an
àºĻà»ī à»įàº²
àºĦ àº±àºĻ
Ġà®ļà¯Ĩà®¯à¯įà®¤ à¯ģ
«à¸¡à¸ ·à¸Ńà¸Ļà¸
ĠáĢ¡áĢĨ áĢĦáĢ¹áĢ·
áģ¿áĢķ áĢŃáĢ³
áĢŃáĢ¯ áĢ¸áĢĢáĢŃáĢ¯
Ġkab abaihan
áŀĢ áŀļáŀĢ
en ing
Ġh el
áĢľ áĢ±áĢ¸
Ġs ob
á»ĵ i
ir c
ahul ugan
à¯Īà®ķà¯įà®ķ à¯ģà®®à¯į
áŀ½ áŀĤ
áŀ¢áŀĤáŁĴáŀĤ áŀ·áŀŁáŀĵáŀ¸
r d
o ol
Ġà¸ļ à¸²
Ķà¸³ à¹Ģà¸Ļà¸´à¸Ļà¸
ĠáŀŁáŁĴáŀļ áŀ¶áŀĽ
àº´àºĶ à»ĥàºĪ
çİ ĭ
ĠáŀŁáŁĴáŀĬ áŁģáŀħ
ĠáŀŁáŁĴáŀĬ áŀ¶áŀĶáŁĭ
Īàº±àºĶàºķàº±à»īàºĩàº Ľàº°àºķàº´àºļàº±àºĶ
Ĥ à»īàº²àºŀàº°à»ĢàºĪàº»à»īàº²
ĠàºĪ àº±àºĶ
Ġàº« àº¥àº²àºį
à»ľ àº¶à»Īàºĩàº
áĢĽáĢ½áĢŃ áĢķáĢ«áĢĲáĢļáĢ¹
áĢĶáĢ¹áĢ¸ áĢĢáĢºáĢĦáĢ¹áĢ
±áĢķ áĢ¸áĢĻ
en er
ĲáĢ¼ áĢĶáĢ¹áĢ¸
ĠáĢĢ áĢ°áĢ¸áĢħ
ĠáŀĶáŁĴáŀı áŀ¼áŀļ
ĠáŀĶ áŀ¶áŀĽáŁĭ
Ġ- -
áĢĬáĢ¹áĢĽ áĢ¼áĢļáĢ¹áĢ
áĢĢáĢ» áĢ±áĢ¬áĢĦáĢºáĢ¸áĢ
Ķà¸´à¸¡à¸ŀà¸ ±à¸Ļ
Ġà¸ Ĥà¸²à¸¢à¸
Ġà¹ģà¸ Ĺà¸ĩ
Ĭà¹Īà¸§à¸ ĩà¸
Ġà®° à¯Ĥ
ĠáŀıáŁĤ áŀĺáŁĴáŀıáŀĦ
iá» ħn
è² ¸
æ´ ²
ĠáŀħáŁĨáŀİ áŀ¸
ĠáŀĢáŁĴáŀĵáŀ»áŀĦ áŀĸáŁģáŀĽ
à®¤à¯įà®¤ à®¿à®±à¯įà®ķà¯ģ
st ic
la tion
Ġmag ka
Ġáŀ¢áŁĬáŀ¸áŀļáŁī áŀĦáŁĭ
Ġáŀ¡ áŀ¶
áŁĴáŀŁ áŀ¸
áŁĴáŀĽáŁĤáŀĦ áŀĢáŁĴáŀĽáŀ¶áŀĻ
áŀŁáŁĴáŀļ áŀ¶áŀĽ
áĢ¸áĢĻ áĢ¾áĢ¬
áŀŁáŁģáŀľ áŀ¶áŀĢáŀĺáŁĴáŀĺ
áŀŁ áŁĴáŀļáŀ¼áŀľ
áŀľ áŀĦáŁĴáŀŁ
ĠáĢĲáĢĽ áĢ¯áĢĲáĢ¹áĢ
ĠáĢĢáĢºáĢĶáĢ¹áĢ¸áĢĻáĢ¬ áĢ±áĢĽáĢ¸
áĢĻáĢºáĢ³áĢŃ áĢ¸
áĢĹ áĢ®
áŀĸáŁĴáŀĻ áŀ¶áŀĻáŀ¶áŀĺ
Ù Ħ
Ġb el
u ka
áŀĶáŀĵáŁĴáŀĳ áŀ¼áŀĽ
áŀĵáŁģáŁĩ áŀĺáŀ¶áŀĵ
áŀĳáŁĨáŀł áŀ¹áŀĦ
áŀĨáŁĴáŀĵáŀ¶áŁĨ áŁ¡áŁ©
áĢķ áĢŃáĢ¯áĤĶ
áĢĨ áĢĢáĢ¹áĢ
áĢħáģ¥ áĢ¬
áĢ½ áĢĻáĢº
Ġph Ã¡t
áŀħáŀ¶áŀıáŁĭ áŀĳáŀ»áŀĢ
Ġà®® à¯ģà®ķ
la d
Ġæ ķ
à»ģàºĤ àºĩ
áŀ¾ áŀħ
áŀ·áŀĶ áŁĴáŀĶ
áŀ·áŀĢ áŀĹáŀİáŁĴáŀĮ
áŀ¢ áŁĨáŀİ
áĢ»áĢķáĢ³ áĢľáĢ¯áĢķáĢ¹áĢ
áĢ®áĢ¸áĢĶ áĢ±áĢ¬áĢĢáĢº
ĠâĢĭ /
Ġà¹Ģà¸ Ħà¸£à¸Ķà¸´à¸ķà¸Łà¸£à¸µ
¥à¸ Ķ
ĠáŁ¡áŁ© áŁ©
ĠáŀŁáŁģ áŀĵáŀ¸áŀĻáŁį
ĠáŀŁáŀł áŀĤáŁĴáŀļáŀ¶áŀŁ
ĠáŀŁ áŁĨáŀİáŀ¾
Ġáŀľáŀ·áŀĳáŁĴáŀĻ áŀ»
à»Ģàº«àº¼àº»à»Īàº²àºĻàº µà»ī
Ĺ à¹Īà¸²à¸Ļà¸
Ķà¸²à¸§à¸Ļà¹Į à¹Ĥà¸«à¸¥à¸
ĠáŀĶáŁĴáŀļ áŀ¶áŁĨ
°à¹Ģà¸ Ľà¹ĭ
ĠèĢ Į
ĠM at
il it
Ġà¸Īà¸ ³à¸Ļà¸
ĠáŀĶáŀ¶áŀĵ áŀĶáŀīáŁĴáŀĩáŀ¶áŀĢáŁĭ
à¹Ħà¸¡ à¹īà¸
Ġk w
Ġáŀĳ áŀ·áŀĵáŁĴáŀĵáŀĵáŁĲáŀĻ
à¯ģà® Ļà¯įà®ķà®³à¯į
ĠáŀĨáŁĴáŀĵ áŁģáŀļ
la w
ĠáŀĦ áŁĭ
ĠáŀĤáŁĴáŀļáŀ¹áŁĩ áŀŁáŁĴáŀĲáŀ¶áŀĵ
ĠáŀĤáŁĨ áŀļáŀ¶áŀĺ
ĠáŀĤáŁĦáŀĽ áŀĵáŀĻáŁĦáŀĶáŀ¶áŀĻ
Ġáŀ¢ áŀ¼áŀŁ
Ġn ews
Ġ3 9
áŁĦáŀŁáŀīáŁĴáŀħ áŁģáŀıáŀĵáŀ¶
áŀłáŁĴáŀĤ áŁģáŀĺ
8 0
§à¸ ¢à¸
áŀĻáŀĵáŁĴáŀı áŀłáŁĦáŁĩ
àºŀ àº±àºģ
ªà¸£à¹īà¸²à¸ ĩ
Ńàºĩàº Ĺàº±àºļ
áŀĻáŀĢ áŀĺáŀĢ
áŀĺáŁī áŀ¶
áŀĶáŀĳ áŀĸáŀ·áŀŁáŁĦáŀĴáŀĵáŁį
ĠáĢĴáĢ« áĢ·áĢ¡
ĠáĢĲ áĢģáĢ«
ĠáĢ¡áĢĻáĢºáĢŃáĢ³áĢ¸áĢŀ áĢĻáĢ®áĢ¸áĢ
ĠáĢ¡ áĢ¬áĢĻáĢģáĢ¶
áŀ»áŀŁ áŁĴáŀĬ
áĢĢ áĢ±áĢ¬áĢĦáĢº
ģà¸²à¸£à¸ ĵà¹Įà¸
áŀ·áŀĢ áŁĴáŀŁáŀ¶
l it
ĠáŀŁáŁģáŀħáŀĢáŁĴáŀıáŀ¸ áŀĩáŀ¼áŀĵáŀĬáŁĨáŀİáŀ¹áŀĦ
ĠáŀŁáŀĵáŁĴáŀĵ áŀ·áŀŁáŀ¸áŀĳ
ĠáŀĽ áŁĨáŀĬáŀ¶áŀĶáŁĭ
áĢ¹áĢ Ħ
±áĢ ŁáĢ¬áĢĦáĢ¹áĢ¸
Ŀ áĢĦáĢ¹áĢ
ĠáĢĻ áĢ®
Ľ àº°à»Ģàºŀ
Ġà®Ĩ à®£à¯įà®Ł
U L
Ġk uma
ĠáĢħáĢ® áĢħáĢ¥áĢ¹áĢ
ĠáĢģáĢ¶ áĢħáĢ¬áĢ¸áĢ
áĢŁ áĢŃ
áĢķáĢ« áĢľ
Ġæ ŀ
åĬ ŀ
ĠáŀķáŁĴáŀĳ áŀ»áŀĻ
ĠáŀĶáŁĴáŀļáŀ ĳ
Ġáŀĳáŀ¶áŁĨáŀĦ áŀ¡áŀ¶áŀĻ
Ī àº±àºĶ
m it
ĠáŀĨáŁĴáŀĽáŀĦ áŀĢáŀ¶áŀıáŁĭ
Ġà»Ĥàº¥ àºģ
Ġàºŀ àº±àºĶàºĹàº°àºĻ
áĢģáĢ» áĢħáĢº
à»Ģàº® àº·àºŃ
»áĢĸáĢħáĢ¹áĢ ŀáĢ°
ĳ áĢ¶
il d
Ġpag hah
ĠáĢľáĢ° áĢ¡
Ġa nh
ĠáŀħáŁĨáŀİ áŀĦ
Ġáŀħáŀ¶áŁĨ áŀĶáŀ¶áŀħáŁĭ
æ² »
Ġd ata
Ĭ à¸´
ĠáĢķáĢ¯áĢĴ áĢ¹áĢĻ
ĠáĢĶáĢ¬áĢ¸áĢľ áĢĬáĢ¹áĢ
ĠáĢ±áĢĨ áĢ¬áĢĦáĢ¹áĢ¸
áģ ¯
áĢĢáĢ¹ áģ¾áĢĢ
±áĢĶ áĤķ
±áĢĴ áĢŀ
arm ac
ĠáĢŀ áĢ®áĢľ
ĠáĢĢáĢ¼áĢº áĢĶáĢ¹áĢ±áĢĲáĢ¬áĢ¹áĢ
ĠáĢ±áĢĢáĢºáĢ¬áĢĦáĢ¹áĢ¸ áĢŀ
áĢķáĢº áĢħáĢħáĢº
ĠáŀĤ áŁĴáŀļáŀĦ
ĠM ala
ĠáŀģáŁģáŀıáŁĴáŀı áŀĶáŀ¶áŀıáŁĭáŀĬáŁĨáŀĶáŀĦ
ĠáŀĢáŁĴáŀĵáŀ»áŀĦ áŀĶáŁĴáŀļáŀĳáŁģáŀŁ
à¹Ģ à¸Ńà¸ĩà¸
áĢģáĢº áĢŃáĢ³
ĠáĢ±áĢľ áĢ½áĢºáĢ¬áĢĢáĢ¹áĢ
ĠáĢ±áĢ ĺáĢ¬
áĢĽáĢ®áĢ¸áĢļ áĢ¬áĢ¸
ĠáŀĢáŁĴáŀĵáŀ»áŀĦ áŀĵáŀ¶áŀĺ
áĢķáĢ¹áĢĢ áĢ¼áĢĢáĢ¹áĢ
áĢĲáĢŃáĢ¯áĤĶ áĢĢáĢŃáĢ¯
áĢħ áĢŃáĢ¯áĢ¸áĢĽ
es us
w aw
ab le
áĢĢáĢ» áĢ½áĢĶáĢº
ç» Ļ
Ġà®µ à®¿à®ļ
Ġl Æ°á»£ng
ĠáŀĢáŁı áŀĬáŀ¼áŀħáŀĩáŀ¶
Ġj ust
b an
ĠRes earch
áŁĴáŀ¢ áŀ¹áŀĦ
áŁģáŀļ áŁĴáŀıáŀ·áŁį
áŁ Ĵ
ana y
áŀŁáŀł áŀĸáŁĲáŀĵáŁĴáŀĴáŀ
áŀŁ áŁĴáŀĢ
Ĳ áĢĬáĢ¹áĢ
ĠáĢĨ áĢ¶áĢ¯áĢ¸áĢ
ĠáĢ¡áĢľáĢ½ áĢ´
áĤı áĢ¯áĢŃáĢĦáĢ¹
áģ¿áĢķáĢ®áĢ¸áĢ ±áĢĶáĢ¬áĢĢáĢ¹
áĢĿáĢ« áĢĽáĢ®áĢľ
äº Ķ
Ġm undo
áĢļáĢ· áĢ¹áĢ
áĢģáĢ»áĢĢáĢº áĢ¡
ģà¸ ¸à¸
Ġse k
àºļ àº¸àºģàº
àºĦ àº°àºĻàº°
áŀĺ áŀĵáŁĴáŀı
áŀĸáŀ·áŀı áŀĶáŁĴáŀļáŀ¶áŀĢáŀĬ
àº¶ àºģàºŃ
ï ½
é į
åİ Ł
àº²àºª àº²àºĶ
áŀĶáŀĵáŁĴáŀĲáŁĤáŀĺ áŀĳáŁĢáŀı
à®¿à®¨à¯įà®¤ à¯ģ
áŀĶ áŀĢ
ĠáĢķ áĢĦáĢ¹áĢľ
ĠáĢĲáĢĢáĢ¹áĢ ±áĢĽáĢ¬áĢĢáĢ¹áĢ
ĠáĢĩáĢ¬áĢĲáĢ¹áĢ ĢáĢ¬áĢ¸
ĠáĢĩ áĢĶáĢ¹áĢĶ
ĠáĢģ áĢ±áĢ«áĢº
à¹Ĥà¸£à¸Ħà¸ªà¸°à¹Ģà¸ģà¹ĩà¸Ķà¹Ģà¸ ĩà¸´à¸Ļ
ĭ à¸´à¸
áŀĬáŁĨáŀİ áŀ¶áŀĢáŁĭáŀĢáŀ¶áŀĽ
áŀĩáŀĺ áŁĴáŀļáŀ¾áŀŁ
áŀĩ áŀ¶áŀĹ
áŀĢáŁĴáŀļáŀ Ĺáŀĸ
m p
Ĭ àº²àº§
áŀ¶áŀİáŀ¶áŀĬ áŀ¶
Ġà¸ĭà¸ ¶à¹Īà¸ĩ
Ġà®ª à®Łà¯įà®Ł
ĠáĢ¡áĢ¯áĢķáĢ¹áĢ ģáĢºáĢ³áĢķáĢ¹áĢ
Ġ[ /
Ġ.. ....
áĢĨ áĢŃáĢķáĢ¹áĢ
áĢ½ áĢĦáĢ¹áĢ
ĠáĢ±áĢķáĢ« áĢ·
áĤĳ áĢ¬
áĢĻ áĢ²
áŀ ĴáŁĴáŀľ
en ce
aw ei
ģ áŀ¶áŀĦ
áĢĦáĢ¹áĢ¸ áĢĳ
áĢ¸áĢģáĢ¼ áĢĶáĢ¹áĢ¸
áĢ±áĢ¸áĢ Ķ
ĠáŁ¡áŁ ¡áŁ
ĠáŀĻáŀ»áŀĳáŁĴáŀĴáŀĵ áŀ¶áŀĢáŀ¶áŀļ
kan o
ĠáŀĻ áŀ»áŀľ
ĠáŀĹáŁĴáŀĽ áŁĢáŀĦ
Ġph ÃŃ
ĠNat ural
ik al
ĠáŀĶ áŀĦáŁĴáŀļáŁĢáŀĵ
Ġáŀĳ áŀ¶áŀĽáŁĭ
áĢ®áĢ¸áĢĻ áĢ¼
ĠáŀĬáŁĦáŀĻ áŀĶáŀ¶áŀĵ
Ġáŀĩáŀ¸áŀľ áŀĹáŀ¶áŀĸ
Ġáŀĩ áŀ¶áŀĵ
ĠáŀĨ áŁĴáŀĦáŀ¶áŀĻ
Ĥ àº°àºĻàº°
ŀáĢĬáĢ¹áĢ ŁáĢ¯
ĠáĢŀáĢŃ áĢĽáĢ½áĢŃ
ĠáĢ±áĢĲáĢ¼ áĢĢáĢŃáĢ¯
ĠáĢ¡áĢĻ áĢĬáĢ¹áĢ
áĢĻáĢ¹áĢĻ áĢĲ
è ĳ
áĢĢáĢ¹áĢ ĽáĢ½áĢŃ
áĢ¯áĢĶáĢº áĢ¸áĢĢ
Ġáŀ¯áŀĢ áŀļáŀ¶áŀĩáŁĴáŀĻ
Ġáŀ¢áŀ¶áŀł áŁĴáŀľ
áĢ¡ áĢľáĢ¯áĢķáĢº
Ġà®ª à®¿à®Ł
Ħ à¸£à¸±à¸
áĢ ¤
±áĢĲáĢ¬áĢ¹áĢ ĻáĢ°
ģáĢ²áĢ· áĢĲáĢļáĢ¹
Ġáģģáģīáģ īáģ
Ġmalak ing
Ġáŀ¢áŀ¶áŀĺáŁģáŀļáŀ·áŀĢ áŀ¶áŁĨáŀĦ
Ġáŀ¢ áŀļáŀĤáŀ»áŀİ
Ġáŀ¡ áŀ¸
âĢĭâĢĭ âĢĭ
áŁĴáŀļáŀ· áŀĢ
ĠáĢŀáĢ¼ áĢ¬áĢ¸
ĠáĢĲáĢĶáĢ¹áĢ ĸ
ĠáĢħ áĢ¼áĢĻáĢ¹áĢ¸
ĠáĢ»áĢķ áĢĦáĢ¹áĢĨáĢĦáĢ¹áĢ
ĠáĢ¡áĢĶáĢ¬ áĢĤ
Ġm ena
ĠáĢ¡ áĢļáĢ°
à®Ļà¯įà®ķà®³ à¯ģà®ķà¯įà®ķà¯ģ
áĢĻáĢ» áĢ¬áĢ¸áĢŀáĢĬáĢº
à¹ģà¸Ļ à¹Īà¸Ļ
æł ¡
4 0
à¸Ļà¸ °à¸
Ġà¹Ģà¸Ĭ à¹Īà¸Ļ
pin es
gam ot
Ġu od
Ġdah ilan
áŁĴáŀĺ áŁģáŀī
ĠàºŃ àº»àºĩàº
áŀŁáŁĴáŀļ áŁĤ
áŀĺáŁĴáŀ ĸáŀ»áŀĩ
áŀķáŁĴáŀĽáŀ¼áŀľ áŀĩáŀ¶áŀıáŀ·áŀĽáŁģáŀģ
áŀĶáŁĴáŀļáŀ ¹áŀĦáŀĶáŁĴáŀļáŁĤáŀĦ
áŀĴáŁĨ áŁĹ
Ġæĺ ¨å¤©
åħ ī
ĠàºŃ àº±àºĻ
à»īàºŃàºĻàº ®àº±àºļ
áŀĩáŀ¶áŀĵáŁĭ áŀģáŁĴáŀĸáŀŁáŁĭ
áŀĩ áŀ¶áŀĬ
à»ģàºĽ àºĩ
áŀħ áŁĨáŀĵ
áŀ·áŀĻ áŁĦ
áŀ·áŀıáŁĴáŀı áŀ·
áŀ±áŁĴáŀĻ áŀĶáŀ¶áŀĵ
ĠC ol
Ġà¸ģà¸²à¸£à¸ŀà¸Ļà¸±à¸Ļà¸ Łà¸£à¸µ
ĭ à¹Į
à¯Ĥ à®°à¯į
Ġch Ãºng
ul og
ĠâĨ Ĳ
ĠáŁ¢áŁłáŁ¡áŁ ¤
ĠáŀŁáŁĬ áŀ¼
ĠáŀŁ áŀ¶áŀľ
ĠáŀľáŁī áŀ¶áŀĵáŁĭ
ĠáŀļáŀĲ áŀĹáŁĴáŀĽáŀ¾áŀĦ
à»ģ àºĻ
ĠáŀĹáŀ¶áŀĸ áŀĻáŀĵáŁĴáŀı
ĠáŀĸáŁĴáŀļáŁĩ áŀľáŀ·áŀłáŀ¶áŀļ
Ġáŀķ áŀ¹áŀĢ
Ġáŀĳ áŀĺáŁĴáŀļáŀĦáŁĭ
Ġ256 0
Ġà¸ ļà¸£à¸´à¸©à¸±à¸Ĺ
ģà¸²à¸£ à¹ĥà¸Ĭà¹īà¸
Ġw ork
ĠP ar
ä¸ ¤
ĠáŀĤáŁĴáŀļáŀĶáŁĭ áŀĤáŁĴáŀļáŀ¶áŀĵáŁĭ
ĠáŀĢáŀ·áŀħáŁĴáŀħ áŀĸáŁĴáŀļáŀĺáŀĸáŁĴáŀļáŁĢáŀĦ
à®ªà¯įà®ª à¯ģ
àºĦ àº´àºĶàº
Ġ}} )
Ġh ere
Ġ5 9
áŀĶáŁĴáŀļáŀŁ áŀ·áŀĵ
Ġ, âĢĿ
Ġa h
áŀĶáŁĴáŀļáŀı áŀ·áŀĹáŀ¼
áŀĶáŀīáŁĴáŀĩ áŀ¶áŀĢáŀ¶áŀļ
áŀĲáŁĴáŀĺáŀ¸áŁĹ áŀĵáŁģáŁĩ
áŀĲ áŀĽ
áŀĲ áŀ¶áŀĶ
áŀĬáŀ¹áŀĦ áŀĸáŀ¸
áŀĩáŀ¸áŀľ áŀĹáŀ¶áŀĸ
áŀħ áŀĦáŁĴáŀľ
áŀĤáŁģ áŀłáŀĳáŁĨáŀĸáŁĲ
àº»à»īàº² à»Ŀàº²àºį
Ġà¸ª à¸µà¸
à¹ģà¸ľ à¸Ļà¸
Ġi d
áŀĢ áŀĦáŁĭ
al ita
áŀ¶áŀĴáŀ ĺáŁĴáŀĺ
Ġà®®à®ķà¯įà®ķ à®³à¯į
å¤ ´
àº°àº Ĺ
ŀ à¸Ńà¸
r in
Ġà»ĢàºĦàº·à»ĪàºŃ àºĩàº
áŀ¶áŀ ²áŁĴáŀĻ
uy en
rou p
Ġáŀļáŀ¹ áŀı
Ġàºŀ àº½àºĩ
Ġáŀļ áŁĦáŀĦ
ĠáŀĺáŁī áŀ¶áŀ¡áŁģáŀŁáŁĬáŀ¸
ĠáŀĶáŁĴáŀĽ áŁĤáŀĢ
ĠàºĻàº §
Ġàºª à»Īàº§àºĻàº
Ġd ay
ĠáŀĶáŁĴáŀļáŀĬ áŀ¶áŀĶáŁĭ
ĠáŀĶáŀĬáŀ·áŀŁáŁģ áŀĴ
Ġ à»ĢàºĻàº·
à¹Ĥ à¸Ń
Ġs he
Ġm is
ĠáŀıáŁģ áŀĩáŁĦ
ĠáŀĤáŀ¸áŀ¡ áŀ¼áŀĢáŁĴáŀļáŀ¶áŀĺ
Ġáŀ¢áŀĤáŁĴáŀĤ áŀĵáŀ¶áŀĻáŀĢáŀĬáŁĴáŀĭáŀ¶áŀĵ
ĠU N
Ġ3 6
Ġ3 5
áŁĥáŀĽ áŀ·áŀĵ
áŀĺ áŀĩáŁĴáŀĪ
áŀĶáŁĴáŀļ áŀ¶áŀİ
áŀıáŀ»áŀİáŁĴáŀł áŀĹáŀ¶áŀĸ
áŀİáŁĴáŀı áŀ¾áŀĺ
à®¾à®µ à®¿à®©à¯į
ĠB r
Ġé Ķ
áŀĩ áŁĤáŀĢ
Ġc áº§n
Ġé Ĥ
à»ģàºĤ àº§àºĩàº
àºĶàº¥ à»īàºŃàº¡
áĢĦáĢ¹áĢ· áĢ¡
áĢĤ áĢ¹áĢ
áĢģáĢ¼ áĢ¯áĢ¶
áŀĩ áŀ¶áŀķáŁĴáŀĽáŀ¼áŀľ
àºĩ àº§àº½
àº¸àºĤ àº°àºŀàº²àºļ
áŀħ áŁĤáŀĦ
à¹Ħà¸ Ĥà¸
áŀĤ áŀĻ
áŀģ áŁĴáŀľáŁĩ
áĢĢáĢ¼ áĢļáĢ¹
áĢ¡áĢŀ áĢ¯áĢ¶áĢ¸áĢķáĢ¼áĢ¯
Ġs il
àº²àºģ àº²àºĶ
áŀ¥ áŀĳáŁĴáŀĴáŀ·áŀĸáŀĽ
Ġmen jadi
Ĺà¸µ à¹Ģà¸Ķ
uy a
is e
Ġpos ible
è¶ ³
Ķ à¸´
áŀ¢áŀĤáŁĴáŀĤ áŀļáŀĬáŁĴáŀĭáŀĳáŀ¼áŀı
vir on
q ue
Ĵ áĢ«
I F
C C
Ġáŀł áŀ½áŀŁ
Ġà®ļ à¯Ģ
ĠáŀŁáŁĴáŀĬáŀ¸ áŀĸáŀ¸
ĠáŀŁáŀ¶áŀĴáŀ¶áŀļáŀİ áŀļáŀĬáŁĴáŀĭ
Ġon e
ĠB akit
int omas
ĠáŀĽ áŁģáŀħ
ĠáĢĻ áĢļ
ĠD oc
Ġh a
ĠáĢĵ áĢĻáģ¼
ĠáĢ±áĢĨ áĢ¸áĢ
Ġor g
áĢķ áĢŃáĢ¯áĢ·
Ġba ka
Ġà¸ģà¸ ¥à¸
Ġáŀļáŀĺ áŀİáŀ¸áŀĻáŀĬáŁĴáŀĭáŀ¶áŀĵ
Ġáŀĺáŀ¶áŀĵ áŀĪáŁĴáŀĺáŁĦáŁĩ
ĠáŀķáŁĴáŀ¢ áŀ¾áŀĽ
ĠáŀĶáŁĴáŀļáŀ¹áŀĢáŁĴáŀŁ áŀ¶
ut er
ĠáŀĶáŀ¶áŀĵ áŀĶáŀīáŁĴáŀĩáŀ¶áŀĢáŁĭáŀĲáŀ¶
ĠáŀĶ áŀīáŁĴáŀĪáŀĶáŁĭ
ĠáŀĶ áŀ½áŀĵ
ľà¸¥à¸´à¸ķà¸ łà¸±à¸ĵà¸ĳ
æŃ ¤
ing in
Ī à¸µà¸Ļ
ĠáŀĬ áŀ»áŁĩ
Ġáŀĩáŀ¶áŀĺáŀ½áŀĻ áŀĤáŁĴáŀĵáŀ¶áŀĵáŁģáŁĩ
Ġáŀĩ áŀ½áŀĵ
àº§ àºµ
ĠáŀĢáŁĴáŀļáŀ»áŀĺ áŀĢáŀ¶áŀļáŀĦáŀ¶áŀļ
ĠáŀĢ áŀ¶áŀı
ľà¸ ¡à¸
ah il
Ķ à¸´à¸Ļ
ĠHu awei
áŁģáŀĬáŁĴáŀĭáŀ¶áŀļáŀħ áŀĵáŀ¶áŀŁáŀĺáŁĴáŀ
±áĢľ áĢ¸áĢĢáĢŃáĢ¯
¥áĢķ áĢ±áĢĴ
ĻáĢºáĢ¬áĢ¸ áĤıáĢ½áĢĦáĢ¹áĢ·
ĸ áĢº
ķ áĢŃáĢ¯
áŀĽ áŀ½áŀħ
į àº²
ĠáģĤáģ ĩ
áº¯ n
ĠáĢĢ áĢĶáĢ¹áĢ
ĠáĢ»áĢĸáĢħáĢ¹áĢ ķáĢ¼áĢ¬áĢ¸áĢ
ĠáĢ¡ áĢľáĢŃáĢ¯
áŀļáŀĸ áŀ¸
į àº±àºĩ
áŀĹáŁĴáŀĽ áŁģáŀħ
áĢ¿ áĢĶáĢ¬
Ġn ung
Ġpa p
áŀĵáŀ· áŀŁáŁĴáŀŁáŀ·áŀı
Ħ àº³
à®¿à® Ļ
áŀĬ áŀĦáŁĴáŀł
áŀĪ áŀº
áŀĩáŁĨáŀĵ áŀĵáŁĭ
áŀĤáŁĴáŀĵ áŀ¶áŀĳáŁħ
áŀĢáŀ¶áŀļáŀľ áŀ¶áŀĻ
n er
ahah a
k ot
à¸£à¸°à¸ļà¸ ļ
áŀ»áŀĢ áŁĴáŀļáŀĺ
áĢ»áĢĸ áĢĬáĢ¹áĢ¸
áĢ±áĢĽ áĢ¬áĢĦáĢ¹áĢ¸
áĢ¬áĢĽ áĢ¾áĢŃ
åĲ Ħ
á»ĵ ng
áŀ¶áŀļáŀ Ľ
Ġà¸ªà¸³à¸« à¸£à¸±à¸ļ
áŀ¶áŀĩ áŀĴáŀ¶áŀĵáŀ¸
Ġat t
à»īàºŃàºĩàº ĸàº´
áĢ¬áĢĽ áĢ½áĢŃ
ľáĢ¬ áĢĲáĢ²áĢ·
ĵ áĢ¬áĢĲáĢ¹áĢ
ĠáĢĽáĢ¬ áĢĩ
áŀ¢áŁĨáŀĸ áŀ¶áŀľáŀĵáŀ¶áŀľ
áĢĦáĢ¹ áĤķ
áĢ¸áĢĻáĢ½ áĢ´áĢ¸
áĢ¶áĢ¯ áĢ¸áĢľ
áĢ®áĢ¸áĢķ áĢ¼áĢ¬áĢ¸áĢ
ĠáģĤáģ Ī
Ġs lot
ļà¸²à¸ ¥
or ts
ĠáŀŁáŀ» áŀĤ
ĠáŀŁ áŁĦáŀĢ
Ġáŀĸ áŁĴáŀļáŀ½áŀĻ
ĠáĢľ áĢ¯áĢ¶áĢ¸áĢ
Ġáŀĸ áŀĦáŁĴáŀļáŀ¸áŀĢ
«à¸Ļà¸ ±à¸ĩ
à¸£ à¹īà¸²à¸Ļà¸
Ġn Äĥng
ĠáŀĶáŀİáŁĴáŀıáŀ¶áŀĽ áŀ²áŁĴáŀĻ
Ġáŀĳáŀ¸ áŁ¡
Ġáŀĳ áŀ¶áŀĢáŁĭáŀĳáŀ¶áŀī
Ġga ano
ļà¸²à¸ ¢
å· ±
ĠáĢĶáĢĬáĢ¹áĢ¸ áĢĶáĢĬáĢ¹áĢ¸
ĠáĢĲáĢĽ áĢ¬áĢ¸áĢĽ
Ġáŀĳ áŀ¶áŀĢáŁĭ
ĠáŀĬáŀ¼áŀħ áŁĴáŀĵáŁĦáŁĩ
Ġv ery
Ġk m
ĠI D
Ġ5 8
áŁĴáŀľ áŀĦáŁĭ
Ġg club
à¸Ńà¸ ±à¸ĩà¸ģà¸¤à¸©
áŁĨáŀĳ áŀ¼áŀĽ
áŀŁáŁĴáŀĵ áŁģáŀłáŁį
áŀŁáŁĴáŀĵ áŀ¶áŀĺ
áŀļáŀ¶áŀĽáŁĭ áŀĲáŁĴáŀĦáŁĥ
Ġà®® à®¾à®±à¯įà®±
áŀĸáŁĴáŀļáŁĥ áŀĪáŀ¾
áŀĶáŁĴáŀļáŀıáŀ·áŀĶáŀıáŁĴáŀıáŀ· áŀĢáŀ¶áŀļ
áŀĶ áŁĲáŀİáŁĴáŀİ
áŀĦáŁĴáŀľ áŁĢáŀĵ
áŀ»áŀŁáŁĴáŀĬ áŀ·áŁį
à»Ģàº¥ àº±àºĶ
áŀ»áŀĵ áŁģáŁĩ
áĢĿ áĢĲáĢº
§à¸²à¸ ĩ
áŀ¶áŀĬ áŁĦáŀĻ
ta in
ĵ áŁģáŁĩ
Ġáŀľ áŀ·áŀĵ
áĢĴ áģ¶
áĢĲáĢ¹áĢĲ áĢĻáĢ¹áĢ¸
áĢĲáĢ¬ áĢ±áĢķáĢ«áĢ·
áĢĢ áĢ¶
áĢ±áĢĲáĢ¼ áĢĽáĢ²áĤķ
±áĢĶ áĢ¬áĢĢáĢ¹áĢ
ĸáĢ¼ áĢĦáĢ¹áĢ·
Ĳ áĢĶáĢ¹áĢ¸
ĠáģĤáģĢáģģáģ Ĥ
ĠáĢĻ áĢ½áĢº
ĠáĢĺáĢļáĢ¹áĢ ±áĢľáĢ¬áĢĢáĢ¹áĢ
ĠáĢĹáĢŃáĢ¯áĢľáĢ¹áĢ ģáĢºáĢ³áĢķáĢ¹áĢ
ĠáĢķáĢ¼ áĢ±áĢ¬áĢĦáĢºáĢ¸áĢ
or s
àº»à»ī àº²àº§à»Īàº²
àº·à»ĪàºŃ àºĻ
Ġáŀĩ áŀĺáŁĴáŀĦáŀº
Ġáŀĩ áŀ¶áŀĽ
àº·à»Īàº ª
Ġ( );
Ĭà¸± à¹Īà¸Ļà¸
ļ à¸´à¸Ļ
ĠáŀĤ áŁģáŀĦ
ou se
ĠP res
Ġ= "
s on
Ġáŀģ áŁĴáŀĽáŀ¸
à®¿à®© à®¾à®°à¯į
åŀ ĭ
ĠáŀĢáŁĨáŀĸ áŀı
ĠáŀĢ áŀ»áŀĺ
Ġgam utin
ĠHe alth
Ġlit rato
ĠáĢķáĢ² áĢģ
ĠáĢĲ áĢķáĢº
Ġáŀ¢áŁĴáŀĵáŀĢ áŀĩáŁĨáŀĵáŀ¶áŀī
Ġáŀ¢ áŀħáŀĽáŀĵáŀĳáŁĴáŀļáŀĸáŁĴáŀĻ
ĠTh is
áŁĴáŀļ áŀ¶áŀľáŀĩáŁĴáŀļáŀ¶áŀľ
Ġka ram
áŁĤáŀĢ áŁĴáŀļáŀľ
áŀĺ áŁĮ
áŀĺ áŀ¶áŀı
áŀĸ áŀĵáŁĴáŀĽáŀº
ĠáĢģ áĤıáģ¶
ĠáĢ¡ áĢ¬áĢ¸áĢĢ
áĢĻáĤĪ áĢĢáĢŃáĢ¯
áĢģ áĢĶáĢ·áĢº
áŀĶáŀİáŁĴáŀı áŀ¹áŀĦ
áŀĶáŀĦáŁĴáŀĢ áŁĴáŀļáŀ¶áŀĶ
áŀĵáŁĴáŀĳ áŁĪ
àº²àºĹàº´ àºļà»įàºĶàºµ
Ġà¸ķ à¸´à¸Ķà¸
Ĥ à¸Ļà¸
áŀĳáŀ·áŀŁ áŀĬáŁħ
áŀĳ áŀ·áŀĵáŁĴáŀĵáŀĵáŁĲáŀĻ
áŀĲ áŀ¶áŀĺáŀĸáŀĽ
àº« àº²àºį
ģà¸¥à¸ ±à¸ļà¸
áŀıáŁĴáŀļáŀ¼áŀľ áŀıáŁĤ
Ġn Ãło
áĢ½áĢ±áĢ¸áĢ Ĳ
Ġk el
ŀ àº±àºģ
èĬ ±
áŀĬ áŀ¶áŁĨ
áĢ±áĢĽ áĢ¸áĢŀ
áĢ±áĢ ļ
Ķ áĢ½
ĠáĢĽ áĢŃáĢ¯áĢĢáĢº
áŀĩ áŀ¶áŀĬáŁĥ
áŀħ áŀĦ
áŀĤáŁĦáŀĽ áŀĵáŀĻáŁĦáŀĶáŀ¶áŀĻ
Ġà®ªà¯Ĩ à®°à®¿à®¯
Ġdi yeta
Ġpang alan
áŀĤ áŁģáŀĦ
Ħ à¹Ī
ĠáĢĽ áĢ±áĢ¬áĢĤáĢ«
æ Ł¥
Ĺ àº¸àº¥
ŀà¸±à¸Ĵ à¸Ļà¸²à¸
áŀĤ áŀıáŁĭ
ĠN ak
Ħ àº§àºĻàº
Ġà¸ªà¸¹à¸ ķà¸£à¸
à¸µ à¹Ī
ŀà¸ ±à¸Ļà¸
áŀĢáŁĨáŀĸáŀ»áŀĦ áŀıáŁĤ
ĠG am
Ġw hat
Ġpam ilya
ĠáĢĢáĢ» áĢĶáĢ±áĢ¬áĢº
ĠáĢĢ áĢ¼áĢ¬
áŀĢ áŀ¼áŀļáŁīáŁģ
áŀ½áŀĤ áŁĮ
áŀ¥ áŀİáŁĴáŀĮ
áŀ¢áŁģáŀŁ áŀ¢áŁģáŀŁ
ha re
R b
4 4
Ġáŀľ áŀ¶áŀĩ
ĠáĢ±áĢķ áĢºáĢ¬áĢĢáĢ¹áĢ
ĠáĢ±áĢĢáĢº áĢ¸áĢĽáĢ¼áĢ¬
ĠáĢ¡áĢģ áĢĻáĢ¹áĢ¸áĢ¡áĢĶ
ĠáĢ¡ áĢĦáĢ¹áĢ¡
ĠáĢ¡ áĢ±áĢĲáĢ¼
Ġ áĤĢáĢĢáĢ®áĢ¸áĢ
áĢķáĢ±áĢĻ áĢ²áĢ·
áĢķáĢ±áĢ¸áĢ Ľ
ĠM ara
Ġà®Ĩ à®ļ
ĠáŀĽáŁĦáŀĢ áŀĩáŁĨáŀĳáŀ¶áŀľ
ĠáŀĶáŁĴáŀļáŀĬ áŀ¶áŀĽáŁĭ
Ġm el
ĠáŀĴáŀ ¶áŀıáŀ»
Ġàºľ à»Īàº²àºĻ
èģ ĺ
æŀ Ĺ
áĢĶ áĢ±áĢĻ
à¯ģà®£ à¯įà®Ł
à»ģàºĤ à»ĪàºĩàºĤ
ļà¸¸à¸ Ħà¸
Ġáŀĩ áŁĨáŀĳ
áº£ m
Ġáŀĩ áŀ¶áŀĢáŀ¶áŀļ
áŁĴáŀļáŀĽ áŀĶáŁĭ
áŁĪ áŀŁáŁĨáŀģáŀ¶áŀĵáŁĭ
Ġpa h
Ħà¸ °
Ġà®ħà®°à®ļ à¯ģ
Ġà¸¡ à¸´à¸
ľ áĤĬ
Ĩ áĢ¯áĢ¶áĢ¸
áŀł áŁĴáŀĵáŀ¹áŀĦ
Ġà®¤ à¯Ģà®°
Ġä¸Ń åĽ½
áŀŁáŀ¶áŀĴáŀ¶áŀļáŀİ áŀļáŀĬáŁĴáŀĭ
«à¸ ¢à¸
áŀĺáŁĴáŀ¢ áŀ·áŀı
áŀĶáŁĴáŀļáŀ ĳ
áŀĶáŀīáŁĴáŀħ áŁģáŀī
é¢ ĳ
áŀĶáŀ¾áŀĢ áŀĶ
áŀĴáŁĴáŀľáŀ¾ áŀĬáŁĨáŀİáŀ¾
àºģ à»įà»Ī
Ģ áĢ¯áĢĶáĢ¹áĢ
ĠáĢ±áĢĴáģļ áĢľáĢ¬
ĠáĢ¡ áĢĻáĢºáĢ¬áĢ¸áĢ
ĠáĢ¡ áĢĢáĢŃáĢ¯
áĢľ áĢŃ
àº» à»Ī
Ħà¸ ³
Ġl ove
r en
Ġmaram i
áĢĦáĢºáĢ¸áĢ Ķ
Ġà®ķ à®¾à®Łà¯įà®Ł
åħ ±
iÃª u
Ġmag andang
àºª à»įàº²àº¥àº±àºļ
ľà¸¥à¸´à¸ ķ
® àº±àºĶ
áĢ»áĢĸáĢħáĢ¹áĢ »áĢĸáĢħáĢ¹
áĢ¸áĢĻ áĢ»áĢ¬áĢ¸
Ĺà¸³ à¹ĥà¸«à¹ī
Ġma dagdagan
t ong
áŀĴáŀĺáŁĴáŀĺ áŀıáŀ¶
áŀĳáŁģ áŀĸ
Ġà®µà¯Ĩà®³ à®¿à®¯
Ġt al
áĢ±áĢĶáĢĽáĢ¬ áĢĻáĢ½áĢ¬
áĢ¡ áĢģáĢ¼áĢĦáĢ¹áĢ·áĢ¡
ĠáĢĸ áĢ±áĢ¬áĢºáĢķáĢ¼
å¥ ³
áŀĲ áŁĴáŀľáŀ¶áŀĻ
áŀĬáŁĤáŀĽ áŀıáŁĴáŀļáŀ¼áŀľ
áŀī áŀ¶áŀĶáŁĭ
å¤ Ħ
ĠO ng
U N
Ġ. "
¡ àº±àºĻàº
Ġà¸ Ĥà¸²à¸¢
Ġà¹ģà¸« à¹Īà¸ĩ
ĠáĢķáĢ¼áĢ±áĢ¬ áĢŀáĢĬáĢº
áŀĩáŀ¸ áŀĸ
u j
ĠáĢĶ áĢ²
ĠáĢĢáĢ¯áĢŃ áĢļáĢ¹áĢ
ĠáĢ¡ áĢĻáĢ¼
áŀĩáŀ¶áŀĺ áŀ·áŀĵ
Ľà¸£à¸°à¸ ªà¸ļà¸
áŀģáŁĴáŀĺ áŁĤ
áŀģ áŁĤáŀĢ
áŀģ áŀ¼áŀħ
áŀĢáŁĴáŀĽ áŀ¹áŀĶ
áŀĢáŀĺáŁĴáŀ Łáŀ¶áŀĵáŁĴáŀı
Ã³ a
áĢĴ áĢ¯
u pp
Ġcom p
áĢĲáģ± áĢŃ
áĢ¸áĢĽ áĢ²áĤķ
áĢ±áĢ¡ áĢ¬áĢĢáĢ¹áĢ
áĢ¬áĢ¸áĢĲ áĢŃáĢ¯áĤĶ
áĢ¡áĢħ áĢ®
I R
ta as
re ng
áŀĢáŀ¶áŀıáŁĭ áŀĶáŀĵáŁĴáŀĲáŀĻ
áŀ¼áŀļáŀ Ĥ
à¸£à¸¹à¸ Ľà¸
ir i
áŀ¸ áŀĻáŁį
áĢ¡áĢ±áĢ»áĢģ áĢ¡áĢ±áĢĶ
±áĢĻ áĢ¬áĢĦáĢ¹áĢ¸
ŀ áĢ½
z oder
p o
¥à¸ ±à¸ģà¸©à¸
è Ń
áŀ·áŀĳ áŁĴáŀĴ
áŀ¢áŁĴáŀĵáŀĢ áŀĺáŀ¶áŀĵ
Ġn yo
zoder il
Ġsina bi
áŀ¢ áŀĵáŀ¶áŀĤáŀı
og le
2 3
ĠáŀŁáŀ»áŀģ áŀ¶áŀĹáŀ·áŀĶáŀ¶áŀĽ
ĠáŀĹ áŁĴáŀīáŀ¶áŀĢáŁĭáŀķáŁĴáŀ¢áŀ¾áŀĽ
ĠáŀķáŁĴáŀŁáŁģáŀĦ áŀĳáŁĢáŀı
fer rin
Ġà»ĢàºĶ àº·àºŃàºĻàº
ä¼ģ ä¸ļ
Ġæ ¯
Ġs up
Ġáŀĵáŀ¶áŁĨ áŀħáŀ¼áŀĽ
ĠáŀĳáŁģ áŀĸ
ĠáŀıáŁĴáŀļáŀ¹áŀĺ áŀıáŁĤ
ĠáŀħáŁĨ áŀļáŀ¾áŀĵ
ĠáŀĢáŀĦ áŀļáŀ¶áŀĩáŀ¢áŀ¶áŀľáŀ»áŀĴáŀłáŀıáŁĴáŀĲ
Ġáŀ§ áŀĢáŀīáŁīáŀ¶
Ġwh o
ĠC EN
Ġ5 2
Ġ3 3
áŁĴáŀŁ áŁģáŀĦ
à¹Ħà¸§ à¹īà¸
Ġàºľ àº°àº¥
ĠàºĬ àº²àº§
áŁĨ áŀļáŀ¶áŀĺ
g ing
áŁģ áŀľ
áŀĽ áŀĳáŁĴáŀĴáŀĹáŀ¶áŀĸ
áŀļáŀĵ áŀ¶áŀĢáŁĭ
áŀĺáŀĵ áŁĴáŀĬ
áŀĹáŁĴáŀĵáŀ¶áŀĢáŁĭáŀĦ áŀ¶áŀļ
Ġàºģ àº²àºĩ
Ġà¸ ¿
à¹ĩà¸ ¡
áŀĸáŁģáŀĽ áŀľáŁģáŀĽ
à»įàº²àºĻàº§ àºĻàº
Ġker ana
ĠÃ ½
b le
à»ĥàºĻàº Ń
Ġgina wa
Ġà®ªà®ķ à¯ģà®¤
áŀĵáŀ¹áŀĦ áŀıáŁĴáŀļáŀ¼áŀľ
æĺ Ł
áŀĵáŀ¸ áŀıáŀ·áŀľáŀ·áŀĴáŀ¸
Ľ áĢĦáĢºáĢ¸áĢŀ
áŀĴáŁĴáŀľáŀ¾ áŀĢáŀ¶áŀļ
à¸£à¸±à¸ģà¸© à¸²
ĠD ownload
na t
ĸáĢ¼ áĢĦáĢºáĢ·
Ĩ áĢ®
Ĭ à¸²
áŀĳ áŀ¼áŀĢ
ĠáĢĳ áĢŃáĢĶáĢº
à¹Īà¸Ļà¹Ģà¸ ģà¸¡à¸
à¸Ńà¸ ´à¸
áŀĲáŁĴáŀĽáŁĤáŀĦ áŀĢáŀ¶áŀļáŀİáŁį
áŀĬ áŁģáŀī
áŀĩáŀ¶áŀĢáŀ¶áŀļáŀ Ķ
áŀĤáŀ¶áŀıáŁĭ áŀĶáŀ¶áŀĵ
à»ĥ àºļ
ĠáĢ¡ áĢŃáĢĶáĢ¹áĢĴ
áŀĢáŀ¶áŀļáŀŁáŀł áŀĶáŁĴáŀļáŀĩáŀ¶áŀĩáŀ¶áŀıáŀ·
áŀĢ áŁĴáŀļáŀ¡
áŀ¶áŀļáŀ¸ áŀŁ
Ġlá» Ľ
Ġå ¦Ĥ
áŀ¢ áŀĹáŀ·áŀľáŀĮáŁĴáŀį
or ies
it ed
igh ts
ĠáŀŁáŁģáŀļáŀ¸ áŀĹáŀ¶áŀĸ
Ġáŀľ áŁīáŀ¶
ĠáŀĽáŀ¾áŀŁáŀĸáŀ¸ áŀĵáŁģáŁĩ
áĢ¸áĢķ áĢ²
Ġáŀĺáŀ¶áŀĵ áŀıáŁĤ
áĢ±áĢķ áĢºáĢ¬áĢĢáĢ¹áĢ
áĢ¡áĢģáĢºáĢŃ áĢĶáĢ¹áĢĻáĢ½áĢ¬
ĺáĢ¯áĢĽ áĢ¬áĢ¸
Ġs el
ĠáĤı áĢ½áĢŃ
ĠáĢħáĢ¬ áĢ¡áĢ¯áĢķáĢ¹áĢ
ĠáĢ±áĢĨ áĢ¬áĢĦáĢ¹
áĢ»áĢĻ áĢĲáĢ¹áĢ
áĢ±áĢ¸áĢģáĢ» áĢļáĢº
Ġáŀĸ áŁĴáŀļáŀłáŀŁáŁĴáŀĶáŀıáŀ·áŁį
ĠáŀĶáŀĵáŁĴáŀĽ áŁĤ
ĠáŀĳáŁħ áŀĵáŀ¹áŀĦ
à»ģàº§ àºĶàº¥à»īàºŃàº¡
ĠáŀĳáŀŁáŁĴáŀŁáŀĵ áŁĪ
Ġáŀĳ áŀĺáŁĴáŀĽáŀ¶áŀĢáŁĭ
Ġáŀı áŀĺáŁĴáŀĽ
à»Ģàº¥ àºģàº
ĠáŀĬ áŁĤáŀĢ
ĠáŀĢ áŀıáŁĴáŀı
Ľ à¹īà¸Ńà¸ĩà¸
k ita
áĢ±áĢ ģáĢ«
áĢ¯áĢ¶áĢ¸áĢ ¡
ĠAP K
Ġ5 5
áŀŁ áŀĤáŁĴáŀĤ
áŀļáŀĬ áŁĤáŀĽ
áŀĺáŁī áŁĤáŀĽ
±áĢ¡ áĢ¬áĢĢáĢ¹áĢ
ģ áĢĶáĢ¹áĤĶ
ĠáĢľáĢ¼áĢĲáĢ¹áĢ ľáĢķáĢ¹áĢ
ĠáĢĽáĢ½ áĢ¾
áŀķáŁĴáŀ¢ áŁĤáŀĢ
àºŃ àºµ
Ġà®®à¯ĩà®² à¯ģà®®à¯į
ĠáĢħ áĢĶáĢħáĢ¹áĢ
ĠáĢģ áĢ±áĢ«
ĠáĢ±áĢ»áĢķ áĢ¬áĢĽ
áĢŃáĢķ áģ¸
áĢ¸áĢĢ áĢ±áĢ¬áĢĦáĢºáĢ¸
«à¸Ļà¸±à¸ĩà¸ ªà¸
áŀĶáŁĴáŀļáŀ Īáŀĺ
áĢ¬áĢ¸áĢĻáĢº áĢ¬áĢ¸áĢ
áĢ¡áĢĢáĢº áĢĦáĢ¹áĢ·
ĳ áĢŃáĢ¯áĢ¸áĢ
ins an
áŀĶ áŁĴáŀıáŀ¸
áŀĴáŀº áŀİ
ĳ áĢķáĢ¹áĢ
ĠáĢĴáĢ« áĢĢ
ĠáĢħ áĢŃ
ĠáĢĢáĢ» áĢĶáĢºáĢ¸áĢĻáĢ¬áĢĽ
¸à¸ĩà¹Ģà¸Ĺà¸ ŀà¸
Ħà¸§ à¸£à¸
ĠáĢ¡ áĢĦáĢ¹áĢ
áĢĻáĢ»áĢ¬áĢ¸áĢ¡ áĢĲáĢ½áĢĢáĢº
Ġé Ŀ
ĠC ream
z a
àºķ à»īàºŃàºĩàº
k ala
èĢ Į
áŀĬáŁĤáŀĽ áŀıáŁĴáŀļáŀ¼áŀľáŀĶáŀ¶áŀĵ
Ġà¸£ à¹Īà¸²
à¹ģà¸Ĥ à¹Īà¸ĩà¸Ĥà¸
Ã į
Ã İ
Ã ĵ
ĠÄĳ Ã¢y
àº¸àºĻàºĻàº° àºŀàº²àºļ
àº¸àºģàºį àº¹à»ī
àº´àºĻàº Ħà»īàº²
àº°àºŃ àº»àºĩàº
« àº²àº
áŀĢáŀ¶áŀļáŀĬáŁĴáŀĭáŀ¶áŀĵ áŀĵáŀĤáŀļáŀĶáŀ¶áŀĽ
áŀĢ áŁĨáŀŁáŀ¶áŀĵáŁĴáŀı
áŀĢ áŀ¶áŀĶ
áŀ¶áŀĬ áŀ¾áŀĺáŁĴáŀĶáŀ¸
áŀ¢áŀ¶áŀľáŀ» áŀĴ
Ã ¸
oc i
in it
ķáŀĽ áŀ·áŀı
ĵ áŀ·áŀĦ
ĠáŁ¢áŁ¥ áŁ¦
ĠáŀŁáŀ¸áŀł áŀĵáŀ»
ĠáŀĸáŀĽ áŀĢáŀļ
Ġáŀĳ áŀ»áŀĵ
Ġáŀı áŀ¼
ĠáŀĬ áŁģáŀĢ
ĠáŀĬ áŀ¼áŀİáŀ¶áŀĽáŁĭ
ĠáŀĬ áŀ¼
ĠáŀĬ áŀ»áŀı
áĢķ áĢŃáĢĲáĢ¹áĢ
áĢĢáĢº áĢĦáĢ¹áĢ¸áĢķ
áĢ±áĢĽ áĢ¬áĢĦáĢ¹
áĢ±áĢĶ áĢ±áĢŀáĢ¬
áĢ±áĢ¸áĢĻ áĢ¼
Ġáŀĩ áŀ¶áŀĢáŀ¶áŀļáŀ
¥àº°àºļ àº»àºļ
Ġà®ªà®¿à®° à®¤
ĠáŀĦ áŀ¶áŀĻáŀŁáŁĴáŀļáŀ½áŀĽ
áĢ±áĢ Ĥ
Ġpa galing
ĠG u
Ġpag l
ĠáŀĤáŀ½áŀļáŀĶ áŀīáŁĴáŀĩáŀ¶áŀĢáŁĭ
ĠáŀĤ áŁĦ
Ġáŀ§áŀıáŁĴáŀıáŀĺ áŀŁáŁģáŀĵáŀ¸áŀĻáŁį
Ĺàºµà»Īàº Ī
Ã ķ
Ġnh áºŃn
±áĢĲáĢ¼ áĢĻáĢ½áĢ¬
} ,
ĻáĤĪ áĢĢáĢŃáĢ¯
ĸ áĢĢáĢ¹áĢ
ĠáĢľ áĢĬáĢ¹áĢ
ĠáĢĸáĢĻáĢ¹áĢ¸áĢĨ áĢ®áĢ¸áĢ
ĠáĢķáĢ¼áĢ±áĢ¬ áĢĢáĢ¼
ĠSc ien
ĠR a
ªà¸°à¸ Ķà¸§à¸
ĠNg uyen
ĠNat ional
Ġ4 6
áŁĴáŀĴáŀ ıáŁĭ
áŀŁáŁĨáŀģáŀ¶áŀĵáŁĭ áŁĹ
áŀŁáŀĺáŁĴáŀıáŁģáŀħ áŀıáŁģáŀĩáŁĦ
áŀĺáŁī áŁĤáŀı
áŀĺáŀ½áŀĻ áŀĳáŁĢáŀı
áŀķáŁĴáŀĳáŀ¶áŀĽáŁĭ áŀģáŁĴáŀĽáŀ½áŀĵ
å®¢æĪ· ç«¯
è Į
ªà¸´à¸Ĺà¸ĺ à¸´à¸
áŀĶáŁĴáŀļáŀ ıáŀ·áŀĶ
áŀĵáŁĴáŀĽ áŀĦáŁĭ
áŀĵáŀ»áŀŁáŁĴáŀŁ áŀ¶áŀľ
ķ àº±à»īàºĩ
áŀĵ áŁģ
à¯įà®ª à¯ģ
áŀĵ áŀ¶áŀĵáŀ¶
ĠB ar
Ġà¹Ģà¸ŀà¸ ·à¹Īà¸Ń
Ġ ya
é ĸ
Ġç ī
áŀĦ áŀ¶áŀļ
áŀĤáŁĴáŀļáŀĶáŁĭ áŀĤáŁĴáŀļáŀ¶áŀĵáŁĭ
b ab
áŀĤáŀ½áŀļáŀ ²áŁĴáŀĻ
áŀĢáŀ¶áŀļ áŁī
à¹Ħà¸¡à¹Īà¸ ¡à¸µà¸
ĠáĢķ áĢ½áĢ²
áŀ¶áŀİ áŀ¼áŀĻ
pa rt
ĠâĢĭâĢĭâĢĭâĢĭâĢĭ âĢĭ
ĠáŀŁáŁĴáŀĵáŀĦ áŀĢáŀ¶áŀļ
ĠáŀŁáŀĺáŁĴáŀ ĸáŁĲáŀĵáŁĴáŀĴ
ä¼ ĺ
Ħ àº´àºĶ
ĠáŀŁáŀĺ áŁĴáŀļáŀ¶áŀĢ
ĠáŀŁáŀ¶áŀĺ áŀĤáŁĴáŀĤáŀ¸
ĠáŀŁ áŀĽáŁĭ
Ġnin yo
Ġn et
ĠáŀĻ áŀĢáŁĴáŀŁ
ĠáŀĪ áŁĴáŀĵáŀ½áŀĽ
ĠáĢĲáĤĲ áĢ¯áĢĲáĢ¹
ĠáĢĢ áĢ²
ĠáĢ±áģ¾áĢĢ áĢĬáĢ¬
ĠáĢ±áĢĽ áĢ½áĢ¬
ĠáĢ±áĢħ áĢº
ĠáĢ¡áĢģáĢ¼ áĢ±áĢ¡
ĠáŀĪ áŀ»áŀı
Ġ{ \
Ġh igh
Ġ5 7
áŁĴáŀļáŀĳ áŀ¶áŀĶáŁĭ
áŁĨ áŀ¢
áŁĦáŀĦ áŀıáŀ¶áŀĺ
áŀŁáŁĴáŀļáŀŁáŁĭ áŀŁáŁĴáŀ¢áŀ¶áŀı
ç» Ħ
áŀļáŀĺ áŁī
áŀĺáŁģ áŀĤáŀĦáŁĴáŀĤ
áŀĹáŀ¼áŀĺ áŀ·áŀŁ
Ġà»ĢàºĤ àº»à»īàº²àº
Ġà®ļà¯Ĭ à®©à¯įà®©
áŀĸáŀ¶áŀĵ áŀļáŀĦáŁĴáŀľáŀ¶áŀĵáŁĭ
à¯ĩ à®±à¯įà®±
ĠàºŃ àº²àºĶ
Ġpag p
áŀĴáŀĵ áŀ¶áŀĤ
Ġo p
âĢ Ļ
áĤĤ áĢº
áĤ Ħ
áģ¾ áĢŀ
áĢĻáĢ¾áĢ¬ áĢķáĢ«
áĢºáĢĢáĢ¹áĢ ĽáĢ½áĢŃ
áĢ¬áĢ¸áĢĶ áĢŃáĢ¯áĢĦáĢº
à¹Ĥ à¸£
áŀĳ áŀĶáŁĭáŀŁáŁĴáŀĢáŀ¶áŀıáŁĭ
áŀħáŁĴáŀĶáŀ¶áŀŁáŁĭ áŀĽáŀ¶áŀŁáŁĭ
áŀħáŁĨáŀİ áŁģáŀī
áŀħáŀ¶áŀĶáŁĭ áŀģáŁĴáŀĽáŀ½áŀĵ
Ġà®µà®° à¯ģà®®à¯į
áŀĢáŀ¾áŀı áŀĺáŀ¶áŀĵ
ĠàºĶ àº²
ĠàºĬ àºµ
Ġàºģàº ±àºĻàº
Ġà¸ «à¸¥à¸±à¸ĩà¸
áŀ¹áŀĢ áŀīáŀ¶áŀĶáŁĭ
Ġt Æ°
Ġàºª àº´àºĩàº
ĥ à®ª
Ġseb agai
à»Ħ àºĹ
à»ĢàºĶ àºµàºĻàºĹàº²àºĩ
Ġk in
áŀ·áŀħ áŀ·áŀı
áŀ¶áŀĸ áŁĴáŀļáŀ¹áŀĢ
áŀ¶áŀĤ áŀ¸
¥ áĢ®áĢ¸áĢĢ
ĠâĢ¦ âĢ¦
ĠáĢķáĢ¼ áĢ®áĢ¸áĢ
ĠáĢĢ áĢĽáĢĦáĢ¹áĢ
ĠáĢ±áģ¾áĢĢ áĢ¬áĢĦáĢ¹áĢ¸
ĠáĢ±áĢķáĢ« áĢĦáĢ¹áĢ¸
ĠáĢ±áĢĢ áĢ¬áĢ¹áĢĻáĢĲáĢ®
áĢĿáĢĶáĢº áĢ¸áĢĢáĢ»áĢĦáĢº
Ġh ang
áŀ¶áŀ §
áŀ¢ áŀ¶áŀĻ
ģà¸µà¸ ¬
áĢ¼áĢļáĢ¹áĢ Ģ
áĢ±áĢĨ áĢ¬áĢĢáĢ¹áĢ¡
áĢ¬áĢ¸áĢŀ áĢ±áĢ¬
Ġm áº·t
éľ ¸
éĢ ł
es ter
ĠâĢĭ ...
ĠáŀŁáŁĴáŀľáŀ¶áŀĻ áŀļáŁĢáŀĦ
ĠáŀŁáŀ¼áŀĺ áŀĶáŀīáŁĴáŀĩáŀ¶áŀĢáŁĭáŀĲáŀ¶
Ġáŀľ áŀ¶áŀĽ
ĠáŀĸáŁĴáŀļáŁĩ áŀĺáŀłáŀ¶áŀĢáŁĴáŀŁáŀıáŁĴáŀļ
ĠáŀĸáŁĲáŀĵ áŁĴáŀĴ
ĠáŀĸáŁĦáŀĽ áŀĤáŀº
Ġáŀĸáŀ¶áŀĢáŁĭ áŀĸáŁĲáŀĵáŁĴáŀĴáŀ
ĠNa ka
Ġáŀĸ áŀ·áŀĹáŀĸ
Ĺà¸¸à¸ ģ
ĠM ana
ĠáŀĶ áŁĬáŀ¸
ĠáŀĶ áŀļáŀĺ
Ġáŀĵ áŁĴáŀı
ĠáŀĬáŁĦáŁĩ áŀĽáŁĤáŀĦ
k al
ĠáŀĬáŁĤáŀĽ áŀıáŁĴáŀļáŀ¼áŀľáŀĶáŀ¶áŀĵ
ĠáŀĩáŁĨáŀĵ áŀ¿
à¸Ļ à¹Īà¸²
Ġáŀĩ áŁĨ
ĠáŀħáŁĤáŀĢ áŀħáŀ¶áŀĻ
Ġáŀħ áŁĴáŀĶ
ģà¸ µà¹Īà¸¢à¸§à¸
ĠáŀĢáŁĴáŀļáŀŁáŀ½áŀĦ áŀĺáŀłáŀ¶áŀķáŁĴáŀĳáŁĥ
ĠáŀĢáŁĴáŀĵáŀ»áŀĦ áŀĢáŀļáŀİáŀ¸
Ġáŀ¢áŁĴáŀĵáŀĢ áŀ¢áŀ¶áŀħ
ad o
Ġáŀ¢áŀ¶áŀĢáŀ¶áŀŁ áŀĴáŀ¶áŀıáŀ»
áŁĴáŀĶ áŁī
àºĻ à»ĦàºĽ
Ġæ ³
Ġmag kano
ĠM y
i yang
áŁī áŀ¶áŀĵáŁĭ
à¹Ħà¸ «à¸¡
» áĢĢ
±áĢĽáĢ¬ áĢĤáĢ«
Ļ áĢ¾áĢ¯
áŁħ áŀĢáŁĤ
áŀŁ áŁĢáŀľáŀĹáŁħ
ĠH otel
Īà¸ Īà¸¸à¸
áŀŁ áŀĵáŁĴáŀĻ
Ġh ay
áŀļáŁĨáŀĽ áŁĦáŀĹ
àº¸àºĻ àº²
áŀĻ áŁĦáŀĶáŀĽáŁĭ
áŀĺ áŁĴáŀļáŀĦ
áŀĶ áŁĬáŀ¸
Ġà®® à®¾à®£
àº¸àºĶàºĹ àº°àºª
àºµ à»īàº¡
àº²àºĹàº´ àºģàº²àºĻ
àº±àºĩàº Īàº²àºģ
áŀĵáŁĴáŀĽ áŁģáŀŁ
èĪ °
ĠáĢĳ áĢķáĢ¹áĢĻ
Ġ.... .
áģ¾áĢĢ áĢĽ
áĢ±áĢĽáĢ¬ áĢĤáĢ«
áĢ±áĢĲáĢ¼ áĢľáĢĬáĢ¹áĢ¸
»áĢĸáĢħáĢ¹áĢ ĲáĢ²áĢ·
ĠáĢĽáĢ½áĢĻáĢ¹áĢ¸ áĢ»áĢķáĢĬáĢ¹áĢ
ĠáĢķ áĢ±áĢ«áĢº
áŀĵ áŀĤ
áŀĮ áŀ»áŀĶ
áŀħáŁĤáŀĢ áŀļáŁĨáŀĽáŁĤáŀĢ
áŀħáŀ¶áŀĶáŁĭ áŀķáŁĴáŀĬáŀ¾áŀĺ
áŀĢáŀ¶áŀļáŀĤ áŁĴáŀļáŀĶáŁĭáŀĤáŁĴáŀļáŀĦ
áŀ¼áŀĽ áŀ¸áŀŁ
ĠáĢĶáĢĬáĢ¹áĢ¸ áĢķáĢĬáĢ¬
ĠáĢĨ áĢĢáĢ¹áĢĨáĢ¶
ĠáĢ¡áĢĻáĢ»áĢŃáĢ¯áĢ¸áĢ ŀ
Ġà®µ à®¯
er i
à¸Ńà¸ Ķà¹Ģà¸
èĩ ³
áŀ¼áŀļáŀ ¢
àºª àº²àºį
áŀ¶áŀĬ áŀ¼
ĠáĢ¡áĢķ áĢ°
áŀ¢ áŀ¶áŀĢáŁĴáŀļáŀĢáŁĭ
v el
D A
1 9
Ĭà¸µà¸§à¸´à¸ ķ
àº§ àº´àºĹàºµ
Ġà®ħà®²à¯įà®² à®¤à¯ģ
Ī áŀº
ĠáŁ§ áŁł
ĠáŀŁáŁĴáŀļ áŁĴáŀıáŀ¸
ĠáŀŁáŁĴáŀĵ áŁģáŀłáŀ¶
ĠáŀŁáŀ·áŀĳáŁĴáŀĴáŀ· áŀĺáŀĵáŀ»áŀŁáŁĴáŀŁ
ĠáŀŁáŀ¶áŀĢ áŀŁáŀĸ
ĠáŀŁ áŁģáŀĦ
ĠáŀĻ áŀ¶áŀĦ
Ġáŀĸ áŁĦáŁĩ
ĠáŀĶáŁīáŀ»áŀĵáŁĴáŀĬ áŁĤ
ĠáŀĶ áŁĦáŀĢ
Ġáŀĵ áŀ¹áŀĢ
ĠáŀĲ áŁĤáŀļáŀĢáŁĴáŀŁáŀ¶
ĠáŀĢáŀ¶áŀıáŁĭ áŀĶáŀĵáŁĴáŀĲáŀĻ
Ġáŀ²áŁĴáŀĻ áŀĶáŀ¶áŀĵ
Ġáŀ¢áŁĴáŀĵáŀĢ áŀĺáŀ¶áŀĵ
Ľàº°àº Ĺàº²àºĻ
p i
áĢŃáĢĻáĢº áĢ·
Ġáŀ¢áŀĦáŁĴáŀĤ áŀļ
Ġáŀ¢ áŀ¼áŀļ
Ġáŀ¢ áŀ¶áŀĽáŁĴáŀĽáŀºáŀĺáŁīáŀĦáŁĭ
ķ à»įà»Īàº
ĠRF I
ĠA F
Ġ4 8
Ġ- %
áŀŁáŁĴáŀĲáŀ·áŀı áŀĵáŁħ
áĢķ áĢħáĢ¹áĢ
áĢģ áĢĶáĢ¹áĢĵ
Ĺ à¹Ģà¸
Ġch áº¥t
Ĥ àº²àºį
áĢ¸áĢħ áĢ¬áĢ¸áĢ
Ġpagaling in
c y
u o
áĢ±áĢĽáĢ¸áĢ¡ áĢĲáĢ¼áĢĢáĢ¹
áĢ±áĢķ áĢºáĢ¬áĢ¹áĢ
áĢ¯áĢĶáĢº áĢ¸
¡à¸ «à¸²à¸
Ġàºķ àºµ
Ġk em
à»Īàº ³
áŀŁ áŁĴáŀļáŀ¶áŀĶáŁĭ
áĢ¬áĢ¸áĢ¡ áĢĽ
ĻáĢ½ áĢĶáĢ¹áĢ¸
ĺáĢ¬ áĢŀáĢ¬
æĶ ¾
áŀŁ áŀĵáŁĴáŀĴáŀ
áŀļáŀ¶áŀĦ áŀĢáŀ¶áŀĻ
à»Ħàº¥àºį àº°àº
áŀļáŀ ½
áŀĺ áŀĩáŁĴáŀĪáŀĺáŀİáŁĴáŀĮáŀĽ
áŀĹ áŁĴáŀĵ
à¸Ńà¸µà¸ ģ
áŀĸ áŁĮ
áŀĸ áŁĦáŀĴáŀ·áŁįáŀŁáŀ¶áŀıáŁĭ
áŀĶáŀļáŀ· áŀħáŁĴáŀĨáŁģáŀĳ
à»ģ àºĻàº°
áŀĶáŀĦáŁĴáŀĢáŀ¾áŀı áŀ¡áŀ¾áŀĦ
Ĳ áĢŃáĢ¯áĢ·
Ġm una
Ġtr Æ°á»Ľc
Ľà¸£à¸°à¹Ģà¸Ĺà¸¨ à¹Ħà¸Ĺà¸¢
à¸£à¸²à¸ °
ļà¸Ĺà¸ §à¸Ļ
à¹Ģà¸£à¹ĩà¸ §
àºĬ à»Īàº§àºį
ĠR o
áŀĴ áŁĴáŀĽ
ĠáĢ»áĢķáĢĬáĢ¹áĢ ĶáĢļáĢ¹áĢ
ĠáĢ±áĢ Ł
áĢĦáĢºáĢ¸áĢĻ áĢ¾áĢ¬
æĲ ı
è½¯ ä»¶
Ġï¿½ï¿½ï¿½ ï¿½
åĪ Ľ
ĠF ilipino
ah al
áŀı áŁĴáŀĶ
áŀĬ áŀ»áŁĩ
áŀĩáŁĨáŀĵ áŀ½áŀĶ
áŀĩáŀ¸ áŀĲáŀĽ
áŀĩáŀ¶áŀŁ áŀĺ
áŀĩáŀ¶áŀļáŀ ¿áŀĦ
áŀĩáŀ¶áŀĺ áŀĵáŀ»áŀŁáŁĴáŀŁ
áĢº áĢĻ
áĢ±áĢĽ áĢ¾
ir st
vi e
áŀħ áŁĲáŀĵáŁĴáŀĳ
um pa
áŀĤáŀ½áŀļáŀ ıáŁĤ
Ġc o
Ġl oc
Ġ. )
Ľ áĢĬáĢ¹áĢ
ĠáĢĻ áĢŃáĢ¯
åı ĸ
à¹Ĥà¸ ģ
ĠáĢĲáĢĬáĢ¹áĢ ±áĢĨáĢ¬áĢĢáĢ¹áĢ
ĠáĢĲáĢħáĢ¹áĢ ľ
ĠáĢĲ áĢ¯áĢŃáĤĶ
ĠáĢĨ áĢ°
ĠáĢĢáĢŃáĢ¯áĢļáĢ¹áĢħ áĢ¬áĢ¸áĢľáĢ½
ĠáĢ±áĢľ áĢ¸áĢ
ĠáĢ¡áĢĻáĢ½ áĢĲáĢ¹
ĠáĢ¡áĢĢ áĢ¯áĢĶáĢ¹áĢ
áĤıáģµ áĢŃáĢļ
áĤĢáĢĢáĢ®áĢ¸áĢ ¡
áĢĽáĢ¾ áĢ¯
áŀ¶áŀĺáŁģáŀļáŁī áŀ¶
uk as
áŀ¯áŀĢ áŀŁáŀ¶áŀļ
t on
ch e
Ĺ à¹Īà¸²à¸Ļ
Ľà¸£à¸ªà¸´à¸ ķ
a M
Ġáŀł áŁģ
à¹Ģà¸¥à¸ ¢
ĠáŀŁáŀİáŁĴáŀĭ áŀ¶áŀĤáŀ¶áŀļ
áĢĸ áĢĶáĢ¹áĢ
áĢĶáĢ¹áĢĲ áĢĽáĢ¬
àºªàº° à»ľ
ģà¸²à¸ ¢
ĠáŀŁ áŀľáŀĵ
ĠáŀļáŀĶ áŀļ
ĠáŀĺáŁĴáŀŁ áŁħ
Ġáŀĺ áŀĩáŁĴáŀĪ
ĠáŀĹ áŁĴáŀĵáŀ¶áŀĢáŁĭáŀĦ
Ġà¸Ļà¸²à¸ ¢à¸
ĠáŀĸáŀĵáŁĴáŀĴáŀ ĵáŀ¶áŀĤáŀ¶áŀļ
Ġm on
angga p
áĢĨ áĢĶáĢ¹áĢ¸
áĢģáĢºáĢŃ áĢĶáĢ¹
áĢĢ áģ½
áĢ½áĢ¾ áĢĶáĢº
Ĭà¸¸à¸ ¡à¸
Ġáŀĵ áŀļáŀİáŀ¶
ĠáŀĴáŀ ĺáŁĮ
Ġáŀĳ áŁĴáŀľ
Ġáŀĳ áŀĳ
æĿ ĳ
ĠáŀıáŀĺáŁĴáŀļáŀ¼áŀľ áŀĢáŀ¶áŀļ
Ġáŀı áŁĦáŀĵ
ĠáŀħáŁģáŀī áŀķáŁĴáŀŁáŀ¶áŀĻ
Ġáŀģ áŀ¶áŀı
Ġáŀ¬ áŀĢáŁı
«àºį àº±àºĩ
åħ Ī
ªà¸³à¸Ħà¸ ±à¸įà¸
ĠâĢ Ķ
Ġ ut
ŀàº£àº°à»Ģàº Īàº»à»īàº²
ŀàº£ àº°àºŃàº»àºĩ
Ġàºģàº° àºĬàº§àºĩ
à»ģàº¡à»Īàºį àº´àºĩ
áĢ½áĢº áĢ¬áĢĢáĢ¹
áĢ»áĢķ áĢĶáĢ¹
áĢ´ áĢĴáĢ«áĢĶáĢ¹áĢ¸
áĢ¬áĢĶ áĢ¬
Ġáŀ¢áŀ¶áŀİ áŀıáŁĴáŀıáŀ·
Ġáŀ¢ áŀ¶áŀĦ
ĠáĢĻ áĢ¼áĢĶáĢ¹áĢ
ĠáĢĲ áĢļáĢº
ĠTr ump
ĠAp ril
áŁĦáŀĩáŀĵ áŀ¸áŀĻáŀĬáŁĴáŀĭáŀ¶áŀĵ
à»ģ à»ľ
ĠáĢ¡áĢ±áĢĶ áĢĶáĢ²áĤĶ
áģĢ áĢĲáĢ¹áĢ
áĢľáĢ¬ áĢģáĢ²áĢ·
ĠT a
à®µ à®¿à®²à¯į
áŁģáŀŁáŁĬáŀ¸ áŀĽ
ĠP as
áŀŁáŀĺáŁĴáŀļáŀ¶áŀĶáŁĭ áŀ¢áŁĴáŀĵáŀĢ
us e
áŀŁ áŀĵáŁĴáŀĳ
áŀĺáŁĴáŀļ áŁħ
àºĻ à»Į
f ter
E L
Ġt ea
Ġka p
à¸Ńà¸Ļà¸ ¸à¸
Ġb á»Ļ
áŀĺáŁĴáŀļ áŀ¶áŀĺ
àºķ àº±à»īàºĩ
áĢľ áĢ¼áĢ²
áĢ±áĢ¸áĢĻ áĢ¾áĢ¯
áŀĸáŁĴáŀļáŁĩ áŀľáŀ·áŀłáŀ¶áŀļ
áŀĵáŁĴáŀĽ áŁĩ
[...]
