{"Ķ": 0, "Ļ": 1, "©": 2, "C": 3, "'": 4, "n": 5, "ķ": 6, "$": 7, "5": 8, "R": 9, "V": 10, "ÿ": 11, "¤": 12, "á": 13, "0": 14, "î": 15, "Ŀ": 16, "7": 17, "/": 18, "¸": 19, "ę": 20, "é": 21, "(": 22, "E": 23, "à": 24, "Ġ": 25, "\\": 26, "Ą": 27, "¨": 28, "ć": 29, "Ł": 30, "c": 31, "ĸ": 32, "\"": 33, "İ": 34, "í": 35, "~": 36, "4": 37, "6": 38, "Đ": 39, "Ē": 40, "ĭ": 41, "h": 42, "z": 43, "q": 44, "ĳ": 45, "}": 46, "į": 47, "Ó": 48, "Ù": 49, "ľ": 50, "@": 51, "Ã": 52, "ë": 53, "Í": 54, "Ĝ": 55, "X": 56, "Ä": 57, "ú": 58, "8": 59, "%": 60, "Î": 61, "¢": 62, "Ě": 63, ">": 64, "¯": 65, "ï": 66, "N": 67, "u": 68, "å": 69, "Ĕ": 70, "â": 71, "+": 72, "ļ": 73, "ė": 74, "_": 75, "Ð": 76, "Ú": 77, "t": 78, "ä": 79, "ą": 80, "Ħ": 81, "w": 82, "ē": 83, ":": 84, "Ĭ": 85, "µ": 86, "¶": 87, "ĺ": 88, "À": 89, "É": 90, "Å": 91, "Ċ": 92, "õ": 93, "´": 94, "ø": 95, "Þ": 96, "^": 97, "ç": 98, "¿": 99, "æ": 100, "Ć": 101, "Ľ": 102, "Õ": 103, "-": 104, "?": 105, "ª": 106, "Ă": 107, "ł": 108, "v": 109, "3": 110, "ģ": 111, "þ": 112, "Ğ": 113, "¾": 114, "Ý": 115, "#": 116, "ĉ": 117, "Ñ": 118, ".": 119, "J": 120, "ĕ": 121, "ħ": 122, "U": 123, "e": 124, "ĥ": 125, "O": 126, "&": 127, "Ü": 128, "ô": 129, "ğ": 130, "Z": 131, "F": 132, "B": 133, "ý": 134, "ã": 135, "»": 136, "č": 137, "Ė": 138, "×": 139, "!": 140, "<": 141, "y": 142, "ö": 143, "Ĺ": 144, "Y": 145, "²": 146, "M": 147, "ĩ": 148, "Ç": 149, "H": 150, "ĵ": 151, "j": 152, "Â": 153, "m": 154, "³": 155, "ı": 156, "W": 157, "Q": 158, "ă": 159, "b": 160, "T": 161, "Ĳ": 162, "Ĥ": 163, "o": 164, "G": 165, "ñ": 166, "ó": 167, "Á": 168, "1": 169, "Ī": 170, "A": 171, "2": 172, "Č": 173, "s": 174, "{": 175, "[": 176, "è": 177, "«": 178, "ŀ": 179, "ì": 180, "ê": 181, "¥": 182, ")": 183, "¹": 184, "=": 185, "Ģ": 186, "Ď": 187, "f": 188, ";": 189, "±": 190, "r": 191, "ċ": 192, "a": 193, "Æ": 194, ",": 195, "§": 196, "·": 197, "l": 198, "x": 199, "Ń": 200, "¼": 201, "Ĩ": 202, "ù": 203, "g": 204, "Ö": 205, "I": 206, "Ĉ": 207, "Û": 208, "ĝ": 209, "ě": 210, "Ï": 211, "i": 212, "d": 213, "ġ": 214, "Ò": 215, "Ā": 216, "ò": 217, "L": 218, "]": 219, "Ô": 220, "÷": 221, "D": 222, "Ø": 223, "£": 224, "°": 225, "Ę": 226, "È": 227, "`": 228, "ð": 229, "û": 230, "º": 231, "k": 232, "S": 233, "½": 234, "ß": 235, "®": 236, "p": 237, "9": 238, "Į": 239, "Ĵ": 240, "Ì": 241, "*": 242, "¬": 243, "ī": 244, "|": 245, "Ë": 246, "K": 247, "Ê": 248, "ü": 249, "¡": 250, "P": 251, "ď": 252, "ā": 253, "đ": 254, "¦": 255, "áŀ": 256, "áĢ": 257, "à®": 258, "áŁ": 259, "àº": 260, "à¸": 261, "Ġáŀ": 262, "à¯": 263, "âĢ": 264, "áĢ¹": 265, "ĠáĢ": 266, "âĢĭ": 267, "áĢ¹áĢ": 268, "áĢ¬": 269, "áĢ¸": 270, "Ĵáŀ": 271, "áĢº": 272, "à¯į": 273, "ĠâĢĭ": 274, "áŁĴáŀ": 275, "áĢ¯": 276, "à»": 277, "à¹": 278, "Ġà®": 279, "áŀ¶": 280, "áĢŃ": 281, "áĢĢ": 282, "áŀ¶áŀ": 283, "±áĢ": 284, "áģ": 285, "à¯įà®": 286, "àº²": 287, "áĢĦ": 288, "à¸²": 289, "ļáŀ": 290, "áĢ¸áĢ": 291, "àºĻ": 292, "áŀĵ": 293, "à¸Ļ": 294, "áŀĢ": 295, "à¯ģ": 296, "áĢĲ": 297, "áŀĦ": 298, "áĢŃáĢ¯": 299, "Ġàº": 300, "à¸£": 301, "áŁĭ": 302, "à»Ī": 303, "áĢķ": 304, "à®¿": 305, "áŀĺ": 306, "áĢĻ": 307, "à¸Ń": 308, "áŀ·": 309, "àº²àº": 310, "áŀŁ": 311, "áĢ¼": 312, "áŁĨ": 313, "à¹Ģ": 314, "à®¿à®": 315, "àºĻàº": 316, "áŀĶ": 317, "áĤ": 318, "áĢĶ": 319, "à¹Ī": 320, "áŀ»": 321, "áĢĦáĢ¹áĢ": 322, "áĢ±áĢ": 323, "áŁģ": 324, "ģàº": 325, "Ġáģ": 326, "áŁĴáŀļáŀ": 327, "à¯ģà®": 328, "áĢ½": 329, "Ġà¸": 330, "áŀı": 331, "à»ī": 332, "à¸²à¸": 333, "áŀĽ": 334, "áĢ·": 335, "áŀ¸": 336, "à®¾": 337, "àºĩ": 338, "áĢ²": 339, "áŀ¶áŀĵ": 340, "à¸£à¸": 341, "áĢħ": 342, "ĠáŀĶ": 343, "à»Ģ": 344, "à®¾à®": 345, "áĢ®": 346, "áŁĦ": 347, "à¹Ģà¸": 348, "áĢĽ": 349, "áŁĤ": 350, "àº°": 351, "áŀ¾": 352, "áĢĬ": 353, "à¯įà®ķ": 354, "à¹ī": 355, "ĠáŀĢ": 356, "àº±": 357, "áŀĻ": 358, "áĢ±": 359, "à®°": 360, "à¸Ļà¸": 361, "Ġáŀĵ": 362, "àºĶ": 363, "âĢĭâĢĭ": 364, "áŀļáŀ": 365, "áĢļ": 366, "á»": 367, "à¯Ī": 368, "áŁĴáŀĵ": 369, "áĢľ": 370, "à¸Ńà¸": 371, "ĠáŀŁ": 372, "à»Ģàº": 373, "áŁĩ": 374, "áĢŀ": 375, "à®¤": 376, "áŀĳ": 377, "áŀ¼": 378, "ģà¸": 379, "ĠáĢ¡": 380, "àºŃ": 381, "áŀĸ": 382, "à¯įà®¤": 383, "ĠáŁ": 384, "áĢ¬áĢ¸áĢ": 385, "áŀħ": 386, "à®©": 387, "ĩà¸": 388, "àºµ": 389, "áŁĴáŀļ": 390, "áº": 391, "áĢ«": 392, "áŁĴáŀı": 393, "áĢģ": 394, "à®Ł": 395, "Ġáŀĺ": 396, "áŀ½": 397, "Ħà¸": 398, "àº»": 399, "áĢ¶": 400, "áŀĩ": 401, "®à¯į": 402, "ĠáŀĬ": 403, "áĢĦáĢº": 404, "àº§": 405, "à¸µ": 406, "ng": 407, "áŁħ": 408, "Ġà®ª": 409, "áŀľ": 410, "Ġà»": 411, "áŀĬ": 412, "±à¸": 413, "à®³": 414, "àºļ": 415, "áŀİ": 416, "áĢ»": 417, "áŀ¶áŀļáŀ": 418, "Ġt": 419, "àºĩàº": 420, "à¹Īà¸": 421, "áŁĴáŀĽ": 422, "Ġà®ķ": 423, "Ġáŀ¢": 424, "áŀ¶áŀĢ": 425, "áĢ°": 426, "àº°àº": 427, "à¯įà®ª": 428, "Ġáŀĳ": 429, "à¸´": 430, "áĢĢáĢ¹áĢ": 431, "áĢĦáĢ¹áĢ¸": 432, "Ġáģĭ": 433, "áŀ¶áŁĨ": 434, "àº´": 435, "Ġáŀĸ": 436, "Ġc": 437, "ķà¯įà®ķ": 438, "¡à¸": 439, "áĢĶáĢ¹áĢ": 440, "áĢ¡": 441, "áŀļ": 442, "àº¡": 443, "Ġáŀĩ": 444, "Ġs": 445, "¥à¸": 446, "ĠáĢ±áĢ": 447, "áĢ²áĢ·": 448, "áŀī": 449, "à®²": 450, "àºģ": 451, "áĤĶ": 452, "áĢĢáĢº": 453, "âĢĭâĢĭâĢĭâĢĭ": 454, "áŀĤ": 455, "áŀ¢": 456, "à¹Ħà¸": 457, "àº·": 458, "Ġ.": 459, "Ġáŀļáŀ": 460, "áŁī": 461, "à¹ģà¸": 462, "áĢ¾": 463, "à¯Īà®": 464, "áŀ¶áŀĶ": 465, "Ġa": 466, "ĠÄ": 467, "Ġáŀħ": 468, "áŀ¶áŀļ": 469, "ªà¸": 470, "àºģàº": 471, "áŀģ": 472, "à¯įà®Ł": 473, "áŀĺáŁĴáŀ": 474, "à¹īà¸": 475, "áŀ¹": 476, "àº²àºĻàº": 477, "áĢ±áĢ¬": 478, "Ġáŀı": 479, "nh": 480, "na": 481, "Ġà®µ": 482, "ĠáŀĤ": 483, "¢à¸": 484, "àºĶàº": 485, "áŁĥ": 486, "ĠáŀĽ": 487, "Ġà®®": 488, "áŁĴáŀĻ": 489, "áŀ¶áŀı": 490, "à»į": 491, "§à¸": 492, "ĠÄĳ": 493, "áĢĸ": 494, "ĠáŁĶ": 495, "àº²àºĻ": 496, "ĠáĢĢ": 497, "à¯ĩ": 498, "áŀ¶áŀĢáŁĭ": 499, "à¹Į": 500, "à»ģàº": 501, "Ġm": 502, "ĠáĢĻ": 503, "áŁĦáŁĩ": 504, "áŀ¶áŀĺ": 505, "ĠáĢŀ": 506, "Ġà®ħ": 507, "Ķà¸": 508, "Ġà»Ģàº": 509, "áŀ·áŀĦ": 510, "áŀ»áŀĦ": 511, "áĢĬáĢ¹áĢ": 512, "áĢħáĢ¹áĢ": 513, "Ġ,": 514, "áĢ¬áĢ¸": 515, "à¸´à¸": 516, "Ĺàºµ": 517, "Ġáŀģ": 518, "áŁĴáŀŁ": 519, "ĲáĢ¬": 520, "áĢĢáĢŃáĢ¯": 521, "áŀĹ": 522, "à¹ĥ": 523, "Ãł": 524, "áŀ¶áŀĽ": 525, "Ġà®¤": 526, "áĤı": 527, "ĠáĢľ": 528, "à»Īàº": 529, "áŀ¶áŀŁ": 530, "ĠáĢĲ": 531, "pa": 532, "áŀł": 533, "à®µ": 534, "Ĺà¸": 535, "áĢ®áĢ¸áĢ": 536, "áŀ¶áŀĶáŁĭ": 537, "à»ĥ": 538, "áĢĲáĢ¹áĢ": 539, "áŀ¶áŀĻ": 540, "¾áĢĢ": 541, "áĢ¯áĢŃ": 542, "áĢĨ": 543, "Ã¡": 544, "ļà¸": 545, "áŁĴáŀľ": 546, "Ġà®ļ": 547, "ĲáĢ¼": 548, "ĠáĢķ": 549, "Ġà»ģàº": 550, "áŁĤáŀĽ": 551, "°à¸": 552, "la": 553, "áĢķáĢ«": 554, "Æ°": 555, "àº¹": 556, "à®¿à®²": 557, "áŁĲ": 558, "áĢĦáĢ¹": 559, "ĠáģĬ": 560, "ĠáŀĶáŁĴáŀļáŀ": 561, "áģ¾áĢĢ": 562, "áĢļáĢ¹áĢ": 563, "áĢĶáĢº": 564, "Ġà¹Ģà¸": 565, "Ġáŀĵáŀ·áŀĦ": 566, "àº¥": 567, "à¹Ĥ": 568, "áŁģáŁĩ": 569, "à¯ģà®®à¯į": 570, "áŁĢ": 571, "Ġth": 572, "àº²àº¡": 573, "áŀ¶áŀĦ": 574, "Ĺà¸µ": 575, "Ġsa": 576, "áŀĲ": 577, "áĢķáĢ¹áĢ": 578, "áĢ³": 579, "áĢļáĢ¹": 580, "ĠáĢĽ": 581, "àº¸": 582, "ĠáŀĶáŀ¶áŀĵ": 583, "»áĢķ": 584, "áĢĳ": 585, "áŀŁáŁĭ": 586, "à®¿à®¯": 587, "àºª": 588, "¸à¸": 589, "Ġv": 590, "áŁĴáŀĺ": 591, "áĢĬáĢº": 592, "áŁĴáŀĵáŀ»áŀĦ": 593, "ĤàºŃ": 594, "ģà¸²": 595, "áŀ·áŀı": 596, "an": 597, "Ġà®ĩ": 598, "ĠáŀĲ": 599, "áŀ·áŀĵ": 600, "àº²àºį": 601, "à¸µà¸": 602, "áŀĢáŀ¶áŀļáŀ": 603, "Ġh": 604, "áŀ¹áŀĦ": 605, "à¯Ĩ": 606, "Ġàºª": 607, "áŀ¶áŁĨáŀĦ": 608, "à»Ħ": 609, "Īà¸": 610, "áŀĶáŁĴáŀļáŀ": 611, "áĢ®áĢ¸": 612, "áŁĦáŀĻ": 613, "áĤķ": 614, "áĢĻáĢº": 615, "Ġpa": 616, "¨à¯įà®¤": 617, "Ġl": 618, "áŀķ": 619, "à¹ĥà¸": 620, "àº²àºĩ": 621, "ĠáĢħ": 622, "áŀ½áŀĻ": 623, "áĢ½áĢ¬": 624, "ķáĢ«": 625, "«à¸": 626, "Ġà®¨": 627, "âĢĭâĢĭâĢĭâĢĭâĢĭâĢĭâĢĭâĢĭ": 628, "áŀĦáŁĴáŀ": 629, "áĢĻáĢ¹áĢ": 630, "àºį": 631, "áĢĶáĢ¹áĢ¸": 632, "áĢħáĢº": 633, "áŁĬ": 634, "ĠÃ": 635, "ĠáŀĵáŁħ": 636, "Ġb": 637, "àº±àºĻàº": 638, "ŀà¸": 639, "áŀ¶áŀĸ": 640, "ªà¯įà®ª": 641, "áŁģáŀŁ": 642, "à¸£à¸µ": 643, "àº«": 644, "à¹Ĥà¸": 645, "áĢļáĢº": 646, "Ġáŀł": 647, "Ġna": 648, "Ġch": 649, "áŁĨáŀĸ": 650, "áĢĢáĢ¹": 651, "áģĢ": 652, "à®£": 653, "áŁĦáŀĢ": 654, "¥àº°": 655, "ķà¸": 656, "áŁĨáŀİ": 657, "áĢĬáĢ¹": 658, "áģ¿": 659, "áĢĦáĢ¹áĢ·": 660, "áĢŃáĢ¯áĤĶ": 661, "áĢ¯áĢ¶": 662, "áŁł": 663, "áŁĴáŀĳ": 664, "àºĶà»ī": 665, "áŁĴáŀĭ": 666, "iá»": 667, "à¹Īà¸²à¸": 668, "áŁį": 669, "à®®": 670, "áĢĦáĢºáĢ¸áĢ": 671, "Ġáŀľ": 672, "àº²àºĶ": 673, "áŁĴáŀļáŀ»": 674, "Ġ1": 675, "Ġ2": 676, "à¸Ńà¸ĩà¸": 677, "ĶáŀŁáŁĭ": 678, "à¯įà®±": 679, "Ġk": 680, "Ġàºģ": 681, "áĢĢáĢ¼": 682, "áŀĶáŀ¶áŀĵ": 683, "àº±àºĻ": 684, "à¹ĩ": 685, "áŀĵáŁĴáŀı": 686, "àºĽ": 687, "áŀĺáŀ¶áŀĵ": 688, "áĢ¬áĢĢáĢ¹áĢ": 689, "áĢ±áĢĶ": 690, "áĢĬáĢ¹áĢ¸": 691, "áĢ¬áĢĦáĢ¹áĢ¸": 692, "ĠáĢĨ": 693, "áŀīáŁĴáŀ": 694, "à¸Ńà¸ĩ": 695, "Ġ(": 696, "áĢ¶áĢ¯": 697, "ĠáĢģ": 698, "ĠÂ": 699, "Ġtr": 700, "à®±": 701, "àºĦ": 702, "ãĢ": 703, "áĢ±áĢĽ": 704, "ga": 705, "Ĺà¸µà¹Īà¸": 706, "áŀıáŁĴáŀı": 707, "áĢĲáĢº": 708, "ĠáŀĬáŁĤáŀĽ": 709, "à»ĪàºŃ": 710, "Ġáŀķ": 711, "Æ°á»": 712, "Ġ-": 713, "à¸£à¸²à¸": 714, "áŁĴáŀĵáŀĢ": 715, "Ĺàºµà»Ī": 716, "à¯ĭ": 717, "à¹Įà¸": 718, "áĢĺ": 719, "ä¸": 720, "áŀ¶áŀħ": 721, "áĢ·áĢº": 722, "à»īàºŃ": 723, "à¹ĩà¸": 724, "áŁĴáŀļáŀ¼": 725, "Ġnh": 726, "ģà¸²à¸£à¸": 727, "áŀĽáŁĭ": 728, "Ġà®İ": 729, "àº±àºļ": 730, "áŀ¶áŀıáŁĭ": 731, "áŀ¾áŀĻ": 732, "àº»à»ī": 733, "in": 734, "Ġà¹ģà¸": 735, "ĠáŀĻ": 736, "à¯įà®ķà®³": 737, "áŀĴáŀ": 738, "Ġà»ĥ": 739, "¹à¸": 740, "áŀ¾áŀĦ": 741, "Ġå": 742, "áº¡": 743, "àº½": 744, "Ġ)": 745, "áĢĲáĢļáĢ¹": 746, "áĢķáĢº": 747, "´à¸": 748, "Ġng": 749, "er": 750, "ĨáŁĴáŀĵ": 751, "àº¼": 752, "à®¤à¯įà®¤": 753, "Ľà¸": 754, "áŁĴáŀĦ": 755, "áŁĨáŀĵ": 756, "ĠáĢĶ": 757, "Ġáŀĺáŀ¶áŀĵ": 758, "Ġï": 759, "Ĭà¸": 760, "Ġà»ģàº¥àº°": 761, "ĠáĢĴ": 762, "áŀº": 763, "·à¹Ī": 764, "à®¿à®°": 765, "áĢĻáĢ¹áĢ¸": 766, "áĢ±áĢ¸áĢ": 767, "áº¿": 768, "áŀĸáŀ¸": 769, "àº±àºĶ": 770, "áŀ½áŀĵ": 771, "Łà¸£à¸µ": 772, "±à¸Ļà¸": 773, "áĢĲáĢ¬": 774, "àº²àº§": 775, "áŁĴáŀĲ": 776, "áĢĸáĢħáĢ¹áĢ": 777, "áĢŃáĢ¯áĢĦáĢ¹áĢ": 778, "áĢ±áĢĲáĢ¬": 779, "ĠáĢĳ": 780, "à®®à¯į": 781, "³à¸": 782, "áŁĴáŀĶ": 783, "áĢĿ": 784, "àºķ": 785, "¡áŁ": 786, "áŁĴáŀļáŀ¼áŀľ": 787, "Ġma": 788, "áĢ½áĢŃ": 789, "áĢŃáĢ¯áĢ·": 790, "à®¿à®²à¯į": 791, "Ġ:": 792, "à¸£à¸±à¸": 793, "Ã´": 794, "ĠãĢ": 795, "áŀ¼áŀĽ": 796, "àºĬ": 797, "à¸£à¸°à¸": 798, "ĠáŀĢáŁĴáŀĵáŀ»áŀĦ": 799, "Ġd": 800, "áŀ¶áŀĩ": 801, "ĤàºŃàºĩàº": 802, "áĤĪ": 803, "áĢŃáĢ³": 804, "áĢŃáĢ¯áĢ¸áĢ": 805, "áŀ»áŀĵ": 806, "à¹īà¸²à¸": 807, "à®ķ": 808, "ĠáŀĹ": 809, "áĢ²áĤĶ": 810, "áĢĲáĢ²áĢ·": 811, "áĢĶáĢ¹": 812, "ĠâĢ": 813, "áĤıáĢ½": 814, "áĢģáĢº": 815, "áĢĻáĢ¾": 816, "ĠàºĦ": 817, "ĬáŁĴáŀĭ": 818, "à¹Īà¸²": 819, "ĠáŀĽáŁĦáŀĢ": 820, "Ġàºŀ": 821, "ĨáŁĴáŀĵáŀ¶áŁĨ": 822, "Ġàº¡": 823, "ĠT": 824, "Ġï¼": 825, "áŀ»áŁĨ": 826, "à¯Ĭ": 827, "áŀ¶áŀĵáŁĭ": 828, "à¹īà¸²": 829, "ĠàºĹ": 830, "à»Ĥ": 831, "ĴáŁĴáŀľ": 832, "áģ¿áĢķ": 833, "áĢ±áĢĲáĢ¼": 834, "áĢķáĢ¼": 835, "Ġn": 836, "à¹Ħà¸Ķ": 837, "áŀ¡": 838, "it": 839, "à®¿à®©": 840, "àº³": 841, "ĠâĢĭâĢĭ": 842, "à¸Ńà¸Ļ": 843, "áĢĽáĢ¬": 844, "Ĺà¸µà¹Ī": 845, "áŁı": 846, "Ãª": 847, "àº±àºĶàº": 848, "ĴáŁĴáŀľáŀ¾": 849, "ĠáĢ»": 850, "áĢ»áĢķ": 851, "áĢŁ": 852, "áŁģáŀī": 853, "ľà¸": 854, "ĠàºĽ": 855, "áĢŃáĢ¯áĢĦáĢº": 856, "Ġæ": 857, "áŁĤáŀĦ": 858, "à®¾à®°": 859, "Ġàºģàº": 860, "«àº¼": 861, "ang": 862, "Ħà¸£à¸": 863, "²áŁĴáŀĻ": 864, "áŁĴáŀĦáŁĥ": 865, "áŀĢáŀĺáŁĴáŀ": 866, "ģà¸²à¸£": 867, "Ġg": 868, "áŀĦáŁĭ": 869, "äº": 870, "áŁģáŀĽ": 871, "àºŀ": 872, "à®¤à¯ģ": 873, "±à¸Ļ": 874, "áĢ¬áĢĦáĢ¹áĢ": 875, "ĠáĢĺ": 876, "áŀĹáŀ¶áŀĸ": 877, "à»Īàºĩ": 878, "áĢĴ": 879, "°à¹Ģà¸": 880, "áŁĤáŀĢ": 881, "áĢĲáĢ½": 882, "Ġkh": 883, "áŀ·áŀħ": 884, "àºĪ": 885, "áŁĴáŀĬ": 886, "ļà¸Ńà¸": 887, "¡à¸²à¸": 888, "áŁĴáŀħ": 889, "Ġáŀļ": 890, "áŀ¹áŀĢ": 891, "ra": 892, "Ġï¼Į": 893, "àºĹ": 894, "à¯Īà®¯": 895, "áŁĴáŀļáŀ¸": 896, "ĸà¸": 897, "ĠáŀĢáŀ¶áŀļáŀ": 898, "áĢ¯áĢķáĢ¹áĢ": 899, "áĢ±áĢľ": 900, "áĢĲáĢ¼": 901, "áĢľáĢŃáĢ¯": 902, "áŁĪ": 903, "áĤĢ": 904, "áĤĢáĢĢ": 905, "áĢĻáĢ½áĢ¬": 906, "±áĢĲáĢ¬": 907, "áĢ±áĢ¬áĢĦáĢº": 908, "on": 909, "à¹Ħà¸¡": 910, "Ġàº¥": 911, "ĠáŀŁáŀĺ": 912, "áº£": 913, "Ĺàºµà»Īàº": 914, "áŀĵáŁģáŁĩ": 915, "Ġà¸ªà¸": 916, "à¯ģà®ķà¯įà®ķ": 917, "Ľà¹ĩ": 918, "áŀĩáŀ¶": 919, "âĢĭâĢĭâĢĭâĢĭâĢĭâĢĭâĢĭâĢĭâĢĭâĢĭâĢĭâĢĭâĢĭâĢĭâĢĭâĢĭ": 920, "áŁĲáŀĻ": 921, "ŀáĢ¬": 922, "±áĢĶ": 923, "ĠáĢĸ": 924, "áŀĵáŁħ": 925, "àº§àº²àº¡": 926, "§à¸²à¸": 927, "±áĢĲáĢ¼": 928, "áĢ°áĢ¸áĢ": 929, "Ã³": 930, "Ġáŀĩáŀ¶": 931, "ãĢĲ": 932, "ĳãĢĲ": 933, "¿½": 934, "ĠãĢĳãĢĲ": 935, "åı": 936, "da": 937, "à®¯": 938, "ģáĢº": 939, "áĢŀáĢĬáĢ¹": 940, "áĢĦáĢ·áĢº": 941, "áŁĶ": 942, "àº·à»ĪàºŃ": 943, "Ġ0": 944, "à¸Ļà¸µ": 945, "ĠáŀĵáŁģáŁĩ": 946, "à»įà»Ī": 947, "áŀľáŀ·": 948, "Ġang": 949, "à¸Ļà¹Ģà¸": 950, "ĠáŀĢáŀ¶áŀļ": 951, "ģàº²àºĻàº": 952, "Ġç": 953, "à¯ģà®¤": 954, "á»Ļ": 955, "à¹ĥà¸«": 956, "ĠáŁ¢": 957, "Ġáŀĸáŀ¸": 958, "àº«à»ī": 959, "áŁĴáŀĴáŀ": 960, "ļĦ": 961, "ģáģ": 962, "ĠáŀļáŀĶáŀŁáŁĭ": 963, "en": 964, "ĩà¹Ģà¸": 965, "áĢĻáĢ»": 966, "àº¶": 967, "áŀĢáŁĴáŀĵáŀ»áŀĦ": 968, "à®Łà¯įà®Ł": 969, "Ġà¸ª": 970, "ĳáŁģáŀŁ": 971, "Ħà¸§à¸²à¸": 972, "àº°à»Ģàº": 973, "Ġp": 974, "áŀ¶áŀıáŀ·": 975, "à¹īà¸Ńà¸": 976, "ĠáŀĬáŁĦáŀĻ": 977, "Ġáŀ¢áŁĴáŀĵáŀĢ": 978, "Ġà»Ħ": 979, "à®¾à®©": 980, "ģà¸£à¸": 981, "Ġàºķ": 982, "áŁĬáŀ¸": 983, "Ĥà¸": 984, "à»Īàº§": 985, "áĢĻáĢ½": 986, "ĠáĢŀáĢ°": 987, "áº¥": 988, "áŀ¼áŀľ": 989, "áĢ±áĢķ": 990, "áĢ±áĢ¬áĢĢáĢº": 991, "å®": 992, "áŁĴáŀļáŁĩ": 993, "is": 994, "áŀĺáŁĴáŀĶ": 995, "àº®": 996, "re": 997, "à¹ĥà¸Ļà¸": 998, "à®Ļ": 999, "áŀ¼áŀĵ": 1000, "áŀĳáŀ¸": 1001, "çļĦ": 1002, "áĢ²áĤķ": 1003, "±áĢĽ": 1004, "ĠáĢĢáĢŃáĢ¯": 1005, "±àºļ": 1006, "áŀ¶áŀŁáŁĭ": 1007, "áĢ¸áĢĻ": 1008, "Ġph": 1009, "áŀ»áŀģ": 1010, "áŀŁáŁĴáŀŁ": 1011, "ĩà¸´": 1012, "¡à¸µà¸": 1013, "à»ĦàºĶà»ī": 1014, "áĢ¥": 1015, "Ġáģı": 1016, "áŁģáŀħ": 1017, "ĠáŀĨáŁĴáŀĵáŀ¶áŁĨ": 1018, "áŀ¶áŀī": 1019, "à®¨à¯įà®¤": 1020, "à¹Īà¸Ļ": 1021, "áŁĢáŀı": 1022, "ing": 1023, "Ã¢": 1024, "áĢĸáĢ¼": 1025, "Ġà¹Ĥà¸": 1026, "ĠáŀĳáŁħ": 1027, "à»Īàº²àºĩ": 1028, "·à¸Ńà¸": 1029, "áŀĦáŁĴáŀĤ": 1030, "áŁ¢": 1031, "Ġáŀłáŀ¾áŀĻ": 1032, "à®¾à®ķ": 1033, "áŀ»áŀĢ": 1034, "ĤàºŃàºĩ": 1035, "à¹Ħà¸Ķà¹ī": 1036, "á»ĳ": 1037, "áŁĴáŀī": 1038, "áĢĤ": 1039, "áŁ¡áŁ": 1040, "áŁĴáŀļáŀ¾": 1041, "æľ": 1042, "ĲáĢ²áĢ·": 1043, "áĢ¬áĢ¸áĢĻ": 1044, "à¹Īà¸ĩà¸": 1045, "at": 1046, "à»Īàº²": 1047, "áŀĵáŀ»": 1048, "áŁĴáŀļáŀ»áŀĺ": 1049, "áĢ¬áĢ¹áĢ": 1050, "Ġ..": 1051, "áĢģáĢ²áĢ·": 1052, "à®°à¯į": 1053, "à»Īàºĩàº": 1054, "Ġáŀĺáŀ·áŀĵ": 1055, "áŀĵáŁĴáŀĳ": 1056, "¥à¸°à¸": 1057, "iá»ĩ": 1058, "áŀĲáŀ¶": 1059, "ĠáĢ±": 1060, "ĠáĢ»áĢķ": 1061, "áĢ¸áĢĢ": 1062, "åħ": 1063, "ĸáŀ»": 1064, "ĠáŀĲáŀ¶": 1065, "Ġmga": 1066, "à¯Ģ": 1067, "Ġàºļ": 1068, "áŀĢáŀĺáŁĴáŀĺ": 1069, "ļà¸²à¸": 1070, "áĢ±áĢ¬áĢº": 1071, "áŀĳáŁħ": 1072, "ĠàºĪ": 1073, "Ķà¸´à¸": 1074, "ļà¸Ńà¸¥": 1075, "ĭà¸": 1076, "ĠC": 1077, "à»ľ": 1078, "kan": 1079, "áŀļáŀĬáŁĴáŀĭ": 1080, "áŀĬáŁĤáŀĽ": 1081, "áĢ¯áĢķáĢº": 1082, "±à¸ĩà¸": 1083, "å¤": 1084, "Ã¡c": 1085, "à®¿à®±": 1086, "áŁĴáŀĤ": 1087, "ĠàºŃ": 1088, "à¸£à¸´à¸": 1089, "áŀ¼áŀħ": 1090, "áĢ¬áĢĽ": 1091, "à»ĢàºĽ": 1092, "Ġ3": 1093, "áŁĴáŀļáŀ¶áŀĶáŁĭ": 1094, "Īà¸²à¸": 1095, "ģáĢ²áĢ·": 1096, "áŀ¶áŀĤ": 1097, "à¯įà®ļ": 1098, "áĢ±áĢĲáĢ¬áĢ·": 1099, "ĠáģĤ": 1100, "Ġè": 1101, "Ã¬": 1102, "Ġ/": 1103, "or": 1104, "¥à¸²à¸": 1105, "áĤıáĢŃáĢ¯áĢĦáĢ¹áĢ": 1106, "áĢĨáĢŃáĢ¯": 1107, "áŀĢáŀ¶áŀļ": 1108, "ĠàºĻàº": 1109, "ĠâĢĭáŁĶ": 1110, "áĢŀáĢĬáĢº": 1111, "àº¹à»ī": 1112, "Ľà¸£à¸°à¸": 1113, "Ġáŀĳáŀ¸": 1114, "as": 1115, "à®ªà¯įà®ª": 1116, "áŁĤáŀĵ": 1117, "Ãªn": 1118, "àº²àºģàº": 1119, "Ġ20": 1120, "·à¸Ń": 1121, "ä»": 1122, "áŁĤáŀļ": 1123, "áŀĺáŁĴáŀĶáŀ¸": 1124, "¶à¸": 1125, "áŀĦáŁĴáŀĢ": 1126, "à»ĥàºĻàº": 1127, "áŀİáŁĴáŀ": 1128, "ĠA": 1129, "áŁģáŀĦ": 1130, "¡à¸²": 1131, "à®ļ": 1132, "Ã´ng": 1133, "ĠáŀĢáŀĺáŁĴáŀ": 1134, "áŀ¾áŀĺáŁĴáŀĶáŀ¸": 1135, "ģà¸±à¸": 1136, "áŁĴáŀ¢": 1137, "àº±à»ī": 1138, "ar": 1139, "åĪ": 1140, "Ġà®İà®©": 1141, "áŀŁáŀĺ": 1142, "à¸£à¸µà¸": 1143, "áĢŀáĢ°": 1144, "áŀ¾áŀĢ": 1145, "àºģàº²àºĻàº": 1146, "áŀ¶áŀľ": 1147, "Æ¡": 1148, "áĢ¼áĢ¬áĢ¸áĢ": 1149, "±à¹īà¸": 1150, "áŀ·áŀŁ": 1151, "áĢĲáĢļáĢº": 1152, "à¯ģà®ķ": 1153, "áĢ¾áĢŃ": 1154, "áŁĴáŀĽáŀ½áŀĵ": 1155, "áŀĶáŁĭ": 1156, "ĵà¸": 1157, "àº·àºŃ": 1158, "ä¹": 1159, "ay": 1160, "ĠáŀıáŁĴáŀļáŀ¼áŀľ": 1161, "à¹īà¸Ļà¸": 1162, "áŀļáŀĶáŀŁáŁĭ": 1163, "àº»àºĻàº": 1164, "ĠN": 1165, "ç½": 1166, "áŀ·áŀĢ": 1167, "es": 1168, "§à¸´à¸": 1169, "áĢĬáĢ¹áĢ·": 1170, "áĢħáĢ¹": 1171, "áĢľáĢ¬": 1172, "ï¿½": 1173, "Ġé": 1174, "Ġà®ī": 1175, "áŁĴáŀĵáŀ¶áŀĢáŁĭ": 1176, "àº»àºĻ": 1177, "ĠS": 1178, "łà¸²à¸": 1179, "áĢŃáĢ¯áĢĦáĢ¹áĢ¸": 1180, "ĠáĢĴáĢ®": 1181, "áģ¿áĢķáĢ®áĢ¸": 1182, "áĢĲáĢ¹": 1183, "áĢ¸áĢŀ": 1184, "áŁĮ": 1185, "ä½": 1186, "áŁĨáŀĶ": 1187, "á»§": 1188, "áĢ±áģ¾áĢĢ": 1189, "áĢĶáĢ¹áĢĻ": 1190, "ĠáĢ±áĢĽ": 1191, "áĢĽáĢ½áĢŃ": 1192, "áĢ¬áĢ¸áĢŀ": 1193, "à¹ĥà¸Ĭ": 1194, "µà»ī": 1195, "áŀ·áŀħáŁĴáŀħ": 1196, "áŁģáŀıáŁĴáŀı": 1197, "áŀ¶áŀĳ": 1198, "à¸Ńà¸²à¸": 1199, "àº°àº«": 1200, "áŀļáŀİ": 1201, "à¯Ĥ": 1202, "¡à»Ī": 1203, "Ġáŀ²áŁĴáŀĻ": 1204, "ĠáŀĲáŁĴáŀĦáŁĥ": 1205, "em": 1206, "Ġ\"": 1207, "ç½ĳ": 1208, "Ġï¿½": 1209, "Ġ|": 1210, "æĸ": 1211, "áŀ·áŀĶ": 1212, "áŀīáŁĴáŀĩ": 1213, "Ĥà¸Ńà¸ĩà¸": 1214, "Ġáŀĵáŀ¹áŀĦ": 1215, "áºŃ": 1216, "»áĢķáĢ¬": 1217, "áĢ¬áĢ¸áĢľ": 1218, "àºĤ": 1219, "al": 1220, "ĸáŀ»áŀĩáŀ¶": 1221, "áŀıáŁĤ": 1222, "áĢı": 1223, "åľ": 1224, "áŀıáŁĴáŀĲ": 1225, "ĠáĢľáĢ°": 1226, "¨à¸": 1227, "¶áŀĵ": 1228, "à»ĥàº«à»ī": 1229, "áŀļáŀŁ": 1230, "áĢģáĢ»": 1231, "áŀ¶áŀĽáŁĭ": 1232, "à®¿à®Ł": 1233, "ĠÄĳá»": 1234, "à¸Ńà¸£": 1235, "áŀĴ": 1236, "Ġàº«": 1237, "Ġàº§": 1238, "ĠP": 1239, "Ġ5": 1240, "om": 1241, "à¸²à¸Ļà¸": 1242, "áŀ½áŀĽ": 1243, "áĢķáĢ«áĢĲáĢļáĢ¹": 1244, "ĠáĢļ": 1245, "àº±àºĩàº": 1246, "à¯įà®²": 1247, "áŀ»áŁĩ": 1248, "áĢ°áĢ¸": 1249, "áŀļáŀ·": 1250, "áĢŃáĢ¯áĢĢáĢ¹áĢ": 1251, "ĠáĢķáĢ¼": 1252, "Ľà¹ĩà¸Ļà¸": 1253, "æĹ": 1254, "áŁĹ": 1255, "àº´àºĶ": 1256, "ĠM": 1257, "ĠáŀĴáŁĴáŀľáŀ¾": 1258, "±áĢķ": 1259, "áĢģáĢ¼": 1260, "àº±àºĩ": 1261, "ala": 1262, "ĠáŀĺáŁī": 1263, "Ġw": 1264, "à¹īà¸Ļ": 1265, "à®©à¯į": 1266, "áŁĦáŀĦ": 1267, "ĠãĢĤ": 1268, "áŀĺáŀĢ": 1269, "Ġvá»": 1270, "àº°àºĻàº": 1271, "áŀ¶áŀĺáŀ½áŀĻ": 1272, "Ġà¸Ħ": 1273, "ĦáĢ¶": 1274, "áĢ¯áĢ¶áĢ¸áĢ": 1275, "à¹Ĩ": 1276, "áŀ¾áŀı": 1277, "Ľàº°àº": 1278, "à®¾à®²": 1279, "ĠáŀĶáŁī": 1280, "Ħà¸¸à¸": 1281, "áĢ¯áĢĲáĢ¹áĢ": 1282, "»áĢģ": 1283, "áĢľáĢĬáĢ¹áĢ¸": 1284, "±áĢľ": 1285, "áĤĲ": 1286, "áĢģáĢ¯": 1287, "ĠàºĬ": 1288, "áŀĳáŁĴáŀĴáŀ": 1289, "ĠvÃł": 1290, "Ġat": 1291, "Ġáŀĺáŀ½áŀĻ": 1292, "à»īàºĻ": 1293, "00": 1294, "áĢĶáĢ²áĤĶ": 1295, "ķáĢ¼": 1296, "à¸Ļà¹Į": 1297, "Ġf": 1298, "ĩà¸´à¸Ļà¸": 1299, "Łà¸": 1300, "¿áŀĦ": 1301, "à¸Ńà¸¢": 1302, "áŀĵáŁĴáŀĽ": 1303, "»áĢĻ": 1304, "ĠáĢ±áĢĶ": 1305, "áĢ±áĢĻ": 1306, "Ġàºģàº²àºĻ": 1307, "àº»à»īàº²": 1308, "áĢ»áĢĸáĢħáĢ¹áĢ": 1309, "áģļ": 1310, "ĢáĢŃáĢ¯": 1311, "áĢĻáĢºáĢ¬áĢ¸": 1312, "áĢŃáĢĲáĢ¹áĢ": 1313, "áĢ¸áĢĽ": 1314, "áŀ¼áŀĺ": 1315, "Ġà¸ŀ": 1316, "ĻáĢº": 1317, "áĢģáĢ¶": 1318, "à¸Ļà¸²à¸": 1319, "à®´": 1320, "ĠáŀĢáŁı": 1321, "Ġà»Ĥ": 1322, "ĠáĢ»áĢĻ": 1323, "áĢ±áĢŀ": 1324, "áŁĴáŀļáŀ¾áŀĵ": 1325, "àº£": 1326, "à¹īà¸Ńà¸ĩà¸": 1327, "åĽ": 1328, "à»Ģàº®": 1329, "Ġpag": 1330, "ĠáŀĤáŀº": 1331, "áĢ±áĢ«": 1332, "uy": 1333, "Ġà¸Ĺà¸": 1334, "à¹Ħà¸¥": 1335, "ah": 1336, "«à¸Ļ": 1337, "¥àº°àº": 1338, "áŀ¼áŀı": 1339, "à»Īàº²àºĻ": 1340, "à¯įà®ķà®³à¯į": 1341, "áŀĶáŁĴáŀļ": 1342, "ģà¹Ģà¸": 1343, "àº²àºģ": 1344, "æĪ": 1345, "áŀ¢áŁĴáŀĵáŀĢ": 1346, "áĢ¯áĢŃáĢĦáĢ¹áĢ": 1347, "ĠáĢŁ": 1348, "Ĺà¸¢": 1349, "áĢķáĢ¹": 1350, "áĢķáĢ²": 1351, "ĠáŀģáŁĤ": 1352, "Ġgi": 1353, "Ġáģģáģ": 1354, "àº¡àºµ": 1355, "ĠáŁĸ": 1356, "Ġ4": 1357, "áŁĴáŀļáŁĦáŁĩ": 1358, "Ġà¸ķ": 1359, "áŁĴáŀļáŀ¹": 1360, "ou": 1361, "±à¸ģà¸": 1362, "ĠáĢ¡áĢŀ": 1363, "åĬ": 1364, "ĠáŀĬáŀ¾áŀĺáŁĴáŀĶáŀ¸": 1365, "áĢ¬áĢ¸áĢ¡": 1366, "ĠáŀĺáŀĢ": 1367, "àº²àºļ": 1368, "à¯ģà®µ": 1369, "à¹ĥà¸«à¹īà¸": 1370, "áŀ·áŀıáŁĴáŀı": 1371, "áŁłáŁ¡áŁ": 1372, "áŀĵáŁĭ": 1373, "áĢĦáĢ·": 1374, "áĢ±áĢĢ": 1375, "ĠáĢ»áĢĸáĢħáĢ¹áĢ": 1376, "ķáĢ«áĢĲáĢļáĢ¹": 1377, "ĠáĢ¥": 1378, "àº»àº¡": 1379, "ya": 1380, "áº§": 1381, "áĢĶáĢ¾": 1382, "ľà¸¹": 1383, "áŁģáŀı": 1384, "å¹": 1385, "à»Ŀ": 1386, "áŁĨáŀĵáŀ½áŀĵ": 1387, "åĲ": 1388, "à¸Ńà¸Ńà¸Ļ": 1389, "à¸£à¸±à¸ļà¸": 1390, "ĠáŀĶáŁĴáŀļáŀĳáŁģáŀŁ": 1391, "à»ĢàºĤ": 1392, "áŀĸáŁģáŀĽ": 1393, "à®¿à®ķ": 1394, "et": 1395, "ªà¸¸à¸": 1396, "ĠáĢĢáĢº": 1397, "áĢ¸áĢĲ": 1398, "à¸Ńà¸Ńà¸Ļà¹Ħà¸¥": 1399, "Ġáŀ¡": 1400, "ÃŃ": 1401, "Ħà¸§à¸²à¸¡à¸": 1402, "ĠáŀĪ": 1403, "åį": 1404, "¢àº¹": 1405, "áĢŀáĢ¬": 1406, "áŁĬáŀ»áŀĵ": 1407, "à¹īà¸§à¸": 1408, "ĠáŀıáŁĤ": 1409, "áŀĩáŀĵ": 1410, "áĢ¸áĢ¡": 1411, "±áŁĴáŀĻ": 1412, "il": 1413, "ĠáĢĦ": 1414, "Ġq": 1415, "à¹ĩà¸Ńà¸": 1416, "Ġä¸": 1417, "à¸²à¸£": 1418, "ĠàºĤ": 1419, "àº±àºģ": 1420, "áŁīáŀ¶áŀĦ": 1421, "à®ķà¯įà®ķ": 1422, "à¹Ħà¸¡à¹Īà¸": 1423, "à»īàº²àº": 1424, "áŀ¶áŀĴáŀ": 1425, "çī": 1426, "áĢ¬áĢĦáĢ¹": 1427, "áĢ±áĢŀáĢ¬": 1428, "ŀáĢ°": 1429, "ĠáŁ¡áŁ": 1430, "Ġ201": 1431, "áĤĬ": 1432, "áĢ»áĢĸ": 1433, "áĢĽáĢ¾áĢŃ": 1434, "âĢĭâĢĭâĢĭâĢĭâĢĭâĢĭâĢĭâĢĭâĢĭâĢĭâĢĭâĢĭâĢĭâĢĭâĢĭâĢĭâĢĭâĢĭâĢĭâĢĭâĢĭâĢĭâĢĭâĢĭâĢĭâĢĭâĢĭâĢĭâĢĭâĢĭâĢĭâĢĭ": 1435, "áŁĴáŀļáŀĶ": 1436, "Ľà¸£à¸": 1437, "àº»àºļ": 1438, "Ġáŀıáŀ¶áŀĺ": 1439, "áŀ»áŀĽ": 1440, "Ġdi": 1441, "áŀļáŀĢ": 1442, "æĺ": 1443, "à¹Īà¸Ļà¸": 1444, "ong": 1445, "Ġà®Ĩ": 1446, "Ġà»ĦàºĶà»ī": 1447, "ĠáŀĸáŁĴáŀļáŁĩ": 1448, "Ķà¹Ģà¸": 1449, "áŀĺáŁĴáŀĽ": 1450, "àº´àºĶàº": 1451, "áŀıáŁĴáŀļáŀ¼áŀľ": 1452, "Ĥà¸Ńà¸ĩ": 1453, "áĢ¬áĢ¸áĢĽ": 1454, "àº±àºģàº": 1455, "áŀİáŁĴáŀĮ": 1456, "Ġx": 1457, "áĢ±áĢ·": 1458, "áŀĺáŀ½áŀĻ": 1459, "à¹Īà¸§à¸": 1460, "çĶ": 1461, "ĠàºĹàºµà»Ī": 1462, "à®£à¯įà®Ł": 1463, "áŀĳáŀ¶áŁĨáŀĦ": 1464, "Ġàº®": 1465, "à¹Īà¸ĩ": 1466, "à»Īàº²àºĻàº": 1467, "»áĢĸ": 1468, "áĤıáĢ½áĢĦáĢ¹áĢ·": 1469, "áĢĦáĢºáĢ¸": 1470, "ĠáŀĢáŁĴáŀļáŀ»áŀĺ": 1471, "ĠlÃł": 1472, "½áŀĺ": 1473, "à¸Ļà¸µà¹ī": 1474, "áŀ¶áŀİ": 1475, "è¿": 1476, "à»Īàº½": 1477, "am": 1478, "áĢ¯áĢŃáĤĶ": 1479, "áĢ±áĢ¡": 1480, "áŀĳáŀ½áŀĽ": 1481, "à¹Ħà¸Ķà¹īà¸": 1482, "ĻáĢ½": 1483, "áĢ¸áĢľ": 1484, "ĠáŀĵáŁĥ": 1485, "àº»àº§": 1486, "à®¿à®¤": 1487, "áĢ¬áĢĢáĢ¹": 1488, "ĻáĢ½áĢ¬": 1489, "áĢ±áĢ¬áĢĦáĢºáĢ¸áĢ": 1490, "áŀļáŀĶ": 1491, "ªà¸´": 1492, "áŁĴáŀıáŀ¸": 1493, "à»įà»Īàº": 1494, "áŁĲáŀı": 1495, "áŀĴáŁĴáŀľáŀ¾": 1496, "iáº¿": 1497, "ung": 1498, "«à¸¥à¸": 1499, "å½": 1500, "à®¿à®©à¯į": 1501, "à»ĢàºĽàº±àºĻàº": 1502, "ĠáĢĿ": 1503, "ĠáŀĵáŁĦáŁĩ": 1504, "¡à¹Ģà¸": 1505, "æĿ": 1506, "áĢľáĢ²": 1507, "áŀİáŁĴáŀı": 1508, "áĢĻáĢ¾áĢ¬": 1509, "Ġi": 1510, "áŁĴáŀļáŀ»áŀĦ": 1511, "áĢĽáĢ½": 1512, "à¸µà¸¢": 1513, "ľàº¹à»ī": 1514, "áŀ¾áŀĺ": 1515, "..": 1516, "áĢĻáĢ¾áĢ¯": 1517, "æī": 1518, "ķà¸±à¸": 1519, "áŀĬáŁĴáŀĭ": 1520, "ĠàºĶ": 1521, "eng": 1522, "áŀ¶áŀł": 1523, "à»īàº§": 1524, "ĠH": 1525, "Īà¸°à¸": 1526, "à®¿à®ķà¯įà®ķ": 1527, "è®": 1528, "ĠáŀĢáŁĴáŀļ": 1529, "Æ°á»Ŀ": 1530, "áŀĲáŁĴáŀĦáŁĥ": 1531, "àº»àº²": 1532, "à¸£à¸£à¸": 1533, "ĠáĢŀáĢŃ": 1534, "Ġáŀĳáŀ¶áŁĨáŀĦ": 1535, "áŀĴáŀ¸": 1536, "áĢļáĢ¹áĢľ": 1537, "áģ½": 1538, "áĢ±áĢ¬áĢ·": 1539, "Ġàºģàº²àºĻàº": 1540, "áŁĴáŀĴ": 1541, "å°": 1542, "ĸáĢ¼": 1543, "à¸µà¸¢à¸": 1544, "áŀĵáŀ¹áŀĦ": 1545, "à»īàº²": 1546, "à¯įà®³": 1547, "ag": 1548, "à»ģàº¡à»Ī": 1549, "¼áŀĶ": 1550, "áŀĺáŁī": 1551, "à¸Ńà¸Ļà¸": 1552, "Ġthá»": 1553, "áŀ²áŁĴáŀĻ": 1554, "áĢ¥áĢ¹áĢ": 1555, "áĢ¬áĢĶ": 1556, "áŀĽáŁĦáŀĢ": 1557, "áĢ»áĢģ": 1558, "±áĢĲáĢ¬áĢ·": 1559, "ĠáĢ¡áĢħ": 1560, "äºº": 1561, "à»īàºĻàº": 1562, "áŀģáŁĴáŀĽáŀ½áŀĵ": 1563, "ķà¸´à¸": 1564, "áĢķáĢ«áĢĲáĢļáĢº": 1565, "áŀĢáŁĴáŀļ": 1566, "áĢ¼áĢĶáĢ¹áĢ": 1567, "áĢľáĢ¯áĢķáĢ¹áĢ": 1568, "áĢ¯áĢĲáĢº": 1569, "Ġy": 1570, "áŀĪ": 1571, "à®ª": 1572, "ªà¸²à¸": 1573, "Ġáŀľáŀ·": 1574, "um": 1575, "àº§àºģ": 1576, "áŀ½áŀĢ": 1577, "ç»": 1578, "à¹ģ": 1579, "Ġáģį": 1580, "Ġà»ĥàºĻ": 1581, "áŀĵáŁį": 1582, "ģàº²àºĻ": 1583, "áŀĽáŀ¾": 1584, "¥à¸°": 1585, "Ġtá»": 1586, "áĤĢáĢĢáĢ®áĢ¸áĢ": 1587, "áĢŃáĢĻáĢ¹áĢ": 1588, "ĠâĢ¦": 1589, "áĢŁáĢ¬": 1590, "áĢ¸áĢħ": 1591, "à®¾à®¤": 1592, "àºģàº²àºĻ": 1593, "±áĢĨ": 1594, "ĠáĢĴáĢ«": 1595, "áŁĲáŀĵ": 1596, "áĢĩ": 1597, "è½": 1598, "à¸²à¸Ļ": 1599, "ĠáŀĬáŀĽáŁĭ": 1600, "áĢ¬áĢ¸áĢĲ": 1601, "Ġáŀĥ": 1602, "ka": 1603, "áŀ·áŀĻ": 1604, "à»įàº²àº": 1605, "¥à¹ĩà¸Ńà¸": 1606, "ic": 1607, "§à¹Īà¸²": 1608, "ĠãĢģ": 1609, "à¯įà®µ": 1610, "àºĦàº§àº²àº¡": 1611, "áĤıáĢ½áĢħáĢ¹áĢ": 1612, "áĢĻáĤĪ": 1613, "ĠáĢĸáĢ¼": 1614, "áŀĵáŁĦáŁĩ": 1615, "ĠáŀģáŁģáŀıáŁĴáŀı": 1616, "Ľi": 1617, "áŀĢáŀ·áŀħáŁĴáŀħ": 1618, "áŁĴáŀĵáŀ¶": 1619, "å·": 1620, "ŀàº·à»ĪàºŃ": 1621, "áĢĴáĢ®": 1622, "el": 1623, "ĠB": 1624, "«à¸Ļà¸": 1625, "ľáĢ¬": 1626, "ĠáĢķáĢ«": 1627, "áŀĺáŀ·áŀĵ": 1628, "áĢĢáĢ»": 1629, "ï¿½ï¿½": 1630, "ä¼": 1631, "Ġà®ļà¯Ĩ": 1632, "st": 1633, "áŀĬáŁĦáŀĻ": 1634, "àº°àºŀ": 1635, "¡à¸µ": 1636, "Ġà»ĢàºĽ": 1637, "áŀĩáŀ¶áŀıáŀ·": 1638, "àº»àºĩàº": 1639, "ĠáŁ¡": 1640, "áŁĨáŀĸáŁģáŀī": 1641, "áŁĴáŀļáŀŁ": 1642, "áŀ¾áŀī": 1643, "áĢľáĢ½": 1644, "Ĺà¸²à¸": 1645, "áŀīáŁĴáŀī": 1646, "àºĶàºį": 1647, "ĠáĢĻáĢŃ": 1648, "áŀĥ": 1649, "å¸": 1650, "áĢ¼áĢ¬": 1651, "áĢĲáĢ¼áĢĢáĢ¹": 1652, "áĢĻáĢŃ": 1653, "à¯ģà®®": 1654, "áº¥t": 1655, "áŁĴáŀĽáŀ¼áŀľ": 1656, "áĢ´": 1657, "áĢĸáĢ¼áĢħáĢº": 1658, "áŁĴáŀĺáŀ¸": 1659, "¢àº¹à»Ī": 1660, "áŁĴáŀļáŀ½": 1661, "à¹ĥà¸Ļ": 1662, "ĠáŀĢáŀĺáŁĴáŀĸáŀ»áŀĩáŀ¶": 1663, "ĠáŀļáŀĬáŁĴáŀĭ": 1664, "ĠáŀĶáŁĴáŀļ": 1665, "ot": 1666, "ä¸Ģ": 1667, "·à¹Īà¸Ńà¸": 1668, "àºĻàºµà»ī": 1669, "áŀĶáŁī": 1670, "áŁĴáŀļáŀ»áŀĢ": 1671, "à®²à¯į": 1672, "Ġàº¡àºµ": 1673, "ĠáĢĲáĢħáĢ¹áĢ": 1674, "áĢĻáĢ¼": 1675, "áŀĤáŁĴáŀĤ": 1676, "Æ°á»£": 1677, "áŁģáŀĳ": 1678, "Ġpara": 1679, "à»Ģàº¥": 1680, "áŁģáŀģ": 1681, "§à¹Īà¸²à¸": 1682, "áŀĬáŀĽáŁĭ": 1683, "áŀ»áŀı": 1684, "ĠáĢĨáĢŃáĢ¯": 1685, "±áĢĲáĢ¬áĢ¹áĢ": 1686, "ĠáĢĢáĢ»": 1687, "Ġla": 1688, "àº²àºĬ": 1689, "áŀīáŁĴáŀħ": 1690, "è¯": 1691, "à®¾à®Ł": 1692, "àº°àºģàº": 1693, "áŀĵáŀ»áŀŁáŁĴáŀŁ": 1694, "à¹ģà¸¥à¸°à¸": 1695, "áĢŃáĢ¯áĢĢáĢº": 1696, "áŀļáŁī": 1697, "àº²àºª": 1698, "áŀıáŁĭ": 1699, "áº¡i": 1700, "ina": 1701, "ģà¸²à¸": 1702, "ĠáŀĸáŁģáŀĽ": 1703, "áĢ¸áĢĢáĢŃáĢ¯": 1704, "àºģàº±àºļ": 1705, "à¯įà®©": 1706, "åıĳ": 1707, "áŀĢáŁĴáŀŁ": 1708, "áŀ¡áŀ¾áŀĦ": 1709, "Ġ'": 1710, "à¸Ńà¸Ńà¸Ļà¹Ħà¸¥à¸Ļà¹Į": 1711, "à¹Ħà¸Ĺà¸¢": 1712, "à¸£à¸±à¸ļ": 1713, "áĢ±áĢĨ": 1714, "áĢ¬áĢ¸áĢĢáĢŃáĢ¯": 1715, "Ġáŀİ": 1716, "Ġà¸Ńà¸": 1717, "èµ": 1718, "àº»àºĩ": 1719, "ĠáŀĽáŀ¾": 1720, "Äĥ": 1721, "©à¸": 1722, "à¯ģà®¤à¯įà®¤": 1723, "áŀĳáŁĢáŀı": 1724, "à»įàº²": 1725, "un": 1726, "àºĻàº±": 1727, "å¼": 1728, "áŁĴáŀļáŀĦ": 1729, "ķà¹Ī": 1730, "áŀķáŁĴáŀŁ": 1731, "áĢŃáĢ³áĤķ": 1732, "áĢĶáĢ¬": 1733, "ĠàºĤàºŃàºĩ": 1734, "áĢŃáĢ¯áĢ¸áĢĽ": 1735, "áŁĮáŀĺáŀ¶áŀĵ": 1736, "àº´àºĩ": 1737, "áŁĢáŀĶ": 1738, "à¯ģà®Ł": 1739, "ģà¹ĩà¸": 1740, "éĹ": 1741, "áĢĲáĢŃ": 1742, "Ġqu": 1743, "ĠáŁ£": 1744, "ĠáŀĨ": 1745, "àº§àº½": 1746, "áĤıáĢŃáĢ¯áĢĦáĢ¹áĢĦáĢ¶": 1747, "áĢ¼áĢĢáĢ¹áĢ": 1748, "ĠáĢ±áĢ»áĢķáĢ¬": 1749, "áĢĽáĢŃ": 1750, "áŀ·áŀĶáŀ¶áŀĽ": 1751, "áŀĤáŁģ": 1752, "à»Ģàºª": 1753, "à¹ĥà¸Ĭà¹īà¸": 1754, "ĠáĢĢáĢ¼": 1755, "æĬ": 1756, "Ĭà¸±": 1757, "à»īàº²àºĩ": 1758, "à¸£à¸²à¸Ħ": 1759, "áĢŀáĢŃ": 1760, "Ġà¸ģà¸": 1761, "áŀĵáŀ·áŀĦ": 1762, "åŃ": 1763, "áĢĶáĢ¹áĢĻáĢ¬": 1764, "áĢĢáĢ¬": 1765, "à®²à¯įà®²": 1766, "áŀ½áŀĦ": 1767, "ĠáŀĬáŀ¼áŀħ": 1768, "à»ĢàºĬ": 1769, "ed": 1770, "Ġà¸Ħà¸": 1771, "ab": 1772, "¯áŀĢ": 1773, "Ġà¹Ģ": 1774, "áĢĺáĢ°áĢ¸": 1775, "áŀĨáŁĴáŀĵáŀ¶áŁĨ": 1776, "áĢ¶áĢ¯áĢ¸áĢ": 1777, "ĠáĢĤ": 1778, "Ġcá»§": 1779, "à¹Ĥà¸£à¸": 1780, "áŁĢáŀĦ": 1781, "áŀ¶áŀĹ": 1782, "àºĤàºŃàºĩàº": 1783, "ti": 1784, "à¹Ģà¸¥": 1785, "å¿": 1786, "áŁĴáŀīáŀ»áŁĨ": 1787, "áĢĻáĢ¬": 1788, "ĠR": 1789, "à®Ļà¯įà®ķ": 1790, "áĢ±áĢħ": 1791, "áŁĴáŀļáŀĺ": 1792, "ĠáĢ¡áĢĽ": 1793, "¥à¸ĩà¸": 1794, "áŀĵáŁĴáŀıáŁĴáŀļáŀ¸": 1795, "áŁĴáŀĵáŁĨáŀĸáŁģáŀī": 1796, "áŁĦáŀĺ": 1797, "æ¸": 1798, "§à¸±à¸": 1799, "Ġáģ¿": 1800, "áĢ±áģ¾áĢĢáĢ¬áĢĦáĢ¹áĢ¸": 1801, "áĢ±áĢķáĢ«": 1802, "áŀıáŀ¶áŀĺ": 1803, "ķàº´": 1804, "áĢĹ": 1805, "æĺ¯": 1806, "Ġáŀ¬": 1807, "à»Īàº²àº§": 1808, "à¹Ħà¸¡à¹Ī": 1809, "±áĢŀáĢ¬": 1810, "áĢĬáĢºáĢ¸": 1811, "Ġà®ĩà®°": 1812, "áŁĲáŀıáŁĮáŀĺáŀ¶áŀĵ": 1813, "Ġay": 1814, "Ħà¸£": 1815, "¢à»Īàº²àºĩ": 1816, "ĠcÃ³": 1817, "áŁĴáŀĽáŀ¶áŀĶáŁĭ": 1818, "ĠáŀĢáŀ¶áŀĽ": 1819, "¡à¸ŀà¸": 1820, "áģĭ": 1821, "áŁ¡": 1822, "ĠáŀĤáŁģ": 1823, "Ĥà¸²à¸": 1824, "ĻáĤĪ": 1825, "ĠáĢĹ": 1826, "à»īàºŃàºĩàº": 1827, "áŀĢáŁĭ": 1828, "áĢ¬áĢĦáĢ¹áĢ·": 1829, "»áĢĸáĢħáĢ¹áĢ": 1830, "ĨáĢŃáĢ¯": 1831, "Ħà¸£à¸Ķà¸´à¸": 1832, "Īà¸±à¸": 1833, "Ġáŀĩáŀĵ": 1834, "áĢĬáĢ·áĢº": 1835, "Ĵáŀ¶áŀĵ": 1836, "ï¼": 1837, "áŀĻáŀĵáŁĴáŀı": 1838, "áŁĦáŀĽ": 1839, "åĨ": 1840, "Ġ25": 1841, "à¹ĥà¸«à¹ī": 1842, "à»ĢàºĶ": 1843, "áŀ¶áŀĬ": 1844, "à®±à¯įà®±": 1845, "Ġáŀ¢áŀ¶áŀħ": 1846, "Ġyang": 1847, "le": 1848, "¢à¸²à¸": 1849, "à»Īàº¡": 1850, "Ãº": 1851, "áŁĤáŀĺ": 1852, "éĩ": 1853, "Ġ6": 1854, "nd": 1855, "Ĭà¸²à¸": 1856, "áŁĴáŀļáŀĶáŁĭ": 1857, "áŀıáŁĴáŀıáŀ·": 1858, "Ġàºį": 1859, "Ġáŀħáŀ¼áŀĽ": 1860, "à»Ĩ": 1861, "áŁĴáŀĺáŁĦáŁĩ": 1862, "«à¸²à¸": 1863, "ĠâĢĭâĢĭâĢĭ": 1864, "áŀ»áŀĶ": 1865, "Ġcá»§a": 1866, "éĢ": 1867, "ĠI": 1868, "ĠáŀħáŁĨáŀİ": 1869, "ro": 1870, "ent": 1871, "Ľà¸£": 1872, "¥à¹ĩà¸Ńà¸ķ": 1873, "µà¸": 1874, "ĠâĢľ": 1875, "ĠáĢ±áĢĻ": 1876, "áĤıáĢ¯áĢŃáĢĦáĢ¹áĢ": 1877, "áģ¼": 1878, "áĢ¬áĢ¸áĢħ": 1879, "áŀļáŀ¸": 1880, "ĠáŀĢáŁĨáŀĸ": 1881, "àº°àºĻàº°": 1882, "ĠáŀĶáŁĴáŀļáŀĩ": 1883, "à¹Īà¸ĩà¹Ģà¸": 1884, "áĢ±áĢ¸": 1885, "áŁĴáŀģ": 1886, "Ġà®Ĵ": 1887, "ĠáŀĴ": 1888, "Ġà»ĥàºĻàº": 1889, "ļà¸²à¸Ĺ": 1890, "Īà¸²à¸ģà¸": 1891, "áĢ³áĢŃ": 1892, "ĠáģĤáģĢ": 1893, "áŀİáŁĪ": 1894, "áĢ¼áĢ¸áĢ": 1895, "ŀáĢĬáĢ¹": 1896, "ĠáĢ±áĢĢáĢº": 1897, "áĢ½áĢ²": 1898, "å¤§": 1899, "áŀļáŀ¶áŀĩ": 1900, "Ġo": 1901, "áŁ£": 1902, "áŁ¥": 1903, "áŀ¼áŀĦ": 1904, "à»Īàº½àº§": 1905, "áŀ¸áŀľ": 1906, "«à¸£à¸": 1907, "áŀĵáŁĥ": 1908, "ĠÄĲ": 1909, "æ³": 1910, "àºŃàºļ": 1911, "ĠáĢ¡áĢ²": 1912, "áĢĶáĢ¹áĤĶ": 1913, "ĠâĢĿ": 1914, "áĢ¯áĢĽ": 1915, "à¹Ģà¸ģà¸": 1916, "áŁĴáŀĢ": 1917, "ĶáĢ²áĤĶ": 1918, "áĢĶáĢŃáĢ¯áĢĦáĢº": 1919, "à®¿à®µ": 1920, "áŀ¶áŀĺáŁģ": 1921, "àº°àº¡": 1922, "Ġhá»": 1923, "áŀ»áŀŁ": 1924, "à¸£à¸§à¸": 1925, "ç«": 1926, "áŀĶáŁĴáŀļáŀĩ": 1927, "àºĹàºµà»Ī": 1928, "áŀĳáŁģ": 1929, "åº": 1930, "įà¸": 1931, "áŁĴáŀľáŀ¸": 1932, "à®³à¯į": 1933, "ĠáĢ»áĢĻáĢĶáĢ¹áĢĻáĢ¬": 1934, "ģáĢ¶": 1935, "áŀĨ": 1936, "áĢĲáĢ®": 1937, "Ķà¸µ": 1938, "di": 1939, "ĠáĢľáĢĢáĢ¹áĢ": 1940, "áĢ½áĢĶáĢº": 1941, "Ã£": 1942, "áŁĨáŀİáŀ¾": 1943, "àºŃàºĩ": 1944, "±à¸ĩ": 1945, "à»ĦàºĽ": 1946, "ä¸ĭ": 1947, "à¸Ńà¸¢à¹Īà¸²à¸": 1948, "áŀĦáŁĴáŀł": 1949, "çĽ": 1950, "ĠáŁ¢áŁłáŁ¡áŁ": 1951, "ĠD": 1952, "áĢ»áĢĻ": 1953, "ĠáĢ±áĢľ": 1954, "ĠáĢ·": 1955, "áĢģáĢ«": 1956, "áŀĸáŁĴáŀļáŁĩ": 1957, "áŀ¾áŀĽ": 1958, "à¹Īà¸§": 1959, "áĢĳáĢ¬áĢ¸áĢ": 1960, "à¯ģà®±": 1961, "áŁģáŀĢ": 1962, "ok": 1963, "áŁĢáŀĵ": 1964, "ĠáĢĻáĢ¼": 1965, "åĽ½": 1966, "áŀ¶áŀ¢": 1967, "à»Īàº²àº": 1968, "·à¹Īà¸Ńà¸ĩà¸": 1969, "ig": 1970, "ĠáĢģáĢº": 1971, "áĢĢáĢ¯áĢŃ": 1972, "áģ¿áĢĻ": 1973, "Ġáģģ": 1974, "ĠV": 1975, "áŁĴáŀļáŀŁáŀ½áŀĦ": 1976, "ĠF": 1977, "Ġáģ¾áĢĢ": 1978, "áĢĲáĢ±áĢ¬áĢº": 1979, "áŀłáŁĬáŀ»áŀĵ": 1980, "§à¹ĩà¸": 1981, "Ġà¸Łà¸£à¸µ": 1982, "à¸Ńà¸¢à¸": 1983, "áŀ¶áŀħáŁĭ": 1984, "áĢĲáĢħáĢ¹áĢ": 1985, "áĢľáĢ¯áĢķáĢº": 1986, "å®ĺ": 1987, "åİ": 1988, "ĠcÃ¡c": 1989, "áŀĽáŀļáŀĬáŁĴáŀĭ": 1990, "áŀĢáŀ¶áŀļáŀĶ": 1991, "à®¾à®°à¯į": 1992, "ĠÂŃ": 1993, "àº°àºļ": 1994, "Ġáŀĩáŀ¶áŀĺáŀ½áŀĻ": 1995, "áŁĴáŀĩ": 1996, "åĮ": 1997, "áĢ¯áĢĶáĢº": 1998, "ĸàº·": 1999, "à¹ģà¸¥": 2000, "ĠK": 2001, "áŀ¾áŀĶ": 2002, "Ġà®ħà®µ": 2003, "áŀ§": 2004, "Ġ!": 2005, "ĠáŀŁáŀĺáŁĴáŀļáŀ¶áŀĶáŁĭ": 2006, "ģáĢ¼": 2007, "à¹ģà¸£à¸": 2008, "áŁłáŁł": 2009, "áŀļáŀİáŁį": 2010, "åľ¨": 2011, "áŁĴáŀĸ": 2012, "aw": 2013, "łà¸": 2014, "áŀļáŀ½áŀĺ": 2015, "áĤĢáĢĢáĢ®áĢ¸": 2016, "áĢŃáĢ¯áĢĦáĢºáĢ¸áĢ": 2017, "àº°à»ĢàºĹ": 2018, "à®©à¯įà®±": 2019, "áŀłáŀ¾áŀĻ": 2020, "Ķà¹īà¸§à¸": 2021, "á»ĭ": 2022, "ĠáŀħáŁĨáŀĵáŀ½áŀĵ": 2023, "áŀĴáŀ¶áŀĵ": 2024, "áŀļáŀ·áŀĢ": 2025, "ula": 2026, "áŀĮ": 2027, "à»ĢàºŃ": 2028, "ģà¸±à¸ļà¸": 2029, "ĽáĢ½áĢŃ": 2030, "áĢĦáĢºáĢ·": 2031, "Ġáģĥ": 2032, "ĠáŀĳáŁģ": 2033, "Ġà®ªà¯ĭ": 2034, "áĢķáĢ¼áĢ®áĢ¸": 2035, "Ġáŀ§": 2036, "çİ": 2037, "áŀĵáŀ¶áŁĨ": 2038, "ĠáŀĻáŀ¾áŀĦ": 2039, "à»Ģàº§": 2040, "ĠL": 2041, "ĻáŁĪ": 2042, "à¹īà¸Ńà¸ĩ": 2043, "áŀĶáŁĴáŀļáŀĳáŁģáŀŁ": 2044, "å±": 2045, "Ħà¸¸à¸ĵà¸": 2046, "à®¿à®¤à¯įà®¤": 2047, "ĠTh": 2048, "ĺáĢ¬": 2049, "áŁĴáŀĺáŀ¶áŀĵ": 2050, "à¸Ńà¹Ģà¸": 2051, "áĢĲáĢŃáĢ¯áĤĶ": 2052, "áĢļáĢ¹áĢ·": 2053, "ĠáĢĺáĢ¬": 2054, "à»ĪàºĻ": 2055, "ĠÂ«": 2056, "ĠáŀĴáŀ": 2057, "éĻ": 2058, "áº¯": 2059, "Ġse": 2060, "ĠáĢĩ": 2061, "à®¾à®©à¯į": 2062, "İáŁį": 2063, "us": 2064, "áĢĲáĢ±áĢ¬áĢ·": 2065, "ľà¸¹à¹īà¸": 2066, "à¯ģà®³": 2067, "áĢ¡áĢħ": 2068, "áŀ¸áŀ¡": 2069, "áĢĢáģ": 2070, "áĢĲáĢ¼áĢĦáĢ¹": 2071, "ĠáĢĲáĢĽ": 2072, "äºĨ": 2073, "àºĬà»ī": 2074, "áŀ¶áŀĺáŁģáŀļáŀ·áŀĢ": 2075, "à¸²à¸£à¸": 2076, "ĠáĢģáĢ¯": 2077, "Ġthe": 2078, "Ġáŀĵáŀ¶áŀĢáŁĭ": 2079, "Ġis": 2080, "áŀĺáŁĴáŀļ": 2081, "áĢĳáĢŃ": 2082, "áŀ»áŀĻ": 2083, "áŀ¹áŀĺ": 2084, "à»ģàº¥àº°àº": 2085, "àº¸àºĶ": 2086, "à¸Ńà¸ļà¸": 2087, "ĠáŀĶáŀĵáŁĴáŀĳ": 2088, "ĠáģĢ": 2089, "à®¾à®²à¯į": 2090, "±áģ¾áĢĢ": 2091, "áĢī": 2092, "áŀħáŀ¼áŀĽ": 2093, "Ã¬nh": 2094, "à»ĥàºĻ": 2095, "áŀŁáŀ¶áŀļáŀ": 2096, "à¸Ļà¸±": 2097, "ĠáŀĶáŁīáŀ»": 2098, "è¡": 2099, "ĠÂ»": 2100, "áŀļáŀ»": 2101, "Īà¸²à¸ģ": 2102, "àº»àºĶ": 2103, "áŀĢáŁĴáŀļáŀ»áŀĺ": 2104, "áĤıáģ": 2105, "áĢĦáĢ·áĢ¹": 2106, "ĠáĢĬ": 2107, "ĠáĢľáĢ¯áĢķáĢ¹áĢ": 2108, "áĢĢáĢ¹áĢĢ": 2109, "áŀķáŁĴáŀĳ": 2110, "Ġr": 2111, "à¯ģà®¨à¯įà®¤": 2112, "áĢĦáĢ¶": 2113, "Īàº»à»īàº²": 2114, "à¹ĥà¸«à¸": 2115, "áŁģáŀıáŀ»": 2116, "im": 2117, "áŀ¶áŀĹáŀ·áŀĶáŀ¶áŀĽ": 2118, "àºĹàºµà»Īàº": 2119, "áŁĴáŀĲáŀ¶áŀĵ": 2120, "å½©": 2121, "Ġå¤": 2122, "ĲáŀĻáŀĵáŁĴáŀı": 2123, "§à¸±à¸Ļ": 2124, "áŀļáŀĩ": 2125, "Ġï¼ļ": 2126, "áŀ¢áŀ¶áŀħ": 2127, "ģáĢ»": 2128, "±à¹īà¸ĩ": 2129, "æĹ¶": 2130, "áŁĦáŀı": 2131, "ila": 2132, "Ġà®ķà¯Ĭ": 2133, "Ġ%": 2134, "Ġ7": 2135, "ĠáĢ±áĢĲáĢ¬": 2136, "áĢ¯áĢĶáĢ¹áĢ¸": 2137, "Ġ...": 2138, "áĢŃáĢ¯áĤķ": 2139, "áĢ»áĢģáĢĦáĢ¹áĢ¸": 2140, "áĢĬáĢ¬": 2141, "«à¸¡à¸": 2142, "àº°àº¥": 2143, "Ã¢n": 2144, "áŀ·áŀī": 2145, "ĠáĢ±áĢĲáĢ¼": 2146, "áĢĲáĢŃáĢ¯áĢ·": 2147, "áŀĳáŀ¹áŀĢ": 2148, "±à¹īà¸ĩà¸": 2149, "ĠáŀķáŁĴáŀĳ": 2150, "àº´à»Īàºĩ": 2151, "ĠáĢ±áĢĨ": 2152, "áĢ¬áĢ¹": 2153, "áĢĽáĢ²áĤķ": 2154, "áĢĲáĢ°": 2155, "å¾": 2156, "áŀļáŀĦ": 2157, "áŀĬáŀ¹áŀĦ": 2158, "Ġof": 2159, "ĠáŁ¥": 2160, "áŀħáŀ·áŀıáŁĴáŀı": 2161, "áĢ±áĢĢáĢ¬áĢĦáĢ¹áĢ¸": 2162, "áĢ¯áĢĶáĢ¹áĢ": 2163, "áģģáģ": 2164, "ĽáĢ¬": 2165, "Ķà¸´à¸¡à¸ŀà¸": 2166, "Ķà¸¥": 2167, "áģ¥": 2168, "áĢ¾áĢ¬": 2169, "Ġ8": 2170, "Ġáŀħáŀ¶áŀĶáŁĭ": 2171, "à¸Ńà¸£à¹Į": 2172, "à¯Īà®ķ": 2173, "Ġà»ľ": 2174, "ch": 2175, "áŀ±áŁĴáŀĻ": 2176, "ĠàºĹà»Īàº²àºĻ": 2177, "àº´àºĻàº": 2178, "ĳáĢ¬áĢ¸áĢ": 2179, "ķà¸²à¸": 2180, "áĢĻáĢºáĢŃáĢ³": 2181, "áĢ±áĢĲáĢ¬áĢ¹áĢ": 2182, "áģ¿áĢķáĢ®áĢ¸áĢ": 2183, "áĢģáĢºáĢŃ": 2184, "±áĢ¡": 2185, "áĢ±áĢ«áĢº": 2186, "áŀ·áŀĹ": 2187, "Ħàº§àº²àº¡": 2188, "áŀ¶áŀĻáŀĢ": 2189, "ĠâĢĭáŁĶâĢĭ": 2190, "å¥": 2191, "¥à¸´à¸": 2192, "Ġber": 2193, "ĺáŁĴáŀĺ": 2194, "iá»ģ": 2195, "uh": 2196, "àº§àºĩ": 2197, "Ľà¹ĩà¸Ļ": 2198, "ĠáŀĻáŁīáŀ¶áŀĦ": 2199, "à»ĥàºĪ": 2200, "ä¸Ń": 2201, "áĢ¶áĢ¯áĢ¸": 2202, "ĠáĢ±áĢĴ": 2203, "áĢŃáĢĻáĢº": 2204, "à¯ģà®ķà¯įà®ķà¯ģ": 2205, "ĠáŀĳáŁĢáŀı": 2206, "Ġáŀģáŀ¶áŀĦ": 2207, "à»ģàºķ": 2208, "ul": 2209, "à¹Ħà¸Ľ": 2210, "áŀĵáŀ¶": 2211, "áŁĴáŀļáŀ¿áŀĦ": 2212, "ĠáĢĻáĢº": 2213, "áĢĲáĢ½áĢĦáĢº": 2214, "áŁĴáŀĶáŀ¶áŀĶáŁĭ": 2215, "á»¯": 2216, "è§": 2217, "áŀĬáŁĤáŀļ": 2218, "à®¾à®µ": 2219, "ļà¸£à¸´à¸": 2220, "áŀıáŁĴáŀļ": 2221, "àºľ": 2222, "ĠáŀĻáŀĢ": 2223, "¢à¹Ģà¸": 2224, "ĠáŀŁáŀł": 2225, "âĢĭâĢĭâĢĭâĢĭâĢĭâĢĭâĢĭâĢĭâĢĭâĢĭâĢĭâĢĭâĢĭâĢĭâĢĭâĢĭâĢĭâĢĭâĢĭâĢĭâĢĭâĢĭâĢĭâĢĭâĢĭâĢĭâĢĭâĢĭâĢĭâĢĭâĢĭâĢĭâĢĭâĢĭâĢĭâĢĭâĢĭâĢĭâĢĭâĢĭâĢĭâĢĭâĢĭâĢĭâĢĭâĢĭâĢĭâĢĭâĢĭâĢĭâĢĭâĢĭâĢĭâĢĭâĢĭâĢĭâĢĭâĢĭâĢĭâĢĭâĢĭâĢĭâĢĭâĢĭ": 2226, "áŀĻáŀĢ": 2227, "è´": 2228, "à»ģàº¡à»ĪàºĻàº": 2229, "áŁĴáŀļáŀĢ": 2230, "ĠáŀĦ": 2231, "à¹īà¸§": 2232, "ko": 2233, "áŀŁáŀ¶áŀļ": 2234, "Ġà®İà®©à¯įà®±": 2235, "æľī": 2236, "Ľà¸¥": 2237, "áŀĶáŀĳ": 2238, "ĠáŁ¤": 2239, "ĠáŀļáŀĦ": 2240, "ĠáŀģáŁĴáŀĽáŀ½áŀĵ": 2241, "ĠàºĽàº°àº": 2242, "à¸´à¹Ģà¸": 2243, "à»Ģàº¡": 2244, "áŁĴáŀĽáŀ¶áŁĨáŀĦ": 2245, "os": 2246, "³à¸«": 2247, "á»±": 2248, "ĠG": 2249, "Ġà®ħà®¤": 2250, "áĢļáĢ°": 2251, "áŀ¿": 2252, "à¹Ħà¸Ľà¸": 2253, "»áĢģáĢĦáĢ¹áĢ¸": 2254, "áĢīáĢº": 2255, "Ġáŀĳáŀĳáŀ½áŀĽ": 2256, "áŁĴáŀĺáŁĤáŀļ": 2257, "áŀľáŀ·áŀĴáŀ¸": 2258, "Ġàº«àº¼": 2259, "çº": 2260, "áŀİáŁĴáŀĬ": 2261, "Ġáŀĸáŀ½áŀĢ": 2262, "à¹īà¸²à¸Ļà¸": 2263, "Ġà®ļà¯Ĩà®¯": 2264, "Ġáŀ¡áŀ¾áŀĦ": 2265, "à¸Ńà¸Ńà¸": 2266, "ito": 2267, "æĿ¥": 2268, "áĢ¬áĢ¸áĢĶ": 2269, "Ã²": 2270, "áŀ¶áŀīáŁĭ": 2271, "ĠáŀŁáŀ»": 2272, "Ġáŀĳáŀ¹áŀĢ": 2273, "àº®àº±àºļ": 2274, "uk": 2275, "Ġà¸ļà¸Ńà¸¥": 2276, "Ľà¸£à¸°à¹Ģà¸": 2277, "áŀħáŁĴáŀħ": 2278, "ĠáŀķáŁĴáŀŁ": 2279, "à®¾à®¯": 2280, "åĪĨ": 2281, "àº»à»īàº²àº": 2282, "áŀķáŀĽ": 2283, "áŀĬáŁĴáŀĭáŀ¶áŀĵ": 2284, "Æ°á»£c": 2285, "ĠáĢ¥áĢ®áĢ¸áĢ": 2286, "áĢ½áĢº": 2287, "ĠáĢ»áĢķáĢĬáĢ¹áĢ": 2288, "ĲáĢļáĢ¹": 2289, "áĢ¼áĢ²": 2290, "áĢĦáĢ·áĢ¹áĢ": 2291, "ĠáĢĸáĢ¼áĢħáĢº": 2292, "åĩ": 2293, "áŁĨáŀĸáŁĦáŁĩ": 2294, "ķà¹īà¸Ńà¸ĩà¸": 2295, "à¯įà®®": 2296, "áŁĦáŀĤ": 2297, "Ġà»ĥàº«à»ī": 2298, "à»įàº¥": 2299, "áŁĨáŀķ": 2300, "ĩà¸²à¸Ļà¸": 2301, "àº»àºģàº": 2302, "áĢŃáĢĶáĢº": 2303, "à¹Ĥà¸¡à¸": 2304, "áŀ»áŀİ": 2305, "à®Ļà¯įà®ķà®³": 2306, "áŀ¼áŀļ": 2307, "à¹Ģà¸£à¸": 2308, "Ġka": 2309, "æľº": 2310, "áŀ·áŀľ": 2311, "áŀŁáŁĴáŀļ": 2312, "àº°àºĻ": 2313, "å®¶": 2314, "áŀĢáŁĨáŀĸ": 2315, "à»īàº¡": 2316, "áĢŃáĢ¯áĢľ": 2317, "áŀĳáŁĴáŀĻ": 2318, "á»¥": 2319, "ķà¸£": 2320, "ĠàºĦàº§àº²àº¡": 2321, "áŀĢáŁĴáŀļáŀ»áŀĦ": 2322, "áĢŀáĢ±áĢ¬": 2323, "à»Ģàº«": 2324, "ï¼Į": 2325, "Ġà®ªà¯Ĩ": 2326, "ªà¸¸à¸Ķ": 2327, "ä¿": 2328, "áŀīáŁĴáŀĩáŀ¶áŀĢáŁĭ": 2329, "áŁĨáŀĶáŀĵáŁĭ": 2330, "à¹ģà¸ļà¸": 2331, "àº²àº¡àº²àºĶ": 2332, "á»©": 2333, "áŀĵáŀ¸": 2334, "çľ": 2335, "à¸²à¹Ģà¸": 2336, "áŀĢáŀ¶áŀļáŀİáŁį": 2337, "ut": 2338, "ä¸į": 2339, "à»Ģàºģàº": 2340, "Ġà®°": 2341, "áŀĵáŁĴáŀĲ": 2342, "à¸Ńà¸£à¹Įà¸": 2343, "Ġáŀ±áŁĴáŀĻ": 2344, "¸à¸ķà¸": 2345, "¹à¸ģà¸": 2346, "áŁ¢áŁłáŁ¡áŁ": 2347, "Ġin": 2348, "ĠáŀģáŁĴáŀīáŀ»áŁĨ": 2349, "áŀĺáŀ»áŀģ": 2350, "à®¿à®Łà¯įà®Ł": 2351, "áĢĲáĢĦáĢ¹áĢ¸": 2352, "áĢ¯áĢ¶áĢ¸": 2353, "áŀģáŀ¶áŀĦ": 2354, "á»Ļt": 2355, "æ¸¸": 2356, "àºģàºª": 2357, "ģà¸²à¸£à¹Ģà¸": 2358, "ĠáŀĹáŁĴáŀĵáŁĨáŀĸáŁģáŀī": 2359, "áŀ¢áŀŁáŁĭ": 2360, "**": 2361, "áĢĲáĢ½áĢĢáĢº": 2362, "Ġkung": 2363, "èĢ": 2364, "à®¾à®³": 2365, "áŁ¤": 2366, "ĠáŀĢáŁĴáŀļáŁĦáŀĻ": 2367, "àº«àºį": 2368, "ĠáŀĶáŀ¾": 2369, "áŁĴáŀļáŀĦáŁĭ": 2370, "Ġre": 2371, "à¸´à¸Ļà¸": 2372, "ĠáŀĶáŀĦáŁĴáŀĢ": 2373, "Ġà®µà®°": 2374, "ĠàºĻ": 2375, "à»īàºŃàºį": 2376, "áŀħáŁĨáŀĵáŀ½áŀĵ": 2377, "ĲáĢ¼áĢĦáĢ¹": 2378, "ĠáĢĽáĢ½áĢŃ": 2379, "ĠáĢĢáģ½": 2380, "áĢľáĢĬáĢºáĢ¸": 2381, "å¹³": 2382, "Ġu": 2383, "áŀŁáŁĴáŀļáŀ¸": 2384, "æ°": 2385, "áŀĵáŀ¶áŀĢáŁĭ": 2386, "áŀİáŁĴáŀİ": 2387, "Ġà¹ģà¸¥à¸°à¸": 2388, "áŀħáŁĨáŀİ": 2389, "à»īàºŃàºĩ": 2390, "áĢ±áĢĽáĢ¸": 2391, "áĢ±áĢĴ": 2392, "à®¾à®®": 2393, "ĠáĢħáĢ¬": 2394, "áŀľáŀ·áŀī": 2395, "ä¹Ĳ": 2396, "àº«àº¼": 2397, "ĠáĢ¦": 2398, "ç¥": 2399, "inh": 2400, "Ġà®Ĵà®°": 2401, "áĢħáĢ¬": 2402, "ĠáŀŁáŁĨ": 2403, "Ġdan": 2404, "à¸µà¹Īà¸": 2405, "ta": 2406, "èĤ": 2407, "áĢĲáĢ¼áĢĦáĢ¹áĢ¸": 2408, "ĠáģĮ": 2409, "ĠáŀħáŁģáŀī": 2410, "è½½": 2411, "æµ": 2412, "ĠáŀŁáŁĴáŀļáŀ»áŀĢ": 2413, "Ġáŀĩáŀ¶áŀıáŀ·": 2414, "Ġáŀļáŀ¼áŀĶ": 2415, "ĠáĢ±áĢĢ": 2416, "áĢĺáĢ¬": 2417, "Ġ9": 2418, "ĠE": 2419, "¢à¸Ļ": 2420, "Ġto": 2421, "áŀĵáŁĴáŀıáŁĤ": 2422, "áĢ¯áĢŃáĢĢáĢ¹áĢ": 2423, "áĢĳáĢ²": 2424, "ģáĢ«": 2425, "áĢĻáĢ»áĢ¬áĢ¸": 2426, "Ġà»ĢàºĬ": 2427, "Ġà¸Ļ": 2428, "áŀ½áŀĶ": 2429, "ĥ½": 2430, "ĠkhÃ´ng": 2431, "áŁģáŀħáŀĢ": 2432, "ĠJ": 2433, "ķà¹Īà¸": 2434, "ĠáŀĤáŁĴáŀĵáŀ¶": 2435, "áŀĬáŀ¼áŀħ": 2436, "à®³à¯įà®³": 2437, "áŀ¶áŀĴáŀ·": 2438, "àº¸àºĶàº": 2439, "ĠáŀĶáŁĴáŀļáŀĢ": 2440, "Ġà¸Īà¸": 2441, "áŀ¸áŀł": 2442, "Ġáŀ¢áŀĦáŁĴáŀĤ": 2443, "id": 2444, "±à¸ļà¸": 2445, "ĠáĢ±áĢķ": 2446, "áĢĵ": 2447, "ĠáŀĹáŀ¶áŀĸ": 2448, "áĢĶáĢ¹áĢĢ": 2449, "áĢ±áĢĳ": 2450, "àº´àºĻ": 2451, "áŀ·áŀĻáŀ¶áŀĻ": 2452, "Ãły": 2453, "áģ¤": 2454, "áĢĲáĢ½áĢ±": 2455, "±áĢħ": 2456, "ŁáĢ¬": 2457, "ĠáĢ±áĢ¡": 2458, "áĢĬáĢ·": 2459, "áĢļáĢ¬": 2460, "åı°": 2461, "Ġni": 2462, "Ġáŀ¯áŀĢ": 2463, "ä¸Ĭ": 2464, "Ĥà¹īà¸²à¸": 2465, "ĠáŀĢáŀĺáŁĴáŀĺ": 2466, "Ġà»Ģàº®": 2467, "ĠáŀŁáŀ»áŀģ": 2468, "áŁ¦": 2469, "áŀ½áŀŁ": 2470, "ģáĢ¯": 2471, "áŁĲáŀĸ": 2472, "±àºĻ": 2473, "áĢħáģ¥": 2474, "áĢĬáĢ®": 2475, "à®¿à®ªà¯įà®ª": 2476, "Ġmag": 2477, "áŁĴáŀŁáŀ¶": 2478, "à¹Ĥà¸Ļ": 2479, "ĠáģĤáģ": 2480, "Ķà¸´à¸¡à¸ŀà¸±à¸Ļà¸": 2481, "ŀà¸Ļà¸": 2482, "¡à¸²à¸£à¸": 2483, "áŁĦáŀĶ": 2484, "àº°àºª": 2485, "áĢ¯áĢŃáĢĦáĢ¹áĢ¸": 2486, "áĢĢáĢ¼áĢ®áĢ¸áĢ": 2487, "áŁ§": 2488, "áŀ·áŀıáŁĴáŀĻ": 2489, "æīĭ": 2490, "ĠáŁķ": 2491, "ĠáŀĽáŀ¾áŀĢ": 2492, "ĠáŀĢáŀ¶áŀĽáŀĸáŀ¸": 2493, "áŀ¶áŀĢáŁĭáŀĳ": 2494, "Ġà»ģàºķ": 2495, "ĻáĢºáĢ¬áĢ¸": 2496, "áĢ±áĢĽáĢ¸áĢ": 2497, "ĽáĢ½": 2498, "Ķà¸¥à¸Ńà¸ĩ": 2499, "¥à¸ĩà¸Ĺà¸": 2500, "æķ": 2501, "áĢ¬áĢĻ": 2502, "Ġà¸ģ": 2503, "Ġcho": 2504, "Ġà¹Ĥà¸Ľà¸£": 2505, "±à¸ļ": 2506, "áŀ¼áŀĺáŀ·": 2507, "áŀĢáŁı": 2508, "Ġ;": 2509, "áĢĽáĢĦáĢ¹": 2510, "ŀáĢ¼": 2511, "ľáĢĬáĢ¹áĢ¸": 2512, "ĠáģĦ": 2513, "àº±àºĻàºĶ": 2514, "Ġà®µà¯ĩ": 2515, "ĠáĢĦáĢ«": 2516, "±áĢĢ": 2517, "ĠáĢĻáĢ½": 2518, "áĢħáĢ¯": 2519, "Ġisang": 2520, "ĠáŀħáŁĴáŀļáŀ¾áŀĵ": 2521, "à¹Ģà¸£": 2522, "áŀıáŀ¸": 2523, "àº´à»Īàºĩàº": 2524, "áŀĸáŁĴáŀļ": 2525, "áģĢáģĢ": 2526, "å¯": 2527, "ķà¸±à¸§": 2528, "ĠáŀĢáŁĨáŀĸáŀ»áŀĦ": 2529, "Ã¹": 2530, "áŀĦáŁĴáŀłáŀ¶áŀī": 2531, "áĢŃáĢĲáĢº": 2532, "à¯ģà®ªà¯įà®ª": 2533, "áŁĨáŀł": 2534, "°à¹Ģà¸ļ": 2535, "ak": 2536, "ĠáŀŁáŁģ": 2537, "¥à¸·à¸Ńà¸": 2538, "à»Īàº§àº¡": 2539, "áŀ½áŀı": 2540, "àº´àºĩàº": 2541, "ģà¸±à¸Ļ": 2542, "áģ¿áĢķáĢ®": 2543, "áĢŃáĢ¯áĢĦáĢ¹": 2544, "áĢĽáĢ¾": 2545, "ĠáŀļáŀĢ": 2546, "çĲ": 2547, "áŀİáŁĴáŀıáŀ¶áŀĽ": 2548, "Ġáŀĺáŀĵáŀ»áŀŁáŁĴáŀŁ": 2549, "Ġà®ĩà®¨à¯įà®¤": 2550, "ĩà¸²à¸Ļ": 2551, "ļàºļ": 2552, "áŁĨáŀĽ": 2553, "ĠÄĳÆ°á»£c": 2554, "ĠáĢ¡áĢ²áĢĴáĢ®": 2555, "áģ¿áĢĻáĢŃáĢ³áĤķ": 2556, "ĳáĢ²": 2557, "Ġ?": 2558, "áŀļáŀ¼áŀĶ": 2559, "áĢ±áĢ¬áĢĦáĢºáĢ¸": 2560, "Ġà¸ģà¸²à¸£à¸": 2561, "áŀĵáŁĴáŀĵ": 2562, "áŀĦáŁĴáŀŁ": 2563, "åĿ": 2564, "ĠáŀĶáŁĴáŀļáŀĴáŀ¶áŀĵ": 2565, "àºŃàºĩàº": 2566, "áŀ¢áŀĦáŁĴáŀĤ": 2567, "Ķà¸µà¸": 2568, "áŀĵáŁĴáŀĽáŁĤáŀĦ": 2569, "Ġmay": 2570, "à¯ĩà®°": 2571, "ĠáĢ¡áĢľ": 2572, "å¹´": 2573, "¡à¸±à¸": 2574, "à»ĥàºĬà»ī": 2575, "Ġke": 2576, "áŀīáŁĴáŀł": 2577, "áĢŀáĢ½": 2578, "Ĥà¸¶": 2579, "æĸ¹": 2580, "áŀģáŁģáŀıáŁĴáŀı": 2581, "ĠáŀĵáŁħáŀĢáŁĴáŀĵáŀ»áŀĦ": 2582, "áŀŁáŁģ": 2583, "àºŃàºĻ": 2584, "ªà¯į": 2585, "áŀİáŀ¶áŀĺ": 2586, "Ġáŀ¢áŁĨáŀĸ": 2587, "Ġmas": 2588, "æł": 2589, "áŀ¶áŀĢáŀ¶áŀļáŀ": 2590, "áĢĶáĢ²áĢ·": 2591, "ĠáĢ¡áĢĨ": 2592, "áŁĴáŀĵáŁĤáŀĢ": 2593, "àº±àºĶàºĸ": 2594, "á»Ł": 2595, "Łà¸¸à¸ķà¸": 2596, "à¹Ģà¸Ľà¹ĩà¸Ļà¸": 2597, "áĢ±áĢĲ": 2598, "àº¸àº¡": 2599, "áŀĺáŀĵáŁĴáŀıáŁĴáŀļáŀ¸": 2600, "áŀĵáŁħáŀĢáŁĴáŀĵáŀ»áŀĦ": 2601, "Ġbuh": 2602, "Ġà»ģàº¡à»Ī": 2603, "ik": 2604, "áĢŃáĢ¯áĢ¸": 2605, "ĠáŀĶáŁīáŀ»áŀĵáŁĴáŀıáŁĤ": 2606, "áĢ±áĢ»áĢķáĢ¬": 2607, "ĠáĢĽáĢ½": 2608, "65": 2609, "ä¸ĭè½½": 2610, "æĶ": 2611, "à¯Īà®ķà¯įà®ķ": 2612, "áĢ¡áĢĲáĢ¼áĢĢáĢ¹": 2613, "áĢľáĢ°": 2614, "ĠW": 2615, "ģà¸©": 2616, "áĢķáĢ±áĢ¸áĢ": 2617, "ĸà¸¶à¸": 2618, "áŀĲáŁĴáŀĦáŁĥáŀĳáŀ¸": 2619, "Ġà»ĢàºĤ": 2620, "áŀĥáŀ¾áŀī": 2621, "Ġà»Ģàºŀàº·à»ĪàºŃ": 2622, "å¤©": 2623, "áŀĩáŁĴáŀĩ": 2624, "àº²àº°": 2625, "áĢ¸áĢķ": 2626, "áŀŁáŀ·": 2627, "æŃ": 2628, "áĢ±áģ¾áĢĢáĢ¬áĢĦáĢ¹áĢ·": 2629, "ķáĢ¼áĢ²": 2630, "áĢĸáĢ½": 2631, "áŀħáŁģáŀī": 2632, "à¯ģà®³à¯įà®³": 2633, "ol": 2634, "Ġand": 2635, "Ġ10": 2636, "à¹Īà¸¡à¸": 2637, "Ġáŀļáŀ¶áŀĩ": 2638, "áĢ¸áĢ±áĢĲáĢ¼": 2639, "ĠáĢ¡áĢģáĢ¯": 2640, "áĢŃáĢĻáĢ¹áĢ¸": 2641, "Ġáģħ": 2642, "áŀ¼áŀļáŀ": 2643, "Ġàºªàº°": 2644, "Ġàºĸ": 2645, "iá»ĩn": 2646, "Ġcom": 2647, "à¸µà¸¢à¸Ļà¸": 2648, "ļáĢ°": 2649, "ĠáģĤáģĢáģģáģ": 2650, "Ġà¸ĭà¸": 2651, "à»īàº²àºĻ": 2652, "áĢıáĢ¹áĢ": 2653, "áŀĤáŀº": 2654, "áĢľáĢŃáĢ¯áĢ·": 2655, "áĢ¦": 2656, "àºĻàº§": 2657, "çĻ": 2658, "à®¿à®´": 2659, "Ġga": 2660, "ãĢĳãĢĲ": 2661, "æŀ": 2662, "ĠáŀĶáŀ»": 2663, "áĢ±áĢķáģļ": 2664, "ĠáĢĲáĢ¬": 2665, "ĠáŀĶáŀĵáŁĴáŀı": 2666, "áĢ³áĢķáĢ¹áĢ": 2667, "áĢ¡áĢŀ": 2668, "ost": 2669, "ģà¸¥": 2670, "áŀĢáŀĺáŁĴáŀĸáŀ»áŀĩáŀ¶": 2671, "áŁ©": 2672, "à®°à¯įà®ķà®³": 2673, "áŀĹáŁĴáŀĽ": 2674, "áĢºáĢ¬": 2675, "Ġ=": 2676, "áĤĩ": 2677, "áĢĲáĢ¹áĢŀ": 2678, "áĢ¾áĢĦáĢ·áĢº": 2679, "áŀĩáŀ¶áŀĺáŀ½áŀĻ": 2680, "Ġàºľ": 2681, "¡àºµ": 2682, "áº·": 2683, "áŀ¶áŀĩáŀĵ": 2684, "å®ĺç½ĳ": 2685, "ĴĮ": 2686, "áŀķáŁĴáŀı": 2687, "Ġà¸Ķà¸": 2688, "Ġe": 2689, "à¹īà¸Ńà¸¡à¸": 2690, "à®ªà¯įà®ªà®Ł": 2691, "ĠáŀĺáŁģ": 2692, "Ġáŀħáŀ»áŁĩ": 2693, "àºĶàºµ": 2694, "áŀĵáŁĴáŀĴáŀ": 2695, "¹à¹Ī": 2696, "ip": 2697, "áŀ¶áŀĳáŀ¸": 2698, "áŀĤáŁĴáŀĵ": 2699, "ir": 2700, "àº°àºį": 2701, "ĠáŀĢáŀ¶áŀļáŀĶ": 2702, "à®¤à¯įà®¤à®¿à®²à¯į": 2703, "ļáĢ¬áĢĢáĢ¹áĢ": 2704, "±áĢĢáĢº": 2705, "áĢĦáĢ¹áĢĲ": 2706, "áĢŀáĢĬáĢ¹áĢ": 2707, "áĢ¸áĢķáĢ«": 2708, "Ġà¹Ģà¸Ķà¸´à¸¡à¸ŀà¸±à¸Ļà¸": 2709, "à¹Ģà¸£à¸µà¸": 2710, "yo": 2711, "áŀĶáŀĢáŁĴáŀŁ": 2712, "ĠáĢŀáĢĻ": 2713, "áŀĳáŁĴáŀĴáŀ·": 2714, "áĢĲáģ": 2715, "áĢħáĢ®": 2716, "áŀĻáŁīáŀ¶áŀĦ": 2717, "à»ģ": 2718, "å¼Ģ": 2719, "Æ°Æ¡": 2720, "áĢ¼áĢĶáĢ¹áĢ¸": 2721, "ĠáĢ±áĢŀ": 2722, "ĠáĢħáĢŃáĢĲáĢ¹áĢ": 2723, "áĢĲáĢħáĢº": 2724, "áŀ¶áŀĸáŀĽáŀļáŀĬáŁĴáŀĭ": 2725, "ĠáŀĶáŀĵáŁĴáŀĳáŀ¶áŀĶáŁĭ": 2726, "Ġà¸Ĺà¸Ķà¸¥à¸Ńà¸ĩ": 2727, "Ġà¹Ģà¸¥": 2728, "ģà¸±à¸ļ": 2729, "ĠåĪ": 2730, "áŀĳáŀĳáŀ½áŀĽ": 2731, "àº±àºĶàºķ": 2732, "à®°à¯įà®ķà®³à¯į": 2733, "çīĮ": 2734, "Ġäº": 2735, "Ġáŀĺáŀ»áŀĵ": 2736, "Ġko": 2737, "à¸Ńà¸ļ": 2738, "à»Īàº²àºį": 2739, "Ġnag": 2740, "æİ": 2741, "Ġ2018": 2742, "áŁĤáŀĶ": 2743, "ĮáĢ¬áĢĶ": 2744, "Ĺà¸³": 2745, "áº§n": 2746, "ĠáĢĳáĢŃáĢ¯": 2747, "áŀ·áŀŁáŁģáŀŁ": 2748, "»àºĶ": 2749, "áŀħáŁĨ": 2750, "±áĢķáĢ«": 2751, "áĢŃáĢķáĢ¹áĢ": 2752, "ĠáŀķáŁĴáŀĽáŀ¼áŀľ": 2753, "áĢĦáĢ¹áĢĢ": 2754, "ĠáĢ¡áĢĶ": 2755, "ç§": 2756, "ĠáŁĶâĢĭ": 2757, "ģàº°": 2758, "à®®à¯įà®ª": 2759, "Ħà¸£à¸Ķà¸´à¸ķ": 2760, "Ĭà¸±à¹Īà¸Ļ": 2761, "ĠáŀĪáŁĴáŀĺáŁĦáŁĩ": 2762, "à¹īà¸²à¸Ļ": 2763, "áŀĩáŁĨáŀĵ": 2764, "Ġà¸Ľ": 2765, "ĠáŀĬáŁĤáŀļ": 2766, "áĢŃáĢ¯áĢĦáĢºáĢĦáĢ¶": 2767, "áŁĦáŀŁ": 2768, "ķà¸£à¸": 2769, "àº¸àºģàº": 2770, "ĠáŁł": 2771, "ĸáŁĲáŀĵ": 2772, "iÃªn": 2773, "à¯ģà®°": 2774, "áŀķáŁĴáŀĽáŀ¼áŀľ": 2775, "àº±à»īàºĩàº": 2776, "Ħà¸§à¸²à¸¡": 2777, "lah": 2778, "áĢľáĢ¬áĢ¸": 2779, "áĢ¶áĢ·": 2780, "áŀĸáŁĴáŀľ": 2781, "áŁ¨": 2782, "áŀĤáŁĴáŀĵáŀ¶": 2783, "Ġbuhok": 2784, "Ġsi": 2785, "áĢŃáĢĶáĢ¹áĢ¸": 2786, "īáģ": 2787, "àºĤàºŃàºĩ": 2788, "Ĺà¸³à¸": 2789, "ĠáŀĨáŁĴáŀĵáŀ¶áŁĨáŁ¢áŁłáŁ¡áŁ": 2790, "áŀ»áŀĽáŁĴáŀĽ": 2791, "à®¾à®®à¯į": 2792, "áŀ¹áŀĢáŀĵáŀ¶áŁĨ": 2793, "áŀĴáŀ·": 2794, "Ġå¤§": 2795, "ĠáŀļáŀĶ": 2796, "±áĢĳ": 2797, "ĠáĢ±áĢĶáĢ¬áĢĢáĢ¹áĢ": 2798, "áĢ±áĢ»áĢģ": 2799, "áĢĻáĢºáĢ¬áĢ¸áĢ": 2800, "áĢ½áĢ±": 2801, "ä½ĵ": 2802, "áŀıáŁĴáŀļáŀ¼áŀľáŀĶáŀ¶áŀĵ": 2803, "áĢ¬áĢ¸áĢĢ": 2804, "ģà¸¡à¸": 2805, "ĩà¸´à¸Ļ": 2806, "à»ģàº¥": 2807, "áĢŃáĢĻ": 2808, "·à¹Īà¸Ń": 2809, "Ġåħ": 2810, "Æ°á»Ľ": 2811, "à®¾à®Łà¯įà®Ł": 2812, "áŁĢáŀĺ": 2813, "Ġáŀĩáŀ¶áŀĦ": 2814, "áĢ±áĢĲáĢ¼áĢĢáĢŃáĢ¯": 2815, "áĢĢáĢ¹áĢľ": 2816, "áĢŀáĢ¼áĢ¬áĢ¸áĢ": 2817, "áĢľáĢŃáĢ¯áĤĶ": 2818, "áĢŁáĢ¯": 2819, "indi": 2820, "à¸Ļà¸µà¹īà¸": 2821, "áŁĴáŀį": 2822, "æĢ": 2823, "ĠáŀĬáŀ¹áŀĦ": 2824, "áŀķáŀĦ": 2825, "áŀĶáŁĴáŀļáŀĢ": 2826, "àº°à»ĢàºĹàºĶ": 2827, "ŀáĢ¼áĢ¬áĢ¸áĢ": 2828, "áĢĽáĢ±áĢ¸áĢ": 2829, "áŀıáŀ·": 2830, "ĠáŀĢáŁĴáŀļáŀŁáŀ½áŀĦ": 2831, "áŀŁáŀĺáŁĴáŀļáŀ¶áŀĶáŁĭ": 2832, "Ġà®ı": 2833, "Ġà¸£à¸": 2834, "ĠáŀŁáŀĺáŁĴáŀ": 2835, "Ġà¸Ĥ": 2836, "éĹ¨": 2837, "ur": 2838, "20": 2839, "±áĢĽáĢ¸": 2840, "áĢĻáĢļáĢ¹": 2841, "áĢ¬áĢ¸áĢĻáĢº": 2842, "áĢĲáĢ²áĢ·áĢ¡": 2843, "±áĢĨáĢ¬áĢĦáĢ¹áĢ": 2844, "±áģ¾áĢĢáĢ¬áĢĦáĢ¹áĢ¸": 2845, "áĢŀáĢĬáĢ¹áĢ·": 2846, "ĲáĢŃáĢ¯áĤĶ": 2847, "ĠáĢ¡áĢĳ": 2848, "Ġà¸£": 2849, "áŀĤáŁĴáŀļáŁĦáŁĩ": 2850, "åĳ": 2851, "à¸Ļà¸´à¸": 2852, "áŀĢáŁĴáŀģ": 2853, "à»ĢàºĦ": 2854, "Ġtrong": 2855, "áĢŁáĢ¯áĢĲáĢ¹áĢ": 2856, "áĢ±áĢĢáĢº": 2857, "áĢĽáĢ²áĢ·": 2858, "ĠáĢŁáĢ¯": 2859, "Ġáŀļáŀ½áŀĺ": 2860, "áĢĶáĢ¾áĢħáĢº": 2861, "áŁĨáŀĦ": 2862, "Ġà®µà¯Ĩ": 2863, "ĺà¸": 2864, "ĠáŀĲáŁĴáŀĦáŁĥáŀĳáŀ¸": 2865, "ĠU": 2866, "áŁĴáŀĬáŀ¸": 2867, "±à¸įà¸": 2868, "æĸ°": 2869, "áŀĮáŁĴáŀį": 2870, "áŁĨáŀķáŀ»áŀı": 2871, "àºŃàºģ": 2872, "æ²": 2873, "ib": 2874, "ĠáĢĨáĢĽáĢ¬": 2875, "áĢ±áĢĽáĢ¬": 2876, "§à¹ĩà¸ļ": 2877, "Ĺàº²àºĩ": 2878, "Īà¸£à¸´à¸": 2879, "ĠáŀķáŀĦ": 2880, "ĠáŀŁáŁĴáŀĲ": 2881, "Īà¸°": 2882, "Ġà®¨à®Ł": 2883, "áŀĶáŁĴáŀĶ": 2884, "æĭ": 2885, "áŀ¶áŀĻáŀ»": 2886, "ĠO": 2887, "áĢĻáĢºáĢ¸áĢ": 2888, "ew": 2889, "áŁĢáŀıáŀİáŀ¶áŀĺ": 2890, "áŀ¶áŀŁáŁĬáŀ¸": 2891, "±à¸ģ": 2892, "à®¿à®ļ": 2893, "ĠáŀĺáŁĴáŀĵáŀ¶áŀĢáŁĭ": 2894, "áŁĴáŀļáŀ¡": 2895, "Æ°á»Ŀi": 2896, "áŁĴáŀıáŁģáŀħ": 2897, "Ġht": 2898, "ĠáĢ»áĢķáĢĶáĢ¹áĢ": 2899, "ĠáĤıáĢ½áĢħáĢ¹áĢ": 2900, "áĤıáĢ¯áĢŃáĢĦáĢ¹áĢĦáĢ¶": 2901, "áģ¢": 2902, "áĢ»áĢķáĢ³": 2903, "áĢħáĢ¬áĢ¸áĢ": 2904, "Ġáŀĺáŀ»áŀģ": 2905, "áŀĺáŁĴáŀĽáŁĥ": 2906, "ļà¸Ńà¸¥à¸": 2907, "Ĭà¹Īà¸§à¸": 2908, "àº±à»īàºĩ": 2909, "áĢ»áĢĸáĢħáĢ¹": 2910, "áĢĦáĢ¹áĢľ": 2911, "áĢĶáĢļáĢº": 2912, "pp": 2913, "éĿ": 2914, "áŀĬáŀ¸": 2915, "áĢ®áĢľ": 2916, "ad": 2917, "à®©à¯įà®©": 2918, "áŀĽáŁĴáŀĶ": 2919, "à»ĢàºĽàº±àºĻ": 2920, "Ġà¸ŀà¸": 2921, "ĲáĢħáĢ¹áĢ": 2922, "áĢ½áĢĦáĢº": 2923, "à®ªà¯įà®ªà®Łà¯įà®Ł": 2924, "áŀĢáŀļ": 2925, "ĠáŀŁáŁĤáŀĵ": 2926, "áŀľáŀıáŁĴáŀı": 2927, "«à¸¥": 2928, "áŀļáŀĺ": 2929, "lo": 2930, "ç«Ļ": 2931, "áŀĵáŁĴáŀĲáŁĤáŀĺ": 2932, "àºĻàº°": 2933, "ä¼ļ": 2934, "áŁĦáŀĶáŀ¶áŀĻ": 2935, "áŀıáŁĴáŀĲáŀĢáŀ·áŀħáŁĴáŀħ": 2936, "áŁĢáŀľ": 2937, "Ġà»ĤàºĶàºį": 2938, "Ħáŀ¶áŀļ": 2939, "ano": 2940, "áŀĨáŁĴáŀĵ": 2941, "¢à¸Ļà¸": 2942, "áŀ¶áŀħáŁĴáŀļáŀ¾áŀĵ": 2943, "Ġj": 2944, "Ġngh": 2945, "mang": 2946, "àº»àº²àº": 2947, "Ġà¸ªà¹Īà¸ĩà¹Ģà¸": 2948, "Ġà¹Ģà¸Ķà¸´à¸¡à¸ŀà¸±à¸Ļà¸Łà¸£à¸µ": 2949, "¥à¸ĩà¸Ĺà¸°à¹Ģà¸ļ": 2950, "ĩà¸´à¸Ļà¸ļà¸²à¸Ĺ": 2951, "ĩà¸´à¸Ļà¸ļà¸²à¸Ĺà¹Ħà¸Ĺà¸¢": 2952, "ªà¸²à¸¡à¸²à¸£à¸": 2953, "à®Łà¯ģà®¤à¯įà®¤": 2954, "áŀĹáŀ¶": 2955, "áŀĶáŁĴáŀļáŀ¶áŀŁáŁĭ": 2956, "to": 2957, "áŁĴáŀļáŀ·": 2958, "à»ģàºļàºļ": 2959, "ĠáĢķáĢŃáĢ¯": 2960, "åĴĮ": 2961, "Ġà¹Ĥà¸Ķà¸": 2962, "áŀĽáŁģáŀģ": 2963, "áº¡n": 2964, "»áĢķáĢ³": 2965, "áĢĿáĢĦáĢº": 2966, "Ġta": 2967, "ĠáŀĢáŁĴáŀļáŀ»áŀĺáŀłáŁĬáŀ»áŀĵ": 2968, "Ġà»ĢàºĽàº±àºĻ": 2969, "àº±àºĶàºĹ": 2970, "à¯Īà®¯à®¿à®²à¯į": 2971, "áŀĤáŀ¶áŀıáŁĭ": 2972, "à»Ģàº®àº±àºĶ": 2973, "Ġà¸ļ": 2974, "ĠáŀĩáŁĨáŀĵ": 2975, "Ġà¸Ĺà¸µà¹Īà¸": 2976, "ĠáŀĢáŀ¶áŀĵáŁĭ": 2977, "ĠáŀĤáŁĴáŀļáŀĶáŁĭ": 2978, "¹à¹Īà¸": 2979, "áŀĢáŀ¶áŀĵáŁĭ": 2980, "ĠáĢħáĢħáĢ¹áĢ": 2981, "±áĢŀ": 2982, "áĢĦáĢ¹áĢĻ": 2983, "áĢ±áĢ¬áĢĦáĢ·áĢº": 2984, "Ġà®¤à¯Ĭ": 2985, "àºĹàºµ": 2986, "Ġmen": 2987, "ĠáŀĸáŁĴáŀļ": 2988, "Ġáŀĵáŀ¶áŁĨ": 2989, "ub": 2990, "áŀĴáŀ¶áŀĵáŀ¸": 2991, "áŀĳáŁģáŀŁ": 2992, "åŁ": 2993, "ķàº´àºļ": 2994, "à¹īà¸Ń": 2995, "àºµàºĻ": 2996, "áŀ¶áŀĩáŁĴáŀī": 2997, "Ġ00": 2998, "à¸£à¸²à¸°à¸": 2999, "½áŀħ": 3000, "à»ĢàºĻàº": 3001, "ĠáŀıáŁĴáŀļáŀ¼áŀľáŀĶáŀ¶áŀĵ": 3002, "áĢ¯áĢĴ": 3003, "Ġà¸¥": 3004, "áĢ»áĢĸáĢĦáĢ¹áĢ·": 3005, "ĠáĤıáĢŃáĢ¯áĢĦáĢ¹áĢĦáĢ¶": 3006, "áĢ»áĢ¾": 3007, "88": 3008, "Ħà¸£à¸·à¹Īà¸Ńà¸ĩà¸": 3009, "Ġmá»Ļt": 3010, "áŀıáŁĴáŀıáŀĺ": 3011, "à¯Īà®¤à¯įà®¤": 3012, "ĠáŀĶáŁĴáŀļáŀ¾": 3013, "Ĺà¸²à¸ĩà¸": 3014, "å¹³åı°": 3015, "æ¬": 3016, "à»ģàº¥àº°": 3017, "Ġà»Ģàº¡": 3018, "áŀ»áŀħ": 3019, "ĠáŀļáŀŁ": 3020, "áŀĲáŁĴáŀĺáŀ¸": 3021, "à»ĪàºĻàº": 3022, "áŁĨáŀĦáŀº": 3023, "pang": 3024, "áĢĴáĢ«": 3025, "Ġà®Ĵà®°à¯ģ": 3026, "áĢ¬áĢĲáĢ¹áĢ": 3027, "áĢĢáĢ¹áĢ¡": 3028, "ĸáĢŃáĢ¯áĤĶ": 3029, "áĢ¯áĢķáĢ¹": 3030, "áĢ®áĢĻ": 3031, "ĠáŀķáŀĽ": 3032, "é¢": 3033, "ĦáĢ¼": 3034, "áĢ»áĢĢáĢº": 3035, "ion": 3036, "ĠáŀŁáŀ·": 3037, "áŀļáŀĩáŀ¶áŀıáŀ·": 3038, "ķàºµ": 3039, "ĠáŀĤáŀ¶áŀıáŁĭ": 3040, "ģà¸´à¸": 3041, "ĠáŀłáŁĬáŀ»áŀĵ": 3042, "áŁĴáŀĽáŁĤáŀĦ": 3043, "ĠáĢĵ": 3044, "áŀĶáŀĵáŁĴáŀĳ": 3045, "åĵ": 3046, "à»įàº¥àº´": 3047, "ĠáĤĲ": 3048, "áĢĢáĢ¹áĢħ": 3049, "ĠáĢĢáĢŃáĢ¯áĢļáĢ¹áĢ": 3050, "ĠáĢĴáĢ¯": 3051, "áŀĸáŀ½áŀĢ": 3052, "ĠáĢĲáĢħáĢº": 3053, "ģà¸¥à¸": 3054, "od": 3055, "àºļà»įà»Ī": 3056, "å¿«": 3057, "áŀłáŁģáŀıáŀ»": 3058, "æ£": 3059, "man": 3060, "áŀļáŀĸ": 3061, "à¸£à¸²à¸Ħà¸²à¸": 3062, "ĠáŀħáŁĨáŀĸáŁĦáŁĩ": 3063, "§à¸±à¸Ļà¸": 3064, "app": 3065, "å¸Ĥ": 3066, "áŀŁáŁĴáŀı": 3067, "áĢ±áĢĸ": 3068, "àºĸ": 3069, "áĢ±áĢķáĢĻ": 3070, "áĢĢáĢ±áĢĲáĢ¬áĢ·": 3071, "áĢŀáĢĻ": 3072, "Ġà®ķà¯Ĥ": 3073, "Ġä»": 3074, "±áĢķáĢ¸áĢ": 3075, "áĢĶáĢ¹áĢĲ": 3076, "ĠáŀĲáŁĴáŀĺáŀ¸": 3077, "ĠáŀŁáŀĦáŁĴáŀĤ": 3078, "ĠCh": 3079, "ľà¸¥à¸": 3080, "áĢħáĢ¹áĢħ": 3081, "à»īàºŃàº¡": 3082, "áŀ»áŀĳáŁĴáŀĴáŀ": 3083, "áŀİáŀĶáŀĢáŁĴáŀŁ": 3084, "áŀ¶áŀĢáŁĴáŀĻ": 3085, "Ġà¹ģà¸¥à¸°": 3086, "Ġlang": 3087, "ĠáŀĸáŁĲáŀıáŁĮáŀĺáŀ¶áŀĵ": 3088, "áĢģáĢ»áĢĢáĢº": 3089, "Ĺàº´": 3090, "ce": 3091, "áŀĽáŁĴáŀ¢": 3092, "àºŁ": 3093, "yon": 3094, "«à¸¡à¸²à¸": 3095, "à®¸": 3096, "áŁĴáŀĸáŀŁáŁĭ": 3097, "Ġvá»Ľi": 3098, "Ġåı": 3099, "áŀĢáŀ¶áŀļáŀŁ": 3100, "ĠáŁ¦": 3101, "ĠáŀŁáŀ¼áŀĺ": 3102, "àº·à»ī": 3103, "ĠáĢ¡áĢģ": 3104, "áŀĤáŀļáŀĶ": 3105, "áŁĨáŀĬ": 3106, "à¹Īà¸²à¸Ļà¸": 3107, "Ġper": 3108, "áŀŁáŁĴáŀĲáŀ¶áŀĵ": 3109, "åħ¬": 3110, "à»ĢàºĪ": 3111, "áŁīáŀ¶": 3112, "à®¿à®®": 3113, "áŀħáŁĴáŀļáŀ¾áŀĵ": 3114, "Ĺà¸µà¸": 3115, "áĢĽáĢĦáĢ¹áĢ": 3116, "ĠáģĨ": 3117, "¥à¸ĩà¸Ĺà¸°à¹Ģà¸ļà¸µà¸¢à¸Ļà¸": 3118, "ªà¸³à¸«": 3119, "áĢ½áĢĢáĢº": 3120, "Ĭàº²àºĶ": 3121, "iá»ĥ": 3122, "è¡Į": 3123, "ĠâĢĭáŁ": 3124, "ĠáŀĳáŁĨáŀĵ": 3125, "Ġàºļà»įà»Ī": 3126, "īà¸": 3127, "áŀĤáŀļáŀĶáŀ¶áŀĽ": 3128, "Ġáŀľáŀ·áŀī": 3129, "ĠàºĽàº°": 3130, "ŀàº§àºģ": 3131, "ĠáŀĢáŀ¾áŀı": 3132, "ĠáĢŀáĢŃáĢĽ": 3133, "áĢĽáĢ®áĢ¸áĢ": 3134, "Ġà®ħà®°": 3135, "ĠáŀĢáŀ·áŀħáŁĴáŀħ": 3136, "ĠáŀŁáŁĴáŀļ": 3137, "áŀ½áŀļ": 3138, "ķà¸´": 3139, "Ġkan": 3140, "áŀĺáŁĴáŀĽáŀ¶áŁĨáŀĦ": 3141, "áŀ·áŀľáŀĮáŁĴáŀį": 3142, "à»ģàº«": 3143, "łáŀ¼áŀı": 3144, "ĠáĢĶáĢ¾": 3145, "à®Ļà¯įà®ķà®³à¯į": 3146, "Ġáŀļáŀ¿áŀĦ": 3147, "Ġà¹Ĥà¸Ľà¸£à¹Ĥà¸¡à¸": 3148, "à¸´à¸Ķà¸": 3149, "áŀĶáŀĦáŁĴáŀĢ": 3150, "àº§à»Īàº²": 3151, "éģ": 3152, "áŀ¶áŀĢáŀ¶áŀļ": 3153, "Ġà¸¡à¸": 3154, "áŀļáŀĻáŁĪ": 3155, "ķà¹Į": 3156, "Æ°Æ¡ng": 3157, "áĢļáĢ¹áĢľáĢŃáĢ¯áĤĶ": 3158, "áĢ¬áĢĽáĢ®": 3159, "ĠAng": 3160, "áŀīáŁĴáŀĩáŀ¼áŀĵ": 3161, "àº¹àºĻàº": 3162, "áĢľáĢŃáĢ¯áĢĢáĢ¹áĢ": 3163, "áĢ¾áĢ¯": 3164, "ĠáŀĢáŁĴáŀļáŀ»áŀĦ": 3165, "æ³¨": 3166, "¡à¸²à¸ģà¸": 3167, "æ±": 3168, "áŀıáŀ¶áŁĨáŀĦ": 3169, "´àºĶ": 3170, "áŀīáŁĴáŀīáŀ¶": 3171, "áŀ¶áŀļáŀ¸": 3172, "áŀĵáŁĴáŀıáŀļáŀĩáŀ¶áŀıáŀ·": 3173, "å¨": 3174, "áŀ»áŀľ": 3175, "à»Ģàºŀàº·à»ĪàºŃ": 3176, "ia": 3177, "áŀŁáŁĴáŀļáŀ»áŀĢ": 3178, "éĺ": 3179, "áŀ¾áŀĵ": 3180, "à®±à¯įà®ķ": 3181, "łà¸²à¸ŀà¸": 3182, "ĠáŀĬáŀ¶áŀĢáŁĭ": 3183, "ĠáĢĢáĢ¯": 3184, "áŀŁáŀł": 3185, "áĢĻáĢ»áĢŃáĢ¯áĢ¸áĢ": 3186, "áŀĻáŀ¾áŀĦ": 3187, "à¹ĥà¸Ī": 3188, "iá»ģu": 3189, "ĠáŀŁáŁĬáŀ¸": 3190, "¥àº²àº§": 3191, "áŀĹáŀ·áŀľáŀĮáŁĴáŀį": 3192, "Ĺà¸¸à¸": 3193, "ĠáŁ§": 3194, "áŁĴáŀļáŀł": 3195, "áĢ¼áĢļáĢ¹áĢ": 3196, "ĠáĢ±áĢħ": 3197, "áĢ»áĢķáĢĬáĢ¹áĢ": 3198, "ĠáĢľáĢŃáĢ¯": 3199, "áŀĺáŀł": 3200, "áŀ½áŀļáŀ": 3201, "ä½ľ": 3202, "Ħà¸¸à¸ĵ": 3203, "Ġàºŀàº§àºģ": 3204, "áĢĶáĢ¾áĢĦáĢ·áĢº": 3205, "áŀ·áŀĴáŀ¸": 3206, "áŀĶáŁĴáŀļáŀ¾": 3207, "Ġàºľàº¹à»ī": 3208, "åľ°": 3209, "ģà¸£à¸°à¸": 3210, "Ġà®®à¯ģà®": 3211, "à»įà»ī": 3212, "ĠáŀģáŁĴáŀĺáŁĤáŀļ": 3213, "áŀĢáŁĴáŀļáŁĦáŀĻ": 3214, "Æ°á»Ŀng": 3215, "ĠáŀĶáŁĴáŀļáŀŁ": 3216, "Ġmem": 3217, "Ġ#": 3218, "Ġà¸ªà¹Īà¸ĩà¹Ģà¸ĩà¸´à¸Ļà¸ļà¸²à¸Ĺà¹Ħà¸Ĺà¸¢": 3219, "à¹Ģà¸Ķ": 3220, "à»īàº²àºĻàº": 3221, "Ġáŀ¢áŀĵáŀ»": 3222, "áŀ»áŀĳ": 3223, "Ļà¯įà®ķ": 3224, "Ġan": 3225, "Ġà¹Ģà¸¡à¸": 3226, "áĢ¡áĢĽ": 3227, "àº·àºŃàºĩ": 3228, "áŀĽáŀ¾áŀĢ": 3229, "áŁĤáŀı": 3230, "à¹Ĥà¸£à¸ĩ": 3231, "¦ģ": 3232, "áĢĲáĢŃáĢ¯áĢĦáĢ¹áĢ¸": 3233, "ĠáĢĢáģ½áĢ¼áĢĶáĢ¹áĢ": 3234, "áĢ¼áĢĲáĢ¹áĢ": 3235, "Ġáģ¿áĢķ": 3236, "ĠáĢĺáĢ¯áĢĽ": 3237, "ata": 3238, "à¯Īà®µ": 3239, "Ġà¸¥à¸ĩà¸Ĺà¸°à¹Ģà¸ļà¸µà¸¢à¸Ļà¸": 3240, "Ġ$": 3241, "Ġà¸¥à¸ĩà¸Ĺà¸°à¹Ģà¸ļà¸µà¸¢à¸Ļà¸Łà¸£à¸µ": 3242, "Łà¸¸à¸ķà¸ļà¸Ńà¸¥": 3243, "à¹Ĥà¸Ķà¸": 3244, "áŀĻáŁĦáŀĶáŀ¶áŀĻ": 3245, "áĢ½áĢ±áĢ¸áĢ": 3246, "áŀĳáŀ»áŀĢ": 3247, "ĠàºĻàº±": 3248, "áŀĩáŁĴáŀļ": 3249, "uyá»": 3250, "ers": 3251, "Ġáŀľáŀ¶": 3252, "áĢ¡áĢ±áĢĶ": 3253, "áĢ¸áĢĶ": 3254, "à»ģàºĤ": 3255, "ĠáŀĸáŁĴáŀļáŁĦáŁĩ": 3256, "ĠáŀŁáŁĨáŀİ": 3257, "áŁĴáŀļáŁģáŀħ": 3258, "Ġmo": 3259, "áŀ¶áŀĲ": 3260, "áĢ®áĢ¸áĢķ": 3261, "à¸£à¸²à¸Ħà¸²": 3262, "à¯įà®£": 3263, "àº½àºĩ": 3264, "à¸Ļà¹īà¸": 3265, "áŀĩáŁĲáŀĻ": 3266, "çĶŁ": 3267, "ĠáĤı": 3268, "áĢĺáĢ²": 3269, "ĠáŀĶáŀ¾áŀĢ": 3270, "ilang": 3271, "Ġáŀĩáŀ½áŀĻ": 3272, "áŀ¸áŀĬ": 3273, "áĢĤáĢ«": 3274, "à®¾à®£": 3275, "áŀ¯": 3276, "àºŃàºĻàº": 3277, "á»į": 3278, "áĢĽáĢĦáĢº": 3279, "à¹ĥà¸«à¸¡": 3280, "ĠáŀĹáŀ¶áŀĤ": 3281, "ĠáĢ¡áĢ¬": 3282, "à¹ģà¸¥à¹īà¸§": 3283, "Ġyou": 3284, "áŀ¼áŀıáŀ¼": 3285, "iv": 3286, "áŀļáŀİáŀ¸": 3287, "àºªàº°": 3288, "±áĢĻ": 3289, "áĤĨ": 3290, "áĢĶáĢ·áĢº": 3291, "ä¸ļ": 3292, "áŀŁáŁĨ": 3293, "¤à¸": 3294, "áŀħáŀ¶áŀĶáŁĭ": 3295, "à¯Ĩà®°": 3296, "æĪı": 3297, "åĪ°": 3298, "áŀĢáŀ¾áŀı": 3299, "Ľàº°àºĬ": 3300, "áŀĬáŀ¶áŀĢáŁĭ": 3301, "à»ĢàºĹ": 3302, "ĠâĢĵ": 3303, "ĠáĢŀáĢĲáĢĦáĢ¹áĢ¸": 3304, "áĢŀáĢŃáĢ¯áĤĶ": 3305, "áĢĢáģł": 3306, "áĢĲáĢļáĢ¹áĢ": 3307, "áĢĨáĢ±áĢ¬áĢĦáĢº": 3308, "Ãłng": 3309, "à¸Ńà¸µà¸": 3310, "áŁĴáŀļáŀ¹áŀĢ": 3311, "áŀĬáŀ¾áŀĺáŁĴáŀĶáŀ¸": 3312, "ĠáŀĬáŁı": 3313, "¢à¸§à¸": 3314, "Ġà»ĢàºĹ": 3315, "áŁĴáŀļáŀĸ": 3316, "Ġito": 3317, "à¯įà®¤à¯įà®¤": 3318, "àº¶à»Īàºĩ": 3319, "áŀĩáŀ¾áŀĦ": 3320, "áĢ±áĢĶáĤĶ": 3321, "ĠáĢ±áĢĸ": 3322, "áĢ¬áĢ¸áĢ±áĢĲáĢ¼": 3323, "áĤıáĢ½áĢħáĢ¹": 3324, "áĢ±áĢĨáĢ¬áĢĦáĢ¹áĢ": 3325, "áĢ±áĢķáĢ¸áĢ": 3326, "áģĤ": 3327, "áŀĸáŁĲáŀĵ": 3328, "áº£i": 3329, "Ġà®ªà®Ł": 3330, "áŀ·áŀĵáŀ·áŀıáŁĴáŀĻ": 3331, "10": 3332, "ĸáĢ¼áĢħáĢº": 3333, "èĩ": 3334, "áŀĺáŁĴáŀĵáŀ¶áŀĢáŁĭ": 3335, "ĸáŀ»áŀĩ": 3336, "Ġáŀ¥": 3337, "à¸£à¸²à¸¢à¸": 3338, "ĠáŀļáŀĲáŀĻáŀĵáŁĴáŀı": 3339, "Īàº²àºģàº": 3340, "ĠáŀķáŁĴáŀı": 3341, "áŁĴáŀļáŀ¹áŀĺ": 3342, "à¯įà®¯": 3343, "à¹ĥà¸Ĭà¹īà¸Łà¸£à¸µ": 3344, "à¸´à¸ĩà¸": 3345, "áŀŁáŁĨáŀİ": 3346, "áŀŁáŁĬáŀ¸": 3347, "Ġà¸Ĺà¸Ķà¸¥à¸Ńà¸ĩà¹ĥà¸Ĭà¹īà¸Łà¸£à¸µ": 3348, "Ġà¸Ļà¸": 3349, "sa": 3350, "áĢĢáĢ¼áĢ±áĢ¬áĢĦáĢºáĢ¸": 3351, "ĺáŁĮ": 3352, "è¾": 3353, "Ãłnh": 3354, "áŀĶáŀĵáŁĴáŀı": 3355, "ec": 3356, "à¹Īà¸²à¸Ļ": 3357, "ĠàºĻàºµà»ī": 3358, "à»Īàºį": 3359, "à®¤à¯į": 3360, "áŀıáŁģ": 3361, "ªà¸Ķà¸": 3362, "Ġáŀħáŀ·áŀĵ": 3363, "Ġáŀĥáŀ¾áŀī": 3364, "±àºĻàº": 3365, "±áĢĶáĤĶ": 3366, "áĢĶáĢĬáĢ¹áĢ¸": 3367, "áĢŃáĢĢ": 3368, "à¹Ħà¸Ķà¹īà¹Ģà¸": 3369, "Ġáŀī": 3370, "bo": 3371, "áŁĢáŀĶáŀħáŁĨ": 3372, "áŀİáŁį": 3373, "Ġà¹Ĥà¸Ľà¸£à¹Ĥà¸¡à¸Ĭà¸±à¹Īà¸Ļ": 3374, "à¸²à¸ģ": 3375, "à¹Īà¸²à¸ĩà¸": 3376, "áĢ±áĢĲáĢ¬áĢ¹": 3377, "ķáĢ²": 3378, "ĠáĢĢáĢ¬": 3379, "Ġæľ": 3380, "Ľàºµ": 3381, "áŀĩáŀ¶áŀĦ": 3382, "áģĢáĢĦáĢ¹áĢ": 3383, "ĦáĢĶáĢ¹áĢ¸": 3384, "Ġáģıáģĭ": 3385, "áĢķáĢ¹áĢĻ": 3386, "áĢĽáĢĶáĢº": 3387, "ĠáŀĺáŀĵáŁĴáŀıáŁĴáŀļáŀ¸": 3388, "ĠáŀĺáŁīáŁĦáŀĦ": 3389, "Ġà®İà®©à¯įà®±à¯ģ": 3390, "ĠTr": 3391, "áŀĹáŀ¶áŀĤ": 3392, "æ´": 3393, "³à¸Ļà¸": 3394, "ĠàºĤàºŃàºĩàº": 3395, "ari": 3396, "áŀ¶áŀģ": 3397, "à»Ĥàº¥": 3398, "áŀĺáŀĵáŀ»áŀŁáŁĴáŀŁ": 3399, "Ġà¸ªà¸¥à¹ĩà¸Ńà¸ķ": 3400, "tion": 3401, "ªà¸¹à¸": 3402, "áº£n": 3403, "áŀŁáŀĺáŁĴáŀ": 3404, "Ġà®ļà¯Ĭ": 3405, "áŀ¼áŀļáŁī": 3406, "áŀľáŀ·áŀĳáŁĴáŀĻ": 3407, "à¸²à¸ªà¸´": 3408, "Ġà¸ĸ": 3409, "ĠáĢ»áĢĸ": 3410, "áĢĸáĢ½áĢ²áĢ·": 3411, "¶à¹Īà¸ĩà¸": 3412, "Ġhindi": 3413, "Ġáŀĵáŀ¼áŀľ": 3414, "Ġà®Ł": 3415, "à»Ŀàº²àºį": 3416, "ä¸º": 3417, "áŀİáŀ¶": 3418, "áģ¾áĢĢáĢ®áĢ¸áĢ": 3419, "ĠáĢľáĢ¯áĢķáĢº": 3420, "ĠáŀŁáŁĴáŀĵ": 3421, "áŀķáŁĴáŀŁáŀ¶áŀĻ": 3422, "áŀĵáŀ¼áŀľ": 3423, "áĤĬáĢĲáĢ¹áĢ": 3424, "áĢĬáĢ·áĢ¹áĢ": 3425, "áĢĢáĢ¹áĢŀ": 3426, "ĠáĢĻáĢ¼áĢĶáĢº": 3427, "ĠngÆ°á»Ŀi": 3428, "tp": 3429, "áģĬ": 3430, "Ġàº¥àº²àº§": 3431, "áĢĦáĢºáĢ¸áĢĻ": 3432, "áŀ¶áŀļáŀĸ": 3433, "àº½àºĻ": 3434, "áŀ¿áŀĵ": 3435, "ŀà¸·à¹Īà¸Ńà¸": 3436, "ara": 3437, "à®¾à®±": 3438, "àº´àºģ": 3439, "ĠáŀĶáŁĴáŀļáŀĹ": 3440, "Ĩáŀ¶áŁĨáŀĦ": 3441, "à¸£à¸¹": 3442, "ħáŀ¶áŁĨ": 3443, "àº¹àºĻ": 3444, "ĠáŀĢáŀ¼áŀĵ": 3445, "áĢĽáĢ²": 3446, "áŀħáŁĴáŀĶáŀ¶áŀĶáŁĭ": 3447, "ĠáĢ¡áĢŃáĢĻáĢ¹áĢ": 3448, "ģáģļ": 3449, "áĢŀáĢĬáĢ·áĢº": 3450, "åī": 3451, "Ġhala": 3452, "Ġàºģàº±àºļ": 3453, "à»įàº²àº¥": 3454, "áŀ¾áŀļ": 3455, "Ħà¸¡": 3456, "Ġsing": 3457, "àº°àº«àº§": 3458, "bang": 3459, "à¯Īà®ªà¯įà®ª": 3460, "Ľà¸£à¸°à¹Ģà¸Ĺà¸": 3461, "áŀ¯áŀĢ": 3462, "áŀ¶áŀĴáŀ¶": 3463, "áŀ¶áŀŁáŁĴáŀı": 3464, "àº²àºĦ": 3465, "Ãłn": 3466, "ĠáŀŁáŁģáŀħáŀĢ": 3467, "ow": 3468, "ä¸ĩ": 3469, "ana": 3470, "ä¸ª": 3471, "»áŀŁ": 3472, "ĠáŀĨáŁĴáŀĽ": 3473, "à¯Īà®¯à¯ģà®®à¯į": 3474, "à¸£à¹īà¸²à¸": 3475, "à»Īàº½àº§àºģàº±àºļ": 3476, "áŀĶáŀ»": 3477, "áŀĲáŁĴáŀĵáŀ¶áŀĢáŁĭ": 3478, "Ġáŀ¢áŀ¶áŀĻáŀ»": 3479, "áŀĺáŀĵáŁį": 3480, "à»Ģàºĩàº": 3481, "áŀĶáŁĴáŀļáŀ¶áŀĢáŁĭ": 3482, "áŀ¼áŀĢ": 3483, "Ġ2019": 3484, "Ġ12": 3485, "Ġà¸Ń": 3486, "àºĻàº²àº¡": 3487, "á»¯ng": 3488, "«à¸£à¸·à¸Ń": 3489, "áŀĢáŀ¶áŀļáŀĸ": 3490, "ģàº±àºļ": 3491, "yang": 3492, "áŀĬáŁĨáŀİáŀ¾": 3493, "Ġà®ķà®Ł": 3494, "éĴ": 3495, "·à¹Īà¸Ńà¸ĩ": 3496, "à»ĤàºĶàºį": 3497, "Ġáŀ¢áŀ¶áŀĺáŁģáŀļáŀ·áŀĢ": 3498, "¾³": 3499, "áĢ±áĢķáĢ«áĢ·": 3500, "Ġáģĩ": 3501, "æ¸¸æĪı": 3502, "ĠáŀıáŁĨáŀĶáŀĵáŁĭ": 3503, "«à¸Ļà¹īà¸²à¸": 3504, "çīĪ": 3505, "ĠáĢľáĢ½": 3506, "èĤ²": 3507, "Ġï¿½ï¿½ï¿½": 3508, "éĽ": 3509, "Ġáŀİáŀ¶": 3510, "Ġupang": 3511, "Ġà®ĩà®¤": 3512, "ĠáĢĺáĢļáĢ¹áĢ": 3513, "ĠáĢĽáĢ¬": 3514, "áŀģáŀ¶áŀĵáŁĭ": 3515, "ªà¸¥à¹ĩà¸Ńà¸ķ": 3516, "Ġ11": 3517, "à¹Īà¸²à¸¢à¸": 3518, "ĠáĢ¡áĢĻ": 3519, "Ġáŀĵáŀ¶áŀĦ": 3520, "Ġáŀĵáŀ·áŀĻáŀ¶áŀĻ": 3521, "Ġà®ħà®®": 3522, "à»ģàº¡": 3523, "å·¥": 3524, "Ĺà¸±à¹īà¸ĩà¸": 3525, "±áĢĲáĢ¬áĢ¹": 3526, "//": 3527, "ĠáĢľáĢĢáĢº": 3528, "áŀĦáŁĴáŀĢáŀ¶áŀıáŁĭ": 3529, "áŀĦáŁĴáŀŁáŁĲáŀĻ": 3530, "ĠáŀĽáŁĴáŀ¢": 3531, "àº¥àº²àºį": 3532, "æīĭæľº": 3533, "ĠáŀĶáŀħáŁĴáŀħ": 3534, "ç¾": 3535, "Ġsingaw": 3536, "Ġmask": 3537, "Ġhalamang": 3538, "aba": 3539, "áŀ¢áŀ¼": 3540, "®à»Īàº§àº¡": 3541, "ih": 3542, "à¹Ģà¸ª": 3543, "áŁ¢áŁł": 3544, "áĢ±áĢľáĢ¸": 3545, "Ġ://": 3546, "áĢĶáĢ±áĢ·": 3547, "áŀ¶áŀĴáŀ¶áŀļáŀİ": 3548, "àº§àº½àºĶ": 3549, "à®¿à®±à®¤à¯ģ": 3550, "Ńàºĩàº": 3551, "áŀĺáŀ»áŀĵ": 3552, "Ãłi": 3553, "Ġà¹Ģà¸ĩà¸´à¸Ļà¸": 3554, "Ġà¸ķà¸": 3555, "æĥ": 3556, "Ġàº§à»Īàº²": 3557, "àºµà»Īàº¡": 3558, "áŁĤáŀļáŀ": 3559, "Ĥà¹īà¸²": 3560, "áĢĦáĢļáĢ¹áĢ": 3561, "áĢºáĢ¬áĢ¹áĢ": 3562, "ĠáĢ±áģ¾áĢĢ": 3563, "»áĢķáĢ¬áĢĦáĢ¹áĢ¸": 3564, "ĠáĢķáĢ¼áĢ±áĢ¬": 3565, "ĠáŀĤáŁĴáŀļáŀ¿áŀĦ": 3566, "áŀĵáŁĴáŀĳáŀ¸": 3567, "áŀĢáŀ¶áŀŁ": 3568, "áŀ¶áŀĽáŁĲáŀĻ": 3569, "àºģàº§": 3570, "áŁĴáŀĽáŀ¶áŀĻ": 3571, "áĢĢáģ¡": 3572, "±áĢķáģļ": 3573, "áĢĦáĢ¹áĢ¡": 3574, "ŁáĢ¯": 3575, "ç½ĳç«Ļ": 3576, "à¸Ńà¸Ķ": 3577, "áĢĢáĢ¹áĢĲ": 3578, "áĢĢáĢ¹áĢĨ": 3579, "áĤĢáĢĢáĢŃáĢ³": 3580, "....": 3581, "ĠáĢ¡áĢĢ": 3582, "çĶ¨": 3583, "áŀŁáŁĴáŀĵ": 3584, "Īà¸±à¸Ķà¸": 3585, "Ġáŀĳáŀ¾áŀĶ": 3586, "áº§u": 3587, "áŀĬáŁı": 3588, "Ġmula": 3589, "áĢ»áĢ¬áĢ¸": 3590, "«àº¼àº²àºį": 3591, "à®®à®¾à®ķ": 3592, "ģà¸±à¸Ļà¸": 3593, "áŀ¶áŀĩáŁĴáŀīáŀ¶áŀĴáŀ": 3594, "áŁĴáŀļáŀ½áŀĽ": 3595, "Ġ256": 3596, "«à¸±à¸": 3597, "Ġáŀ¢áŀŁáŁĭ": 3598, "æĹ¥": 3599, "te": 3600, "Ġ}": 3601, "ŀà¸Ļà¸±à¸Ļà¸": 3602, "ľà¸¹à¹ī": 3603, "áŀĴáŀĺáŁĮ": 3604, "ela": 3605, "±áĢĽáĢ¬áĢĢáĢ¹áĢ": 3606, "áĢ¥áĢ¹": 3607, "áĢ¬áĢ·": 3608, "ĠáĢľáĢ¬": 3609, "áĢĲáĢĽ": 3610, "áŀĨáŁĴáŀĵáŁĦáŀı": 3611, "åĩº": 3612, "áĢĺáĢ°áĢ¸áĢ": 3613, "±áĢļáĢ¬áĢĢáĢ¹áĢ": 3614, "áĢ±áĢĺáĢ¬": 3615, "ĠáĢ¡áĢ±áĢĻ": 3616, "áĢĢáĢ¼áĢ®áĢ¸": 3617, "áŀĴáŁĨ": 3618, "uko": 3619, "Ķà¸²à¸": 3620, "áŀ»áŀĽáŁĴáŀĽáŀ¶áŀļ": 3621, "gam": 3622, "à»īàº²àºį": 3623, "áŀ¶áŁĨáŀĳ": 3624, "ĠáĢĽáĢĢáĢ¹áĢ": 3625, "»áĢķáĢ®áĢ¸": 3626, "ĠáĢģáĢ¶": 3627, "Ġáŀĸáŀ¶áŀĢáŁĭ": 3628, "Ġà®ªà®¿à®°": 3629, "áĢ»áĢķáĢ®áĢ¸": 3630, "±áĢĳáĢ¬áĢĦáĢ¹áĢ": 3631, "Ġhttp": 3632, "áĢ¼áĢĻáĢ¹áĢ¸": 3633, "áģħ": 3634, "ĠáŀĶáŁĴáŀļáŀĺ": 3635, "áŀĢáŀ¶áŀĽ": 3636, "áĢķáĢ¼áĢ¯": 3637, "ļà¸±à¸": 3638, "anh": 3639, "Ġkay": 3640, "áŀ¶áŀķ": 3641, "à»Ģàºĸ": 3642, "åħ¨": 3643, "áŀ·áŀĹáŀ¶áŀĸ": 3644, "à¸´à¸Ļ": 3645, "áŀ·áŀĹáŀĸ": 3646, "çĤ": 3647, "áĢ¡áĢģáĢ«": 3648, "Ġpam": 3649, "ŃàºĻ": 3650, "Ġà®µà®¾à®": 3651, "ĠáŀĸáŁĴáŀļáŀĺ": 3652, "ĠnhÆ°": 3653, "áŀĴáŀ¶": 3654, "àº´àºĶàºķ": 3655, "ãĢĤ": 3656, "à¸£à¹Įà¸": 3657, "áŀ¼áŀĶ": 3658, "áĢŃáĢ¯áĢ¸áĢĲ": 3659, "à®ªà¯į": 3660, "ªàº°": 3661, "áŀ¢áŀ¶áŀĺáŁģáŀļáŀ·áŀĢ": 3662, "ĠáĢ¡áĢħáĢŃáĢ¯áĢ¸áĢĽ": 3663, "áĢĲáĢĦáĢº": 3664, "ªà¸´à¸": 3665, "áŀĪáŁĴáŀĺáŁĦáŁĩ": 3666, "ĭçīĮ": 3667, "¾³éĹ¨": 3668, "é¡": 3669, "ĠáŀĶáŀĳ": 3670, "Ġáŀĥáŀ»áŁĨ": 3671, "ug": 3672, "áŁĴáŀĽáŁĩ": 3673, "·à¹īà¸Ńà¸": 3674, "nya": 3675, "Ġ\":": 3676, "à¸Ļà¸Ħ": 3677, "Ġ\",": 3678, "ģáĢ«áĢĦáĢ¹áĢ¸": 3679, "áĤıáģµ": 3680, "ĠáģĪ": 3681, "à¹ĥà¸Īà¸": 3682, "Ġàºªàº³": 3683, "áŁģáŀļ": 3684, "áĢ±áĢ¡áĢ¬áĢĦáĢ¹áĢ": 3685, "ĠáĢŀáĢ¶": 3686, "Ġà®ľ": 3687, "áŀĩáŀ¶áŀĶ": 3688, "Ġï¿½ï¿½": 3689, "Ġè¿": 3690, "ao": 3691, "Ġàº¥àº°": 3692, "áĢķáĢ±áĢ«": 3693, "áŁĴáŀĨ": 3694, "Ġ19": 3695, "áŁĢáŀĽ": 3696, "à»Ģàºŀ": 3697, "Īà¸£à¸´à¸ĩ": 3698, "áŀŁáŀ¸áŀł": 3699, "áŁĴáŀĺáŁģáŀĦ": 3700, "Ġpaano": 3701, "áĢ¸áĢĨ": 3702, "una": 3703, "áŀ¼áŀļáŀŁ": 3704, "à¸Ńà¸Ķà¸": 3705, "ıáŀ·áŀĶ": 3706, "ŀáĢĻ": 3707, "áĢĻáģ": 3708, "áĢģáĢºáĢĦáĢ¹áĢ": 3709, "áĢĻáĢºáĢ³áĢŃ": 3710, "ĠáĢ±áĢĢáĢºáĢ¬áĢĦáĢ¹áĢ¸": 3711, "áĢŀáĢŃáĢ¯áĢ·": 3712, "âĢĭâĢĭâĢĭâĢĭâĢĭâĢĭâĢĭâĢĭâĢĭâĢĭâĢĭâĢĭâĢĭâĢĭâĢĭâĢĭâĢĭâĢĭâĢĭâĢĭâĢĭâĢĭâĢĭâĢĭâĢĭâĢĭâĢĭâĢĭâĢĭâĢĭâĢĭâĢĭâĢĭâĢĭâĢĭâĢĭâĢĭâĢĭâĢĭâĢĭâĢĭâĢĭâĢĭâĢĭâĢĭâĢĭâĢĭâĢĭâĢĭâĢĭâĢĭâĢĭâĢĭâĢĭâĢĭâĢĭâĢĭâĢĭâĢĭâĢĭâĢĭâĢĭâĢĭâĢĭâĢĭâĢĭâĢĭâĢĭâĢĭâĢĭâĢĭâĢĭâĢĭâĢĭâĢĭâĢĭâĢĭâĢĭâĢĭâĢĭâĢĭâĢĭâĢĭâĢĭâĢĭâĢĭâĢĭâĢĭâĢĭâĢĭâĢĭâĢĭâĢĭâĢĭâĢĭâĢĭâĢĭâĢĭâĢĭâĢĭâĢĭâĢĭâĢĭâĢĭâĢĭâĢĭâĢĭâĢĭâĢĭâĢĭâĢĭâĢĭâĢĭâĢĭâĢĭâĢĭâĢĭâĢĭâĢĭâĢĭâĢĭâĢĭâĢĭâĢĭâĢĭâĢĭâĢĭâĢĭ": 3713, "ĠáŀļáŀĻáŁĪ": 3714, "àº±à»Īàºĩàº": 3715, "à¹ģà¸ģ": 3716, "áŀļáŀ¶": 3717, "áŀ¢áŁĦáŀĻ": 3718, "áŀ¢áŁĨáŀĸ": 3719, "á»ĵ": 3720, "Ġà®ªà¯Ĭ": 3721, "§à¸´à¸ĺ": 3722, "áŁĴáŀĵáŁģáŁĩ": 3723, "à¹ĥà¸Ĭà¹ī": 3724, "orm": 3725, "Ġà»Ģàº¥": 3726, "áŀĶáŁĴáŀļáŀŁ": 3727, "àº»àºĶàº": 3728, "áŀ¸áŀľáŀ·áŀı": 3729, "åĿĢ": 3730, "ä¾": 3731, "wa": 3732, "áŀ¥": 3733, "ĀĀ": 3734, "Æ°á»Ľc": 3735, "ªà¹Īà¸§": 3736, "áĢ¡áĢĶ": 3737, "áŁĨáŀĶáŀ¼áŀĦ": 3738, "à¯įà®¨à¯įà®¤": 3739, "ĠáĢķáĢ¼áĢĬáĢº": 3740, "áĢľáĢ¯áĢŃ": 3741, "ĠáĢĢáĢºáĢ±áĢĶ": 3742, "áĢ®áĢ¸áĢĲ": 3743, "à»Īàº§àºį": 3744, "áŀ§áŀıáŁĴáŀıáŀĺ": 3745, "ĠáŀĽáŁģáŀģ": 3746, "áŀļáŀ¿áŀĦ": 3747, "áĢģáĢ»áĢŃáĢĶáĢº": 3748, "áŀĻáŁį": 3749, "Ķà¹īà¸§à¸¢à¸": 3750, "Ġåĩ": 3751, "áŀ¾áŀŁ": 3752, "àºĽàº°àº": 3753, "Ġå®": 3754, "Ġako": 3755, "wala": 3756, "áŀ¶áŀĴáŀ·áŀĶ": 3757, "Ġter": 3758, "áŀĦáŁĴáŀľ": 3759, "à®¿à®°à¯ģà®¨à¯įà®¤": 3760, "av": 3761, "áŀĺáŀĵ": 3762, "áĢĲáĢŃáĢļ": 3763, "ĠáŀŁáŁĴáŀı": 3764, "Ĺà»Īàº²àºĻ": 3765, "ĠáŀĶáŀīáŁĴáŀħ": 3766, "Ġà¸§": 3767, "res": 3768, "ĠáĢĻáĢŃáĢĻáĢŃ": 3769, "à¹ģà¸¥à¸°": 3770, "áĢĸáĢŃáĢ¯áĢ·": 3771, "çł": 3772, "Ã¢y": 3773, "áĢĤáģ¤": 3774, "áĢĽáĢĻ": 3775, "áŀŁáŁĴáŀľ": 3776, "à»ģàºĶ": 3777, "ep": 3778, "áŀĹáŁĴáŀĵáŁĨáŀĸáŁģáŀī": 3779, "ĠáŀĶáŀīáŁĴáŀł": 3780, "áĢĨáĢ¯áĢŃ": 3781, "áĢ±áĢĽáĢ¬áĢĢáĢ¹áĢ": 3782, "áĢ¯áĢĶáĢ¹": 3783, "áĢ¡áĢ¬áĢ¸": 3784, "æ£ĭçīĮ": 3785, "èģ": 3786, "ĠáŀĤáŁĴáŀĺáŀ¶áŀĵ": 3787, "papa": 3788, "áŀĬáŁĴáŀĭáŀĢáŀ·áŀħáŁĴáŀħ": 3789, "Ġà¹Ģà¸Ħà¸£à¸Ķà¸´à¸ķ": 3790, "¡à¸Ļà¸": 3791, "áĢĦáĢ¹áĢ¸áĢŀ": 3792, "áĢĿáĢĶáĢº": 3793, "áŀĳáŁĨáŀĵ": 3794, "àºģàºĩ": 3795, "åŃ¦": 3796, "àº¹àºļ": 3797, "à¹Īà¸²à¸ĩ": 3798, "Ġà®ĩà®°à¯ģà®ķà¯įà®ķ": 3799, "ľáŀ¶áŀĦ": 3800, "ľáĢ¯áĢķáĢ¹áĢ": 3801, "áĢ®áĢ¸áĢĽ": 3802, "áŁĴáŀļáŀ¾áŀŁ": 3803, "ac": 3804, "Ġpang": 3805, "ly": 3806, "ĠáŀĶáŁĴáŀļáŀ¶áŀĢáŁĭ": 3807, "ĠáĢĢáĢ¯áĢŃ": 3808, "áĢĲáĢĦáĢ¹áĢ": 3809, "áĢ±áĢ¸áĢĻ": 3810, "ĠáŀĤáŀİáŀĶáŀĢáŁĴáŀŁ": 3811, "áŀĤáŁĴáŀļáŀĶáŁĭ": 3812, "àº§àºĩàº": 3813, "Ã´i": 3814, "áŀĬáŀ¹áŀĢáŀĵáŀ¶áŁĨ": 3815, "ĠáŀĢáŀ¶áŀļáŀĸ": 3816, "ews": 3817, "áŀĸáŀĽ": 3818, "àºģàº°": 3819, "ŀà¸´": 3820, "ĠæĪ": 3821, "Ġà®ķà¯ģà®±": 3822, "Ġáŀ¢áŁĴáŀľáŀ¸": 3823, "áĢĲáĢ¹áĢĲ": 3824, "Ġà¹Ħà¸¡à¹Īà¸": 3825, "Ĺáŀ¶áŀĸ": 3826, "áĢ®áĢ¸áĢĻ": 3827, "Ġàº¢àº¹à»Ī": 3828, "ĠÄĳá»Ļ": 3829, "Ġà¸Ĺà¸µà¹Ī": 3830, "àº¸àºĻ": 3831, "áŁģáŀĳáŁĴáŀĻ": 3832, "ıáŁĤ": 3833, "æĮ": 3834, "àº²àº«": 3835, "à¸£à¸£à¸¡à¸": 3836, "áĢ¥áĢ¹áĢ¸": 3837, "Ġon": 3838, "áģ¼áĢº": 3839, "áĢ¸áĢĻáĢº": 3840, "áĢĶáĢ¹áĢ¡": 3841, "ĠáĢ¥áĢķ": 3842, "áģĪ": 3843, "áŀķáŁĴáŀĳáŁĩ": 3844, "áŀĶáŀ¾áŀĢ": 3845, "ĠáĢĽáĢĶáĢ¹áĢĢ": 3846, "áģ¾áĢĢáĢ¬áĢ¸áĢ": 3847, "»áĢķáĢĬáĢ¹áĢ": 3848, "ĠáĢ¤": 3849, "àº§àºį": 3850, "ter": 3851, "ŀà¸´à¸": 3852, "ĠáŀĢáŀ¶áŀļáŀĦáŀ¶áŀļ": 3853, "ĠáŁ¢áŁł": 3854, "ĠPost": 3855, "áŀłáŁĴáŀľ": 3856, "éķ": 3857, "áŀĺáŀ¾áŀĽ": 3858, "áĢĸáĢŃáĢ¯áĤĶ": 3859, "áĢĢáĢ¼áĢ±áĢ¬áĢĦáĢ·áĢº": 3860, "Ġà»Ŀ": 3861, "à¹Ģà¸Ļà¸": 3862, "Ġà»ģàº¥àº°àº": 3863, "à»īàº²àºŀ": 3864, "Ġà®¨à¯Ģ": 3865, "ha": 3866, "àº¶à»īàºĻ": 3867, "áŀĵáŁĴáŀĴ": 3868, "ek": 3869, "áŀħáŀ»áŁĩ": 3870, "áŀŁáŁĴáŀļáŀ¶áŀĻ": 3871, "áŀĺáŁĤáŀĵ": 3872, "è¦ģ": 3873, "Ġ]": 3874, "à¹Ģà¸ķ": 3875, "áŀŁáŁĴáŀŁáŀĵ": 3876, "áŀŁáŀĦáŁĴáŀĤ": 3877, "áºŃn": 3878, "Ġtim": 3879, "Ġà¹ģà¸Īà¸": 3880, "Ġà¹Ģà¸ĩà¸´à¸Ļà¸Łà¸£à¸µ": 3881, "ªà¹Į": 3882, "ĸàº·àºģàº": 3883, "áĢĿáĢ«": 3884, "áŀ·áŀĳ": 3885, "lak": 3886, "áĢģáĢ¼áĢĦáĢºáĢ¸": 3887, "áŀ»áŀĺ": 3888, "à¹Ĭà¸": 3889, "Ġáŀĺáŀ¾áŀĽ": 3890, "Ĥà¸¶à¹īà¸Ļ": 3891, "Ġfor": 3892, "ĠáŀĬáŀ¸": 3893, "áŀĵáŁĴáŀĽáŀĦ": 3894, "Ġà®ªà®¾à®°": 3895, "áŀģáŁĴáŀīáŀ»áŁĨ": 3896, "ĠáĢ§": 3897, "áŀ¡áŀ¾áŀĻ": 3898, "áĢĿáĢĦáĢ¹áĢ": 3899, "áĢģáĢºáĢĦáĢ¹áĢ¸": 3900, "áĢķáĢ«áĢĺáĢ°áĢ¸": 3901, "æĬķ": 3902, "áĢ±áĢĲáĢ¼áĢĢ": 3903, "áĢķáĢ±áĢ«áĢº": 3904, "áŀİáŁĴáŀİáŁĦáŁĩ": 3905, "çŃ": 3906, "vi": 3907, "Ġho": 3908, "ita": 3909, "ĠáŀŁáŁĴáŀľ": 3910, "«à¹ĩ": 3911, "àº±à»īàºĻàº": 3912, "ĠáŀĬáŁĨáŀİáŀ¾": 3913, "à®ļà¯įà®ļ": 3914, "åĢ": 3915, "Ĭà¸¸à¸": 3916, "ĠáŀĬáŁĤáŀĽáŀĺáŀ¶áŀĵ": 3917, "àºĻà»ī": 3918, "Ġà¸ŀà¸Ļà¸": 3919, "ĠáĢĽáĢ²": 3920, "«à¸¥à¸²à¸": 3921, "©æĿ¥": 3922, "±ä¹Ĳ": 3923, "Ġmeng": 3924, "áŁĦáŁĩáŀĨáŁĴáŀĵáŁĦáŀı": 3925, "Ġæ¾³éĹ¨": 3926, "åĬł": 3927, "ĠáĢĽáĢ¾áĢŃ": 3928, "ĠàºĹàºµà»Īàº": 3929, "áŀŁáŀ·áŀĢ": 3930, "à®£à¯įà®£": 3931, "áŀļáŀĲáŀĻáŀĵáŁĴáŀı": 3932, "li": 3933, "ĠáŀĢáŀ¸áŀ¡": 3934, "àº§àº½àºĶàºĻàº²àº¡": 3935, "àºĻàº±à»īàºĻ": 3936, "à®¿à®²à¯įà®²": 3937, "áŀĺáŁĴáŀļáŁĦáŀĦ": 3938, "ĠáŁ¡áŁ©": 3939, "áŀ·áŀĢáŀ¶": 3940, "«à¸£à¸·à¸Ńà¸": 3941, "áĢĳáĢĻ": 3942, "ä»¥": 3943, "áŀĬáŀ¶": 3944, "ĠàºĽàºµ": 3945, "áŀ»áŀĶáŁĴáŀĶ": 3946, "aga": 3947, "Ġáŀļáŀłáŀ¼áŀı": 3948, "ome": 3949, "áŁĴáŀĶáŀ¼áŀĦ": 3950, "áº¿n": 3951, "áĢĶáĢºáĢ¸áĢĻ": 3952, "à»ģàºģ": 3953, "Ġáŀļáŀ¸": 3954, "ĠáŀŁáŁĬ": 3955, "Ħà¸²à¸£": 3956, "áĢĶáĢ±": 3957, "áŀľáŀıáŁĴáŀĲ": 3958, "àº±àºģàºª": 3959, "à®¿à®©à¯įà®±": 3960, "à¸£à¹Į": 3961, "áŀĩáŀ¼áŀĵ": 3962, "ĠáĢ»áĢķáĢ³": 3963, "áĢŃáĢħáģ¥": 3964, "áĢĦáĢ¹áĢ¸áĢķ": 3965, "áĢļáĢ·áĢº": 3966, "ĠáŀħáŀĦáŁĭ": 3967, "ĠáŀĶáŀīáŁĴáŀĩáŀ¶áŀĢáŁĭ": 3968, "ĠáĢ¡áĢĢáĢº": 3969, "ģà¸³à¸": 3970, "áŁĴáŀļáŀ¶áŀĵáŁĭ": 3971, "à»Ģàºļ": 3972, "áĢŃáĢ¯áĢĢáĢ¹": 3973, "****": 3974, "áĢ¬áĢ¸áĢŀáĢĬáĢ¹": 3975, "ĠáĢ±áĢĢáĢ¬áĢĦáĢ¹áĢ¸": 3976, "áĢŁáĢ¯áĢĲáĢº": 3977, "áŀĵáŀ¶áŀĻáŀĢ": 3978, "ĠáŀļáŀĬáŁĴáŀĭáŀ¶áŀĹáŀ·áŀĶáŀ¶áŀĽ": 3979, "Ġáŀĳáŀ»áŀĢ": 3980, "ust": 3981, "áŁĴáŀĽáŁĥ": 3982, "Ġkas": 3983, "Ġ365": 3984, "çº¿": 3985, "ĠáŀĹáŁĴáŀĽ": 3986, "Ġà®¤à®¿à®°": 3987, "áŀĶáŀĦáŁĭ": 3988, "Ġ[": 3989, "¢à¹Į": 3990, "ä¸ī": 3991, "à»Ģàº§àº¥": 3992, "Ġáŀĵáŀ¶áŀĻáŀĢ": 3993, "áŀĩáŀ¶áŀĺ": 3994, "åŃĲ": 3995, "á»ķ": 3996, "áŀĶáŀīáŁĴáŀħ": 3997, "Ħà¸Ļà¸": 3998, "Ġà®¤à®®": 3999, "à¯ĩà®©à¯į": 4000, "ili": 4001, "áŀĢáŀ¶áŀļáŀħ": 4002, "Ġà®ĩà®°à¯ģà®¨à¯įà®¤": 4003, "à»Ħàº¥": 4004, "ĠáŀŁáŀĺáŁĴáŀıáŁģáŀħ": 4005, "ĠáŀĢáŁĴáŀļáŁĦáŀĺ": 4006, "áĢ³áĢķáĢ¹": 4007, "ĠáĢ±áĢĴáģļ": 4008, "áĢģáĢºáĢĢáĢ¹áĢ": 4009, "áĢĻáĢºáĢ¬áĢ¸áĢĢáĢŃáĢ¯": 4010, "±áĢĽáĢ¸áĢ": 4011, "±áĢ»áĢĻ": 4012, "áĢĦáĢ¹áĢĨ": 4013, "áģĩ": 4014, "ĠáŀģáŁĴáŀĽáŀ¶áŁĨáŀĦ": 4015, "å®ī": 4016, "±áĢ¡áĢ¬áĢĦáĢ¹": 4017, "ĠáĢ¡áĢĲ": 4018, "Ġà¸¢": 4019, "«à¸Ļà¹īà¸²": 4020, "áŀĤáŁĴáŀļáŀ¿áŀĦ": 4021, "Ġå¤§åıĳ": 4022, "å¤ļ": 4023, "à»ĦàºĶà»īàº®àº±àºļ": 4024, "áŀĬáŁĥ": 4025, "áĢĻáĢ¾áĢĲáĢº": 4026, "áŀļáŀĵ": 4027, "łà¸±à¸": 4028, "áŀģáŁĴáŀĽáŀ¶áŁĨáŀĦ": 4029, "Ġpina": 4030, "Ġà¸¢à¸": 4031, "Ġà®®à¯ĩ": 4032, "Å©": 4033, "Ĭà¸µà¸": 4034, "ĠáŀŁáŁĴáŀĲáŀ·áŀı": 4035, "Ġáŀħáŀ·áŀıáŁĴáŀı": 4036, "ħáĢ¯": 4037, "à»ģàº¥à»īàº§": 4038, "ĠáĢģáĢ»": 4039, "áŁĴáŀĽáŀ¶áŀĢáŁĭ": 4040, "eb": 4041, "à¹Ĥà¸¥à¸": 4042, "áŁĴáŀ¢áŀ¼áŀĵ": 4043, "áŀĶáŁĴáŀı": 4044, "áŀŁáŀ»áŀģ": 4045, "áŀ½áŀħ": 4046, "èĥ½": 4047, "áĢľáĢĢáĢº": 4048, "Ġà»Ģàºŀ": 4049, "à»Ģàºĩàº´": 4050, "Ġnhá»¯ng": 4051, "Ġà®ķà¯Ĭà®£à¯įà®Ł": 4052, "Ġáŀļáŀ½áŀħ": 4053, "áŀ¶áŀļáŀĺáŁĴáŀĺ": 4054, "Ĺà¸£à¸": 4055, "àº±à»Īàºĩ": 4056, "áŁĨáŀĸáŁĲ": 4057, "áĢĸáĢ¼áĢ²áĤķ": 4058, "áģĦ": 4059, "àº±àºĶàºĹàº°àºĻ": 4060, "áŀĢáŀĺáŁĴáŀĺáŀĹáŀ¶áŀĸ": 4061, "à¹ģà¸Ļà¸": 4062, "áĤıáĢ½áĢĦáĢ·áĢ¹": 4063, "áĢĸáĢ¼áĢ²áĤĶ": 4064, "ĠáĢŀáĢ°áĤĶ": 4065, "áĢĻáĢŃáĢ¯": 4066, "Ġà»ĢàºĽàº±àºĻàº": 4067, "ĠáŀŁáŁĴáŀļáŀ¸": 4068, "ĠáŀĹáŀ¼áŀĺáŀ·": 4069, "áŀ·áŀĹáŀĸáŀĽáŁĦáŀĢ": 4070, "à¹Ĥà¸£à¸ĩà¹ģà¸£à¸": 4071, "Ġit": 4072, "à»ĥàº«àºį": 4073, "áĢĶáĢ²áĤķ": 4074, "áĢ¸áĢĢáĢ»": 4075, "Ġà¸Ī": 4076, "§à¸¥": 4077, "ĠáŀĶáŁĴáŀļáŀĩáŀ¶áŀĸáŀĽáŀļáŀĬáŁĴáŀĭ": 4078, "ĠáŀģáŁĤáŀĢ": 4079, "Ġáŀ¢áŀĤáŁĴáŀĤ": 4080, "áŁĴáŀĤáŀ¶áŀĽáŁĭ": 4081, "Ġkuko": 4082, "à®¿à®ķà®³": 4083, "og": 4084, "ĠáĢ¡áĢľáĢ¯áĢķáĢ¹áĢ": 4085, "áĢ¡áĢĲáĢ½áĢĢáĢº": 4086, "Ġà¹ĥà¸Ļà¸": 4087, "àº±àºļàºª": 4088, "ĠáŀĶáŀīáŁĴáŀłáŀ¶": 4089, "Ġåį": 4090, "áŀģáŁĴáŀĺ": 4091, "ĠáŁ¡áŁł": 4092, "áŀ»áŀĶáŁĴáŀĶáŀĵáŁĴáŀĵ": 4093, "áŀĵáŀ¶áŀĦ": 4094, "àºŃàºģàº": 4095, "ĠáŀħáŁĴáŀĶáŀ¶áŀĶáŁĭ": 4096, "pag": 4097, "áŀŁáŀĹáŀ¶": 4098, "áŀĩáŀ½áŀĻ": 4099, "çĲĨ": 4100, "áĢĲáĢ¬áĢķáĢ«": 4101, "ļáĢ¬": 4102, "áŀĢáŁĨáŀĸáŀ»áŀĦ": 4103, "Ġà®īà®³à¯įà®³": 4104, "à¸Ńà¸ģà¸": 4105, "áĢ¬áĢ¸áĢħáĢ¯": 4106, "àº±àºĩàºĦ": 4107, "á»Ń": 4108, "áŀļáŀĳáŁģáŀŁ": 4109, "áŀļáŀĬáŁĴáŀĭáŀ¶áŀĹáŀ·áŀĶáŀ¶áŀĽ": 4110, "ä¹Ī": 4111, "ĠáŀŁáŁĴáŀĽáŀ¶áŀĶáŁĭ": 4112, "áŀĶáŁĨáŀķáŀ»áŀı": 4113, "à»īàº§àºį": 4114, "ĠáĢĻáĢ½áĢ¬": 4115, "ĠáĢ¡áĢĻáĢ½": 4116, "Ġà¸¡": 4117, "áĢŃáĢ¯áĢĦáĢºáĢ¸": 4118, "«ĺ": 4119, "à¸Ńà¸¢à¹Īà¸²à¸ĩà¸": 4120, "dib": 4121, "àº·à»ĪàºĻ": 4122, "áŀĩáŀ¶áŀŁ": 4123, "Ġak": 4124, "áŀģáŁĤ": 4125, "ıáŀ·áŀĶáŀıáŁĴáŀıáŀ·": 4126, "ä¹ĭ": 4127, "Ħà¸£à¸Ķà¸´à¸ķà¸": 4128, "Ġà¸¥à¸": 4129, "Ġáŀ¢áŁĬáŀ¸": 4130, "ĠáĢ±áĢ»áĢĻ": 4131, "áĢĲáĢ¬áĢĢáĢŃáĢ¯": 4132, "áĢ®áĢ¸áĢŀ": 4133, "Ġpagka": 4134, "à¸Ńà¸¢à¹Īà¸²à¸ĩ": 4135, "iáº¿t": 4136, "à»ģàºľ": 4137, "áĢĨáĢ®": 4138, "áŀĺáŁĴáŀĦ": 4139, "áĢģáĢĦáĢº": 4140, "ĠàºĻàº°": 4141, "Ġáŀĺáŀł": 4142, "Ġà®¯": 4143, "Ġàºģàº°": 4144, "ĠáĢĢáģ½áĢ¼áĢĶáĢ¹áĢ±áĢĲáĢ¬áĢ¹áĢ": 4145, "ģáĢºáĢĢáĢ¹áĢ": 4146, "ĠáĢ¡áĢĨáĢŃáĢ¯": 4147, "ĠAn": 4148, "àº¸àºģ": 4149, "áŀĸáŁĲáŀıáŁĮáŀĺáŀ¶áŀĵ": 4150, "¹à¸ģ": 4151, "áĢ½áĢļáĢº": 4152, "th": 4153, "éĥ": 4154, "Ġà®µà®¿à®": 4155, "áŁĴáŀĦáŀĵáŁĭ": 4156, "à¹Īà¸²à¸¢": 4157, "ri": 4158, "áģ¾áĢĢáĢĬáĢ¹áĢ·": 4159, "ĠáĢŀáĢ°áĢĲáĢŃáĢ¯áĤĶ": 4160, "áĢķáĢ«áĢŀáĢĬáĢ¹": 4161, "áĢ¬áĢ¸áĢĻáĢ½áĢ¬": 4162, "áĢķáĢ½áĢ²": 4163, "áŀıáŁĴáŀľ": 4164, "ªà¸Ļ": 4165, "à»ĥàºª": 4166, "Ã©": 4167, "Ĺà¸µà¹Īà¸ªà¸¸à¸Ķ": 4168, "áŀĢáŁĴáŀļáŀŁáŀ½áŀĦ": 4169, "ĠáŀģáŀİáŁĪ": 4170, "yan": 4171, "à»ĪàºŃàºĻ": 4172, "ĠáĢĲáĢĢ": 4173, "å¨±ä¹Ĳ": 4174, "ç®": 4175, "áĢ¢": 4176, "áĢŀáĢľáĢŃáĢ¯": 4177, "à¯ģà®ª": 4178, "ĠáŀĢáŀĦ": 4179, "ĠáĢŀáĢ°áĢĻ": 4180, "ģà¹ĩ": 4181, "áĢĻáĢ°": 4182, "áŀļáŀ¾": 4183, "Ġáŀıáŀ»áŀĽ": 4184, "áŀİáŁĮ": 4185, "ĺáĢ°áĢ¸": 4186, "áĢķáĢĬáĢ¬": 4187, "àº°àºŀàº²àºļ": 4188, "Ġáŀ¢áŁĨáŀĸáŀ¸": 4189, "±áĤı": 4190, "áĢ½áĢĦáĢ·áĢº": 4191, "áºŃt": 4192, "Ġal": 4193, "áŀĺáŁĴáŀı": 4194, "engan": 4195, "Ħà¸´à¸": 4196, "áŀ¶áŀļáŀĢ": 4197, "Ġå°": 4198, "àº·à»īàºĻàº": 4199, "ber": 4200, "áŀ·áŀĽ": 4201, "áŀŁáŁĬ": 4202, "ment": 4203, "ĠáĢķáĢ¯": 4204, "Ġà¹Ħà¸": 4205, "Ġmata": 4206, "áĢŃáĢĲáĢ¹": 4207, "áĢŃáĢ³áĢ¸áĢ": 4208, "Ġáģ¿áĢĻ": 4209, "âĢ¦": 4210, "ĠáĢĽáĢĢáĢº": 4211, "Ġà®µà¯ĩà®£à¯įà®Ł": 4212, "ĠáŀļáŀŁáŁĭ": 4213, "áŀħáŀļáŀİáŁį": 4214, "Ġà¸Ľà¸£à¸°à¸": 4215, "áĢĽáĢŃáĢĢ": 4216, "à¸Ļà¸±à¹īà¸Ļ": 4217, "áĢ®áĢ¸áĢĢ": 4218, "áĢŀáĢ¼": 4219, "è®¡": 4220, "áŀĢáŀ¶áŀļáŀ¢": 4221, "ľáĢŃáĢ¯áĤĶ": 4222, "áĢ±áĢĶáĢ²áĢ·": 4223, "ģáĢºáĢ³áĢķáĢ¹áĢ": 4224, "ķáĢŃáĢ¯áĢĦáĢ¹áĢ¸": 4225, "ĢáĢº": 4226, "áĢķáĢ¯áĢ¶": 4227, "àºµàº§": 4228, "Ġdib": 4229, "yong": 4230, "ĠáŁ¨": 4231, "áŀ»áŀİáŁĴáŀĻ": 4232, "à¯įà®°": 4233, "Ġáŀĺáŀ¼áŀĽ": 4234, "Ã¡n": 4235, "ä½ĵèĤ²": 4236, "è·": 4237, "ĠáŀŁáŀĺáŀıáŁĴáŀĲáŀĢáŀ·áŀħáŁĴáŀħ": 4238, "Ġáŀĸáŀ·áŀı": 4239, "Ġáŀıáŀ¾": 4240, "ine": 4241, "Īà¸°à¹Ģà¸": 4242, "Ġ(\"": 4243, "à»įà»Īàºª": 4244, "áĢŃáĢ¯áĢľáĢ¹áĢ": 4245, "áĢľáĢĬáĢº": 4246, "áŀ¶áŀļáŀĺáŁĴáŀĺáŀİáŁį": 4247, "ĠÄĳÃ£": 4248, "áŀ¢áŀĵáŀ»": 4249, "à»Ħàº§": 4250, "Ġæĺ": 4251, "áŀĩáŀ¶áŀ¢": 4252, "ĠáĢļáĢģáĢ¯": 4253, "à¹Ģà¸Ĺ": 4254, "à®ķà¯į": 4255, "áĢļáĢ¹áĢħ": 4256, "ĠáĢĽáĢ¾": 4257, "áŀ¶áŀŁáŀĵáŁį": 4258, "áŀ¶áŀ¡": 4259, "æĻ": 4260, "Ġà»ģàºĤ": 4261, "Ġparas": 4262, "pos": 4263, "àºµàºį": 4264, "Ġà¹": 4265, "łà¸²à¸ŀ": 4266, "áŀĤáŁĴáŀļáŀĦ": 4267, "áĢĦáĢ¹áĢĽ": 4268, "ģáĢ²áĢ·áĢĲáĢ²áĢ·": 4269, "±áĢ»áĢķáĢ¬": 4270, "áĢĶáĢºáĢ¸": 4271, "ĸáŁĲáŀĵáŁĴáŀĴáŀ": 4272, "àº¢": 4273, "§à¸Ļ": 4274, "è½¦": 4275, "ĠáŀĴáŁĨ": 4276, "ino": 4277, "ĠáĢĶáĢ¾áĢħáĢº": 4278, "Ġà®®à¯ģà®Ł": 4279, "Ġtimbang": 4280, "Ġdibdib": 4281, "uw": 4282, "áŀĶáŁĴáŀļáŀĻ": 4283, "·à¹īà¸Ń": 4284, "áŀ·áŀĩáŁĴáŀĩ": 4285, "à»Ģàº®àº»àº²": 4286, "Ġ15": 4287, "áŁĦáŀĩáŀĵ": 4288, "ªà¸±à¸": 4289, "Ġun": 4290, "ĠáĢŀáĢ¼áĢ¬áĢ¸áĢ": 4291, "ĠáĢĶáĢŃáĢ¯áĢĦáĢºáĢĦáĢ¶": 4292, "Ġàº¢": 4293, "áŁĴáŀĵáŁĩ": 4294, "ķà»Īàº²àºĩ": 4295, "ĠáŀļáŁī": 4296, "à¯ĩà®ļ": 4297, "ĠáŀĶáŀĦáŁĴáŀłáŀ¶áŀī": 4298, "çİ°": 4299, "Ġpm": 4300, "áŁĴáŀıáŀ·": 4301, "áŁĨáŀİáŀıáŁĭ": 4302, "ªà¸´à¸Ļà¸Ħ": 4303, "ÃŃnh": 4304, "áĢħáĢ¥áĢ¹áĢ": 4305, "ĠáĢ±áĢĳ": 4306, "áģ¾áĢĢáĢ¬": 4307, "¥áĢ®áĢ¸áĢ": 4308, "áģĥ": 4309, "Ġib": 4310, "à¸£à¸°à¸ļà¸": 4311, "ĠáĢħáĢĢ": 4312, "áŀĢáŁĴáŀĢ": 4313, "ĠâĢĭáŁĸ": 4314, "ex": 4315, "áŀĹáŀ·áŀĶáŀ¶áŀĽ": 4316, "áŀĶáŀīáŁĴáŀĩáŀ¶áŀĢáŁĭ": 4317, "ķà¹Īà¸Ńà¸": 4318, "áŀ¢áŁĴáŀľáŀ¸": 4319, "áģ¾áĢĢáĢĬáĢ¹áĢ": 4320, "mar": 4321, "áĢĽáĢ½áĢĢáĢº": 4322, "Ġà®ļà¯Ĩà®¯à¯įà®¤": 4323, "±áĢĸ": 4324, "»áĢĸáĢĦáĢ¹áĢ·": 4325, "ĠáĢ¡áĢĵ": 4326, "Ġà»ģàº¡à»ĪàºĻ": 4327, "æĪĲ": 4328, "áŀ¶áŀĩáŀ¸áŀľ": 4329, "Ġáŀļáŀ¶áŀĩáŀĴáŀ¶áŀĵáŀ¸": 4330, "áŀ¶áŀİáŀ·áŀĩáŁĴáŀĩ": 4331, "ĠáĢĢáĢºáĢ±áĢĶáĢ¬áĢ¹áĢ": 4332, "áĢ±áĢ¸áĢĢ": 4333, "Ġà»Ģàº§": 4334, "áŀĺáŁĴáŀĹ": 4335, "ĠáŀĲáŁĥ": 4336, "áŀĺáŀ¸": 4337, "Īàº°àº": 4338, "à®±à¯įà®ª": 4339, "à¸£à¸µà¸§à¸´à¸": 4340, "Ġà¸Īà¸²à¸ģ": 4341, "ĠáĢľáĢĻáĢ¹áĢ¸": 4342, "áĢ¯áĢĲáĢ¹": 4343, "áĢļáĢ¹áĢĨáĢŃáĢ¯": 4344, "áĢľáĢĢáĢ¹áĢ": 4345, "áĢĻáĢºáĢ¬áĢ¸áĢ¡": 4346, "áĢĶáĢºáĢ¸áĢ": 4347, "áŁĴáŀļáŀĽ": 4348, "Ġà¸ľà¸": 4349, "à¹ģà¸Ļ": 4350, "ĠáŀĬáŀ¼áŀħáŁĴáŀĵáŁģáŁĩ": 4351, "áº¿t": 4352, "Ġkat": 4353, "áŀļáŀ¶áŀħ": 4354, "±áŀĢáŀ¶áŀŁ": 4355, "se": 4356, "ŀà¸£": 4357, "ĠáŀĳáŁĦáŁĩ": 4358, "àºŃàºĶ": 4359, "çľŁ": 4360, "ĠáĢ¡áĢķ": 4361, "çĶµ": 4362, "Ġà¹Ģà¸ģà¸¡à¸": 4363, "à¹ĥà¸«à¸¡à¹Ī": 4364, "Ġà®¤à®®à®¿à®´": 4365, "à¯ģà®®à¯įà®ª": 4366, "¡à¸²à¸ģ": 4367, "áĢĻáĢºáĢŃáĢ³áĢ¸áĢŀ": 4368, "áĢģáĢ¼áĢĦáĢºáĢ¸áĢ": 4369, "áŁĲáŀĸáŁĴáŀĳ": 4370, "Ġ\")": 4371, "àº°à»Ģàºŀ": 4372, "ĠáŀĢáŀĺáŁĴáŀĺáŀľáŀ·áŀĴáŀ¸": 4373, "ä¿¡": 4374, "áŀŁáŀĦáŁĴáŀŁáŁĲáŀĻ": 4375, "ĠáŀŁáŀ¶áŀĽ": 4376, "ķáŀĽ": 4377, "à¸Ńà¸²à¸«": 4378, "éĩĳ": 4379, "áŀĤáŁĴáŀĤáŀĽ": 4380, "Ġnaman": 4381, "Ġpro": 4382, "áŀ¶áŀłáŁį": 4383, "Ľàº°àºķàº´àºļ": 4384, "ĠÄĳá»ĥ": 4385, "å°ı": 4386, "Ħà¸Ļ": 4387, "à»Īàº§àºĻàº": 4388, "áŁĨáŀİáŀ¶áŀĦ": 4389, "áŀĶáŀ¸": 4390, "ist": 4391, "áĢĳáĢ¬áĢ¸": 4392, "áĢ±áĢ¡áĢ¬áĢĦáĢ¹": 4393, "áĢŀáĢ®": 4394, "à¸²à¸ªà¸´à¹Ĥà¸Ļ": 4395, "Ġà¸§à¸±à¸Ļ": 4396, "ĠáŀŁáŀĦáŁĴáŀĢáŀ¶áŀıáŁĭ": 4397, "Ġam": 4398, "ĠáŁ©": 4399, "Ġà¸Ĭ": 4400, "ĠáŀĬáŀ¾áŀĺ": 4401, "Ġà»ĢàºĶ": 4402, "ç¥¨": 4403, "áŀŁáŁĴáŀĳ": 4404, "Ĺà¸²à¸ĩ": 4405, "à¯Īà®ķà®³": 4406, "áŀĢáŀĺáŁĴáŀĸáŀ»áŀĩ": 4407, "áŀļáŀĽ": 4408, "æ¯": 4409, "¢àº¹à»Īàº": 4410, "view": 4411, "ov": 4412, "Ġnang": 4413, "ĠáĢķáĢĳáĢĻ": 4414, "áŀĢáŀ¶áŀļáŀĢ": 4415, "áŀħáŀ·áŀĵ": 4416, "ĸà¸¶à¸ĩà¸": 4417, "áĤī": 4418, "áģ¿áĢĸ": 4419, "áĢ±áĢ¸áĢĲ": 4420, "áŀļáŀı": 4421, "áĢ¡áĢĨ": 4422, "áŀĶáŁīáŀ»áŀĵ": 4423, "Ġáŀ¡áŀ¾áŀĻ": 4424, "áĢ±áĢ¸áĢĽ": 4425, "ĠáŀķáŁĴáŀĳáŁĩ": 4426, "Äĥng": 4427, "Ĺà»Īàº²àºĻàº": 4428, "ĠáŀĶáŀĵáŁĴáŀĲáŁĤáŀĺ": 4429, "tuk": 4430, "à®¤à¯įà®¤à¯Ī": 4431, "ĠáŀĢáŁĤ": 4432, "à¹Īà¸¡": 4433, "áŁĴáŀļáŀ½áŀŁáŀ¶áŀļ": 4434, "ĠáĢļáĢ°": 4435, "èĪ": 4436, "áŁĦáŀĳ": 4437, "áĢ¡áĢ±áĢ¬áĢĦáĢº": 4438, "Ġáŀĩáŀ¼áŀĵ": 4439, "§à¸Ļà¸": 4440, "áŀ½áŀī": 4441, "Ġàºĩ": 4442, "ĠáŀĶáŀİáŁĴáŀı": 4443, "ĠàºĪàº°": 4444, "ĠáŀĲáŁĴáŀĵáŀ¶áŀĢáŁĭ": 4445, "à»Īàº§àºĻ": 4446, "ĠáģģáģĢ": 4447, "ap": 4448, "áŀĦáŁĴáŀļ": 4449, "áĢĽáĢ±áĢ¬áĢĢáĢº": 4450, "áŀ¶áŀŁáŁĴáŀıáŁĴáŀļ": 4451, "à®¿à®°à¯ģà®ķà¯įà®ķ": 4452, "à¸Ļà¹Įà¸": 4453, "ĠPh": 4454, "Īà¹īà¸²à¸": 4455, "Ġáŀ¯": 4456, "áŀİáŁĴáŀĬáŀ¶áŀĽ": 4457, "àº»à»Īàº§": 4458, "æľĢ": 4459, "ĠáŀłáŁģáŀıáŀ»": 4460, "pat": 4461, "ĠáĢŀáĢ¬": 4462, "ĠáĢ¡áĢģáĢºáĢŃ": 4463, "Ġáģİ": 4464, "áŀļáŀĦáŀĤáŁĴáŀļáŁĦáŁĩ": 4465, "áŀĹáŀ¼áŀĺáŀ·": 4466, "à¯ģà®ķà®³": 4467, "áŀĴáŀĵ": 4468, "Ġ100": 4469, "Ġà¸¡à¸µà¸": 4470, "ĠNg": 4471, "áŀĢáŀ¶áŀıáŁĭ": 4472, "àº´àºĹàºµ": 4473, "ģà¸§à¹Īà¸²": 4474, "Ġáŀĳáŀ¸áŀĢáŁĴáŀļáŀ»áŀĦ": 4475, "uá»ĳ": 4476, "ç¨": 4477, "ŀàº£": 4478, "à»ģàº¡à»ĪàºĻ": 4479, "raw": 4480, "ĠáŀıáŁĴáŀļ": 4481, "áŀ¼áŀļáŀŁáŁĲáŀĸáŁĴáŀĳ": 4482, "áŁĴáŀĶáŀ¶áŀĽ": 4483, "ĠåĲ": 4484, "Ġàºģàº³": 4485, "à¸Ńà¸¢à¸¹à¹Ī": 4486, "áŀıáŀ»": 4487, "àºµàº¡": 4488, "áŀĬáŁĤáŀĽáŀĺáŀ¶áŀĵ": 4489, "Ġåľ": 4490, "Ġthá»ĥ": 4491, "àº·à»īàºŃ": 4492, "Ġpagb": 4493, "áŁĴáŀļáŁĴáŀıáŀ¸": 4494, "à¯įà®ķà¯įà®ķ": 4495, "áŀıáŁĨáŀĶáŀĵáŁĭ": 4496, "¥àº±àºĶ": 4497, "áģ¶": 4498, "áĢľáĢŃáĢ¯áĢĢáĢº": 4499, "àº¢à»Īàº²àºĩ": 4500, "áŀļáŀ¶áŀĶáŁĭ": 4501, "Ġáŀľáŀ·áŀŁ": 4502, "Ġà¸ģà¸²à¸£": 4503, "áŁģáŀĵ": 4504, "Ġgam": 4505, "áĢ¬áĢ¸áĢĳ": 4506, "à®©à¯įà®±à¯ģ": 4507, "Ġáŀ¢áŀıáŁĴáŀĲ": 4508, "áŀĢáŀĵáŁĴáŀĽáŁĤáŀĦ": 4509, "à¹Ģà¸¥à¹Īà¸Ļà¸": 4510, "ĠâĢĻ": 4511, "Ġpaggam": 4512, "Ġà»Ģàºģàº": 4513, "ura": 4514, "Ġ13": 4515, "Ġà¹Ģà¸§à¹ĩà¸ļ": 4516, "¡à¸·à¸Ńà¸": 4517, "áĢ¾áĢĲáĢº": 4518, "àº±àºĻàºĹàºµ": 4519, "ķà¸±à¸§à¸": 4520, "áŀĢáŀ¼áŀĵ": 4521, "Īáŀĺ": 4522, "àºĶàºª": 4523, "ĠáŀĢáŀĵáŁĴáŀĽáŁĤáŀĦ": 4524, "ram": 4525, "áĢ¶áĢĢ": 4526, "Ġà®ķà¯ĭ": 4527, "áĢ±áĢĺ": 4528, "áĢĬáĢ·áĢ¹": 4529, "áĢŃáĢĶáĢ¹áĢ": 4530, "à¹Ģà¸Ľà¹ĩà¸Ļ": 4531, "æı": 4532, "áŁĴáŀħáŀ¶áŀŁáŁĭ": 4533, "áĢĭ": 4534, "àº¶àºģàºª": 4535, "»áĢķáĢĶáĢ¹áĢ": 4536, "áĢĦáĢ¹áĢħ": 4537, "áĢ¬áĢ¸áĢķ": 4538, "áŁĦáŁĩáŀŁáŁĴáŀļáŀ¶áŀĻ": 4539, "áŀĶáŀİáŁĴáŀı": 4540, "áŀĶáŁīáŀ»": 4541, "Ġà»ĢàºŃ": 4542, "áŀģáŁĴáŀĸáŀŁáŁĭ": 4543, "áģ¼áĢĲ": 4544, "ĠáĢĴáĢ®áĢľáĢŃáĢ¯": 4545, "áĢĽáĢ®": 4546, "Ġà¹ģà¸ķà¹Īà¸": 4547, "Ŀi": 4548, "à»ĥàºĶ": 4549, "Ħáŀ¶áŀļáŀ": 4550, "à®¿à®¨à¯įà®¤": 4551, "ĠáŀķáŁĴáŀŁáŁģáŀĦ": 4552, "ĠSa": 4553, "æĦ": 4554, "ĠáĢ¡áĢ»áĢķ": 4555, "ĽáĢ¼áĢĢáĢ¹áĢ": 4556, "ĠáĢ¡áĢ±áĢ»áĢģ": 4557, "áģĨ": 4558, "áŀ¶áŀŁáŁĴáŀļ": 4559, "¥à¸°à¹Ģà¸": 4560, "áĢģáĢĶáĢ¹áĢ¸": 4561, "áĢĻáĢĬáĢº": 4562, "àº»à»īàºĻàº": 4563, "ĠáŀķáŀĽáŀ·áŀı": 4564, "áŀĳáŀ¶áŁĨáŀĦáŀ¢áŀŁáŁĭ": 4565, "Ġà®ħà®©": 4566, "hat": 4567, "áŀ¶áŀļáŀ¶áŁĨáŀĦ": 4568, "à¹ģà¸ļà¸ļ": 4569, "à»īàº²àºŀàº°à»Ģàº": 4570, "àº²àºĶàºķ": 4571, "æ³ķ": 4572, "áŀĪáŀ¾": 4573, "àºŀàº²àºļ": 4574, "áŀ¶áŀĩáŀ·áŀĢ": 4575, "Ġà¸Ńà¸Ńà¸Ļà¹Ħà¸¥à¸Ļà¹Į": 4576, "à¸µà¸¢à¸ĩ": 4577, "op": 4578, "Â»": 4579, "ĠáŁĹ": 4580, "àº±à»īàºĻ": 4581, "Ġlá»": 4582, "à¯Īà®ªà¯į": 4583, "áĢĽáĢĶáĢ¹": 4584, "ĠáĢŀáĢ®": 4585, "Ŀà¸²à¸ģ": 4586, "à¹ĩà¸ģ": 4587, "ĠIn": 4588, "áŀİáŁĴáŀĮáŀ·áŀı": 4589, "áŀĬáŀ¹áŀĦáŀĲáŀ¶": 4590, "ĠáĢĻáĢĦáĢ¹áĢ¸": 4591, "ĠáĢĶáĢ¬áĢĽáĢ®": 4592, "à»ĢàºĤàº»à»īàº²": 4593, "ity": 4594, "áĢ¯áĢ¶áĢ¸áĢŀ": 4595, "áŀĩáŀ¶áŀħáŁĴáŀļáŀ¾áŀĵ": 4596, "ģà¹Ī": 4597, "ĠçĶ": 4598, "áŀ¶áŀĵáŁĴáŀı": 4599, "àº½àºĻàº": 4600, "ial": 4601, "les": 4602, "up": 4603, "ģáĢºáĢĦáĢ¹áĢ¸": 4604, "ĠáĢ¡áĢģáĢº": 4605, "ĠáĢĶáĢ²áĤĶ": 4606, "áĢ¬áĢķ": 4607, "Ġáŀĩáŀ½áŀĶ": 4608, "äº¬": 4609, "áĢĶáĢŃáĢ¯áĢĦáĢºáĢĦáĢ¶": 4610, "Ġä½": 4611, "áŀļáŀĬ": 4612, "àºµàºĶ": 4613, "¨à¸¶à¸": 4614, "Ġà®¤à¯Ĩà®°": 4615, "ĠáŀĶáŀļáŀ·": 4616, "¸à¹Īà¸Ļ": 4617, "and": 4618, "ĠáŀĤáŁĴáŀļáŁĦáŁĩ": 4619, "ªà¸£à¹īà¸²à¸": 4620, "áº©": 4621, "áŀĺáŁĴáŀĺ": 4622, "áĢĲáĢ½áĢ±áĢĢáĢŃáĢ¯": 4623, "Īàº²àºģ": 4624, "ĠáĢĴáĢ«áĢ±áĢķáĢĻ": 4625, "ľáĢ½": 4626, "à¯Īà®ļ": 4627, "áĢľáĢ¹áĢ": 4628, "áĢķáĢ¹áĢħ": 4629, "áĢŀáĢĢáĢº": 4630, "áŀĶáŀĦáŁĴáŀłáŀ¶áŀī": 4631, "bi": 4632, "áŀļáŀ¶áŀĶ": 4633, "ĠáŀģáŀİáŁĴáŀĮ": 4634, "áŀĶáŀļáŀ·": 4635, "à¹Īà¸Ńà¸ĩ": 4636, "àº°àºĸ": 4637, "ĠáŀĶáŀĦáŁĴáŀĢáŀ¾áŀı": 4638, "Æ¡n": 4639, "à®¿à®¯à®¿à®²à¯į": 4640, "ĠáĢ¸": 4641, "áĢŀáĢ¬áĢ¸": 4642, "Ġáŀ¢áŀ¶áŀĩáŁĴáŀīáŀ¶áŀĴáŀ": 4643, "ĠæĹ": 4644, "áŀºáŀĵ": 4645, "áŀ·áŀħáŁĴáŀĨ": 4646, "áĢĤáģ¢": 4647, "áĢ¬áĢ¹áĢĻ": 4648, "áĢŃáĢ¯áĢ¸áĢĻ": 4649, "áŀıáŀ¶": 4650, "Ġreview": 4651, "lim": 4652, "ĸà¸¹à¸ģà¸": 4653, "áŀ·áŀĵáŀ·áŀĻ": 4654, "áŀĨáŁĴáŀĽ": 4655, "áģµ": 4656, "áĢĻáĢļáĢº": 4657, "àº°àºŃ": 4658, "áĢĦáĢ¹áĢ±áĢ": 4659, "áĢ½áĤķ": 4660, "ĠáĢĻáĢĽáĢ½áĢŃ": 4661, "ĠáĢĻáĢ°": 4662, "alaga": 4663, "å¥½": 4664, "áŀļáŁĨ": 4665, "ģà»Īàº²àº§": 4666, "áŀ¶áŀİáŀ·áŀĩáŁĴáŀĩáŀĢáŀĺáŁĴáŀĺ": 4667, "à®¾à®ķà¯įà®ķ": 4668, "áĢ±áĢĿ": 4669, "ĠáĢ¡áĢģáĢ¼": 4670, "ĠÂ»áŁĶ": 4671, "Ġáŀħáŀ¼áŀĽáŀļáŀ½áŀĺ": 4672, "ation": 4673, "ĠáŀĽáŀ¶áŀĵ": 4674, "æľĪ": 4675, "Ġáŀĩáŀ¶áŀĶáŁĭ": 4676, "ob": 4677, "ĠáĢ»áĢķáĢĬáĢ¹áĢŀáĢ°": 4678, "ķáĢ«áĢŀáĢĬáĢ¹": 4679, "áĢĢáĢ¹áĢĽ": 4680, "ĠáĢĴáĢ¯áĢĲáĢŃáĢļ": 4681, "Ħà¸£à¸²à¸°à¸": 4682, "ĠáŀģáŁĴáŀŁ": 4683, "ļà¸Ļà¸": 4684, "alam": 4685, "Ã¹ng": 4686, "ç½ĳåĿĢ": 4687, "éĥ¨": 4688, "Ġáŀ¢áŀĵáŁĴáŀıáŀļáŀĩáŀ¶áŀıáŀ·": 4689, "áĢľáĢº": 4690, "áŀĵáŁĴáŀĬ": 4691, "ĠáŀĽáŀĢáŁĭ": 4692, "áŀİáŀ¶áŀŁáŁĭ": 4693, "à»Ģàºģàºµ": 4694, "áŀŁáŀ¶áŀĦ": 4695, "Ķà¹īà¸§à¸¢": 4696, "ĠáŀĶáŁĴáŀļáŀĩáŀ¶áŀĩáŀĵ": 4697, "áŀ¸áŀĬáŁģ": 4698, "áĢ¸áĢĻáĢ½áĢ¬": 4699, "ĠáĢĺáĢļáĢ¹áĢľ": 4700, "Ġáģģáģīáģ": 4701, "áŀĶáŁĴáŀļáŀł": 4702, "oc": 4703, "Ġà®İà®©à¯įà®©": 4704, "Ġwala": 4705, "ĠáĢĳáĢ¯áĢĲáĢ¹áĢ": 4706, "áĢĩáĢ¬": 4707, "Ĺà¸¸à¸ģà¸": 4708, "Ġà®µà®´": 4709, "ĠáĢ¡áĢ±áĢĻáĢĽáĢŃáĢĢ": 4710, "áĢ²áĢ¼": 4711, "ĠáĢ±áĢĽáĢ¬áĢĢáĢ¹áĢ": 4712, "ŀáĢĬáĢ¹áĢ·": 4713, "áĢıáĢ®": 4714, "åľº": 4715, "ĠcÃ´ng": 4716, "ĠáŀľáŁĢáŀıáŀİáŀ¶áŀĺ": 4717, "áŀŁáŁĴáŀĽ": 4718, "áĢ±áĢķáĢ«áĢĦáĢ¹áĢ¸": 4719, "áĢĻáĢ»áĢ¬áĢ¸áĢĢáĢŃáĢ¯": 4720, "Ħà¸£à¸²à¸°à¸«": 4721, "Ġà¹Ģà¸Ĭ": 4722, "àº²àº¥": 4723, "áŀĢáŁĴáŀļáŁĦáŀĺ": 4724, "ĠMas": 4725, "Ġdah": 4726, "à¹Ģà¸ĭ": 4727, "áŁģáŀł": 4728, "áŀ¸áŀĻ": 4729, "åģ": 4730, "Ĺà¸ĺ": 4731, "ĠáŀĶáŁĴáŀļáŀĸ": 4732, "ĠáŀĬáŀ¹áŀĢ": 4733, "ĠáŀĢáŀļáŀİáŀ¸": 4734, "áŁĴáŀĶáŀ¶áŀŁáŁĭ": 4735, "Ġà»ģàºķà»Ī": 4736, "ĠQ": 4737, "à¹ģà¸ļà¸ļà¸": 4738, "áŀ¶áŀĻáŀĢáŀ¶áŀļáŀİáŁį": 4739, "est": 4740, "Ġ+": 4741, "àº§à»Īàº²àº": 4742, "æĪ·": 4743, "Ġà®ķà¯ĩ": 4744, "ĠáŀĶáŀ»áŀļáŀŁ": 4745, "áŀļáŀĻ": 4746, "ä¹Ł": 4747, "à¹ĥà¸«à¸į": 4748, "¡Â": 4749, "Ġmá»": 4750, "ilip": 4751, "Ġsp": 4752, "Ġba": 4753, "áŀ»áŀľáŀĩáŀĵ": 4754, "ona": 4755, "áŁĴáŀ¢áŀ¶áŀı": 4756, "ĠNews": 4757, "ĠáŀĸáŀĽáŀļáŀĬáŁĴáŀĭ": 4758, "ĠáŀĬáŀ»áŀĽáŁĴáŀĽáŀ¶áŀļ": 4759, "áŀĬáŁħ": 4760, "Ġà®µà®¨à¯įà®¤": 4761, "áŀĸáŁĴáŀľáŀķáŁĴáŀŁáŀ¶áŀĻ": 4762, "Ġnaka": 4763, "áŀ¶áŀľáŀ»": 4764, "áŀĢáŁĴáŀļáŀ»áŀĺáŀłáŁĬáŀ»áŀĵ": 4765, "à®µà¯ģà®®à¯į": 4766, "áŀĢáŀ¶áŀļáŀļáŀ": 4767, "Ńàºļ": 4768, "áŀıáŀĺáŁĴáŀĽáŁĥ": 4769, "áĢľáĢ¾": 4770, "ªà¸¡à¸": 4771, "áŀ¯áŀĦ": 4772, "àº§àº¡": 4773, "Ġbáº¡n": 4774, "Ġáŀľáŀ¶áŀĻ": 4775, "å·ŀ": 4776, "ĠáŀŁáŁģáŀħáŀĢáŁĴáŀıáŀ¸": 4777, "ĠHome": 4778, "áŀĸáŁĲáŀĵáŁĴáŀĴ": 4779, "áĢ±áĢľáĢ¸áĢ": 4780, "áĢĻáĢºáĢ¸": 4781, "Ġdengan": 4782, "Ġà¸Ĺ": 4783, "áŁĦáŀĩáŀĵáŁį": 4784, "áŀĺáŁģ": 4785, "Ġila": 4786, "èī": 4787, "à¹īà¸Ļà¹Ģà¸": 4788, "à»Ģàº«àº¼": 4789, "áŀĶáŁĴáŀļáŀ»áŀŁ": 4790, "áŀĦáŁĴáŀĥ": 4791, "áŁĴáŀļáŀ·áŀı": 4792, "áĢħáĢ¬áĢ¸": 4793, "áĢŃáĢĻáĢ¹": 4794, "Ġ*": 4795, "ĶáĢļáĢ¹áĢ": 4796, "áĢ¥áĢ®áĢ¸áĢ": 4797, "áģģ": 4798, "Ġà®ªà®²": 4799, "ĠáŀĶáŀ¶áŀıáŁĭ": 4800, "ĠáĢĶáĢĬáĢ¹áĢ¸": 4801, "±áĢĲáĢ¼áĢĢáĢŃáĢ¯": 4802, "áĢ±áĢľáĢ¸áĢ±áĢĲáĢ¼": 4803, "áĢĢáĢ¯áĢĶáĢº": 4804, "áŀĬáŁĨáŀİ": 4805, "å§": 4806, "áŀ·áŀĵáŀ·áŀĻáŁĦáŀĤ": 4807, "ĠáŀĸáŁĴáŀĻ": 4808, "ķà¹Īà¸Ń": 4809, "àº»à»Īàºĩ": 4810, "áĢ¶áĢ³": 4811, "ĠáĢŀáĢĦáĢº": 4812, "ĠáŀĤáŀ·áŀı": 4813, "àº¸à»īàº¡": 4814, "Ľà¸£à¸°à¹Ģà¸Ĺà¸¨": 4815, "ĠPag": 4816, "àºĻàº³": 4817, "áŀĻáŁĴáŀĻ": 4818, "ĠáŀĶáŁĴáŀļáŀĨáŀ¶áŁĨáŀĦ": 4819, "Ġpagpapa": 4820, "£Â": 4821, "iá»ĩt": 4822, "ĠáŀĶáŀĵáŁĴáŀĳáŀ¶áŀĶáŁĭáŀĸáŀ¸": 4823, "åĬ¨": 4824, "AN": 4825, "anda": 4826, "ĠáŀĤáŀİáŁĪ": 4827, "áŀĳáŁĴáŀĴáŀķáŀĽ": 4828, "à¹Ģà¸£à¸²à¸": 4829, "à®¾à®ļ": 4830, "áŀıáŁĴáŀĶáŀ¼áŀĦ": 4831, "Ġ{": 4832, "ģà¸£": 4833, "Ġà»ĢàºĦ": 4834, "áŀĦáŀĶ": 4835, "áŁĴáŀĽáŀ¸": 4836, "áº½": 4837, "àº±àºĶàºª": 4838, "áŀĢáŁĴáŀĢáŀĬáŀ¶": 4839, "áŀĢáŁĴáŀļáŀ": 4840, "áĢĻáĢ¼áĢŃáĢ¯áĢ·": 4841, "uso": 4842, "Ġáŀ§áŀĶ": 4843, "Ġpo": 4844, "à®¾à®°à¯įà®ķà®³à¯į": 4845, "ukha": 4846, "Ġkam": 4847, "áŁĴáŀīáŁĢáŀľ": 4848, "ĸà¸·à¸Ń": 4849, "à¹Ģà¸¥à¸": 4850, "±áĢĢáĢ¬áĢĦáĢ¹áĢ¸": 4851, "ĠáĢĻáĢŁáĢ¯áĢĲáĢ¹áĢ": 4852, "áĢĨáĢŃáĢ¯áĢĲáĢ¬": 4853, "ĠáŀĳáŁģáŀŁ": 4854, "ĠáĢ±áĢķáĢ«": 4855, "áĢľáĢĻáĢ¹áĢ¸": 4856, "áĢĽáĢ±áĢ¸": 4857, "à¹Ģà¸¡à¸": 4858, "áŀļáŀĢáŁĴáŀŁ": 4859, "áĢĲáĢ¯áĢŃáĤĶ": 4860, "áĢĲáĢ¹áĢħ": 4861, "áĢ¼áĢ¸áĢ±áĤı": 4862, "áĢĨáĢ¶áĢ¯": 4863, "áĢ¡áĢķáĢ¹áĢ": 4864, "áĤıáĤĪ": 4865, "áĢĻáĢ½áĢº": 4866, "áĢĶáĢħáĢ¹áĢ": 4867, "áĢĬáĢ¬áĢĽ": 4868, "Ġniya": 4869, "éĴ±": 4870, "áŀºáŀļáŁī": 4871, "å®ĺæĸ¹": 4872, "å»": 4873, "Ġà»Ģàºª": 4874, "áŀ¢áŀ¶áŀł": 4875, "Ġtao": 4876, "à»ĤàºĦ": 4877, "áĢ±áĢĶáĢĽáĢ¬": 4878, "áĢ°áĢĬáĢ®": 4879, "ĠáĢ»áĢĸáĢħáĢ¹áĢķáĢ«áĢĲáĢļáĢ¹": 4880, "ĠáĢ¡áĢ¬áĢ¸áĢľ": 4881, "Ġà®İà®©à¯įà®ª": 4882, "áŁĴáŀľáŀ¶áŀĵáŁĭ": 4883, "áĢŃáĢĻáĢ¹áĢ·": 4884, "ĠáĢĢáģ½áĢ¼": 4885, "ĠY": 4886, "áĢķáĢ¼áĢĦáĢº": 4887, "áŀĸáŀ·áŀĵáŀ·áŀıáŁĴáŀĻ": 4888, "¡àº²": 4889, "åİ¿": 4890, "Ġæĸ": 4891, "áŀĶáŀ¶áŀĽ": 4892, "ĠáŀĺáŁīáŀ¼áŀıáŀ¼": 4893, "áŁĤáŀıáŁĴáŀļ": 4894, "Ħà¸¥": 4895, "áŀľáŀ·áŀŁ": 4896, "ç¥ŀ": 4897, "áŀĹáŁĴáŀĽáŀ¾áŀĦ": 4898, "Ġworm": 4899, "Ġpaggamot": 4900, "ĠKung": 4901, "ja": 4902, "ai": 4903, "ĠåĽ": 4904, "áĢŃáĢķáĢº": 4905, "Ľàº°àºĬàº¸àº¡": 4906, "Ġà¸ģà¸£à¸": 4907, "ĠáŀĵáŀĤáŀļáŀĶáŀ¶áŀĽ": 4908, "ĠáŀıáŀĺáŁĴáŀĽáŁĥ": 4909, "à»ľà»īàº²àº": 4910, "Ħà¸£à¸Ķà¸´à¸ķà¸Łà¸£à¸µ": 4911, "Ġ16": 4912, "ªà¸²à¸¡à¸²à¸£à¸ĸà¸": 4913, "áŀĶáŀīáŁĴáŀĩ": 4914, "ext": 4915, "ĸáŁĲáŀĵáŁĴáŀĴ": 4916, "Ġmak": 4917, "áŀļáŀ»áŀĶ": 4918, "áŀĺáŀ¼áŀĽ": 4919, "Ġáģī": 4920, "éĻħ": 4921, "à®¿à®ķà®³à¯į": 4922, "áŀ¶áŀļáŀĺ": 4923, "áĢĲáĢĲáĢ¹áĢ": 4924, "áĢ±áĢĴáĢŀ": 4925, "ĨáĢ¯áĢŃ": 4926, "ĠáĢĽáĢģ": 4927, "áĢĨáĢŃáĢ¯áĢĦáĢº": 4928, "ĠåĪ©æĿ¥": 4929, "ç¤": 4930, "àº°àº«àº¼": 4931, "ĠáŀĤáŁĦáŀĽ": 4932, "ķà¸²à¸¡à¸": 4933, "ĠMay": 4934, "ĠáŀĢáŀĺáŁĴáŀĽáŀ¶áŁĨáŀĦ": 4935, "à»įàº²àº¥àº±àºļ": 4936, "á»Ļi": 4937, "à»ģàº«à»Īàºĩàº": 4938, "áŀıáŀ¸áŀı": 4939, "Ġnak": 4940, "áŀĢáŀ¶áŀļáŀĩ": 4941, "Ġáŀĸáŀ·áŀĴáŀ¸": 4942, "à»ĢàºĪàº»à»īàº²": 4943, "à¹Ħà¸§": 4944, "ĠáŀĩáŁĨáŀĦáŀº": 4945, "ĠáĢĲáĢ½": 4946, "k10": 4947, "é£": 4948, "áŀĶáŁĴáŀļáŀĴáŀ¶áŀĵ": 4949, "ĠRe": 4950, "áŀļáŀĬáŁĴáŀĭáŀĺáŀĵáŁĴáŀıáŁĴáŀļáŀ¸": 4951, "áŀĶáŀ¾": 4952, "Ġsá»ĳ": 4953, "áĢĻáĢĬáĢ¹": 4954, "áĢ¡áĢĲáĢ°": 4955, "àºļàº±àºĻàº": 4956, "ĶáĢ¾": 4957, "Ġà¹Ģà¸ŀ": 4958, "à®µà¯ĩ": 4959, "áŀ¶áŀĶáŀ¶áŀĽ": 4960, "áŀĵáŁĴáŀĻ": 4961, "Ħà¸§à¸²à¸¡à¹Ģà¸": 4962, "ĠáŀļáŀĻáŁĪáŀĸáŁģáŀĽ": 4963, "dag": 4964, "áŀĳáŁĲáŀĸ": 4965, "áĢĦáĢ¹áĢŀ": 4966, "áĢĦáĢºáĢ¸áĢŀ": 4967, "Ġsiya": 4968, "àº¸àº¥": 4969, "çĤ¹": 4970, "ĠáŀĮ": 4971, "ĠáŀķáŁĴáŀĵáŁĤáŀĢ": 4972, "Ġà®ħà®±": 4973, "§à¸ĩà¸": 4974, "àº§àºĻàº": 4975, "igh": 4976, "åı¯": 4977, "Ġmukha": 4978, "Ġnat": 4979, "áĢ°áĢ¸áĢĲ": 4980, "¹áŀĦ": 4981, "áĢĦáĢºáĢ¸áĢķ": 4982, "Ġáŀĸáŀ½áŀĢáŀĤáŁģ": 4983, "ķà¹īà¸Ńà¸ĩ": 4984, "itan": 4985, "ĠNh": 4986, "àºľàº¹à»ī": 4987, "Ġáŀıáŀ¶áŀļ": 4988, "ĠáŀłáŁĴáŀľ": 4989, "áĢŃáĢ½": 4990, "áĢıáĢº": 4991, "¥à¸ĩ": 4992, "à¯Ģà®°": 4993, "à»ĪàºŃàºĩàº": 4994, "ena": 4995, "áŀĳáŀ¶áŀĵáŁĭ": 4996, "áŀİáŁĴáŀĮáŀĽ": 4997, "à¸´à¹Ģà¸Ħà¸£à¸²à¸°à¸«": 4998, "¶à¹Īà¸ĩ": 4999, "ĠáŀħáŁĨáŀİáŁĤáŀĢ": 5000, "Ġáŀĸáŀ¶áŀĢáŁĴáŀĻ": 5001, "áĢ»áĢķáĢĶáĢ¹áĢ": 5002, "ķáĢ¶áĢ¯": 5003, "áĢ¹áĢĤ": 5004, "Ġkanyang": 5005, "áŀĢáŀ¶áŀļáŀĬ": 5006, "Ġst": 5007, "Ġà®ħà®Ł": 5008, "end": 5009, "Ġbag": 5010, "ĠáŀŁáŁĴáŀĲáŀ¶áŀĵ": 5011, "ĠáĢĢáĢŃáĢ¯áĢļáĢº": 5012, "á»ī": 5013, "áŀ¸áŀĬáŁģáŀ¢áŀ¼": 5014, "Ġáŀĸáŀ¸áŀļ": 5015, "ĠáĢĤáĢº": 5016, "áĢ¬áĢ¸áĢķáĢ«": 5017, "à»ģàº¡à»Īàºį": 5018, "ĠUn": 5019, "àº°àºĻàº¸": 5020, "áŀħáŀ¶áŁĨ": 5021, "ĠáŀĵáŁħáŀĸáŁģáŀĽ": 5022, "Ġà¸Ľà¸": 5023, "é«ĺ": 5024, "áĢĶáĢļáĢ¹áĢ": 5025, "áĢĦáĢŃáĢĻáĢ¹áĢ¸": 5026, "±áĢķáĢ«áĢĦáĢ¹áĢ¸": 5027, "áĢľáĢ®": 5028, "ļà¸²à¸Ħà¸²à¸£": 5029, "§à¹ĩà¸ļà¸": 5030, "Ġ>": 5031, "Ġà¸ªà¸¡à¸±à¸": 5032, "Ġà¸ļà¸": 5033, "à»ģàºķà»Īàº": 5034, "ªà¹Īà¸§à¸Ļà¸": 5035, "Ġà®®à®±à¯įà®±": 5036, "áŀħáŀ¼áŀĽáŀļáŀ½áŀĺ": 5037, "ts": 5038, "Ġas": 5039, "áŀĶáŁĴáŀļáŀĩáŀ¶áŀĸáŀĽáŀļáŀĬáŁĴáŀĭ": 5040, "áŀ·áŀļáŀ": 5041, "air": 5042, "__": 5043, "do": 5044, "áŀĶáŀ¶áŀıáŁĭ": 5045, "æĸĩ": 5046, "áĢķáĢ¼áĢĬáĢº": 5047, "áŀĸáŁĴáŀļáŁĥ": 5048, "Ġà¹Ħà¸Ķà¹ī": 5049, "áŀķáŁĴáŀŁáŁģáŀĦ": 5050, "Ã½": 5051, "àº½àºļ": 5052, "áģ¾áĢĢáĢ®áĢ¸": 5053, "áĢķáĢ«áĢŀáĢĬáĢº": 5054, "à¹īà¸Ńà¸¢": 5055, "áŀ¢áŀĤáŁĴáŀĤ": 5056, "áŀķáŀĦáŀĬáŁĤáŀļ": 5057, "àº°àº«àº§à»Īàº²àºĩ": 5058, "ä»¬": 5059, "áŀĤáŀ·áŀı": 5060, "ĠáŀŁáŀĦáŁĴáŀĤáŀĺ": 5061, "áŀĩáŁĦ": 5062, "ĠáŀķáŁĴáŀıáŀĽáŁĭ": 5063, "Ġdahil": 5064, "ĠnÃły": 5065, ");": 5066, "à¹Ħà¸£": 5067, "áŀ·áŁĩ": 5068, "à»ģàºĹ": 5069, "ªà¸¸à¸Ķà¸": 5070, "áŀ·áŀĲ": 5071, "áŁĬáŀ¶áŀĵ": 5072, "áŀĢáŀ¶áŀļáŀĦáŀ¶áŀļáŀ": 5073, "áŀĢáŀ¶": 5074, "àºµàºĻàº": 5075, "Ġano": 5076, "áŀ¢áŀ¶áŀĦ": 5077, "ªà¸³à¸«à¸£à¸±à¸ļà¸": 5078, "oy": 5079, "áŀŁáŁĴáŀĽáŀ¶áŀĶáŁĭ": 5080, "áŀľáŁĢáŀıáŀİáŀ¶áŀĺ": 5081, "ĠáŀĶáŁĴáŀļáŀĹáŀĸ": 5082, "ĠáŀĶáŁĴáŀļáŀ¶áŀĶáŁĭ": 5083, "áŀŁáŁĴáŀĺ": 5084, "Ħà¸£à¸±à¹īà¸ĩ": 5085, "lam": 5086, "áŀĺáŁĴáŀļáŀ·áŀı": 5087, "àº§àºģàº": 5088, "ĠáŀŁáŁĴáŀĳ": 5089, "à¹Ħà¸ĭà¸": 5090, "Ġå¹": 5091, "áŁĨáŀļáŀ»": 5092, "Ġ14": 5093, "Ġà¹Ģà¸Ľà¹ĩà¸Ļà¸": 5094, "he": 5095, "ĠáŀŁáŀ¶áŀļ": 5096, "awa": 5097, "ĠáŀļáŀĬáŁĴáŀĭáŀĺáŀĵáŁĴáŀıáŁĴáŀļáŀ¸": 5098, "áŀĹáŀ·áŀľáŀĮáŁĴáŀįáŀĵáŁį": 5099, "áŀģáŁĴáŀĺáŁĤáŀļ": 5100, "áŀĢáŁĨáŀĸáŀĦáŁĭ": 5101, "ĠáŀĢáŀ¶áŀıáŁĭ": 5102, "à¹Ģà¸Ĭ": 5103, "Ġde": 5104, "áŀļáŀ¶áŀħáŀļáŀİáŁį": 5105, "Ġáŀļáŀ»": 5106, "ŃàºĩàºĽàº°àºĬàº¸àº¡": 5107, "áŀ¶áŀĺáŁī": 5108, "ĠàºĦàº»àºĻ": 5109, "Ġtá»«": 5110, "áŀ¶áŀĢáŀ¶áŀŁ": 5111, "Ġ18": 5112, "¨à¸¶à¸ģà¸©": 5113, "Ġpagk": 5114, "ªàº¸àºĶ": 5115, "Ħà¸Ńà¸": 5116, "ĠáŀĢáŁĴáŀļáŁħ": 5117, "à¹īà¸Ńà¸¡à¸¹à¸": 5118, "Ġáŀľáŀ·áŀŁáŁĲáŀĻ": 5119, "ck": 5120, "Ġrin": 5121, "ĠáŀĸáŁĴáŀļáŀ¹áŀĢ": 5122, "áŀĸáŁģáŀī": 5123, "Ĳà¸": 5124, "ĠàºĹàºµ": 5125, "à®²à¯Ī": 5126, "à»ĢàºĦàº·à»ĪàºŃ": 5127, "åĲĪ": 5128, "ĠáŀĲáŁĴáŀĽáŁĤáŀĦ": 5129, "ĠáŀĬáŁĦáŀĻáŀŁáŀ¶áŀļ": 5130, "Ġpamam": 5131, "áŀĸáŀ¶áŀĢáŁĴáŀĻ": 5132, "ĠáĢĢáĢ»áĢ½áĢĶáĢº": 5133, "mer": 5134, "Ġáŀĺáŀ¸": 5135, "§à»Īàº²": 5136, "Ķà¸¹": 5137, "åĬĽ": 5138, "ĠáŀŁáŀ·áŀĢ": 5139, "ĠáŀķáŁĴáŀĬ": 5140, "à®¿à®±à¯įà®ķ": 5141, "Ġà¸«": 5142, "áŁĴáŀļáŀŁáŁĭ": 5143, "áŀľáŁģáŀĽ": 5144, "à¸Ńà¸Ńà¸ģà¸": 5145, "Ã¡i": 5146, "ĠáĢĶáĢ±áĢ¬áĢĢáĢº": 5147, "ģàº²àºĻàºª": 5148, "áŀ¶áŀĸáŀ·áŀŁáŁģáŀŁ": 5149, "Ġuntuk": 5150, "pan": 5151, "áŀļáŀħ": 5152, "Ġåĩ¯": 5153, "å¿ĥ": 5154, "áŀĸáŀ»áŀĢ": 5155, "ĠáĢķáĢ¼áĢĶáĢº": 5156, "Ġáŀıáŀ¶áŁĨáŀĦ": 5157, "Ġà¹Ĩ": 5158, "àº»àºģ": 5159, "áŀģáŀ»áŀŁ": 5160, "áĢķáĢ¼áĢĶáĢº": 5161, "åīį": 5162, "Ĺàºµà»Īàº¡àºµ": 5163, "Ġra": 5164, "Ġáŀ¢áŀıáŁĴáŀĲáŀĶáŀĳ": 5165, "Ġáŀĵáŀ¸": 5166, "à®©à®°à¯į": 5167, "áŀĩáŁĨáŀĦáŀº": 5168, "ON": 5169, "laki": 5170, "áŀħáŀĦáŁĭ": 5171, "ess": 5172, "±áĢ¡áĢ¬áĢĦáĢ¹áĢ": 5173, "ĠáĢĨáĢ¯áĢŃ": 5174, "áĢŃáĢ¯áĢ¯": 5175, "áĢĲáĢħáĢ¹áĢģáĢ¯": 5176, "»áĢĸáĢħáĢ¹": 5177, "áĢķáĢ¼áĢ²": 5178, "áĢĶáĢ¹áĢĻáĢ½áĢ¬": 5179, "áģĢáĢ«": 5180, "áĢķáĢ¹áĢĢ": 5181, "áĢĢáĢ¹áĢģ": 5182, "áŁĨáŀĵáŀĦ": 5183, "ans": 5184, "áĢħáĢħáĢ¹áĢ": 5185, "áĢħáĢ¶": 5186, "áŀĶáŀħáŁĴáŀħ": 5187, "áŀīáŁĴáŀĩáŀ¾áŀī": 5188, "áŀĤáŁĦáŀĽ": 5189, "àºĻàºŃ": 5190, "áŁĢáŀĺáŀļáŀ¶áŀĶ": 5191, "Ġà®ħà®°à®ļ": 5192, "áŀ¼áŀŁ": 5193, "áĢĢáĢ¼áĢļáĢ¹áĢ": 5194, "ŀáĢĬáĢ¹áĢ": 5195, "ĠáĢĲáĢĦáĢ¹áĢ": 5196, "áĢĳáĢ¬áĢ¸áĢŀ": 5197, "ĠåĮ": 5198, "Ġdin": 5199, "ĠĈ": 5200, "æĽ": 5201, "Ġáŀħáŀ»áŀĦ": 5202, "à¯ģà®Łà®©à¯į": 5203, "Ġàº«àº¼àº·": 5204, "Ġmah": 5205, "áŀ¶áŀĤáŀ¶áŀļ": 5206, "Ġhá»į": 5207, "łà¸²à¸©": 5208, "·áŀĻ": 5209, "áŀĸáŀ·áŀı": 5210, "áĢĲáģ±": 5211, "áĢĦáĢºáĢ¸áĢĲ": 5212, "Ġáŀ¯áŀĢáŀ§áŀıáŁĴáŀıáŀĺ": 5213, "ĠáŀĽáŁĴáŀĶ": 5214, "Ġáŀ¢áŁĬ": 5215, "Ġby": 5216, "ĠáĢĻáĢĽ": 5217, "áŁĴáŀıáŀ¸áŀĸáŀ¸": 5218, "åĲİ": 5219, "áŀĽáŀ¶áŀĵ": 5220, "ary": 5221, "ĠáĢģáĢ¼": 5222, "ĠáŀĬáŁĨáŀİ": 5223, "Ġyung": 5224, "ling": 5225, "ĠáŀıáŁĤáŀĦ": 5226, "Ġà®¤à¯Ĭà®Ł": 5227, "Ġáŀ¢áŀ¶áŀł": 5228, "ŀà¸£à¸": 5229, "ĠáĢ¡áĢ±áĢĽ": 5230, "áĢĻáĢĬáĢ¹áĢ": 5231, "áĢ±áĢľáĢ¬áĢĢáĢ¹áĢ": 5232, "ĻáĢ½áĢĲáĢ¹áĢ": 5233, "áĢ·áĢ¡": 5234, "201": 5235, "Ġà¸¡à¸µ": 5236, "ĠáŀĶáŁĴáŀļáŀĢáŀ¶áŀŁ": 5237, "ĠáŁ¢áŁłáŁ¡áŁ¨": 5238, "Ġáŀļáŀı": 5239, "áĢ¬áĢ¸áĢģáĢ²áĢ·": 5240, "Ķà¸¹à¸": 5241, "ĠMask": 5242, "Ġmab": 5243, "ĠáŀģáŁĴáŀĺ": 5244, "áŁĨáŀĬáŁĤáŀĵ": 5245, "áŀ¶áŀĢáŁĭáŀĳáŁĨáŀĵáŀĦ": 5246, "àº°àºŀàº±àºĻ": 5247, "à»ģàº®": 5248, "ĠáŀĶáŁĴáŀļáŀŁáŀ·áŀĵ": 5249, "ide": 5250, "éķ¿": 5251, "´à¸Ļà¸": 5252, "ry": 5253, "Ã¡ng": 5254, "lan": 5255, "Ġà®ķà®°": 5256, "áĢľáĢĦáĢ¹áĢ¸": 5257, "áĢħáĢĬáĢ¹áĢ¸": 5258, "ľáĢŃáĢ¯áĢĢáĢ¹áĢ": 5259, "ģáĢºáĢĦáĢ¹áĢ": 5260, "áĢĶáĢ®": 5261, "áŁĴáŀĵáŁĨ": 5262, "à¸£à¸¹à¸": 5263, "à»įàº²àºĻàº": 5264, "èĩª": 5265, "ama": 5266, "à»Ŀà»Ī": 5267, "áĢ®áĢ¸áĢļ": 5268, "à¸µà¸ģ": 5269, "áŀĶáŁĴáŀļáŀĺ": 5270, "à¹Īà¸Ļà¹Ģà¸": 5271, "ŀà¯įà®ļ": 5272, "áŀ»áŀĳáŁĴáŀĴ": 5273, "Ġà»ģ": 5274, "¨à¸²à¸": 5275, "áŀĲáŁĴáŀĽáŁĥ": 5276, "Ġáŀģáŀ»áŀŁ": 5277, "Ġà»ĦàºĽ": 5278, "Ġmaa": 5279, "Īàº±àºĶàºķ": 5280, "àºģàº²àºį": 5281, "áĢ®áĢ¸áĢ¡": 5282, "áŁģáŀģáŀ¶áŀĦ": 5283, "áŀĸáŀĵáŁĴáŀĴáŀ": 5284, "ĠáĢŀáĢĲáĢŃ": 5285, "Ġà®ªà®¤": 5286, "áŀ·áŀŁáŀ»áŀģ": 5287, "áŀ¶áŀĢáŀļ": 5288, "Ã¡t": 5289, "áŀŁáŁĴáŀĲ": 5290, "áĢľáĢ½áĢº": 5291, "áĢ¼áĢĢáĢ¹": 5292, "áĤıáĢ¯": 5293, "áĢ¡áĢĲáĢ¼áĢĦáĢ¹áĢ¸": 5294, "ĠáĢŁáĢ¬": 5295, "Ġà»ĢàºĪ": 5296, "áĢĻáĢ»áĢ¬áĢ¸áĢ¡": 5297, "çķ": 5298, "àºĹàº²àºĩ": 5299, "à¸£à¸¹à¹īà¸": 5300, "áŀķáŁĴáŀıáŀĽáŁĭ": 5301, "Ġà®®à¯ģà®¤": 5302, "áŀ¢áŁĨáŀĸáŀ¸": 5303, "¥à¸¹à¸ģà¸": 5304, "ith": 5305, "Ġpana": 5306, "Ġà¹Ħà¸¡à¹Ī": 5307, "ç¾İ": 5308, "áŀļáŁĨáŀĽ": 5309, "Ĺà¸µà¹Īà¹Ģà¸": 5310, "áŀĵáŀĻáŁĦáŀĶáŀ¶áŀĻ": 5311, "áŀĩáŁĴáŀ": 5312, "àº»àºĻàºķàºµ": 5313, "ĠáŀĽáŀ¸": 5314, "áŀĵáŀ·áŀĻáŀ¶áŀĻ": 5315, "Ġà®®à®©": 5316, "àºµà»ī": 5317, "¥àº°àºļ": 5318, "Äĥm": 5319, "ä¸»": 5320, "áĢĻáĢĽáĢ½áĢŃ": 5321, "áĢĶáĢļáĢ¹": 5322, "áĢ¡áĢ¬áĢ¸áĢ": 5323, "áŀ¼áŀļáŁīáŁģáŀģáŀ¶áŀĦ": 5324, "áŀ¶áŀĴáŀ¶áŀļáŀİáŁĪ": 5325, "à®¿à®²à¯įà®²à¯Ī": 5326, "ting": 5327, "áŀĢáŁĴáŀģáŀİáŁĪ": 5328, "ĠàºĹàº²àºĩ": 5329, "à»Ģàº®àº±àºĶà»ĥàº«à»ī": 5330, "Īà¸¸à¸": 5331, "ĠáĢģáĢ¯áĢĶáĢ¾áĢħáĢº": 5332, "ĠáŀĴáŀĵ": 5333, "Ġpaa": 5334, "è¶": 5335, "Ġnam": 5336, "ĠáŀıáŁĴáŀļáŀ¹áŀĺ": 5337, "´àºĶàº": 5338, "áŀŁáŀĦáŁĭ": 5339, "à¯ģà®ķà¯į": 5340, "áŀĳáŀ¸áŀĢáŁĴáŀļáŀ»áŀĦ": 5341, "à¸Ńà¸°": 5342, "one": 5343, "à¸£à¸±à¸ģà¸©": 5344, "ort": 5345, "áĢĲáĢ²áĤĶ": 5346, "ĽáĢĦáĢ¹": 5347, "ĠáĢ±áĢĽáĤĬ": 5348, "ķáĢ¼áĢ¯": 5349, "à»ĢàºĻàº·": 5350, "·à¸Ńà¸Ļ": 5351, "IN": 5352, "Ġmaka": 5353, "ĠáŀŁáŀ¶áŀĢ": 5354, "è°": 5355, "ĠáŀĶáŀħáŁĴáŀħáŀ»áŀĶáŁĴáŀĶáŀĵáŁĴáŀĵ": 5356, "«à¸¥à¸±à¸ĩà¸": 5357, "à¯Īà®ķà¯į": 5358, "ķàº²àº¡": 5359, "áŀļáŀ¶áŀĺ": 5360, "áŀ·áŀĲáŀ»áŀĵ": 5361, "Ġáŀ¢áŁĦáŀĻ": 5362, "ĠáŁ¡áŁ¢": 5363, "Ġáŀľáŀ·áŀĳáŁĴáŀĻ": 5364, "Ġçľ": 5365, "áĢĻáĢĦáĢ¹áĢ¸": 5366, "ĠáĢ¡áĢ±áĢĶ": 5367, "Ġâ": 5368, "áĢĶáĢ¹áĤĢáĢĢáĢ®áĢ¸áĢ": 5369, "ĠáĢ¡áĢ²áĢ·": 5370, "ĠáĢĻáĢ¼áĢĶáĢºáĢĻáĢ¬": 5371, "áĢĲáĢĬáĢ¹áĢ¸": 5372, "áĢĶáĢ¹áĢĳ": 5373, "áĢŃáĢ¯áĢľáĢº": 5374, "Ġáŀ¢áŀĹáŀ·áŀĶáŀ¶áŀĽ": 5375, "ĠCam": 5376, "áŀģáŀ·áŀı": 5377, "åŁİ": 5378, "àºĽàº°à»ĢàºĹàºĶ": 5379, "à²": 5380, "ĠÄĳáº¿n": 5381, "áŀ¶áŁĨáŀĳáŁĴáŀļ": 5382, "Ġà¸§à¸´à¸ĺ": 5383, "Ġáŀľáŀ¸": 5384, "iya": 5385, "ŀà¸²à¸": 5386, "Ġáŀĸáŀ·áŀŁáŁģáŀŁ": 5387, "áĢĢáĢľáĢĬáĢ¹áĢ¸": 5388, "áĢķáĢ¯": 5389, "áŁĩáŀĸ": 5390, "áĢ¬áĢ¸áĢĻáĢºáĢ¬áĢ¸": 5391, "áĢĽáĢĲáĢ¬": 5392, "áĢķáĢĲáĢº": 5393, "Ġàºģà»į": 5394, "äºļ": 5395, "áŀĶáŁĴáŀļáŀĸ": 5396, "ĠáŀŁáŀĵáŁĴáŀı": 5397, "ĠáŀĵáŀĻáŁĦáŀĶáŀ¶áŀĻ": 5398, "àºģàºĩàº²àºĻàº": 5399, "our": 5400, "ĠáŀĸáŁĴáŀļáŁĥ": 5401, "dak": 5402, "Ġáŀĵáŀ¶": 5403, "¥àº±àºĶàºĸ": 5404, "Ġà®®à¯ģà®©": 5405, "Ġáŀ¢áŀĦáŁĴáŀĤáŀĢáŀ¶áŀļ": 5406, "ĠáŀŁáŀĺáŁĴáŀļáŁģáŀħ": 5407, "Ġáŀļáŀľáŀ¶áŀĦ": 5408, "àº±à»Īàºĩàºģà»Īàº²àº§": 5409, "Ġnila": 5410, "Ġà¸Ħà¸²": 5411, "µà¹Īà¸": 5412, "áŀºáŀļáŁīáŀ»áŀĶ": 5413, "áĢģáĢºáĢĻáĢ¹áĢ¸": 5414, "áĢĳáĢ¯": 5415, "ĠáĢ±áĢ¡áĢ¬áĢĢáĢ¹áĢ": 5416, "áĢĦáĢºáĢ¸áĢ¡": 5417, "ĠáŀļáŁĢáŀĶáŀħáŁĨ": 5418, "ĠáŀĶáŁĤáŀĶ": 5419, "ĠMar": 5420, "áŁĴáŀŁáŁĬáŀ¸": 5421, "áŁģáŀĺ": 5422, "çĻ»": 5423, "tor": 5424, "ĠáĢ¡áĢĻáĢºáĢŃáĢ³áĢ¸áĢŀ": 5425, "áĢķáĢ¼áĢ±áĢ¬": 5426, "áŀĵáŀ·": 5427, "èĭ": 5428, "ģà¸¥à¸²à¸": 5429, "Ġà®®à¯Ĥ": 5430, "áŀ¶áŀĴáŀ·áŀĶáŀıáŀ¸": 5431, "Ġàº¢à»Īàº²àºĩ": 5432, "áŀ¶áŀļáŁĴáŀĻ": 5433, "Ġ).": 5434, "ĠáŀĶáŁĴáŀļáŀł": 5435, "±áĢľáĢ¸": 5436, "ĠáģģáģĤ": 5437, "áĢĢáĢ¹áĢĻ": 5438, "áĢĶáĢ±áĢ": 5439, "Ġpres": 5440, "åĮº": 5441, "á»ĳi": 5442, "áŁĨáŀļáŀ»áŀī": 5443, "Ġiyong": 5444, "àº±àºĻàºį": 5445, "áŀĩáŀ·áŀı": 5446, "Ġ17": 5447, "ĠáĢĳáĢŃ": 5448, "·à¹īà¸Ļà¸": 5449, "áŀĩáŀ¶áŀĢ": 5450, "ĽáĢ²áĤķ": 5451, "ĢáĢ¯áĢŃ": 5452, "áĢ®áĢĴáĢ®": 5453, "àº¶à»īàºĻàº": 5454, "áŁĴáŀļáŀłáŀĺ": 5455, "áŀĶáŀīáŁĴáŀł": 5456, "±áĢĶáĢĲáĢ²áĢ·": 5457, "áĢ¼áĢĦáĢ¹": 5458, "--": 5459, "ĠáĢ¡áĢĨáĢŃáĢ¯áĢķáĢ«": 5460, "áĢ¡áĢĳáĢŃ": 5461, "áŀķáŀĽáŀ·áŀı": 5462, "à¯ģà®£": 5463, "áŀĢáŀĺáŁĴáŀĺáŀľáŀ·áŀĴáŀ¸": 5464, "int": 5465, "Ġáŀ¢áŀ¶áŀĩáŁĴáŀīáŀ¶áŀĴáŀļ": 5466, "ĵà¹Įà¸": 5467, "Ġå½": 5468, "áŀĳáŀĳáŀ½áŀĽáŀĶáŀ¶áŀĵ": 5469, "áĢĦáĢºáĢ¸áĢĽ": 5470, "ķà»īàºŃàºĩàº": 5471, "áŁĴáŀĽáŀ¶áŀŁáŁĭ": 5472, "Ġà®²": 5473, "Ġmat": 5474, "áĢ¬áĢ¸áĢĨ": 5475, "ĠáŀĶáŁĴáŀļáŀħáŀ¶áŁĨ": 5476, "Ġï¼ī": 5477, "Ġà¸ļà¸²à¸Ĺ": 5478, "¢à¸¸à¸": 5479, "áŀıáŀ»áŀĽ": 5480, "ore": 5481, "ĠáŀŁáŀ»áŁĨ": 5482, "áŀŁáŁĴáŀĶ": 5483, "Ġgiá»": 5484, "áŀĴáŀĺáŁĴáŀĺ": 5485, "àºĽàº°àºģàº": 5486, "áŀĶáŁĴáŀļáŀĩáŀ»áŁĨ": 5487, "ķáĢº": 5488, "áĢ±áĢķáĢ¼": 5489, "ĠáŀĬáŁĨáŀİáŀ¾áŀļ": 5490, "à¹ģà¸Ĥ": 5491, "àºķà»įà»Ī": 5492, "anya": 5493, "áŁģáŀŁáŀ¶": 5494, "áŀĸáŀ½áŀĢáŀĤáŁģ": 5495, "ĠáĢĽáĢĢáĢ¹áĢ±áĢĶáĤĶ": 5496, "áĢħáĢĢ": 5497, "Ġà®İà®¤": 5498, "Ġpan": 5499, "àº»à»īàºĻ": 5500, "Ĺàº²àºĻàº": 5501, "Ġà¸ªà¸²à¸": 5502, "áŀ·áŀħáŁĴáŀĨáŀ·áŀĢáŀ¶": 5503, "ķàº»àº§": 5504, "áŀĶáŁĴáŀļáŀ¾áŀĶáŁĴáŀļáŀ¶áŀŁáŁĭ": 5505, "áŀĶáŁĭáŀļáŁĨ": 5506, "Ġà¸Ļà¸²à¸": 5507, "ĠáŀĢáŁıáŀĶáŀ¶áŀĵ": 5508, "à¯ģà®²": 5509, "áĢ¸áĢĻáĢ½": 5510, "áĢĶáĢĢáĢº": 5511, "áŀļáŀĶáŀŁáŁĭáŀ¢áŁĴáŀĵáŀĢ": 5512, "à¸Ļà¹īà¸³à¸": 5513, "áŀĤáŀĺáŀĵáŁį": 5514, "Ġlahat": 5515, "áŁĦáŀļáŀĸ": 5516, "ĠáŀłáŁħ": 5517, "yanmar": 5518, "áĤĲáĢ¼": 5519, "áĢ»áĢĸáĢħáĢ¹áĢķáĢ«áĢĲáĢļáĢ¹": 5520, "ĠáĢĲáĢŃáĢ¯áĢĢáĢ¹áĢ": 5521, "ĨáĢĶáĢ¹áĢ¸": 5522, "áĢŃáĢ¯áĢĦáĢ¹áĢĽáĢ¬": 5523, "ĠáĢĳáĢ¼áĢĢáĢ¹áĢ": 5524, "ĠáĢŀáĢ±áĢĺáĢ¬": 5525, "ĠáĢĢáĢŃáĢ¯áĢļáĢ¹áĢ·": 5526, "áĢ»áĢķáĢĦáĢ¹": 5527, "áģ¿áĢķáĢ®áĢ¸áĢ±áĢĲáĢ¬áĢ·": 5528, "áĢ¹áĢľáĢĬáĢ¹áĢ¸": 5529, "áĢĨáĢ¯áĢ¶áĢ¸áĢ": 5530, "Ġà®ħà®¨à¯įà®¤": 5531, "ĠàºĻàº³": 5532, "éĤ": 5533, "Ã¡ch": 5534, "ĠáŀĢáŀ¶áŀļáŀŁ": 5535, "à¹Īà¸²à¸§à¸": 5536, "àº±àºĩàºĦàº»àº¡": 5537, "Ħàº»àºĻàº": 5538, "ĠMga": 5539, "áŀĢáŀĺáŁĴáŀĽáŀ¶áŁĨáŀĦ": 5540, "áĢ¡áĢģáĢºáĢŃ": 5541, "ľáĢĬáĢ¹áĢ": 5542, "ĠáĢŀáĢŃáĢ¯áĤĶ": 5543, "áĢĲáĢĶáĢº": 5544, "áŀĸáŀ¶áŀĢáŁĭ": 5545, "Ġbata": 5546, "áŁĴáŀļáŀ½áŀı": 5547, "ĠPM": 5548, "Ġim": 5549, "áŀŁáŀ¸áŀłáŀĵáŀ»": 5550, "ĠáŀĺáŁĴáŀħáŀ¶áŀŁáŁĭ": 5551, "àº¸à»īàº¡àºĦ": 5552, "à¸Ńà¸¢à¸¹à¹Īà¸": 5553, "ĠáŀĨáŁĴáŀĵ": 5554, "Ġà®¤à¯ĩ": 5555, "àº¡àº·": 5556, "Ġæī": 5557, "ķà»įà»Ī": 5558, "áŀĽáŀĢáŁĭ": 5559, "ember": 5560, "ĠáĢķáĢĬáĢ¬": 5561, "áŀ¬": 5562, "áĢļáĢ¶": 5563, "Ġáŀĳáŀ¶áŁĨáŀĦáŀ¢áŀŁáŁĭ": 5564, "ĠáŀĢáŀĵáŁĴáŀĽáŀĦ": 5565, "ont": 5566, "áŀĦáŀĶáŁĴáŀ¢áŀ¼áŀĵ": 5567, "áŀ¶áŀŁáŀ¶áŀĳ": 5568, "áĢ±áĢ»áĢĻ": 5569, "áĤĴ": 5570, "ĠáĢ¦áĢ¸áĢ": 5571, "ĠæĿ": 5572, "àºĦàº·": 5573, "ĠáĤĢáĢĢáĢŃáĢ³": 5574, "áĢ¯áĢŃáĢĦáĢ¹": 5575, "áĢ¬áĢĢ": 5576, "Ġáģ¿áĢĻáĢŃáĢ³áĤķ": 5577, "áĢĽáĢĦáĢ¹áĢ¸": 5578, "ļáĢ¬áĢĢáĢ¹": 5579, "áĢħáĢħáĢº": 5580, "áºŃp": 5581, "Ġáŀĩáŀĵáŀĩáŀ¶áŀıáŀ·": 5582, "è¿Ľ": 5583, "Ġlab": 5584, "áŀĺáŀĵáŁĴáŀļáŁĴáŀıáŀ¸": 5585, "áŀħáŁĨáŀĸáŁĦáŁĩ": 5586, "à®¿à®ª": 5587, "áĢķáĢ¶áĢ¯": 5588, "ĠáĢŀáĢ¼": 5589, "Ĺà¸ĩà¸": 5590, "áŀīáŁĢáŀĵ": 5591, "Ġini": 5592, "ĵà¹Į": 5593, "áŀĢáŀ¸áŀ¡": 5594, "ĠáĢ±áĢĴáĢŀ": 5595, "áĢĲáĢ¯": 5596, "Ġà»ĢàºĪàº»à»īàº²": 5597, "àº²àºĹ": 5598, "áŀ·áŀĲáŀ»áŀĵáŀ¶": 5599, "áŀ¶áŀļáŁī": 5600, "áģ¾": 5601, "ĠáĢħáĢ®áĢ¸áĢķ": 5602, "Ġáŀĵáŀ·": 5603, "ĠáĢ¡áĢ±áģ¾áĢĢáĢ¬áĢĦáĢ¹áĢ¸": 5604, "ĠáĢķáĢ¶áĢ¯": 5605, "ĠáĢħáĢħáĢº": 5606, "·à¹Īà¸Ļ": 5607, "áŀ¶áŀĽáŀ¸": 5608, "äºİ": 5609, "âĢĿ": 5610, "Ġkah": 5611, "Ġà®ĩà®Ł": 5612, "Ġà»Ģàº®àº±àºĶ": 5613, "à»ĦàºĤ": 5614, "¹áŀĢáŁĴáŀŁ": 5615, "ĠáŀĤáŀĺáŁĴáŀļáŁĦáŀĦ": 5616, "áŀ¶áŀĬáŀ¾áŀĺ": 5617, "áĢĻáĢŁáĢ¯áĢĲáĢº": 5618, "īáŁĴáŀī": 5619, "Ġkhi": 5620, "Īàº°à»Ģàº": 5621, "ĠáŀŁáŀĺáŁĴáŀĬ": 5622, "áŁĴáŀĵáŀ¶áŁĨ": 5623, "áŀłáŁĦáŁĩ": 5624, "ĠMa": 5625, "à¸£à¸£à¸¡": 5626, "áŀ¢áŁĬáŀ¸": 5627, "Ġà¹Ģà¸¥à¹Īà¸Ļ": 5628, "§à¸¥à¸²": 5629, "Ġlangis": 5630, "Ġsuso": 5631, "ream": 5632, "Ġbula": 5633, "Ġáŀ¢áŀ¶áŀĵ": 5634, "áŁĴáŀĺáŀ¾áŀŁ": 5635, "àºĶà»īàº§àºį": 5636, "uma": 5637, "bodi": 5638, "áŁĴáŀł": 5639, "à®©à¯Ī": 5640, "Īà¸³à¸": 5641, "áŀĩáŁĴáŀļáŀ¶áŀľ": 5642, "áŁĩáŀĸáŀ¶áŀĽáŁĭ": 5643, "Ġáŀĩáŀ¾áŀĦ": 5644, "à®£à¯įà®Łà¯ģ": 5645, "Ġspot": 5646, "ali": 5647, "Ħà¹Īà¸": 5648, "Ġçİ": 5649, "Ĭà¸·à¹Īà¸Ńà¸": 5650, "áŀĵáŀ¸áŀĻáŁį": 5651, "«àº¥": 5652, "áŀĵáŁĲáŀĻ": 5653, "å°±": 5654, "Ġàº¡àº²": 5655, "Ĺàº¶": 5656, "áĢ¬áĢ¸áĢĻáĤĪ": 5657, "ĽáĢĶáĢ¹": 5658, "áĢ¬áĢĲáĢº": 5659, "ĠáŀŁáŁĴáŀĺ": 5660, "àº·àºŃàºĻ": 5661, "à®®à®¾à®©": 5662, "áŀŁáŀ¶áŀĽ": 5663, "Ġvá»ģ": 5664, "àº±àºļàºªàº´àºĻàº": 5665, "«à¸²": 5666, "ant": 5667, "áŀķáŁĴáŀ¢": 5668, "®àº±àºļ": 5669, "áĤıáĢ½áĢ¬": 5670, "áĢĳáĢ¬áĢ¸áĢĲáĢ²áĢ·": 5671, "áĢºáĢ¸": 5672, "ĠáŀŁáŁĴáŀĽ": 5673, "ĠáŀĺáŀĵáŁĴáŀĳáŀ¸": 5674, "Ġparasit": 5675, "log": 5676, "ĠáŀĢáŀ»áŁĨ": 5677, "Ġda": 5678, "áŀŁáŀĺáŀıáŁĴáŀĲáŀĢáŀ·áŀħáŁĴáŀħ": 5679, "Ħà¸£à¸±à¸ļ": 5680, "à¸´à¸Ķ": 5681, "áŀ¶áŀľáŀĩáŁĴáŀļáŀ¶áŀľ": 5682, "Ġàº§àº´": 5683, "æŀľ": 5684, "áŁĴáŀļáŀĸáŁĴáŀĻ": 5685, "àºµàºģ": 5686, "áŁĨáŀİáŀĦ": 5687, "ĠáĢĻáĢ»": 5688, "à¸²à¸£à¹Įà¸": 5689, "áŀ·áŀĻáŀĺ": 5690, "àº°àºģàº´àºĶ": 5691, "ĬáŁĴáŀĭáŀ¶áŀĵ": 5692, "áŀļáŀĳ": 5693, "ĠáĢĨáĢ¯": 5694, "Ľàº°à»ĢàºĹàºĶ": 5695, "ĠáĢĢáģ½áĢ¼áĢĶáĢ¹áĢĻ": 5696, "áĢħáĢīáĢº": 5697, "ķà¸´à¸Ķà¸": 5698, "aring": 5699, "áŀķáŁĴáŀĬ": 5700, "åĵģ": 5701, "ĠâĢĭ)": 5702, "Ľà¸µ": 5703, "ĠáŀģáŁĤáŀĺ": 5704, "áŀķáŁĴáŀıáŀ¾áŀĺ": 5705, "Ġäºļ": 5706, "åĪĴ": 5707, "iáº¿n": 5708, "Ġáŀĩáŀ·áŀı": 5709, "áŀľáŀ·áŀŁáŁĲáŀĻ": 5710, "Īàº³": 5711, "áŀĸáŁĴáŀļáŀĺ": 5712, "æĪĳ": 5713, "ĠáĢ»áĢĻáĢĶáĢ¹áĢĻáĢ¬áĤıáĢŃáĢ¯áĢĦáĢ¹áĢĦáĢ¶": 5714, "Ġ\",\"": 5715, "ĠáĢĢáĢ¼áģ½": 5716, "áĢĻáĢºáĢ¸áĢĻ": 5717, "ĠáŀĺáŁĴáŀı": 5718, "Ġà®ļà®¿à®±": 5719, "leh": 5720, "áŀĺáŀ·áŀıáŁĴáŀı": 5721, "áŀĶáŀĵáŁĴáŀĲáŁĤáŀĺ": 5722, "bet": 5723, "éĶ": 5724, "áŀĩáŀ¸áŀľáŀ·áŀı": 5725, "à¸£à¸µà¸¢à¸": 5726, "áŀĶáŁĴáŀļáŀıáŀ·áŀĶáŀıáŁĴáŀıáŀ·": 5727, "ĠáŀıáŁĨáŀİáŀ¶áŀĦ": 5728, "ĠáŀĤáŁĴáŀļáŀ½áŀŁáŀ¶áŀļ": 5729, "áŀĩáŁĨáŀĵáŀ¶áŀī": 5730, "åı¸": 5731, "áŀ¶áŀĢáŁĭáŀĳáŀĦ": 5732, "Īàº°": 5733, "ĺáĢ²": 5734, "ĶáĢ²áĢ·": 5735, "áĢģáĢ¼áĢĦáĢ¹áĢ·": 5736, "áĢĦáĢ¹áĤĶ": 5737, "áĢĽáĢĲáĢ²áĢ·": 5738, "áĢĸáĢ¼áĢĦáĢ·áĢº": 5739, "Ġà¸ªà¸´": 5740, "ira": 5741, "à¹Ģà¸£à¹ĩà¸": 5742, "ivers": 5743, "ĠáŀŁáŀ·áŀĳáŁĴáŀĴáŀ·": 5744, "áŀľáŀıáŁĴáŀĲáŀ»": 5745, "áŀıáŁĴáŀļáŀ¹áŀĺ": 5746, "à¯ģà®ļ": 5747, "åĮĸ": 5748, "áŀĢáŀ¶áŀļáŀĵ": 5749, "Ġthu": 5750, "Ġàºķà»įà»Ī": 5751, "áŀĶáŁĬ": 5752, "¥àº»àºĩàº": 5753, "Ġà¸ŀà¸Ļà¸±à¸Ļ": 5754, "ĸà¸¶à¸ĩ": 5755, "oon": 5756, "áŀĵáŀ¶áŀĺ": 5757, "ĠâĢĭ-": 5758, "áŀĢáŀļáŀİáŁį": 5759, "ĸàº·àºģ": 5760, "Ġà®ļà¯Ĩà®¯à¯įà®¯": 5761, "áĢĳáĢ¼áĢĢáĢ¹áĢ": 5762, "áĢĢáĢ¼áĢ±áĢ¬áĢĦáĢºáĢ¸áĢ": 5763, "áŀ·áŀļáŀīáŁĴáŀī": 5764, "ï¼ĮãĢĳãĢĲ": 5765, "Ł¥": 5766, "áŀľáŀ¸": 5767, "áŀļáŀĤ": 5768, "áŀĳáŀ¶áŀĵ": 5769, "Ħà¸¥à¸": 5770, "ĠáŀĸáŁģáŀī": 5771, "áŀĽáŀ¸": 5772, "àº·àºŃàºĻàº": 5773, "dad": 5774, "ĠâĢĭ,": 5775, "ĠáŀĻáŀĽáŁĭ": 5776, "áŀ¶áŀıáŁĭáŀģáŁĴáŀĽáŀ½áŀĵ": 5777, "ļáŀĶáŀŁáŁĭ": 5778, "Å©ng": 5779, "à®°à®¿à®¯": 5780, "èµĦ": 5781, "¢à¹Įà¸": 5782, "ªàº°àº«": 5783, "ĻáĢŃ": 5784, "ĠáĤıáĢ¯áĢŃáĢĦáĢ¹áĢĦáĢ¶": 5785, "áĢħáĢĽáĢ¬": 5786, "áŀĶáŁĴáŀļáŀĢáŀ¶áŀŁ": 5787, "éģĵ": 5788, "áŀĶáŀĦáŁĴáŀĢáŀ¾áŀı": 5789, "ĠáĢ±áĢĲáĢ¬áĢ¹áĢ": 5790, "áĢļáĢ·": 5791, "áĢ±áĢ¬áĢĦáĢºáĢĽáĢ½áĢĢáĢº": 5792, "ĠáĢ¡áĢĵáĢŃáĢĢ": 5793, "àº¸àºļ": 5794, "ĠNa": 5795, "ļà¹īà¸²à¸Ļ": 5796, "ĠáŀĹáŁģáŀĳ": 5797, "áĤĥ": 5798, "áģī": 5799, "ĠáŀĶáŁĴáŀļáŀ¾áŀĶáŁĴáŀļáŀ¶áŀŁáŁĭ": 5800, "ĠáŀĤáŀ½áŀļ": 5801, "áŀĴáŁĴáŀĦáŀĵáŁĭ": 5802, "Ġà¹Ĥà¸Ķà¸¢à¸": 5803, "Ġsh": 5804, "Ġmala": 5805, "áĢ¬áĢĢáĢŃáĢ¯": 5806, "Ľàº°àºķàº´àºļàº±àºĶ": 5807, "áŁĴáŀĦáŀ¶áŀħ": 5808, "Ġà»Ģàºĸ": 5809, "Ġà®ĩà®µ": 5810, "áŁĢáŀŁ": 5811, "ĠáĢĲáĢŃáĢ¯áĢĦáĢ¹áĢ¸": 5812, "ĠáĢ±áĢ»áĢĸ": 5813, "áĢĻáĢļáĢ¹áĢ·": 5814, "áĢĦáĢļáĢº": 5815, "Ġada": 5816, "èĢħ": 5817, "à®¿à®¤à¯įà®¤à¯ģ": 5818, "á»©c": 5819, "áŀģáŁĴáŀŁ": 5820, "áŀ·áŀīáŁĴáŀħ": 5821, "ĠáŀĸáŁĴáŀļáŀĺáŀĳáŀ¶áŁĨáŀĦ": 5822, "áŁ¡áŁ©": 5823, "ľà¸¥à¸´à¸": 5824, "áŀŁáŀĺáŁĴáŀļáŁģáŀħ": 5825, "Ġà®ĩà®²à¯įà®²": 5826, "áŀ¶áŀĢáŁĴáŀŁ": 5827, "áŀļáŀ·áŀĻ": 5828, "à¹ģà¸¡": 5829, "à»ĥàºĻàºģàº²àºĻàº": 5830, "ery": 5831, "áŀĢáŀİáŁĴáŀıáŀ¶áŀĽ": 5832, "gay": 5833, "ĠáŁ¢áŁłáŁ¡áŁ©": 5834, "ĠáŀĴáŁĴáŀĽáŀ¶áŀĢáŁĭ": 5835, "áĢĢáĢ¹áĢĲáĢ¬": 5836, "áĢ¡áĢĽáĢ¬": 5837, "à®Łà®¿": 5838, "ĠáŀĤáŀºáŀĩáŀ¶": 5839, "Ġà¸Łà¸¸à¸ķà¸ļà¸Ńà¸¥": 5840, "à¹ĥà¸Ļà¸ģà¸²à¸£à¸": 5841, "ĠãĢĳãĢĲï¼ĮãĢĳãĢĲ": 5842, "Ġä¸Ń": 5843, "ĠKh": 5844, "ĠáŀħáŁĨ": 5845, "áŀ»áŀĺáŁĴáŀĹ": 5846, "à»Ģàºķ": 5847, "áŀ¶áŀĤáŀĺáŀĵáŁį": 5848, "áŀ¢áŀ¶áŀļáŀĺáŁĴáŀĺáŀİáŁį": 5849, "å¯¹": 5850, "áĢķáĢĦáĢº": 5851, "Ġà®®à¯Ģ": 5852, "ħáŀ¶áŀŁáŁĭ": 5853, "Ŀà¸": 5854, "ĠáŀĢáŀ¶áŀļáŀĸáŀ¶áŀļ": 5855, "Ġman": 5856, "áŀ¶áŀĵáŀ¶": 5857, "àºŃàº¡": 5858, "Ġáŀıáŀ»áŀĽáŀ¶áŀĢáŀ¶áŀļ": 5859, "ĠáŀĢáŁĴáŀĺáŁģáŀĦ": 5860, "áŁĩáŀ¢áŀ¶áŀĦ": 5861, "áĢ¬áĢĦáĢ·áĢ¹": 5862, "±áĢĽáĢ¬": 5863, "Ġáģ¿áĢķáĢ®áĢ¸áĢ": 5864, "áĢĲáĢĬáĢº": 5865, "áŀŁáŁģáŀħáŀĢ": 5866, "ŀàº±àºĶàºĹàº°àºĻ": 5867, "à¹ĩà¸ģà¸": 5868, "Ġáŀĺáŀ¶áŀĵáŀĢáŀ¶áŀļ": 5869, "áŀīáŁĴáŀīáŀ¶áŀı": 5870, "Ġpar": 5871, "Ħàº»àºĻ": 5872, "à¯ģà®µà®¤": 5873, "Ġseb": 5874, "é¦": 5875, "áŀħáŀ»áŀĦ": 5876, "onal": 5877, "ĠáŁ¡áŁ¥": 5878, "Ġáŀĩáŀ¶áŀĸáŀ·áŀŁáŁģáŀŁ": 5879, "Ġà»ģàº¥": 5880, "ĠáĢ±áĢĨáĢ¬áĢĦáĢ¹áĢ": 5881, "ĠáĢķáĢ²": 5882, "à¸£à¹Īà¸§à¸": 5883, "ķáĢ¼áĢ®áĢ¸": 5884, "Ã¡o": 5885, "ĠáŀľáŁī": 5886, "à»Ģàº¡àº·àºŃàºĩ": 5887, "ĠáŀĢáŁĦáŁĩ": 5888, "áŁĨáŀİáŀ¶áŀħ": 5889, "ud": 5890, "Ġåĩ¯åıĳ": 5891, "Ĺäº¬": 5892, "ace": 5893, "áŁĴáŀĩáŀ¶áŀĶáŁĭ": 5894, "ªà¸ĸ": 5895, "æ°ĳ": 5896, "áĢŀáĢ¶": 5897, "áĢĢáĢ±áĢĶ": 5898, "áĢ±áģĢ": 5899, "ĠáĢķáĢ¯áĢ¶": 5900, "Ġpagkawala": 5901, "Ġkab": 5902, "áŀĶáŁĴáŀļáŀĹ": 5903, "¦Ĥ": 5904, "áŀĬáŀ¾áŀĺ": 5905, "àºĻà»īàºŃàºį": 5906, "áŀ¶áŀļáŀŁ": 5907, "áŁĨáŀ¡": 5908, "áĢĲáĢ½áĢĦáĢºáĢ¸": 5909, "à¸£à¸´": 5910, "Ġà®¨à®¿à®²": 5911, "ĠAM": 5912, "Ġbe": 5913, "alat": 5914, "áŀŁáŁĨáŀģáŀ¶áŀĵáŁĭ": 5915, "ĠlÃłm": 5916, "angga": 5917, "áŀŁáŀļáŀŁ": 5918, "àº¢àº¹à»Ī": 5919, "Ġà¸£à¸µà¸§à¸´à¸": 5920, "Ķà¸±à¸ļà¸": 5921, "áŀĸáŁĴáŀĻ": 5922, "ĠæĪĳ": 5923, "ĠáĢħáĢ¯": 5924, "ĠáŀŁáŁĴáŀıáŁĴáŀļáŀ¸": 5925, "áŀļáŀŁáŁĭ": 5926, "ĿáĢ«": 5927, "áĢľáĢ»áĢ¾": 5928, "iá»ĩu": 5929, "à¹Ģà¸ģà¸´à¸": 5930, "éĿ¢": 5931, "Ġáŀ¢áŀ¶": 5932, "áŁĴáŀĵáŀ¼": 5933, "ĠàºĹà»Īàº²àºĻàº": 5934, "áŀĩáŀ¶áŀĶáŁĭ": 5935, "Ġà®µà¯Ĩà®³": 5936, "go": 5937, "áŀĢáŀ¶áŀļáŀķ": 5938, "àºļà»įà»Īàº": 5939, "ĠDi": 5940, "áĢĢáĢ¼áĢ¬": 5941, "ĠáŀģáŁĴáŀĸáŀŁáŁĭ": 5942, "Ġá»Ł": 5943, "atapos": 5944, "áŀĵáŀĤáŀļáŀĶáŀ¶áŀĽ": 5945, "áŀĩáŀ¶áŀı": 5946, "áŀĢáŀ¶áŀļáŀĳ": 5947, "Ġà¸ªà¸¹à¸": 5948, "¸à¸Ļ": 5949, "»àºĶà»Ŀàº²àºį": 5950, "acial": 5951, "ulong": 5952, "áŀĤáŁĴáŀĺáŀ¶áŀĵ": 5953, "¥¿": 5954, "Ġà®ķà®²": 5955, "áĢ¿": 5956, "ĠáŀĶáŁĴáŀļáŀĢáŀ½áŀı": 5957, "ĠáŀĴáŀĺáŁĴáŀĺ": 5958, "Ġà¹Ģà¸ŀà¸": 5959, "ĠáĢĻáĢ¾": 5960, "àº°àº¡àº»àºĻàºķàºµ": 5961, "áŀĶáŁĭáŀŁ": 5962, "à¹ģà¸«": 5963, "ĠáŀĶáŁĴáŀļáŀľ": 5964, "Ġàº®àº±àºļ": 5965, "à»ĢàºĤàº»àº²": 5966, "áŀĲáŀı": 5967, "ayan": 5968, "Ġà®Ĩà®©": 5969, "ric": 5970, "ç»ı": 5971, "ĠáŀĶáŁĴáŀļáŀĹáŁģáŀĳ": 5972, "ĠáĢĲáĢŃáĢ¯áĤĶ": 5973, "ģáĢĲáĢ¹áĢ": 5974, "ĠáĢľáĢ°áĢŀ": 5975, "áĢļáĢ¹áĢĲ": 5976, "áĢ¯áĢŃáĤķ": 5977, "áĢ¡áĢĳ": 5978, "áŀĶáŁĴáŀļáŀĩáŀ¶áŀĩáŀĵ": 5979, "ĠáŀĸáŀİáŁĮ": 5980, "áĢ´áĢ¸": 5981, "ĠáĢ±áĢģáĢ«áĢĦáĢ¹áĢ¸": 5982, "áĢ¬áĢ¸áĢľáĢ½": 5983, "áĤĬáĢĲáĢ¹áĢ±áĢĲáĢ¬áĢ¹áĢ": 5984, "áĢģáĢ²": 5985, "ĠáŀķáŀĦáŀĬáŁĤáŀļ": 5986, "áŀļáŀĶáŀ½áŀŁ": 5987, "áŀĺáŁĴáŀħáŀ¶áŀŁáŁĭ": 5988, "àº«àº¼àº²àºį": 5989, "ens": 5990, "áŀıáŁģáŀĩáŁĦ": 5991, "áŀ¶áŀĵáŁģáŁĩ": 5992, "¥à¸±à¸ĩà¸": 5993, "ĠáŀĬáŁĦáŀĻáŀŁáŀ¶áŀļáŀ": 5994, "áĢ±áĢĽáĢ¸áĢ¡": 5995, "áĢ¬áĢ¹áĢ»áĢķ": 5996, "áĢĲáĢ½áĢ±áĢ·": 5997, "Ġdalam": 5998, "ĠáŀĢáŁĨáŀĸáŀĦáŁĭ": 5999, "Ġà®¤à®²": 6000, "áŁĦáŀĵ": 6001, "å½©ç¥¨": 6002, "æº": 6003, "áŀ¶áŀĩáŀ¸áŀľáŀĢáŀĺáŁĴáŀĺ": 6004, "Ġwalang": 6005, "áŀ¶áŀĢáŀĬ": 6006, "áŀŁáŀĦáŁĴáŀĤáŀĺ": 6007, "áŀıáŁĴáŀĲáŀĹáŀ¶áŀĸ": 6008, "éľ": 6009, "ĠáĢ±áĢĴáĢ«": 6010, "ĠáĢ±áĢĲáĢ¼áĤķ": 6011, "ĸáĢ¼áĢĦáĢ·áĢº": 6012, "Ġà®ªà®¯": 6013, "ľà¹Īà¸²à¸Ļà¸": 6014, "ĠáŀĶáŁīáŀ»áŀĵ": 6015, "Ġàº«àº¥": 6016, "áŁĴáŀĵáŀ¹áŀĦ": 6017, "áŀĶáŀ»áŀİáŁĴáŀĻ": 6018, "àºļàº±àºĻàºĶ": 6019, "ĠáŁ£áŁł": 6020, "ĠáŀģáŁĴáŀĽáŁĩ": 6021, "Ġ200": 6022, "aya": 6023, "àº¹à»Ī": 6024, "áº¥y": 6025, "áŀĬáŀ¹áŀĢ": 6026, "áŀģáŀİáŁĴáŀĮ": 6027, "Ġparasito": 6028, "Ġ22": 6029, "Ġà¸Ńà¸²à¸": 6030, "Ġor": 6031, "áŀĢáŀ¶áŀļáŀĤ": 6032, "å®ŀ": 6033, "ķà¹Įà¸": 6034, "àºļà»įàº¥àº´": 6035, "ĠáŀĶáŁĨáŀķáŀ»áŀı": 6036, "Ġpags": 6037, "¢à¸±à¸ĩà¸": 6038, "àºģàº³": 6039, "áŁĴáŀļáŀ¶áŀĶ": 6040, "áŀŁáŀĺáŁĴáŀĶ": 6041, "¾Ļ": 6042, "iÃª": 6043, "æıĲ": 6044, "áŀĢáŀĦ": 6045, "ĠáĢ¡áĢ»áĢĻ": 6046, "áĢ±áĢ¸áĢ¡": 6047, "ĠáŀĬáŁĥ": 6048, "Ġhe": 6049, "áŀĺáŁĴáŀļáŁĢáŀĦ": 6050, "ight": 6051, "áŀĶáŁĴáŀļáŀľ": 6052, "Ġnga": 6053, "±à»īàºĻ": 6054, "inas": 6055, "Ġ30": 6056, "ĳáĢ¬áĢ¸áĢĲáĢ²áĢ·": 6057, "áĢĲáĢ¼áĢĢáĢ¹áĢ": 6058, "ĠáĢŀáĢŃáĢĽáĢŀáĢĬáĢ¹": 6059, "áĢ¸áĢĩ": 6060, "ĠáĢļáĢ¬": 6061, "ªà¸Ķ": 6062, "Ġà¹ĥà¸Ļ": 6063, "à¯įà®ªà¯įà®ª": 6064, "áŀĳáŁĴáŀĴáŀĹáŀ¶áŀĸ": 6065, "ĠáĢĻáĢŀáĢŃ": 6066, "ĠÄĳÃ³": 6067, "±áĢĶáĢĲáĢ¬": 6068, "uary": 6069, "ĠáĢĳáĢ¯áĢĲáĢº": 6070, "han": 6071, "à¹Ģà¸£à¸²": 6072, "ate": 6073, "Ġáŀħáŀ¶áŀıáŁĭ": 6074, "à¹ģà¸ķ": 6075, "åķ": 6076, "áŁ¡áŁł": 6077, "ĠáŀĶáŁĴáŀļáŀĻ": 6078, "àº°à»ĢàºĹàºĶàº": 6079, "áŀĩáŀ½áŀĶ": 6080, "áŀ¼áŀļáŀĳ": 6081, "áĢĦáĢ½": 6082, "à¯ģà®ķà®³à¯į": 6083, "à¹ģà¸Ĺ": 6084, "âĢľ": 6085, "Ġáŀĩáŀ¶áŀħáŁĴáŀļáŀ¾áŀĵ": 6086, "ĠáĢ±áĢĲáĢ¼áĤĶ": 6087, "ģáĢ¼áĢĦáĢ¹áĢ·": 6088, "áĢĨáĢĦáĢº": 6089, "áŀŁáŀ·áŀĢáŀĺáŁĴáŀĺ": 6090, "çĲĥ": 6091, "áŀļáŀĬáŁĴáŀĭáŀ¢áŀ¶áŀĺáŁģáŀļáŀ·áŀĢ": 6092, "Ġà»ĢàºĹàºĶ": 6093, "à»īàºĩ": 6094, "´à¸Ļ": 6095, "ĠáĢ±áĢĶáĢĽáĢ¬": 6096, "áĢĻáĢĽ": 6097, "àºģàºŃ": 6098, "áĢĺáĢ¯áĢĽ": 6099, "áŀĦáŁĴáŀĢáŁģáŀı": 6100, "§à¸±à¸Ļà¸Ĺà¸µà¹Ī": 6101, "uti": 6102, "áĢĶáĢ¾áĢĦáĢºáĢ·": 6103, "Ġ....": 6104, "áĢľáĢ¶áĢ¯": 6105, "áĢķáĢ±áĢĻ": 6106, "ĺáĢ°áĢ¸áĢ": 6107, "áĢ±áĢ¸áĢŀ": 6108, "ĠáŀŁáŁģáŀĬáŁĴáŀĭáŀĢáŀ·áŀħáŁĴáŀħ": 6109, "àº«àº§": 6110, "Ġsila": 6111, "·à¸Ńà¸Ļà¸": 6112, "ĠáŀļáŁĨáŀĽ": 6113, "Ġ2017": 6114, "áŀĸáŀ¸áŀļ": 6115, "à»ĤàºŃ": 6116, "ĠáĢŀáĢĬáĢ¹": 6117, "ĠáĢģáĢºáĢħáĢ¹áĢ": 6118, "áĢĽáĢ½áĢĦáĢ¹áĢ¸": 6119, "áĢĻáĢ®áĢ¸áĢ": 6120, "áĤĤ": 6121, "ĠáĢĺáĢļáĢ¹áĢľáĢŃáĢ¯": 6122, "ĠáĢħáĢŃáĢĲáĢº": 6123, "Ġtáº¡i": 6124, "Ġnito": 6125, "áŀĳáŀ¼": 6126, "à¯įà®ļà®¿": 6127, "æ¶": 6128, "ĠáŀĶáŁĴáŀļáŀĺáŀ¶áŀİ": 6129, "ĠâĢĭáŁķ": 6130, "áŁĦáŀĹ": 6131, "Ġ&": 6132, "ĠáĢĶáĢ¶": 6133, "áŀ¼áŀĩ": 6134, "à¸Ļà¸±à¹īà¸Ļà¸": 6135, "áŀļáŀ¾áŀŁ": 6136, "àºĶàºĸ": 6137, "ĠáŀĽáŁĦáŀĢáŀŁáŁĴáŀļáŀ¸": 6138, "ĠáŀĬáŁĤáŀĽáŀĶáŀ¶áŀĵ": 6139, "±áĢľáĢ¬áĢĢáĢ¹áĢ": 6140, "áĢģáĢ»áĢ¯áĢķáĢº": 6141, "àº»à»Īàº²àºĻàº": 6142, "åįļ": 6143, "áŀĶáŁĴáŀĶáŀ¶áŀĻ": 6144, "ĠThe": 6145, "Ġà®µà¯Ģ": 6146, "áŀļáŀ¶áŀĽáŁĭ": 6147, "Ġáģģáģħ": 6148, "áŀĻáŀĽáŁĭ": 6149, "ĆĈ": 6150, "åħĥ": 6151, "áĢĻáģ»": 6152, "áĢķáĢ«áĢķáĢ²": 6153, "ĠáĢģáĢĽáĢ®áĢ¸áĢ": 6154, "ļà¸²à¸Ħà¸²à¸£à¹Īà¸²": 6155, "tip": 6156, "Ġ24": 6157, "Ġáŀĳáŀ·áŀī": 6158, "áŁģáŀŁáŁĬáŀ¸": 6159, "Ĺà¸µà¹Īà¸¡à¸µà¸": 6160, "365": 6161, "ä»£": 6162, "áŀıáŁĴáŀĬ": 6163, "ast": 6164, "à¯įà®¸": 6165, "ĠáŀĻáŁĦáŀĦ": 6166, "ĠáŀħáŁĨáŀİáŀ»áŀħ": 6167, "Ġáŀ¢áŀıáŀ¸áŀı": 6168, "ahan": 6169, "Ġàºªàº°àº«": 6170, "áŀĸáŁĲáŀĵáŁĴáŀĴáŀ": 6171, "àº®àº¹à»ī": 6172, "¡áĢħ": 6173, "áŀĤáŀ»áŀİ": 6174, "Ġcáº£": 6175, "ĠáŀĶáŀ»áŀĤáŁĴáŀĤáŀĽ": 6176, "Ġä¸Ģ": 6177, "âĢĮ": 6178, "áŁĢáŀĢ": 6179, "áŀĳáŀ¶áŀıáŁĭ": 6180, "ĠáĢľáĢŃáĢ¯áĤĶ": 6181, "áĢĳáĢ²áĢĻáĢ½áĢ¬": 6182, "áģ¸": 6183, "áĤıáĤĪáĢĶáĢ¹áĢ¸": 6184, "áĢĶáĢ¹áĢ¸áĢĻáĢ¬": 6185, "áĢģáĢ²áĢ·áĢŀáĢĬáĢº": 6186, "áŀĩáŀ¶áŀĢáŀ¶áŀļáŀ": 6187, "Ľà»Īàº½": 6188, "áŀĢáŁĴáŀĽ": 6189, "à¹ĥà¸Ļà¹Ģà¸": 6190, "áŀĶáŀĵáŁĴáŀĳáŀ¶áŀĶáŁĭ": 6191, "awan": 6192, "àºŀàº´": 6193, "âĢĭâĢĭâĢĭâĢĭâĢĭâĢĭâĢĭâĢĭâĢĭâĢĭâĢĭâĢĭâĢĭâĢĭâĢĭâĢĭâĢĭâĢĭâĢĭâĢĭâĢĭâĢĭâĢĭâĢĭâĢĭâĢĭâĢĭâĢĭâĢĭâĢĭâĢĭâĢĭâĢĭâĢĭâĢĭâĢĭâĢĭâĢĭâĢĭâĢĭâĢĭâĢĭâĢĭâĢĭâĢĭâĢĭâĢĭâĢĭâĢĭâĢĭâĢĭâĢĭâĢĭâĢĭâĢĭâĢĭâĢĭâĢĭâĢĭâĢĭâĢĭâĢĭâĢĭâĢĭâĢĭâĢĭâĢĭâĢĭâĢĭâĢĭâĢĭâĢĭâĢĭâĢĭâĢĭâĢĭâĢĭâĢĭâĢĭâĢĭâĢĭâĢĭâĢĭâĢĭâĢĭâĢĭâĢĭâĢĭâĢĭâĢĭâĢĭâĢĭâĢĭâĢĭâĢĭâĢĭâĢĭâĢĭâĢĭâĢĭâĢĭâĢĭâĢĭâĢĭâĢĭâĢĭâĢĭâĢĭâĢĭâĢĭâĢĭâĢĭâĢĭâĢĭâĢĭâĢĭâĢĭâĢĭâĢĭâĢĭâĢĭâĢĭâĢĭâĢĭâĢĭâĢĭâĢĭâĢĭâĢĭâĢĭâĢĭâĢĭâĢĭâĢĭâĢĭâĢĭâĢĭâĢĭâĢĭâĢĭâĢĭâĢĭâĢĭâĢĭâĢĭâĢĭâĢĭâĢĭâĢĭâĢĭâĢĭâĢĭâĢĭâĢĭâĢĭâĢĭâĢĭâĢĭâĢĭâĢĭâĢĭâĢĭâĢĭâĢĭâĢĭâĢĭâĢĭâĢĭâĢĭâĢĭâĢĭâĢĭâĢĭâĢĭâĢĭâĢĭâĢĭâĢĭâĢĭâĢĭâĢĭâĢĭâĢĭâĢĭâĢĭâĢĭâĢĭâĢĭâĢĭâĢĭâĢĭâĢĭâĢĭâĢĭâĢĭâĢĭâĢĭâĢĭâĢĭâĢĭâĢĭâĢĭâĢĭâĢĭâĢĭâĢĭâĢĭâĢĭâĢĭâĢĭâĢĭâĢĭâĢĭâĢĭâĢĭâĢĭâĢĭâĢĭâĢĭâĢĭâĢĭâĢĭâĢĭâĢĭâĢĭâĢĭâĢĭâĢĭâĢĭâĢĭâĢĭâĢĭâĢĭâĢĭâĢĭâĢĭâĢĭâĢĭâĢĭâĢĭâĢĭâĢĭâĢĭâĢĭâĢĭâĢĭâĢĭâĢĭâĢĭâĢĭâĢĭâĢĭâĢĭâĢĭâĢĭâĢĭ": 6194, "áŁĤáŀĵáŀ¶áŁĨ": 6195, "áŀ¶áŀŁáŁĴáŀļáŁĴáŀı": 6196, "å½ķ": 6197, "ff": 6198, "áŁĦáŀĴáŀ·": 6199, "áŀļáŀĶáŀŁáŁĭáŀģáŁĴáŀĽáŀ½áŀĵ": 6200, "Ġåľ¨": 6201, "ĠâĢĭÂ»": 6202, "ĠáŀĢáŁĴáŀĽ": 6203, "à¯Īà®ķà®³à¯į": 6204, "asa": 6205, "àºĩàº²àºĻàº": 6206, "Ġáŀ¢áŀ¶áŀŁ": 6207, "Ķà¸±à¸ļ": 6208, "áŁĴáŀļáŀĢáŀ½áŀı": 6209, "own": 6210, "kam": 6211, "áŀĵáŀ¶áŀľ": 6212, "ĵà¸ĳ": 6213, "áŁĴáŀļáŀ¹áŀĦ": 6214, "áŀĸáŀ·áŀĹáŀĸáŀĽáŁĦáŀĢ": 6215, "Ĥà¸²à¸¢à¸": 6216, "ªà¸²à¸¡à¸²à¸£à¸ĸ": 6217, "Ġdá»¥": 6218, "àº¸àºĻàº": 6219, "áŀĳáŁĴáŀĴ": 6220, "áŀĳáŁĨáŀĸáŁĲ": 6221, "ĠáĢŀáĢ°áĢĲáĢŃáĢ¯áĢ·": 6222, "Ġàº¥àº²àºį": 6223, "áŀ±áŀĢáŀ¶áŀŁ": 6224, "ĠáŀĨáŁĴáŀĽáŀĦ": 6225, "à»ĢàºĻàºµ": 6226, "áĢĽáĢŃáĢ½": 6227, "áĢķáĢ«áĢ¡": 6228, "«à¸¡": 6229, "Ġaraw": 6230, "ħáĢ¬": 6231, "à®¨": 6232, "à¹Ģà¸ŀà¸": 6233, "áĢĶáĢ²": 6234, "ĠáĢ¡áĢĺ": 6235, "Ħàº·": 6236, "ĠâĢ¦.": 6237, "áĢ¡áĢľ": 6238, "ĠáŀĢáŀ¶áŀĵáŁĭáŀıáŁĤ": 6239, "áŁĨáŀĶáŀĦ": 6240, "áŀļáŀĻáŁĪáŀĸáŁģáŀĽ": 6241, "ĠáĢķáĢº": 6242, "áĢĲáĢļáĢ¹áĢľáĢŃáĢ¯áĤĶ": 6243, "ģáĢĶáĢ¹áĢ¸": 6244, "ĠáĢ¡áĢĲáĢ¼áĢĢáĢ¹": 6245, "áĢķáĢ»": 6246, "Ĥà¹īà¸Ńà¸¡à¸¹à¸": 6247, "à¯ģà®´": 6248, "áŀĬáŁĤáŀĽáŀĶáŀ¶áŀĵ": 6249, "Ġàºªàºµ": 6250, "ction": 6251, "ĠàºĪàº²àºģ": 6252, "áĢħáĢŃáĢĲáĢ¹áĢ": 6253, "ĳáĢ¬áĢ¸": 6254, "áĢģáĢºáĢ¬": 6255, "áĢĻáĢ¬áĢĶ": 6256, "áĢĳáĢ¯áĢĲáĢº": 6257, "lang": 6258, "àº²àºĹàº´": 6259, "áº±": 6260, "à¸Ńà¸Ńà¸ģ": 6261, "Ġàºŀà»īàºŃàº¡": 6262, "Ġáŀ¢áŀıáŁĭ": 6263, "áŀĴáŁĴáŀĻ": 6264, "àºĪàº²àºģàº": 6265, "áŁĴáŀĽáŁģáŀŁ": 6266, "¾å®¶": 6267, "äºĭ": 6268, "áĢµ": 6269, "ĠáĢŀáĢĻáģ¼áĢĲ": 6270, "ĠáĢ±áĢĻáĢ¬áĢĦáĢ¹áĢ": 6271, "ĠáĢ¡áĢĻáĢ»áĢŃáĢ¯áĢ¸áĢ": 6272, "out": 6273, "Ġum": 6274, "áĢ¹áĢĻ": 6275, "áĢ®áĢ¸áĢĶ": 6276, "Ġà¸ĭà¸¶à¹Īà¸ĩà¸": 6277, "áŀŁáŁĴáŀ¢áŀ¶áŀı": 6278, "Ġáŀıáŀ¶áŀĺáŀļáŀĻáŁĪ": 6279, "ld": 6280, "áŁĦáŀħ": 6281, "Ġà®ĵ": 6282, "à»Ģàº®àº»àº²àº": 6283, "ĠáŀĢáŀīáŁĴáŀīáŀ¶": 6284, "áŁĨáŀĳ": 6285, "áŀŁáŁĴáŀĬ": 6286, "åĪ©": 6287, "áŀĽáŁĴáŀĺáŀ¾áŀŁ": 6288, "Ġà»ģàº«": 6289, "Ġmawala": 6290, "à»ĪàºŃàºĻàº": 6291, "Ġiba": 6292, "ue": 6293, "à¹ģà¸¥à¹īà¸§à¸": 6294, "áŀĵáŁĴáŀĽáŁģ": 6295, "áŀıáŁģáŀĻáŁĴáŀĻ": 6296, "ite": 6297, "bodia": 6298, "ĠáŀĶáŀİáŁĴáŀĬ": 6299, "à®¿à®¯à®¾à®ķ": 6300, "áŀĶáŁĤáŀĶ": 6301, "Ġà¸§à¸´à¹Ģà¸Ħà¸£à¸²à¸°à¸«": 6302, "à¹Īà¸Ńà¸": 6303, "áĢģáĢ²áĢ·áĢĲáĢ²áĢ·": 6304, "ķáĢ«áĢĺáĢ°áĢ¸": 6305, "ĠáĢŀáĢŃáĢ¯áĢ·": 6306, "µà¹Īà¸¢à¸§à¸": 6307, "Ġáŀļáŀ¶áŀĽáŁĭ": 6308, "ĠáŀĨáŁĴáŀĽáŀ¾áŀĻ": 6309, "ĠUnivers": 6310, "áŁĴáŀıáŀ·áŁį": 6311, "áŀ¶áŀĶáŁĲáŀĵ": 6312, "Ġmer": 6313, "ĠáŀĶáŀīáŁĴáŀĩ": 6314, "Ġwith": 6315, "áŀĤáŀ¼": 6316, "ev": 6317, "Ġáŀļáŀ·": 6318, "ĠáŀĴáŁĴáŀľáŀ¾áŀĢáŀ¶áŀļ": 6319, "à»Ģà»ľ": 6320, "Ġ2020": 6321, "áŀ¶áŀĶáŁĴáŀļáŀ": 6322, "Ġà¹ģ": 6323, "Ġà®®à®±à¯įà®±à¯ģà®®à¯į": 6324, "áŀ¢áŀ¶áŀŁ": 6325, "Ġà¸«à¸£à¸·à¸Ń": 6326, "Ġsáº½": 6327, "Ġï¼Ī": 6328, "Ġthis": 6329, "áŀļáŀ½áŀħ": 6330, "áŀĶáŁīáŀ»áŀİáŁĴáŀİáŁĦáŁĩ": 6331, "Ġbah": 6332, "·áŀĻáŀ¶áŀĽáŁĲáŀĻ": 6333, "ĠáŀĳáŁĴáŀļáŀĦáŁĭ": 6334, "ĠáŀĩáŁĨáŀĵáŀ¶áŀī": 6335, "à¹Ģà¸Ľ": 6336, "àºķà»ī": 6337, "ĠáŀĤáŁĴáŀļáŀ¶áŀĵáŁĭ": 6338, "áŁĨáŀĵáŀ·áŀı": 6339, "ªáŀĸáŀ»áŀĢ": 6340, "ure": 6341, "áŁĤáŀļáŀĢ": 6342, "áŀĦáŁĭáŀĤ": 6343, "à¹ģà¸ķà¹Īà¸": 6344, "àºªàº°àº«": 6345, "uha": 6346, "áŀ¶áŀĳáŀ·áŀıáŁĴáŀĻ": 6347, "Ġàº«àº§àº½àºĶàºĻàº²àº¡": 6348, "ĠâĢĭ.": 6349, "Ġàº¡àº±àºĻ": 6350, "Ġyour": 6351, "áŀıáŀĶ": 6352, "ªà¸Ļà¸": 6353, "áŀĤáŁĴáŀļáŀ¼": 6354, "à»Īàº²àºĩàºģàº²àºį": 6355, "wang": 6356, "ĠáŀĻáŀ»áŀľáŀĩáŀĵ": 6357, "ĠáŀĩáŀĵáŀŁáŀĦáŁĴáŀŁáŁĲáŀĻ": 6358, "ĠÂ«âĢĭ": 6359, "áŁĨáŀĸáŀ¶áŀĢáŁĭ": 6360, "áŀĺáŁĴáŀıáŀĦ": 6361, "ĠáĢ±áĢ¡áĢ¬áĢĦáĢ¹áĢ": 6362, "áĢŃáĢ³áĢĦáĢ¹áĢ": 6363, "áĢĶáĢħáĢº": 6364, "®àº¹à»ī": 6365, "áŀĵáŁħáŀĽáŀ¾": 6366, "µÃ": 6367, "Äĥn": 6368, "©à¸±à¸": 6369, "áŀ¶áŀŁáŁĬáŀ¸áŀĵ": 6370, "ĠáŀŁáŀĺáŀ¶áŀĩáŀ·áŀĢ": 6371, "ĠáŀŁáŀĢáŀĺáŁĴáŀĺáŀĹáŀ¶áŀĸ": 6372, "áĢ½áĢ±áĢĢáĢŃáĢ¯": 6373, "áĢ¸áĢĻáĤĪ": 6374, "áĢ¡áĢħáĢŃáĢ¯áĢ¸áĢĽ": 6375, "áŀĢáŁĤ": 6376, "ĠáĢ±áĢĦáĢ¼": 6377, "ĠáĢ¡áĢľáĢ½": 6378, "ķà¹Īà¸²à¸ĩ": 6379, "áŀ¶áŀļáŀĩ": 6380, "è¿Ļ": 6381, "Ġà»ĢàºĦàº·à»ĪàºŃ": 6382, "Ġàº¡àº²àºĶàºķ": 6383, "àº»àºĩàºģàº²àºĻàº": 6384, "ĠáŀŁáŁĨáŀģáŀ¶áŀĵáŁĭ": 6385, "àº¡à»ī": 6386, "ĠHindi": 6387, "ĠáŀŁáŀĦáŁĴáŀĤáŁĴáŀļáŁĦáŁĩ": 6388, "ĠáŀľáŀıáŁĴáŀı": 6389, "ĠáŀıáŁĴáŀļáŀ¸": 6390, "áŁĴáŀļáŀ¹áŀıáŁĴáŀı": 6391, "ĠàºĽàº°àºĬ": 6392, "áŀķáŁĴáŀĵáŁĤáŀĢ": 6393, "ĠnhÃł": 6394, "àºĻàº´": 6395, "áĢķáĢ«áĢĢ": 6396, "las": 6397, "áŀģáŁĴáŀĽáŁĩ": 6398, "Ġà¸Ĥà¸": 6399, "áŀĢáŀ»áŀĦ": 6400, "áŀĺáŁīáŀ¼áŀıáŀ¼": 6401, "áŀĺáŁĴáŀļáŀ¼áŀľ": 6402, "ĹáĢº": 6403, "ĠáĢĨáĢĢáĢº": 6404, "àºĶàº¥": 6405, "à¸£à¸²à¸Ĭà¸": 6406, "àº¶à»Īàºĩàº": 6407, "Ĭà¸´à¸": 6408, "ous": 6409, "asyon": 6410, "Ġáŀĸáŀ¶áŀĢáŁĭáŀĸáŁĲáŀĵáŁĴáŀĴ": 6411, "áŀĶáŁĴáŀļáŁĤ": 6412, "áĢĨáĢĽáĢ¬": 6413, "å±ķ": 6414, "áĢ°áĢ¸áĢŀ": 6415, "Ã²ng": 6416, "ĠáŁ¢áŁ¥": 6417, "ĠáŀĶáŁīáŀ»áŀİáŁĴáŀİáŁĦáŁĩ": 6418, "à¹Ĥà¸£à¸ĩà¹ģà¸£à¸¡": 6419, "ä»¶": 6420, "ĠáŀĢáŀ¶áŀļáŀħ": 6421, "áĢ¡áĢ¯áĢķáĢ¹áĢ": 6422, "áĢĻáĢºáĢ¸áĢ¡": 6423, "Ľà¹ĩà¸Ļà¹Ģà¸": 6424, "áŀĶáŀ¶áŀĳ": 6425, "áŀĢáŁĴáŀļáŀĺ": 6426, "áŀ¶áŀļáŀĶ": 6427, "ill": 6428, "Ġáŀ¢áŀĵáŀ»áŀľáŀıáŁĴáŀı": 6429, "áŀĢáŁĴáŀı": 6430, "Ġ..áģĭ": 6431, "áĢĻáĢ¼áĢĦáĢº": 6432, "à¯ĭà®¤à¯ģ": 6433, "ĠmÃł": 6434, "áŀĶáŁĴáŀļáŀĻáŁĦáŀĩáŀĵáŁį": 6435, "àºĻà»įàº²": 6436, "èĬ": 6437, "áŀıáŀ¶áŀļ": 6438, "àº»à»Īàº²": 6439, "à¸Ļà¸³": 6440, "áŀ»áŁĨáŀľáŀ·áŀī": 6441, "Ġkaya": 6442, "àº±àºĩàºª": 6443, "áŀľáŁī": 6444, "Ġbum": 6445, "Ķà¹īà¸²à¸Ļà¸": 6446, "ĠáŀĶáŀİáŁĴáŀıáŀ¶áŀĽ": 6447, "ĠáŀĬáŀ¼áŀħáŀĩáŀ¶": 6448, "áĢĻáĢ¾áĢĶáĢº": 6449, "à¯Īà®¨à¯įà®¤": 6450, "å®ļ": 6451, "áŁĤáŀĦáŀļáŀĢ": 6452, "à»ĦàºĬ": 6453, "Ġpero": 6454, "ks": 6455, "à¸£à¸§à¸¡à¸": 6456, "ĠcÅ©ng": 6457, "áŀĩáŀīáŁĴáŀĩáŀ¼áŀĵ": 6458, "áŁĴáŀļáŀ¡áŀĶáŁĭ": 6459, "àºģà»į": 6460, "pek": 6461, "áŀĢáŁĴáŀĺáŁģáŀĦ": 6462, "book": 6463, "ĠáŀŁáŀ·áŀĢáŁĴáŀŁáŀ¶": 6464, "ĠáŀĶáŁĦáŁĩ": 6465, "ĠáŀĪáŀ¾": 6466, "kol": 6467, "Ġ255": 6468, "áŁĨáŀĵáŁħ": 6469, "à¸µà¹Īà¸¢à¸": 6470, "áĢ±áĢĲáĢ¼áĤķ": 6471, "áĤĳ": 6472, "áĢ±áĢ¸áĢľ": 6473, "áŀĵáŁĴáŀĲáŀĻ": 6474, "åħ¥": 6475, "idak": 6476, "áŀĨáŁĴáŀĽáŀĦ": 6477, "ĠAl": 6478, "Ġà®İà®´": 6479, "Ġà¸ŀà¸£": 6480, "áĢ¸áĢĲáĢļáĢ¹": 6481, "áĢŁáĢ¯áĢĲáĢ¹": 6482, "áĢĽáĢ¾áĢĦáĢº": 6483, "±à¹Īà¸ĩà¸": 6484, "ĠáŀĢáŁĴáŀĽáŀ¶áŀĻ": 6485, "ĠÄĳá»ĭ": 6486, "Ġbulate": 6487, "ice": 6488, "ķàº»àºĻ": 6489, "à¯Īà®¯à¯Ī": 6490, "ĠPa": 6491, "áŀ»áŀĺáŁĴáŀĹáŁĪ": 6492, "áŀļáŀľ": 6493, "áĢĹáĢºáĢ¬": 6494, "ĢáĢ¬": 6495, "ĠáĢľáĢ¯áĢķáĢ¹áĢĦáĢĶáĢ¹áĢ¸": 6496, "áĢŀáĢ°áĢ±áĢĲáĢ¼": 6497, "áĢĦáĢºáĢ¸áĢľ": 6498, "Ġfacial": 6499, "Ġgina": 6500, "áŀĺáŀĵáŁĴáŀĳáŀ¸": 6501, "áŀĶáŁĴáŀļáŀ¹áŀĢáŁĴáŀŁ": 6502, "áŀĦáŁĭáŀĤáŁĴáŀĽáŁģáŀŁ": 6503, "à¸Ńà¸±à¸": 6504, "à»ĥàº«àºįà»Ī": 6505, "è¿ĩ": 6506, "áĢĶáĢ¹áĢ±áĢĲáĢ¬áĢ¹áĢ": 6507, "áĢĬáĢºáĢ¸áĢ": 6508, "ĠáŀĤáŁĴáŀļáŀ¼": 6509, "áŀĤáŀ½áŀļáŀ": 6510, "à¹Ģà¸Ńà¸ĩ": 6511, "àºĻàº¶": 6512, "Ġno": 6513, "Ġà®īà®Ł": 6514, "àºģàº±àºĻ": 6515, "áŁĦáŀĤáŀĩáŁĲáŀĻ": 6516, "áŀŁáŁģáŀĬáŁĴáŀĭáŀĢáŀ·áŀħáŁĴáŀħ": 6517, "áŀĳáŁģáŀŁáŀħáŀļáŀİáŁį": 6518, "ķà¸±à¹īà¸ĩ": 6519, "ĠáĢĻáĢ®áĢ¸áĢ": 6520, "áŀĦáŁĴáŀ¢": 6521, "ĶáĢļáĢ¹": 6522, "áĤıáģ²": 6523, "ĠáĢĺáĢļáĢº": 6524, "àº°àº§": 6525, "áĢļáĢ±áĢ¬áĢĢáĢº": 6526, "ĠáŀŁáŀ¸áŀł": 6527, "ĠáŀŁáŀ»áŀģáŀĹáŀ¶áŀĸ": 6528, "Ġà®µà®¿à®Ł": 6529, "ĠáĢ±áĢ»áĢģ": 6530, "áĢŀáĢ¬áĢ¸áĢħáĢ¯": 6531, "ĠáŀļáŀĦáŁĴáŀŁáŁĬáŀ¸": 6532, "Ġáŀĸáŀ»áŁĨ": 6533, "įà¸²à¸": 6534, "±áĢķáĢ¸": 6535, "áĢ¾áĢĦáĢº": 6536, "ĠáŀĶáŀħáŁĴáŀħáŁģáŀĢ": 6537, "ĠáŀĶáŁĬ": 6538, "áº«": 6539, "àº½àºĩàº": 6540, "ĠáŀħáŁħ": 6541, "å±±": 6542, "áŁĴáŀļáŀľ": 6543, "áŀĺáŀ¶áŀĵáŀĩáŁĲáŀĻ": 6544, "áŀĦáŁĴáŀļáŀ¹áŀĦ": 6545, "Ġngay": 6546, "ĠMyanmar": 6547, "áĢŃáĢ¯áĢ¸áĢŀ": 6548, "Ĭà¸Ļà¸": 6549, "ĠáŀŁáŁģáŀħáŀĢáŁĴáŀĬáŀ¸": 6550, "áŀļáŁĢáŀĦ": 6551, "áŀĩáŀĺ": 6552, "à®¤à®¿": 6553, "áŀŁáŁĴáŀŁáŁĬáŀ¸": 6554, "áĢ½áĢ¬áĢ¸áĢĽ": 6555, "Ġdari": 6556, "áŀķáŁĴáŀĳáŀ¶áŀĽáŁĭ": 6557, "åĬ¡": 6558, "Ġáŀĳáŀ¼": 6559, "à»Ģàº«àº±àºĻàº": 6560, "akit": 6561, "Ľà¸¥à¸²": 6562, "ŀà¸±à¸": 6563, "Ġmali": 6564, "Ġáŀİáŀ¶áŀŁáŁĭ": 6565, "Ġà®¨à®¿à®±": 6566, "áŁĴáŀļáŀħ": 6567, "Ĥà¸²à¸¢": 6568, "èĲ": 6569, "Ġpr": 6570, "áŀŁáŀīáŁĴáŀī": 6571, "ĳáĢ²áĢĻáĢ½áĢ¬": 6572, "áĢŃáĢķ": 6573, "ģà¸£à¸£à¸¡à¸": 6574, "áĢķáĢŃáĢ¯": 6575, "áŀĸáŁĴáŀļáŀ¹áŀĢ": 6576, "£Â¬": 6577, "ĠvÃło": 6578, "Ġàºŀàº£": 6579, "ĠàºĿ": 6580, "áŀĳáŁĥ": 6581, "à»īàºŃàºĻàº": 6582, "áĢĶáĢ¹áĢ¸áĢĢ": 6583, "áĢĲáĢĶáĢ¬": 6584, "áĢĨáĢ¯áĢ¶": 6585, "AL": 6586, "Ġsaan": 6587, "à¹Ģà¸Ĥ": 6588, "áĢħáģ¥áĢĬáĢ¹áĢ¸": 6589, "ĠáĢĲáĢĽáĢ¬áĢ¸áĢ": 6590, "áŀħáŁħ": 6591, "áŀĢáŀļáŀİáŀ¸": 6592, "Ġà®µà¯ĩà®£à¯įà®Łà¯ģà®®à¯į": 6593, "áŀ¢áŀĵáŁĴáŀıáŀļáŀĩáŀ¶áŀıáŀ·": 6594, "áŀĶáŁĴáŀĶáŀĴáŀĺáŁĮ": 6595, "éĥ½": 6596, "ĠáĢĩáĢ¬áĢĲáĢ¹áĢ": 6597, "áĢĦáĢ¹áĢ±áĢĲáĢ¼": 6598, "áĢ±áĢŀáĢĬáĢº": 6599, "tis": 6600, "Ġilalim": 6601, "áŀĤáŀ¸": 6602, "Ġà¸ªà¸³à¸«": 6603, "áŀ¶áŀĺáŀ¶áŀĵ": 6604, "Ġà»ģàº¡à»ĪàºĻàº": 6605, "ļà¸£à¸´à¸©à¸±à¸": 6606, "ct": 6607, "ave": 6608, "acebook": 6609, "ĠáŀĬáŀĦ": 6610, "Ġkasi": 6611, "ard": 6612, "Ġà®¸": 6613, "áĢģáĢĦáĢ¹áĢ¸": 6614, "áĢºáĢ¬áĢĢáĢ¹áĢ": 6615, "áĢ¡áĢ¬áĢ¸áĢľ": 6616, "Ġà¸ĭ": 6617, "ĠáŀļáŀŁáŁĭáŀĵáŁħ": 6618, "áŁĴáŀļáŀ¶": 6619, "áŁĨáŀłáŁĨ": 6620, "ģà¸´à¸Īà¸": 6621, "ĻáĢºáĢ¬áĢ¸áĢĢáĢŃáĢ¯": 6622, "ľáĢ²": 6623, "ĠSt": 6624, "±áĢĢáĢ¬áĢĢáĢ¹áĢ": 6625, "áĢĢáĢ¯": 6626, "Ġbit": 6627, "áŀĵáŀ¶áŀĳáŀ¸": 6628, "çĽŁ": 6629, "±áĢĳáĢ¬áĢĦáĢ¹áĢħáĢ¯": 6630, "áĢĦáĢŃáĢĻáĢ¹áĢ¸áĢģáĢºáĢĻáĢ¹áĢ¸": 6631, "áĢĢáĢ°": 6632, "ins": 6633, "ĠáŀĺáŁĤáŀĵ": 6634, "à¸Ńà¸ģ": 6635, "Ġ(âĢĭ": 6636, "ĠáŀĶáŀīáŁĴáŀĩáŀ¼áŀĵ": 6637, "åĨĮ": 6638, "Ġáŀĳáŀ¶áŀĵáŁĭ": 6639, "åĽ½éĻħ": 6640, "áŀ·áŀļáŀīáŁĴáŀīáŀľáŀıáŁĴáŀĲáŀ»": 6641, "à¹īà¸¡à¸": 6642, "Ġà®ķà®¾à®²": 6643, "àº·àºŃàºĩàº": 6644, "äº§": 6645, "áŀĢáŁĴáŀĽáŀ¶áŀĻ": 6646, "ĠáĢĲáĢħáĢ¹áĢģáĢ¯": 6647, "ĠáĢ»áĢĸáĢħáĢ¹": 6648, "áĢģáĢ²áĢ·áĢĽ": 6649, "ma": 6650, "Ġà¹Ģà¸§à¹ĩà¸ļà¸": 6651, "Ķà¹Į": 6652, "áŀĩáŀ¶áŀ¢áŁĴáŀĵáŀĢ": 6653, "áŀ·áŀģáŀ·áŀı": 6654, "ģàº§": 6655, "ĠáĢŀáĢĺáĢ¬": 6656, "å»º": 6657, "áĢĻáĢ¹áĢ¸áĢĨ": 6658, "¥áĢ®áĢ¸": 6659, "ĲáĢ¼áĢĦáĢ¹áĢ¸": 6660, "áĢĿáĢº": 6661, "ĠáĤıáĢ½áĢĦáĢ¹áĢ·": 6662, "ĠáĢĺáĢ¯áĢĽáĢ¬áĢ¸áĢŀ": 6663, "ĠáĢ¡áĢ²áĢĴáĢ«": 6664, "áĢ³áĢŃáĤķ": 6665, "áĢ¬áĢ¸áĢŀáĢĬáĢº": 6666, "ĠáŁ¢áŁłáŁ¡áŁ§": 6667, "áŀłáŁĴáŀĤ": 6668, "¥à¸±à¸": 6669, "ĠhÃłng": 6670, "Ġpresyo": 6671, "Ġpagbaba": 6672, "Ġà»ģàºķà»Īàº": 6673, "Ġparasites": 6674, "Ġme": 6675, "ero": 6676, "åĽ¾": 6677, "à¸Ńà¸±à¸Ļà¸": 6678, "áŀ¶áŀĵáŁħ": 6679, "à®¸à¯į": 6680, "ĠàºĪàº³": 6681, "if": 6682, "Ġtalaga": 6683, "Ġbalat": 6684, "Ġisa": 6685, "ĠáŀĶáŁĴáŀļáŀ»áŀŁ": 6686, "ĠáŀĢáŀ¸áŀ¡áŀ¶áŀĢáŀļ": 6687, "à¹Ĩà¸": 6688, "«à¸§à¸": 6689, "å®¢": 6690, "àº»à»Īàºĩàº": 6691, "áŁģáŀ¸": 6692, "áŀĵáŁĦáŁĩáŀĳáŁģ": 6693, "Ġà¹ģà¸Īà¸ģ": 6694, "à¹Īà¸²à¸§": 6695, "ĠtrÃªn": 6696, "ult": 6697, "ĠáŀŁáŀıáŁĴáŀľ": 6698, "Ġà®ªà®°": 6699, "æĬ¥": 6700, "Ġàºķàº²àº¡": 6701, "ĠàºĦàº°àºĻàº°": 6702, "àº±àºļàºĽ": 6703, "áŀĲáŁĥ": 6704, "ĠáŁ¡áŁ¨": 6705, "áŀĸáŀ·áŀĴáŀ¸": 6706, "áŀĶáŀ»áŀļáŀŁ": 6707, "ĠáŀĶáŀĢáŁĴáŀŁ": 6708, "à¸Ńà¸Ńà¸Ļà¹Ħà¸¥à¸Ļà¹Įà¸": 6709, "¢à¸±à¸ĩ": 6710, "à»ģàºľàºĻàº": 6711, "ĠáŀĶáŀ¸": 6712, "ind": 6713, "è®¡åĪĴ": 6714, "«àº²": 6715, "Ġáŀħáŀ¶áŁĨ": 6716, "Ġæµ": 6717, "à®¾à®³à¯į": 6718, "åĲį": 6719, "ayo": 6720, "Ħàº¸à»īàº¡àºĦ": 6721, "áŀļáŀĸáŁģáŀĳáŁĴáŀĻ": 6722, "áŀģáŀ¶áŀı": 6723, "à¹Ħà¸Ķà¹īà¸£à¸±à¸ļà¸": 6724, "àº·à»īàºĻ": 6725, "áŀ¹áŀĶ": 6726, "áŁĲáŀļ": 6727, "à¯ģà®ªà¯į": 6728, "Ġkanilang": 6729, "Ĺàº²àºĻ": 6730, "à»ģàºĽ": 6731, "áŁĴáŀļáŀ¾áŀŁáŀļáŀ¾áŀŁ": 6732, "áŀ¢áŀ¶áŀľáŀ»": 6733, "áŀ¶áŀĻáŀŁ": 6734, "±áĢĶáģ¾áĢĢ": 6735, "áĢĳáĢ±áĢ¬áĢĦáĢº": 6736, "Ġnhiá»ģu": 6737, "ĠáŀĺáŁĴáŀĬ": 6738, "áŀĳáŀŁáŁĴáŀŁáŀĵ": 6739, "æľŁ": 6740, "ĠáŀŁáŁĴáŀĬ": 6741, "Ġáŀĩáŀ¸áŀľáŀ·áŀı": 6742, "à®ŀà¯įà®ļ": 6743, "áŀŁáŁĢáŀĺáŀļáŀ¶áŀĶ": 6744, "áŀĶáŀ»áŀĢ": 6745, "ģáĢ»áĢ¯áĢķáĢº": 6746, "à¹īà¸ĩ": 6747, "áŀĤáŁĴáŀļáŀ¶áŀĵáŁĭ": 6748, "àºķàº´": 6749, "ĠáŀĸáŁĴáŀļáŀ¹": 6750, "áĢĽáĢŃáĢŀ": 6751, "·à¸Ńà¸ĩ": 6752, "Ġtidak": 6753, "áĤĪáĢķáĢ¹áĢ": 6754, "áĢ¬áĢ¸áĢĻáĢ»": 6755, "ear": 6756, "Ġtung": 6757, "ĠáŀĶáŀĦ": 6758, "ĠáŀĳáŀŁáŁĴáŀŁáŀĵ": 6759, "áŀĢáŁĴáŀļáŁħ": 6760, "ĠçļĦ": 6761, "à®°à¯ģà®®à¯į": 6762, "àºĩàº²àºĻ": 6763, "ĠáŀĹáŁĴáŀīáŁĢáŀľ": 6764, "load": 6765, "ĠáŀħáŁĤáŀĢ": 6766, "per": 6767, "áŀŁáŁĴáŀĤáŀ¶áŀĽáŁĭ": 6768, "à¸Ńà¸¸à¸": 6769, "áŀŁáŀıáŁĴáŀľ": 6770, "Ġwh": 6771, "Ġbilang": 6772, "à®¿à®ķà¯į": 6773, "Ġà»ģàºĤàº§àºĩ": 6774, "Ġàºļàº±àºĻàºĶ": 6775, "Ġà¸ľà¸¹à¹īà¸": 6776, "Ġláº¡i": 6777, "áŀĤáŁĴáŀļ": 6778, "Ġàºģàº±àºĻ": 6779, "ĠàºŁ": 6780, "æģ": 6781, "ĠáŀĴáŁĴáŀĽáŀ¶áŀĶáŁĭ": 6782, "à»Į": 6783, "áĢĲáĢĢáĢ¬": 6784, "Ġáŀ¢áŁĨáŀĸáŀ¾": 6785, "áŀĺáŀ½áŀĻáŀħáŁĨáŀĵáŀ½áŀĵ": 6786, "ĠáĢ¹": 6787, "áģ¾áĢĢáĢ¬áĢ¸": 6788, "áĢĲáĢ½áĢ±áĢĢ": 6789, "áĢĻáĢŁáĢ¯áĢĲáĢ¹áĢ": 6790, "¡áĢĲáĢ¼áĢĦáĢ¹áĢ¸": 6791, "ĻáĢºáĢ¬áĢ¸áĢ": 6792, "ĠáĢĲáĢķáĢ¹áĢĻ": 6793, "áĢĻáĢ®": 6794, "à¸²à¸ģà¸": 6795, "áŀħáŁĤáŀĢ": 6796, "áŀ·áŀīáŁĴáŀħáŀ¹áŀĺ": 6797, "áŁĨáŀ¡áŀ»áŀĦ": 6798, "¸à¸Ļà¸": 6799, "si": 6800, "åħ³": 6801, "à®¿à®¯à¯ģà®®à¯į": 6802, "áŀ¢áŁĬ": 6803, "¢à¸´à¸ĩà¸": 6804, "uga": 6805, "ªà¸´à¸Ļà¸Ħà¹īà¸²": 6806, "áĢ±áĢķáĢ¸": 6807, "ģáĢºáĢ³áĢķáĢ¹": 6808, "ģáĢ¶áĢĽ": 6809, "«à¸§à¸±à¸": 6810, "áŀŁáŀĦáŁĴáŀĥ": 6811, "ĠáĢķáĢĲáĢ¹áĢŀ": 6812, "ĠáĢĶáĢ¬": 6813, "Ãło": 6814, "áŀĽáŁĤáŀĦ": 6815, "ªà¹Įà¸": 6816, "áĢ±áĢ»áĢķ": 6817, "line": 6818, "áĢĢáĢ±áĢĽ": 6819, "áĢ¡áĢĢáĢº": 6820, "áŀĽáŀ»áŀĻ": 6821, "Ġç»": 6822, "ĠáŀĶáŁĴáŀļáŀĴáŀ¶áŀĵáŀ¶áŀĴáŀ·áŀĶáŀıáŀ¸": 6823, "áŁĴáŀĸáŀ¶áŀĵ": 6824, "ĠáĢĢáĢľ": 6825, "áŀĬáŁĨáŀĶáŀĦ": 6826, "ĸà¸¹à¸ģ": 6827, "ĠáŀĬáŀ¹áŀĢáŀĵáŀ¶áŁĨ": 6828, "ĠJul": 6829, "áŁĴáŀĹ": 6830, "àº±àºļàºªàº´àºĻàºĤàºŃàºĩàº": 6831, "Ħà»īàº²": 6832, "Ġà®ļà®®": 6833, "àº°àºŀàº²": 6834, "à¹Ħà¸£à¸": 6835, "áŀļáŁĢáŀĶáŀħáŁĨ": 6836, "áĢĻáģ¼": 6837, "áĢ¯áĢ¶áĢ¸áĢķáĢ¼áĢ¯": 6838, "Ġå¼": 6839, "áŀģáŁĴáŀĽ": 6840, "àº°àºķàº´": 6841, "ĠàºĹàº³": 6842, "áŀĶáŀİáŁĴáŀıáŀ¶áŀĽ": 6843, "Ġàº¥àº±àºĶàºĸ": 6844, "à»Ģàºĩàº´àºĻ": 6845, "Ġà¹Ģà¸¥à¹Īà¸Ļà¸": 6846, "Ġ21": 6847, "Ġpantip": 6848, "ĺà¸¸": 6849, "áŀİáŀ¸": 6850, "åĳĺ": 6851, "àºĹàº»àºļ": 6852, "Ķà¸³": 6853, "áŀĢáŀ¶áŀĻ": 6854, "à®ķà¯įà®ķà¯ģ": 6855, "áŀ¢áŀ¶áŀĵ": 6856, "ĠáŀŁáŀĺáŁĴáŀĽáŀ¶áŀĶáŁĭ": 6857, "ĠáŀĶáŁĦáŁĩáŀĨáŁĴáŀĵáŁĦáŀı": 6858, "ĠáŀĨáŁĴáŀĵáŀ¶áŁĨáŁ¢áŁłáŁ¡áŁ¨": 6859, "áŁĴáŀļáŀ½áŀŁáŀ¶áŀļáŀ": 6860, "Ġà»ĢàºĤàº»à»īàº²": 6861, "áŁĨáŀİáŀ¾áŀı": 6862, "Ġbat": 6863, "Ġàºģà»Īàº²àº§": 6864, "áº·t": 6865, "ĶáĢ¾áĢĦáĢ·áĢº": 6866, "rt": 6867, "à¸Ļà¸µà¸": 6868, "Ġáŀĸáŀ·áŀĵáŀ·áŀıáŁĴáŀĻ": 6869, "à»įà»īàº¡": 6870, "áŀĢáŀ¶áŀļáŀĦáŀ¶áŀļ": 6871, "áŀ»áŀĺáŀ¶áŀļ": 6872, "Ġà®¨à®¾à®©à¯į": 6873, "é¾Ļ": 6874, "áŀ¶áŀĩáŀ¶áŀıáŀ·": 6875, "Ġà®¤à®©": 6876, "ĠáŀĤáŁĴáŀļáŀ¶áŀĶáŁĭ": 6877, "å¾Ĺ": 6878, "à»ģàº«à»ĪàºĩàºĬàº²àºĶ": 6879, "ĠáŀĢáŁĨáŀİáŀıáŁĭ": 6880, "Ġex": 6881, "win": 6882, "àº½àº¡": 6883, "áŀĮáŀ¸": 6884, "Ġtum": 6885, "ĠáŀŁáŀĺáŁĴáŀĶ": 6886, "ĠáŀĬáŁĨáŀĶáŀ¼áŀĦ": 6887, "à¹Ĥà¸¢à¸": 6888, "áģĢáĢĦáĢ¹": 6889, "áĢķáĢ°": 6890, "àº¹àºĩ": 6891, "áŁĴáŀĢáŀ¶áŀıáŁĭ": 6892, "áĢ»áĢķáĢ®": 6893, "áĢģáĢ¶áĢĽ": 6894, "áŁĦáŀĴáŀ¶": 6895, "áŀĻáŀĶáŁĭ": 6896, "Ìģ": 6897, "áº¥p": 6898, "Ġà»ĤàºĦ": 6899, "à¸²à¸£à¸²à¸": 6900, "Ġàºªàº²": 6901, "áŀĶáŁĴáŀļáŀ¶áŀĶáŁĭ": 6902, "Ġà®ħà®¤à®¿à®ķ": 6903, "à»ĪàºŃàºĩ": 6904, "ĠáĢķáĢ«áĢĲáĢ®": 6905, "áĢĻáĢ¬áĢĶáĢŃáĢ¯áĢĦáĢºáĢĦáĢ¶": 6906, "áĢ¸áĢ¸": 6907, "áĢ±áĢĶáĢ¬áĢ¹": 6908, "ĠáĢŀáĢ°áĢĢ": 6909, "áŀ¶áŀĸáŁģáŀĽ": 6910, "ĠRep": 6911, "áĢķáĢŃáĢ¯áĢĦáĢºáĢ¸áĢ": 6912, "à»Ģàºĸàº´àºĩ": 6913, "ªà¹Īà¸ĩà¸": 6914, "ish": 6915, "ĠáŀĶáŀ¶áŀĵáŀĴáŁĴáŀľáŀ¾": 6916, "iz": 6917, "usay": 6918, "ĠãĢĳ": 6919, "Ġä¸į": 6920, "ĠáŀĳáŁĨáŀĸáŁĲ": 6921, "ĠáŀģáŁĴáŀĽ": 6922, "Ġkatawan": 6923, "ĠKhmer": 6924, "áŀĺáŁĴáŀļáŀ¾": 6925, "ĠáŀľáŁģáŀĽ": 6926, "TO": 6927, "Ġáŀ±": 6928, "áŁĴáŀļáŀ½áŀıáŀĸáŀ·áŀĵáŀ·áŀıáŁĴáŀĻ": 6929, "à¹Īà¸¡à¹Ģà¸": 6930, "ilangan": 6931, "áŀķáŁĴáŀŁáŀ¶áŀļ": 6932, "à»Ģàº¥àº·àºŃ": 6933, "ç¬": 6934, "áŀ·áŀĵáŁĴáŀĳ": 6935, "áŀ§áŀĶ": 6936, "Ħà¸§": 6937, "áŁĲáŀıáŁĴáŀĵ": 6938, "áŀħáŁģáŀīáŀĸáŀ¸": 6939, "iá»ĩc": 6940, "àº²àº¥àº°": 6941, "áĢĶáĢ¹áĢħ": 6942, "±áĢĴ": 6943, "ĠáģĤáģĢáģĢ": 6944, "ontent": 6945, "Ġáŀľáŀ·áŀĴáŀ¸": 6946, "à®¾à®¤à¯ģ": 6947, "ĠáŀļáŀĽ": 6948, "Ĺà¹Į": 6949, "ĠáŀĶáŀĦáŁĭ": 6950, "pada": 6951, "áĢħáĢ¼áĢ¬": 6952, "áĢĢáĢ¼áĢĬáĢº": 6953, "áŀĽáŁģáŀĦ": 6954, "Ġà»Ģàºļ": 6955, "ĵà¸°à¸": 6956, "æľ¬": 6957, "à¯ģà®ķà¯įà®ķà¯ģà®®à¯į": 6958, "Ġpagt": 6959, "ĠàºŃàº²": 6960, "áŀŁáŁĴáŀŁáŀĵáŁį": 6961, "àºļà»į": 6962, "áĢ½áĢºáĢ¬áĢĢáĢ¹áĢ": 6963, "áĢĲáĢĦáĢ¹": 6964, "áĢĦáĢ«": 6965, "Ġvar": 6966, "à»Ģàº®àº»": 6967, "áĢĢáĢ²áĢ·": 6968, "áŀĺáŀĢáŀļáŀ¶": 6969, "àºĻàº±à»īàºĻàº": 6970, "áŀħáŀĽ": 6971, "Ġà®Ĩà®ķ": 6972, "Ġáŀ¢áŁģ": 6973, "áĢĻáĢ¹áĢĺáĢ¬": 6974, "à¹īà¸Ńà¹Ģà¸": 6975, "ki": 6976, "áŀ¶áŀĤáŀĺ": 6977, "ĠáŀĪáŁĴáŀĵáŁĩ": 6978, "Ġà¸Ķà¸¹": 6979, "ĠáŀģáŁĤáŀŁáŀ¸áŀł": 6980, "à¸£à¸ĸà¸": 6981, "éĹ´": 6982, "Łáŀ¶áŀĵáŁĴáŀı": 6983, "àº¸àºĩ": 6984, "ood": 6985, "nan": 6986, "àº²àºĬàº»àºĻ": 6987, "ĠáŀĶáŁĬáŀ»áŀĵ": 6988, "áŀľáŀ¶áŀĻ": 6989, "áº»": 6990, "Ġà»Ģàº¡àº·à»ĪàºŃ": 6991, "áŀĢáŀ¶áŀļáŀĽ": 6992, "áŀĢáŀ¶áŀļáŀı": 6993, "Ġà¹Ģà¸Ħà¸£à¸·à¹Īà¸Ńà¸ĩà¸": 6994, "ĠáŀļáŁĢáŀĵ": 6995, "ym": 6996, "à¸Ńà¸²à¸«à¸²à¸£": 6997, "ve": 6998, "Ġáŀĺáŀ·áŀĵáŀĺáŁĤáŀĵ": 6999, "Ġáŀĳáŀĳáŀ½áŀĽáŀĶáŀ¶áŀĵ": 7000, "àºĦàº»àºĻàº": 7001, "ras": 7002, "ĠáĢħáĢ®áĢĻ": 7003, "áĢ±áĢĲáĢ¬áĢĦáĢ¹": 7004, "áĢ°áĢ¸áĢħ": 7005, "à¸µà¸Ļ": 7006, "à®¾à®¯à¯į": 7007, "Ġare": 7008, "ĠTag": 7009, "áŀĹáŁħ": 7010, "ªà¸³à¸«à¸£à¸±à¸ļ": 7011, "áŀĶáŀ¶áŀħáŁĭ": 7012, "åħ¬åı¸": 7013, "Ġà®ķà®Łà¯įà®Ł": 7014, "±áĢķáĢ«áĢ·": 7015, "áĢĲáĢŃáĢ¯áĤķ": 7016, "ĠáĢļáĢĦáĢ¹áĢ¸": 7017, "Ġ''": 7018, "ĠáĢŀáĢĲ": 7019, "Ĥà¸¶à¹īà¸Ļà¸": 7020, "ĠÄĳáº§u": 7021, "áŀĩáŀ¸": 7022, "áŀ¶áŀĴáŀ·áŀĶáŀıáŁģáŀĻáŁĴáŀĻ": 7023, "ĠáŀŁáŀļáŀ»áŀĶ": 7024, "ĠáĢĲáĢĽáĢ¯áĢĲáĢº": 7025, "áŀĶáŁĴáŀļáŀĸáŁĲáŀĵáŁĴáŀĴáŀ": 7026, "Ġáŀĵáŀ¶áŀĻ": 7027, "àº·àºļ": 7028, "áŀļáŀ¶áŀĩáŀĴáŀ¶áŀĵáŀ¸": 7029, "áŀıáŀ·áŀħ": 7030, "áĢĿáĢĦáĢ¹": 7031, "ĠáĢľáĢĬáĢ¹áĢ¸": 7032, "ĠáĢĨáĢĢáĢ¹áĢ": 7033, "ĠáĢĽáĢĶáĢ¹áĢĢáĢ¯áĢĶáĢ¹": 7034, "áĢķáĢ¹áĢĲ": 7035, "ľáĢŃáĢ¯": 7036, "áĢ¬áĢ¸áĢĶáĢ¾áĢĦáĢ·áĢº": 7037, "agitan": 7038, "Īàº±àºĶàºķàº±à»īàºĩàº": 7039, "ç´": 7040, "ĠàºĹàº±àºĩ": 7041, "áŀ¾áŀĵáŀ¡áŀ¾áŀĦ": 7042, "ĠàºĦàº³": 7043, "ĠáŀļáŁĢáŀĽ": 7044, "ĠáŀıáŁģ": 7045, "ĠáŀĢáŀĺáŁĴáŀĺáŀĢáŀļ": 7046, "Ġáŀĵáŀ¶áŀĳáŀ¸": 7047, "à»Ħàº§à»ī": 7048, "ĠáŀĽáŁĴáŀĦáŀ¶áŀħ": 7049, "ĠáŀļáŀĶáŀ½áŀŁ": 7050, "ĠCambodia": 7051, "áŁĴáŀļáŀ¶áŀĺ": 7052, "¥à¸·à¸Ńà¸ģà¸": 7053, "éĩĮ": 7054, "ink": 7055, "Ġpagpapalaki": 7056, "ĠKa": 7057, "à»Ģàºĸàº´àºĩàº": 7058, "Ġà®ļà¯Ĭà®²à¯įà®²": 7059, "Ġà¹Ģà¸Ľ": 7060, "à¹Ģà¸£à¸µà¸¢à¸Ļ": 7061, "à®¤à¯Ī": 7062, "áŀĲáŁĴáŀĽáŁĤáŀĦ": 7063, "alan": 7064, "áŀĬáŀ¼áŀħáŀĩáŀ¶": 7065, "áŀĢáŀ¶áŀļáŀĬáŁĴáŀĭáŀ¶áŀĵ": 7066, "ĸáŀŁáŁĭ": 7067, "áŀĶáŁĴáŀıáŀ¶áŀłáŁį": 7068, "ĠnÃ³": 7069, "¥à¹ĩà¸Ńà¸ķà¸": 7070, "Ġà¸Ĺà¸³": 7071, "áŀħáŁĦáŀĽ": 7072, "à»ĢàºĤàº»à»īàº²àº": 7073, "áŀ·áŀĩáŀĵ": 7074, "Ġalis": 7075, "ĠáŀĶáŀ¶áŀļáŀ¶áŁĨáŀĦ": 7076, "uro": 7077, "à®¾à®±à¯įà®±": 7078, "à¸£à¸§à¸Īà¸": 7079, "áŁĴáŀĺáŀ½áŀī": 7080, "áŀľáŀ·áŀĳáŁĴáŀĻáŀ¶": 7081, "áŀľáŀ¶": 7082, "Ġàº¥àº±àºļ": 7083, "àº¥àº²àº§": 7084, "ĻáĢ°": 7085, "áĢĻáģ¸": 7086, "ĠáĤıáĢ½": 7087, "áģ¾áĢĢáĢķáĢ«áĢĲáĢļáĢ¹": 7088, "ĠáģıáģĬ": 7089, "ĠáĢ¡áģ¾áĢĢ": 7090, "áĢĲáĢ¬áĢĢ": 7091, "áĢĤáĢº": 7092, "Ġà»Ģàº®àº»àº²": 7093, "àºŃàºĶàº": 7094, "áŀĤáŀİáŁĪ": 7095, "áŀ¼áŀļáŁīáŁģ": 7096, "Ġlo": 7097, "ĠáŀĢáŁĴáŀĶ": 7098, "ĠáģģáģĪ": 7099, "ĠKH": 7100, "áŀĺáŁĴáŀĸ": 7101, "à¹Ĥà¸£à¸Ħà¸": 7102, "áŀĸáŁģáŀĳáŁĴáŀĻ": 7103, "áŀ¶áŀłáŀ¶áŀĵ": 7104, "ĠáĤĢáĢĢ": 7105, "áĢ¸áĢŀáĢ°": 7106, "ļà¸¸à¸": 7107, "áĢ±áĢĶáĢĲáĢ²áĢ·": 7108, "ĠáĢĲáĢĬáĢ¹áĢ": 7109, "áĢĲáĢŃáĢ¯": 7110, "àº¥àº±àºļ": 7111, "ĠáŀķáŁĴáŀ¢": 7112, "áŀĬáŀĦ": 7113, "à¯įà®¨": 7114, "±à¹īà¸Ļà¸": 7115, "Ġpagkatapos": 7116, "áŀ»áŀĳáŁĴáŀĴáŀŁ": 7117, "áŀ¶áŀĶáŀ¶áŀĵ": 7118, "æŃ£": 7119, "Ġitu": 7120, "áĢĢáĢ±áĢĽáĢħáĢ®": 7121, "áĢ·áĢľáĢ¬": 7122, "ĠáĢģáĢ²áĢ·": 7123, "ĠáĢ¡áĢ®": 7124, "Ġkum": 7125, "à¹īà¸³à¸": 7126, "à®µà¯ģ": 7127, "ĠáŀŁáŀĺáŁĴáŀĬáŁģáŀħ": 7128, "ĠáŀŁáŀ¼": 7129, "ĠUniversity": 7130, "áŀŁáŀ¶áŀĢ": 7131, "Ħà¹Į": 7132, "áĢħáĢ¬áĢ¸áĢŀ": 7133, "áŀĽáŁĴáŀĶáŁĪ": 7134, "à¹ĥà¸«à¹īà¹Ģà¸": 7135, "Ġà»Ģàº«": 7136, "dagan": 7137, "ĠáŀŁáŁĴáŀļáŀĶ": 7138, "ļà»įà»Ī": 7139, "ĠáŀĶáŁĴáŀļáŀłáŁĤáŀĽ": 7140, "Ġpamamagitan": 7141, "çŃī": 7142, "áĢ¹áĢĢ": 7143, "ww": 7144, "ĠáĢħáĢ®": 7145, "¡à¸´à¸": 7146, "à»ģàºķà»Ī": 7147, "áŀħáŁĨáŀİáŀ»áŀħ": 7148, "ĠáŁ¢áŁłáŁł": 7149, "ĠáŀĽáŀ»áŀĻ": 7150, "Ġáŀĳáŀ¼áŀļáŀŁáŁĲáŀĸáŁĴáŀĳ": 7151, "áº£o": 7152, "ĠáĢħáĢ¬áĢ¸áĢ": 7153, "áĢ¯áĢĶáĢ¹áĢ¸áĢĢ": 7154, "ŀáĢ¼áĢļáĢ¹áĢ": 7155, "ŀáĢ¬áĢ¸": 7156, "ĠáŀĨáŁĴáŀĵáŀ¶áŁĨáŁ¢áŁłáŁ¡áŁ©": 7157, "áŀļáŀ¼": 7158, "áĢ¥áĢķ": 7159, "à®Łà¯ģ": 7160, "ĠáĢ¡áĢĽáĢ¬": 7161, "çłģ": 7162, "Ġlum": 7163, "áŀıáŀ¼áŀħ": 7164, "Ġà®ķà¯Ĥà®±": 7165, "Ġà»ĥàºĬà»ī": 7166, "à¹ĥà¸ª": 7167, "ç©": 7168, "ua": 7169, "Ġà¹Ĥà¸Ķà¸¢": 7170, "ĠáŁ¡áŁ¡": 7171, "áŀŁáŁĤáŀĵ": 7172, "ĠàºªàºĽ": 7173, "à»ľà»īàº²": 7174, "áĢ¡áĢħáĢĬáĢ¹áĢ¸": 7175, "ĠáĢĻáĢ¼áĢĶáĢºáĢĻáĢ¬áĢĶáĢŃáĢ¯áĢĦáĢºáĢĦáĢ¶": 7176, "ĠáĢĲáĢ½áĢ±áĢ·": 7177, "áŀŁáŀĵáŁĴáŀı": 7178, "áŀĶáŀīáŁĴáŀĩáŀ¶áŀĢáŁĭáŀĲáŀ¶": 7179, "áŀ²áŁĴáŀĻáŀĬáŀ¹áŀĦáŀĲáŀ¶": 7180, "áŁĴáŀīáŀ¶áŀĢáŁĭ": 7181, "áŀļáŀĦáŁĴáŀľáŀ¶áŀĵáŁĭ": 7182, "¢à¸§": 7183, "áŀĺáŁīáŁĦáŀĦ": 7184, "à»Ĥàº®": 7185, "Ġac": 7186, "Ġmaliit": 7187, "ĠáĢĲáĢ²áĢ·": 7188, "ĠáĢ±áĢĽáĢ¼áĢ¸áĢ": 7189, "áģĢáĢĶáĢ¹áĢ": 7190, "********": 7191, "ĠáĢľáĢŃáĢ¯áĢĢáĢ¹áĢ": 7192, "ĠáĢ±áĢĶáĤĶ": 7193, "áĢľáĢŃáĢ¯áĤķ": 7194, "áĢķáĢŃáĢ¯áĢĦáĢ¹áĢ¸": 7195, "áĢĻáĢ²áĢ·": 7196, "áĢķáĢ¼áĢ®": 7197, "gawa": 7198, "áĢĢáĢ¹áĢĻáĤĪ": 7199, "áĢ¬áĢ¸áĢĻáĢ½": 7200, "Ġwww": 7201, "áĢŃáĢ¯áĢ¸áĢħ": 7202, "àº¡àº²": 7203, "à¹Īà¸²à¸ªà¸¸à¸Ķ": 7204, "¨à¸±à¸": 7205, "áŀ»áŀĳáŁĴáŀļ": 7206, "Ġà®µà®¾à®´": 7207, "áĢĦáĢĶáĢº": 7208, "à®¿à®²à¯ģà®®à¯į": 7209, "ĠáŁłáŁłáŁł": 7210, "ĠáŀĽáŁģáŀĦ": 7211, "ĠáŀĤáŀİáŁĪáŀĢáŀĺáŁĴáŀĺ": 7212, "Ľàº°": 7213, "EM": 7214, "ĠâĢĭ-âĢĭ": 7215, "ĠáŀĢáŁĴáŀĵáŀ»áŀĦáŀĵáŁĦáŁĩ": 7216, "áŁĴáŀļáŀ¡áŀ¶áŀīáŁĭ": 7217, "æµ·": 7218, "ge": 7219, "áŀĸáŀ·": 7220, "ĶáĢ¬": 7221, "Ġcream": 7222, "Ġngayon": 7223, "ĠáŀĻáŁī": 7224, "áĢ¸áĢĳ": 7225, "Ġ23": 7226, "à¸´à¹Ģà¸¨à¸": 7227, "áŀĺáŁĴáŀļáŀĦáŁĭ": 7228, "ĠgiÃ¡": 7229, "¶à¸ĩà¸": 7230, "±áĢĢáĢºáĢ¬áĢ¹áĢ": 7231, "áĢ¼áĢ¸": 7232, "áĢ±áĢģáĢº": 7233, "ĠáĢĶáĢ²áĢ·": 7234, "áĢĶáĢ¹áĢĴ": 7235, "à»Ħàº¥àºį": 7236, "áŀıáŁĤáŀĦ": 7237, "ahah": 7238, "Ġtungkol": 7239, "áŀ¼áŀ¡": 7240, "áĢĢáĢŃáĢ¯áĢļáĢº": 7241, "çĿ": 7242, "à»Ģàºľ": 7243, "à¯ģà®³à¯įà®³à®¤à¯ģ": 7244, "á»ĩ": 7245, "áŀ·áŀŁáŁĦ": 7246, "ownload": 7247, "abang": 7248, "Ġsem": 7249, "áģ¾áĢĢáĢŀáĢĬáĢ¹": 7250, "ĠáĢķáĢ°áĢ¸áĢ": 7251, "Ħà¹Įà¸": 7252, "àºĩàºģàº²àºĻàº": 7253, "áĢľáĢ¬áĢ¸áĢ": 7254, "áĢķáĢºáĢĻ": 7255, "áŀ¶áŀŁáŀĵáŀ¶": 7256, "àº°àºŀàº±àºĻà»ģàº¡à»Īàºį": 7257, "µàºļ": 7258, "»áĢĸáĢĲáĢ¹áĢ": 7259, "áĢķáĢĦáĢ¹": 7260, "áĢĨáĢ¯áĢ¶áĢ¸": 7261, "áŀ¢áŀĴáŀ·": 7262, "ĠáŀļáŁĢáŀĶ": 7263, "Ľàº»àºģàº": 7264, "ĠáŀĻáŀĵáŁĴáŀı": 7265, "áº¹": 7266, "áĢĢáĢ¹áĢĢáĢŃáĢ¯": 7267, "áĢĢáĢ¯áĢĶáĢ¹áĢ": 7268, "áĢĢáĢºáĢĽ": 7269, "Ġàºªà»īàº²àºĩ": 7270, "à¸Ļà¹īà¸³": 7271, "ĠáŀĺáŀĢáŀļáŀ¶": 7272, "ĠáŀĶáŀ»áŀĢ": 7273, "à»īàº²àº§": 7274, "Ġáŀĩáŀ¸": 7275, "Ġthat": 7276, "áŀľáŀ·áŀĽ": 7277, "áĢ±áĢ»áĢķáĢ¬áĢĦáĢ¹áĢ¸": 7278, "ĠáĢĽáĢĶáĢº": 7279, "à®¤à¯įà®¤à®¿à®©à¯į": 7280, "æ³¨åĨĮ": 7281, "æ°´": 7282, "áŀļáŀ¶áŀĦ": 7283, "áĢĿáĢĶáĢ¹áĢ": 7284, "áĢĻáģ¸áĢıáĢ®": 7285, "áĤıáĢŃáĢ¯áĢĦáĢ¹": 7286, "áĢŀáĢĶáĢ¬": 7287, "ÃĲ": 7288, "Ġchá»ī": 7289, "áĢĲáĢħáĢºáĢģáĢ¯": 7290, "àºĽàº°àºª": 7291, "ŀà¸·à¹īà¸Ļà¸": 7292, "ĠAno": 7293, "oto": 7294, "áŀĳáŀ¼áŀı": 7295, "áŀĬáŁĨáŀĶáŀ¼áŀĦ": 7296, "àº°àº«àºį": 7297, "ľàº°àº¥": 7298, "ideo": 7299, "all": 7300, "å¤ĸ": 7301, "Ġmaaaring": 7302, "Ġà»Ĥàº®": 7303, "áŀĤáŁģáŀħ": 7304, "Ġà¸Ķà¸¹à¸": 7305, "à¹Ĥà¸Ńà¸": 7306, "ĠáŀķáŁĤáŀĵ": 7307, "à»Ĥàºį": 7308, "à»Ģàºªàºį": 7309, "ĠáĢĽáĢĶáĢ¹áĢĢáĢ¯áĢĶáĢ¹áĢ": 7310, "ĠáĢĢáĢºáĢĻ": 7311, "áĢĸáĢ°áĢ¸áĢ": 7312, "ħáĢ®áĢ¸áĢ": 7313, "ĠáŀĶáŁĴáŀļáŀĸáŁĲáŀĵáŁĴáŀĴ": 7314, "ĠáĢŀáĢ°áĢ·": 7315, "ĠáŀģáŁĴáŀŁáŁĤ": 7316, "Ġà®īà®£": 7317, "ĠáĢŀáĢĲáĢ¹áĢ": 7318, "áĢĳáĢ¯áĢĲáĢ¹áĢ": 7319, "ĠáĢĻáĢ²": 7320, "ĠPre": 7321, "áŀĳáŀ¼áŀļáŀŁáŁĲáŀĸáŁĴáŀĳ": 7322, "Ġà¸£à¸µà¸§à¸´à¸§": 7323, "à¹Ģà¸Ń": 7324, "ĠáĢ¥áĢķáĢ±áĢĴ": 7325, "áĢ¼áĢ¸áĢ±áĤıáĢ¼áĢ¸áĢ": 7326, "áĢ±áĢĢáĢºáĢ¬áĢĦáĢ¹áĢ¸": 7327, "áĢ±áĢģáģļ": 7328, "áĢ¡áĢķáĢº": 7329, "áŀĢáŀ¶áŀĵáŁĭáŀıáŁĤ": 7330, "çľĭ": 7331, "ukan": 7332, "Ġ50": 7333, "à¸£à¸µà¹Ģà¸": 7334, "įà¸²": 7335, "àº±à»ĪàºĻ": 7336, "ÃĬ": 7337, "Ġnháº¥t": 7338, "«à¸ķà¸": 7339, "áŀĭ": 7340, "ĠáŀŁáŀ·áŀŁáŁĴáŀŁ": 7341, "Ġáŀıáŀ¼áŀħ": 7342, "à»ĢàºĬàº·à»ĪàºŃ": 7343, "Ġáŀħáŀ¶áŀĵáŁĭ": 7344, "áŁĦáŀĦáŀħ": 7345, "áŀ»áŁĨáŀĸ": 7346, "åº¦": 7347, "áŀ¶áŀľáŀĵáŀ¶áŀľ": 7348, "áŀ¶áŀļáŀ¢": 7349, "amina": 7350, "ĠMag": 7351, "ĠáŀĢáŀ¶áŀļáŀ¢": 7352, "à¯Ĩà®¯": 7353, "Ġàº§àº±àºĻ": 7354, "ĠIs": 7355, "áĢľáĢ¯áĢ¶": 7356, "Ġ)áŁĶ": 7357, "Ħà¹īà¸²à¸": 7358, "à»ĢàºĤàºĶ": 7359, "«à¸¡à¸Ķ": 7360, "áĢħáĢ¥áĢ¹": 7361, "áĢĦáĢ¹áĢķ": 7362, "âĢ¦âĢ¦": 7363, "áĢ¡áĢĲ": 7364, "Ġà¸ªà¸Ķ": 7365, "à¹Ĥà¸Ķà¸¢": 7366, "ulad": 7367, "àº²àºģàº»": 7368, "ľáĢĻáĢ¹áĢ¸": 7369, "ĠáĢĽáĢĢáĢºáĢĶáĢ±áĢ·": 7370, "à®°à¯Ī": 7371, "Ġà»Ģàºĸàº´àºĩ": 7372, "alik": 7373, "æĬĢ": 7374, "áŁĴáŀļáŀĬ": 7375, "áĢľáĢ½áĢºáĢĦáĢ¹": 7376, "áĢŃáĢ³áĢ¸": 7377, "áĢĦáĢ¹áĢĲáĢ¬": 7378, "áĢ±áĢŀáĢ¸áĢ": 7379, "ŁáĢ¬áĢĦáĢ¹áĢ¸": 7380, "áĢĲáĢ²áĢ·áĢ¡áĢģáĢ«": 7381, "áĢĦáĢºáĢ¸áĢħ": 7382, "çĦ": 7383, "Ġbá»ĭ": 7384, "áŀŁáŁģáŀĵáŀ¸áŀĻáŁį": 7385, "ªà¸¡": 7386, "áŀŁáŀĢáŀĺáŁĴáŀĺáŀĹáŀ¶áŀĸ": 7387, "Ġpala": 7388, "à¯ģà®ķà®¿à®±": 7389, "áĢ¬áĢ¸áĢŀáĢ°": 7390, "uat": 7391, "áŀĶáŁĴáŀļáŀħáŀ¶áŁĨ": 7392, "àºĹàº°àºį": 7393, "áĢľáĢ±áĢ¬áĢĢáĢº": 7394, "áŀĶáŁĴáŀĬ": 7395, "Ħà¹īà¸²": 7396, "áĢħáĢ¬áĢ¸áĢĽ": 7397, "à¸Ļà¸²": 7398, "áŀıáŀ·áŀĲ": 7399, "áŀºáŀĺáŁī": 7400, "Ġdito": 7401, "à®¾à®ľ": 7402, "ĶáĢŃáĢ¯áĢĦáĢº": 7403, "éĢļ": 7404, "àºĶà»īàº²àºĻàº": 7405, "Ġà®®à®ķà¯įà®ķ": 7406, "Ġlaban": 7407, "áŀĶáŀĬáŁĦáŀĻ": 7408, "áŀĲáŁĴáŀĦáŁĥáŀĳáŀ¸áŁ¡áŁ": 7409, "ĠáŀģáŁĤáŀĢáŀĢáŁĴáŀĢáŀĬáŀ¶": 7410, "áŀ¶áŀķáŁĴáŀĳ": 7411, "Ġà¸Ħà¸²à¸ªà¸´à¹Ĥà¸Ļ": 7412, "Ġ08": 7413, "à¹Ħà¸Łà¸": 7414, "ĤáŀĽáŁĭ": 7415, "ĠáŀĤáŀ¶áŁĨáŀĳáŁĴáŀļ": 7416, "áŀĽáŀ¶áŀŁáŁĭ": 7417, "ĠáĢ¡áĢŀáĢĢáĢ¹": 7418, "áĢĢáĢ¹áĤıáĢ½áĢ¬": 7419, "ĠáĢ±áĢ»áĢķáĢ¬áĢĦáĢ¹áĢ¸": 7420, "áĢĢáĢ±áĢ¬áĢĦáĢºáĢ¸áĢ": 7421, "áŀħáŁĴáŀĶáŀ¶áŀŁáŁĭ": 7422, "àº°à»ģ": 7423, "«à¹ĩà¸Ļà¸": 7424, "EN": 7425, "Ġ),": 7426, "áŀħáŀ¶áŀıáŁĭ": 7427, "ĠáŀłáŁĴáŀĤ": 7428, "ĠAt": 7429, "ming": 7430, "Ġà®Ĭ": 7431, "ĠáĢ¥áĢ®áĢ¸": 7432, "áĢ»áĢĸáĢħáĢ¹áĢŀáĢĬáĢ¹": 7433, "ĠáĢĢáĢ¼áĢº": 7434, "áĢľáĢ¯áĢ¶áĢ¸áĢ": 7435, "ģà¸¤à¸": 7436, "Ġgum": 7437, "Ġáŀĺáŀĵ": 7438, "ĠJuly": 7439, "áŀĵáŀ¶áŀĤ": 7440, "gi": 7441, "áĢĽáĢķáĢ«áĢĲáĢļáĢ¹": 7442, "áĢ±áĢĲáĢ¼áĤĶ": 7443, "Ġáģģáģĥ": 7444, "áŀħáŀĺ": 7445, "Ġáģ¾": 7446, "ĠáĢĢáĢºáĢĶáĢ¹áĢ¸áĢĻáĢ¬": 7447, "ĠáĢ¡áĢħáĢ®": 7448, "æ¬¾": 7449, "Ġáŀĸáŀ·": 7450, "Ġà®¹": 7451, "ä¿Ŀ": 7452, "Ġáŀ¢áŀĴáŀ·": 7453, "à¹Ģà¸£à¸·à¹Īà¸Ńà¸ĩà¸": 7454, "Ġhave": 7455, "áŀĦáŁĴáŀģ": 7456, "ĠÄĳá»ĵ": 7457, "áŀ¶áŀļáŁĪ": 7458, "ĠAg": 7459, "áŁĨáŀķáŁĴáŀĽ": 7460, "Ĺàº³": 7461, "áĢıáĢ¬": 7462, "ĠáŀĲáŁĤáŀĺ": 7463, "áĢ¸áĢĽáĢ¼áĢ¬": 7464, "ĠáĢĢáĢ¯áĢĶáĢ¹áĢ": 7465, "áĢĢáĢ¬áĢ¸": 7466, "áĢ¼áĢĶáĢ¹": 7467, "áĢĢáĢ¹áģ¿áĢķáĢ®áĢ¸": 7468, "áĢ¾áĢĲáĢºáĢĲáĢ±áĢ¬áĢº": 7469, "áŀıáŀ·áŀĲáŀ·áŀĩáŀĵ": 7470, "áĢĢáĢºáĢĦáĢ¹áĢ": 7471, "áĢĢáĢŃáĢħáģ¥": 7472, "ĠáĢĲáĢŃáĢ¯áĢĢáĢº": 7473, "ĠáŁ¡áŁ£": 7474, "ĠáŀŁáŀļáŀŁ": 7475, "kar": 7476, "à¹ĥà¸«à¸įà¹Ī": 7477, "Ġáŀľáŀ·áŀĵáŀ·áŀĻáŁĦáŀĤ": 7478, "ĠáŀĸáŁĴáŀļáŁĩáŀļáŀ¶áŀĩ": 7479, "ĠáŀĸáŀĽ": 7480, "ĠáŀķáŁĴáŀŁáŀ¶áŀĻ": 7481, "æį": 7482, "ĠáŀĶáŁĴáŀļáŀŁáŀ·áŀĵáŀĶáŀ¾": 7483, "ĠàºĤà»Īàº²àº§": 7484, "à»īàº²àºŀàº°à»ĢàºĪ": 7485, "à»īàº²àº¡": 7486, "Ä©": 7487, "áĢĺáĢĢáĢº": 7488, "à¸µà¸¢à¸Ļ": 7489, "à®¿à®¯à¯Ī": 7490, "áŀĺáŀ·áŀī": 7491, "áŀĶáŁĨáŀİáŀĦ": 7492, "Ġker": 7493, "ĠÐ": 7494, "Ġà¸Ķ": 7495, "å¿«3": 7496, "åįĹ": 7497, "Ġáŀĵáŀ¶áŀĵáŀ¶": 7498, "Ġpinakam": 7499, "Ġ()": 7500, "à»ĢàºŃàºĩ": 7501, "à¹īà¸Ńà¸¢à¸": 7502, "Ġáŀ¢áŀ¶áŀŁáŁĬáŀ¸": 7503, "áŀĶáŁĴáŀļáŀĹáŁģáŀĳ": 7504, "ĠáŁ¢áŁłáŁ¡áŁ¦": 7505, "Ġáŀĸáŀ·áŀĹáŀĸáŀĽáŁĦáŀĢ": 7506, "ĠáĢ»áĢķáĢ³áĢľáĢ¯áĢķáĢ¹áĢ": 7507, "áĢ¶áĤķ": 7508, "áĢ¡áĢŃáĢĻáĢ¹áĢ": 7509, "ķáĢ¼áĢ¬áĢ¸áĢ": 7510, "ĠáĢ±áĢģáģļ": 7511, "áĢĻáĢºáĢŃáĢ³áĢ¸": 7512, "áĢĢáĢ½áĢļáĢº": 7513, "è§Ħ": 7514, "à»Ģàºĩàº´àºĻàº": 7515, "à¯ģà®ķà®¿à®±à®¤à¯ģ": 7516, "ĠáŀģáŁĤáŀŁáŀ¸áŀłáŀ¶": 7517, "áŀģáŀ¶áŀĦáŀĽáŀ¾": 7518, "ģáĢ²áĢ·áĢķáĢ«áĢĲáĢļáĢ¹": 7519, "ĠPosted": 7520, "áĢĶáĢ¹áĢ¸áĢĻ": 7521, "áĢ¸áĢĽáĢ¬": 7522, "áĢ¬áĢ¸áĢĲáĢ²áĢ·": 7523, "Ġpost": 7524, "áĢŃáĤĪ": 7525, "áĢĺáĢ¬áĢŀáĢ¬": 7526, "áŀ¶áŀŁáŀ¶": 7527, "àº»àºļàº®": 7528, "ĠàºĶà»īàº§àºį": 7529, "å£": 7530, "rom": 7531, "asan": 7532, "Ãºng": 7533, "·à¸": 7534, "ªà»īàº²àºĩ": 7535, "ihin": 7536, "áŁĨáŀİáŁĤáŀĦ": 7537, "ģáĢ¼áĢĦáĢºáĢ¸": 7538, "Ġáŀĩáŀ¶áŀĬáŀ¾áŀĺ": 7539, "áŀ¶áŀļáŀĸáŁĲáŀıáŁĮáŀĺáŀ¶áŀĵ": 7540, "ªà¸£à¹īà¸²à¸ĩà¸": 7541, "áŁĴáŀļáŀĩ": 7542, "ªàº²àº¡àº²àºĶ": 7543, "ulang": 7544, "åĲĮ": 7545, "áŀŁáŁģáŀħáŀĢáŁĴáŀıáŀ¸": 7546, "áŀĬáŁĨáŀİáŀ¾áŀļ": 7547, "áĢ±áĢĲáĢ¼áĢĶáĢ²áĤĶ": 7548, "ĶáĢ²áĤķ": 7549, "ĠáĢ¹áĢ": 7550, "áĢŀáĢĦáĢº": 7551, "ŀà¸±à¸ģ": 7552, "áŀ·áŀĵáŁĴáŀĵ": 7553, "ĠàºĻàº±à»īàºĻ": 7554, "áŀ¶áŀĵáŀ¸": 7555, "à»Ģàºķàºµ": 7556, "ere": 7557, "Ġmal": 7558, "ĠáŀĶáŁĴáŀļáŀ¶áŀŁáŀ¶áŀĳ": 7559, "à®¿à®³": 7560, "ĠX": 7561, "ªà¸µà¸": 7562, "ĠáŀĶáŁĴáŀĽ": 7563, "áĢŀáĢ¯áĢ¶áĢ¸áĢ": 7564, "ģà¸¡": 7565, "Ġdá»¥ng": 7566, "áŁĲáŀĢ": 7567, "Ġ\\": 7568, "ªà¸§à¸": 7569, "é©": 7570, "áŀļáŀĶáŀŁáŁĭáŀĽáŁĦáŀĢ": 7571, "Ġgamot": 7572, "kat": 7573, "áŀĻáŁī": 7574, "à¹īà¸ĩà¸": 7575, "ĠFeb": 7576, "áĢģáĢ»áĢĦáĢº": 7577, "áŀ¢áŀĵáŀ»áŀľáŀıáŁĴáŀı": 7578, "àºĦàºŃàºĻàº": 7579, "áĢĥ": 7580, "ĠáģģáģĦ": 7581, "à¯ģà®©": 7582, "ĠáŀŁáŁĴáŀıáŀ¸áŀĸáŀ¸": 7583, "ĠáŀĻáŀĶáŁĭ": 7584, "¡à¸µà¸¢": 7585, "ĠáŀĢáŀĺáŁĴáŀļáŀ·áŀı": 7586, "Ġà»Ģàº¡àº·àºŃàºĩ": 7587, "Ġà¸£à¸²à¸Ħà¸²": 7588, "à¸²à¸¡à¸": 7589, "ĠáĢĢáĢºáĢĦáĢ¹áĢ¸áĢķ": 7590, "áĢķáĢ¹áĢĸáĢ¼": 7591, "áĢ¬áĢ¸áĢħáĢ¼áĢ¬": 7592, "ĳáĢ¬áĢ¸áĢĲáĢ¬": 7593, "áĢĮ": 7594, "áŀĶáŁĭáŀŁáŁĴáŀĢáŀ¶áŀıáŁĭ": 7595, "áŀĤáŁĴáŀļáŀ¶áŀĶáŁĭ": 7596, "à»ģàºĤàº§àºĩ": 7597, "Ġpig": 7598, "ĠáĢľáĢ¼áĢĲáĢ¹áĢ": 7599, "áģ¾áĢĢáĢĬáĢ¹": 7600, "áĢĳáĢ²áĢĢ": 7601, "Ġpagla": 7602, "ľà»Īàº²àºĻàº": 7603, "ĠáĢŀáĢ¯": 7604, "áŀĢáŀļáŀ¶áŀĻ": 7605, "áĢ±áĢĲáĢ¬áĢĦáĢ¹áĢ¸": 7606, "áĢ¡áĢ±áģ¾áĢĢáĢ¬áĢĦáĢ¹áĢ¸": 7607, "áĢ±áĢĳáĢ¬áĢĢáĢ¹áĢ": 7608, "±áĢĢáĢºáĢ¬áĢĦáĢ¹áĢ¸": 7609, "ĠáĢĨáĢĢáĢ¹áĢľ": 7610, "áĢģáĢºáĢ³áĢķáĢ¹áĢ": 7611, "áĢħáĢ½áĢ¬": 7612, "Ľà¸¥à¸µà¹Īà¸": 7613, "áŀ»áŀŁáŁĴáŀıáŀ·áŁį": 7614, "ĠáŁ¡áŁ¦": 7615, "Ġáŀļáŀ¶áŀĶáŁĭ": 7616, "ĠáŀĵáŁħáŀĽáŀ¾": 7617, "Ġà®ªà®£": 7618, "àº°àºļàº²àºĻ": 7619, "ĠáŀĢáŁĴáŀĶáŀ¶áŀĽ": 7620, "àº§àºĻ": 7621, "ĠáŀŁáŁĴáŀĶ": 7622, "ĠáĢĢáĢ»áĢ½áĢĶáĢºáĢĲáĢ±áĢ¬áĢº": 7623, "à¹Ĥà¸Ľà¸£": 7624, "Ġsá»±": 7625, "è£": 7626, "dah": 7627, "ĠáŀŁáŀ¶áŀħáŁĭ": 7628, "áĢĶáĢĢáĢ¹": 7629, "áĢĲáĢ¹áĢĽ": 7630, "ĠáĢ±áĢĶáĢ¬áĢĢáĢ¹áĢĨ": 7631, "ĠáĢ±áĢĢáĢºáĢ¬áĢ¹áĢ": 7632, "ĠáĢ¡áĢĸ": 7633, "à¹īà¸²à¸ĩ": 7634, "à®¤à®¾à®ķ": 7635, "áŀģáŁĨ": 7636, "áŀ¼áŀĽáŀ·áŀŁ": 7637, "uan": 7638, "¶áŀıáŀ»": 7639, "áĢĽáĢķáĢº": 7640, "à¸Ļà¸³à¸": 7641, "ĠáŀĽáŀ¾áŀŁ": 7642, "Ġàº¡àº²àºĶàºķàº²": 7643, "«àºį": 7644, "Ġáŀĩáŀ·áŁĩ": 7645, "è¿Ĳ": 7646, "Ġà¸Ħà¸¸à¸ĵà¸": 7647, "áŀľáŀ·áŀĢáŀ¶": 7648, "áŀĬáŀ»áŀĽáŁĴáŀĽáŀ¶áŀļ": 7649, "¥àº²àºį": 7650, "áŀĢáŀ¶áŀĽáŀĸáŀ¸": 7651, "áĢ¼áĢĦáĢ¹áĢ¸": 7652, "ĠáĢ±áĢ»áĢķáĢ¬áĢŀáĢĬáĢ¹": 7653, "áĢ±áģ¾áĢĢáĢ¬áĢĦáĢ·áĢ¹": 7654, "áĢ±áĢľáĢ¬": 7655, "ies": 7656, "Ġáģģáģģ": 7657, "AR": 7658, "Ġus": 7659, "áŀĢáŀ¶áŀļáŀľ": 7660, "áŀ¶áŀĬáŁĤáŀĽ": 7661, "ento": 7662, "ĠáĢĽáĢĢáĢ¹": 7663, "ŀáĢ¼áĢ¬áĢ¸": 7664, "ĠáĢ»áĢĸáĢħáĢ¹áĢŀáĢĬáĢ¹": 7665, "áĢģáĢĦáĢ¹áĢ": 7666, "ĴáĢ±áĢŀ": 7667, "à¹īà¸Ńà¸¡": 7668, "ĠáĢĺáĢ¬áĢŀáĢ¬": 7669, "âĢĭáŁĶ": 7670, "¶à¸ģà¸": 7671, "ĠçľŁ": 7672, "éĵ": 7673, "áĢĢáĢľ": 7674, "áŁĴáŀĵáŀ¶áŀĢáŁĭáŀĦ": 7675, "Ġfun": 7676, "à»ĢàºĬàº·à»īàºŃ": 7677, "AT": 7678, "ual": 7679, "ika": 7680, "áŀŁáŁĴáŀħ": 7681, "áĢ¬áĢĽáĢ½": 7682, "ĠáĢģáĢĽ": 7683, "æ¡": 7684, "áŀĤáŀĺáŁĴáŀļáŁĦáŀĦ": 7685, "àº¹àºĩàº": 7686, "áŀ·áŀĬáŁĴáŀĭ": 7687, "ĠáĢĻáĢ¼áĢŃáĢ¯áĢ·": 7688, "Ġà¸«à¸£à¸·à¸Ńà¸": 7689, "Ġà®ħà®´": 7690, "ĠáŀĹáŁĴáŀĵáŁĨ": 7691, "Ġlamang": 7692, "ä½į": 7693, "Ġáŀ§áŀŁáŀĹáŀ¶": 7694, "Ġáŀ¢áŀĵáŁĴáŀı": 7695, "à»Ģàº§àº¥àº²àº": 7696, "ĠFacebook": 7697, "áŀļáŀ¶áŀİ": 7698, "Ĭà¸±à¸": 7699, "áĤĨáĢĶáĢ¬": 7700, "ĠáĢ¡áĢĲáĢ¼áĢĦáĢ¹áĢ¸": 7701, "áĤĲáĢ¶áĢ¯": 7702, "áĢĺáĢ±áĢ¬": 7703, "ĠnÄĥm": 7704, "áŀ¶áŀļáŀĺáŁĴáŀĹ": 7705, "ŀà¸´à¹Ģà¸¨à¸": 7706, "Ġ$(": 7707, "à¹ģà¸ªà¸Ķà¸": 7708, "ĠáŀĽáŀĳáŁĴáŀĴáŀķáŀĽ": 7709, "áŀŁáŀ¶áŀļáŀĸ": 7710, "let": 7711, "áŀĢáŀ¾áŀıáŀłáŁģáŀıáŀ»": 7712, "áŀĳáŁĴáŀļáŀĸáŁĴáŀĻ": 7713, "±áģ¾áĢĢáĢ¬áĢĦáĢ¹áĢ·": 7714, "~~": 7715, "áĢĨáĢĢáĢº": 7716, "áŀ¶áŀĦáŀŁáŀĦáŁĭ": 7717, "ĠâĢĭ(": 7718, "Ġà®¤à®¾à®©à¯į": 7719, "Ġup": 7720, "Ġáŀıáŀ¶áŀļáŀ¶": 7721, "Ġbaba": 7722, "Ġcon": 7723, "Ġáŀ¢áŀīáŁĴáŀĩáŀ¾áŀī": 7724, "áŁĴáŀĽáŀ¶áŀŁáŁĭáŀĶáŁĴáŀı": 7725, "éĩį": 7726, "pas": 7727, "Ġà¸£à¸²à¸Ħà¸²à¸": 7728, "à¸µà¸¢à¸ĩà¸": 7729, "àº¹àºģàº": 7730, "à¯ĭà®¤": 7731, "áŀĸáŀ¶áŀİáŀ·áŀĩáŁĴáŀĩáŀĢáŀĺáŁĴáŀĺ": 7732, "áĢ±áĢĨáĢ¬áĢĦáĢ¹": 7733, "áĢ¯áĢĴáģ¶": 7734, "áĢ¡áĢ±áĢķáģļ": 7735, "ĨáĢŃáĢ¯áĢĲáĢ¬": 7736, "ĠáĢĢáĢĻáģ»": 7737, "áĢ¥áĢ®áĢ¸": 7738, "ĠáĢŀáĢħáĢ¹áĢ": 7739, "áĢĻáĢ»áĢ¾": 7740, "áŀķáŁĴáŀĤ": 7741, "àº´àºĶàºĹàº´": 7742, "ĠáŀĺáŁģáŀŁáŀ¶": 7743, "ĠáŀħáŁģáŀīáŀĸáŀ¸": 7744, "áŀĹáŀ¼áŀĺ": 7745, "áŀĩáŁĴáŀĪáŀĺ": 7746, "ľàº»àºĻàº": 7747, "Ġáŀĺáŀ¼áŀĽáŀĬáŁĴáŀĭáŀ¶áŀĵ": 7748, "áĢĻáĢºáĢ³áĢŃáĢ¸áĢŀ": 7749, "áĢĳáĢ¬áĢ¸áĢĽ": 7750, "áŀłáŀĳáŁĨáŀĸáŁĲ": 7751, "à»Ģàºŀàºµà»Īàº¡": 7752, "áĢģáĢ¼áĢ²": 7753, "áĢģáĢ²áĢ·áĢĲáĢ¬": 7754, "ĠáĢĨáĢ±áĢ¬áĢĦáĢºáĢĽáĢ½áĢĢáĢº": 7755, "áĢ±áĢĢáĢ¼": 7756, "Ħà¹Īà¸°": 7757, "à¹Ĥà¸Ķà¸¢à¸": 7758, "áŀĶáŀİáŁĴáŀĮáŀ·áŀı": 7759, "±áĢĨáĢ¸áĢ": 7760, "áĢ¬áĢ¸áĢĸ": 7761, "áŀĲáŁĴáŀĦáŁĥáŀĳáŀ¸áŁ¢": 7762, "Ġáŀ¢áŁĴáŀĵáŀĢáŀŁáŁĴáŀļáŀ¸": 7763, "ĠZ": 7764, "Ġà®İà®¤à®¿à®°": 7765, "Ġå¾": 7766, "ĠáĢĿáĢĶáĢº": 7767, "áŁĢáŀľáŀĹáŁħ": 7768, "à»Ĥàº¥àºģ": 7769, "áŀĳáŁĦáŀŁ": 7770, "áŀ¶áŀİáŀ¶áŀħ": 7771, "ĠáŀĩáŁĲáŀĻ": 7772, "éļ": 7773, "ulo": 7774, "áŀĳáŀ¸áŁ¢": 7775, "áŀĬáŁĨáŀİáŀ¹áŀĦ": 7776, "Ã±": 7777, "áŀ¶áŀĺáŀĳ": 7778, "áĢ¡áĢĬáĢ®": 7779, "ĠáŀŁáŀ¶áŀļáŀ": 7780, "ĠáĢĨáĢŃáĢ¯áĢĲáĢ¬": 7781, "áĢ¬áĢ¹áĢĻáĢĲáĢ®": 7782, "áĢ¡áĢĸáĢ½áĢ²áĢ·": 7783, "Ġáŀļáŀ¼áŀĶáŀĹáŀ¶áŀĸ": 7784, "à¹īà¸Ńà¸Ļ": 7785, "áŀĸáŁĴáŀļáŁĩáŀļáŀ¶áŀĩ": 7786, "áŀ¶áŀĴáŀ·áŀĢáŀ¶áŀļ": 7787, "ĠáŀķáŁĴáŀŁáŁģáŀĦáŁĹ": 7788, "áĢ¶áĢĲ": 7789, "à¯ĭà®®à¯į": 7790, "ĠSh": 7791, "ĠNag": 7792, "ĠáĢĴáĢ®áĢĩ": 7793, "ĠáŀħáŁĴáŀĶáŀ¶áŀŁáŁĭ": 7794, "áĢ¸áĢ±áĢ": 7795, "ĠáĢŀáĢ¯áĢ¶áĢ¸áĢ": 7796, "àºĦàº§àº²àº¡àºª": 7797, "Ġà®ķà®¾à®°": 7798, "Ġà¸Ļà¸µà¹ī": 7799, "à¹Ĥà¸Ļà¸": 7800, "Ġáŀģáŀ¶áŀĦáŀĽáŀ¾": 7801, "ĠáĢĹáĢŃáĢ¯áĢľáĢ¹áĢ": 7802, "áĢ±áĢĲáĢ¼áĢĻáĢ½áĢ¬": 7803, "±áĢĽáĢ¸áĢ¡": 7804, "ĠáĢŀáĢĢáĢº": 7805, "ĠTags": 7806, "áŀĺáŁĴáŀĬ": 7807, "áŀĶáŀİáŁĴáŀĬ": 7808, "áŀĬáŁĤáŀļáŀ": 7809, "Ġà¸Ľà¸µ": 7810, "Ġhiá»ĩn": 7811, "åĬłçĽŁ": 7812, "Ġaking": 7813, "åľ¨çº¿": 7814, "áŀ¶áŀĢáŀĺáŁĴáŀĺ": 7815, "àº¹à»Īàº": 7816, "Ġpat": 7817, "éħ": 7818, "ļà¸£à¸´à¸ģà¸²à¸£à¸": 7819, "ĠáŀķáŁĴáŀĳáŀ¶áŀĽáŁĭ": 7820, "ĠáŀĶáŀ¶áŀīáŁĭ": 7821, "«àº¡": 7822, "Ġáŀ¢áŀ¸": 7823, "áŁĴáŀļáŀ¸áŀĢ": 7824, "ķà»īàºŃàºĩ": 7825, "Ľà¸±à¸įà¸": 7826, "áĢ±áĢ»áĢĸ": 7827, "ĠáĢĺáĢ¯áĢĽáĢ¬áĢ¸áĢŀáĢģáĢĦáĢº": 7828, "áŀľáŁĤáŀĦ": 7829, "áĢĨáĢ¶áĢ¯áĢ¸": 7830, "ĶáĢĬáĢ¹áĢ¸": 7831, "ĠáĢĸáĢ¯áĢĶáĢ¹áĢ¸": 7832, "ĠáĢķáĢ¼áĢ¯": 7833, "áŀĪáŀ¶áŀĺ": 7834, "áŀģáŁĴáŀĺáŁĤáŀļáŀ": 7835, "ĠáŀŁáŀ¶áŀĽáŀ¶": 7836, "Ġáŀħáŀ¶áŀĶáŁĭáŀĸáŀ¸": 7837, "è¡¨": 7838, "áŁĴáŀĽáŁĤ": 7839, "Ġà®ªà¯ĩ": 7840, "áŀļáŁį": 7841, "usto": 7842, "ihan": 7843, "à¸Ńà¸µà¸ģà¸": 7844, "Ġfunction": 7845, "à»Ħàºŀ": 7846, "áŀĺáŁĴáŀĦáŀº": 7847, "áŀ¢áŀ¶áŀĳáŀ·áŀıáŁĴáŀĻ": 7848, "à®²à®¾à®®à¯į": 7849, "ĠáĢ±áĢ»áĢķ": 7850, "ĠáĢŀáĢĢáĢ¹áĢ": 7851, "Ġap": 7852, "áģ¿áĢĻáĢŃáĢ³áĤķáĢĶáĢļáĢ¹": 7853, "áĢ¸áĢľáĢŃáĢ¯áĢĢáĢ¹áĢ": 7854, "ĠáĢľáĢĢáĢ¹áĢĽáĢ½áĢŃ": 7855, "áĢĢáĢĲáĢ±áĢ¬áĢ·": 7856, "áº¯c": 7857, "ĠáŀłáŁĴáŀĵáŀ¹áŀĦ": 7858, "ĠáŀļáŀĬáŁĴáŀĭáŀĶáŀ¶áŀĽ": 7859, "Ġ2016": 7860, "áŀ¶áŀĺáŁīáŁĦáŀĦ": 7861, "Ġáŀĺáŀ·áŀıáŁĴáŀı": 7862, "áĢ¡áĢģ": 7863, "ĠáŀĸáŁĴáŀļáŁĨáŀĬáŁĤáŀĵ": 7864, "ĠáŀħáŁĦáŀĳ": 7865, "àºĹàº³": 7866, "áĢģáĢ²áĢ·áĢķáĢ«áĢĲáĢļáĢ¹": 7867, "ĠáĢĽáĢ²áĤķ": 7868, "áĢ½áĢ±áĢ¸áĢĶ": 7869, "à¹ģà¸ģà¸£à¸": 7870, "ĠáĢĻáĢĬáĢ¹áĢ": 7871, "ĠáĢĳáĢĦáĢ¹áĢ": 7872, "ĠáĢ±áĢ»áĢķáĢ¬áĢķáĢ«áĢĲáĢļáĢ¹": 7873, "áĢĦáĢ¹áĢĺáĢ¬": 7874, "áĢĢáĢ¼áĢ±áĢ¬áĢĦáĢº": 7875, "à¹Ģà¸Ļ": 7876, "ĠáŀĤáŁĴáŀļáŀĶáŁĭáŀĤáŁĴáŀļáŀĦ": 7877, "ĠáŀĤáŀ¸": 7878, "áŀĸáŁĴáŀļáŁĢáŀĦ": 7879, "æĬķæ³¨": 7880, "ĠæŃ": 7881, "Ġab": 7882, "áŀĩáŁĴáŀĪáŀĺáŀİáŁĴáŀĮáŀĽ": 7883, "áŀ¼áŀļáŀĳáŀŁáŁĴáŀŁáŀĵáŁį": 7884, "áĢ»áĢģáĢ¬áĢ¸áĢ": 7885, "áĢ¯áĢıáĢ¹áĢ": 7886, "áĢĶáĢ¶": 7887, "áĢ®áĢĢ": 7888, "ema": 7889, "Ġà¹Ĥà¸Ļ": 7890, "Ĺà¸±": 7891, "ä»ĸ": 7892, "Ġhttps": 7893, "ĠáĢ±áĢķáģļ": 7894, "áĢŃáĢĶáĢ¹": 7895, "±áĢļáĢ¬áĢĢáĢ¹": 7896, "ĠáĢĽáĢŁ": 7897, "ĠáĢĶáĢ¬áĢĻ": 7898, "ĠáŀĶáŀļáŀĳáŁģáŀŁ": 7899, "ĠáŀĶáŀ·áŀĳ": 7900, "Ġáŀĩáŀ¶áŀĢáŁĭ": 7901, "à®¾à®®à®²à¯į": 7902, "ĠáĢĴáĢ®áĢĻáĢŃáĢ¯": 7903, "áĢĲáĢļáĢºáĢľáĢŃáĢ¯áĢ·": 7904, "ĳáĢ¯áĢĲáĢ¹áĢ": 7905, "¡áĢŀ": 7906, "ģáĢ²áĢ·áĢŀáĢĬáĢ¹": 7907, "ĲáĢħáĢ¹áĢģáĢ¯": 7908, "ĠáĢ±áĢľáĢ¬": 7909, "áĢĲáĢĢáĢº": 7910, "Ġà»Ģàºŀàº²àº°": 7911, "Ġ01": 7912, "áŀĶáŀħáŁĴáŀħáŁģáŀĢ": 7913, "Ġàºķà»Īàº²àºĩ": 7914, "Ġso": 7915, "áŀ¢áŀ¸": 7916, "Ġàº¡àº±àºĻàº": 7917, "Ġmaram": 7918, "ĠáŀŁáŁĴáŀĤáŀ¶áŀĽáŁĭ": 7919, "Ĺà¸Ħ": 7920, "áŀĺáŀĢáŀĸáŀ¸": 7921, "Ġ')": 7922, "US": 7923, "Ġà¸Ħà¸§à¸²à¸¡à¸": 7924, "Ġà®®à®°": 7925, "ĠáĢ¡áĢŀáĢŃ": 7926, "±à¸ĩà¸«à¸§à¸±à¸": 7927, "à¹Īà¸Ńà¸Ļà¸": 7928, "áŀĤáŁĴáŀļáŀ½áŀŁáŀ¶áŀļáŀ": 7929, "áĢ¡áĢ±áĢĶáĢĶáĢ²áĤĶ": 7930, "edia": 7931, "áĢľáĢ¯áĢŃáĢĢáĢ¹áĢ": 7932, "áĢĲáĢ¹áĢľ": 7933, "áĢ¸áĢĻáĢ»": 7934, "ĠáŀĩáŁĨáŀļáŀ»áŀī": 7935, "ĠáŀĤáŀ½áŀļáŀ": 7936, "áŀŁáŁĴáŀħáŀ¶áŀļáŁĴáŀĻ": 7937, "áŀĶáŁĬáŀ»áŀĢ": 7938, "áŀĶáŁĤáŀĢ": 7939, "àºĤàº¶à»īàºĻ": 7940, "Ķà¸²à¸§": 7941, "Ġà®¤à¯Ĭà®Łà®°": 7942, "ĠÄĳá»Ļng": 7943, "áŀĲáŁĴáŀĺ": 7944, "áŀ¼áŀİ": 7945, "áŀŁáŁĴáŀŁáŀ·áŀı": 7946, "à¹Ģà¸§à¸": 7947, "áŀĵáŁħáŀĸáŁģáŀĽ": 7948, "Ġbuhay": 7949, "áŀĤáŁĦáŀĢ": 7950, "àº§àº±àºĻ": 7951, "ĠáģĥáģĢ": 7952, "ian": 7953, "·à¹Īà¸Ńà¹Ģà¸": 7954, "áŀĢáŀ¶áŀļáŀĺ": 7955, "ĠáĢ±áĢĨáĢ¬áĢĦáĢ¹áĢĽáĢ¼áĢĢáĢ¹áĢ": 7956, "áĢĽáĢ½áĢļáĢº": 7957, "ãĢģ": 7958, "Content": 7959, "Ńè¯": 7960, "Ńè¯Ħ": 7961, "Ńè¯Ħè®": 7962, "Ńè¯Ħè®º": 7963, "ĠáŀŁáŀĵáŁĴáŀıáŀ·áŀŁáŀ»áŀģ": 7964, "Ġáŀĩáŀĺ": 7965, "ĠKHTO": 7966, "ĠKHTOEM": 7967, "éĹŃè¯Ħè®º": 7968, "åħ³éĹŃè¯Ħè®º": 7969, "áŁĴáŀıáŁĤáŀĦ": 7970, "å¥ĸ": 7971, "Ľàº°àºģàº": 7972, "áŀļáŀĲ": 7973, "äºĮ": 7974, "____": 7975, "amp": 7976, "Ġà®ĩà®¨à¯įà®¤à®¿à®¯": 7977, "áŀĸáŁĴáŀļáŁĦáŁĩ": 7978, "áŀĶáŁĴáŀĽ": 7979, "áĢºáĢĢáĢ¹áĢ": 7980, "rl": 7981, "ĠáĢ¡áĢŀáĢĢáĢº": 7982, "à®¾à®Ļà¯įà®ķ": 7983, "kas": 7984, "áŀĢáŁĨáŀİáŀıáŁĭ": 7985, "àºĶàº±àºļ": 7986, "ç®¡": 7987, "à¹Īà¸Ńà¸Ļ": 7988, "²åħ³éĹŃè¯Ħè®º": 7989, "ĠâĢĭâĢĭâĢĭâĢĭ": 7990, "áĢ±áĢ¡áĢ¬áĢĦáĢ¹áĢĨáĢĶáĢ¹áĢ¸": 7991, "áĢĽáĢĦáĢ¹áĢ±áĢĲáĢ¬áĢ·": 7992, "áĢĽáĢ®áĢ¸áĢļ": 7993, "day": 7994, "ĠáĢ±áĢŀáĢ¬": 7995, "ĠáĤıáĢ½áĢħáĢ¹": 7996, "áĢľáĢŃáĢĻáĢ¹áĢ·": 7997, "áĢĽáĢ½áĢĦáĢ¹áĢ": 7998, "ĻáĢºáĢ¬áĢ¸áĢ¡": 7999, "ĠáĢŁáĢŃáĢ¯": 8000, "Ġáŀĳáŀ¸áŀıáŀ¶áŁĨáŀĦ": 8001, "àº²àºģàº²àºĻ": 8002, "Ġà®īà®°": 8003, "Ġáŀ¢áŁĩáŀ¢áŀ¶áŀĦ": 8004, "à¹Ģà¸Ĺà¸µà¹Īà¸": 8005, "Ġ09": 8006, "áŀļáŀ¶áŀĩáŁĴáŀĻ": 8007, "ĠáĢĻáĢĽáĢ¾áĢŃ": 8008, "ating": 8009, "ÃŃch": 8010, "áŀĤáŀĵáŁĭ": 8011, "àº°àº«àºįàº²àºį": 8012, "áŀ¶áŀļáŀĵ": 8013, "áĢģáĢ»áĢŃáĢ¯áĢ·": 8014, "andang": 8015, "à»ĥàº«àºįà»Īàº": 8016, "áŀ¶áŀıáŀ»": 8017, "è·¯": 8018, "ĠáŀķáŁĴáŀĳáŁĥ": 8019, "ĠPilip": 8020, "Ġsum": 8021, "áŀŁáŀ·áŀĳáŁĴáŀĴáŀ·": 8022, "à»Ĥàºķ": 8023, "Ġà®ªà®¾à®¤": 8024, "áŀĸáŀ»": 8025, "áŀĴáŁĴáŀľáŀ¾áŀ²áŁĴáŀĻ": 8026, "åł": 8027, "ŀà¸Ļà¸±à¸Ļà¸ļà¸Ńà¸¥": 8028, "Ġà¸«à¸²à¸": 8029, "áŀĨáŁĴáŀĵáŀ¶áŁĨáŁ¢áŁłáŁ¡áŁ": 8030, "áŀ¶áŀĻáŀŁáŁĴáŀļáŀ½áŀĽ": 8031, "Æ°á»£ng": 8032, "Ġhair": 8033, "Ġtaon": 8034, "±áĢĲáĢ¼áĢĢ": 8035, "ĠáĢ¡áĢľáĢ¯áĢķáĢº": 8036, "àº¶àºģ": 8037, "áŀ¡áŀ¼áŀľ": 8038, "àº«àº¥": 8039, "ĠáŁ¡áŁ¤": 8040, "ĠáŀĳáŁĦáŁĩáŀĶáŀ¸": 8041, "áģ¾áĢĢáĢķáĢ«": 8042, "áĢ±áĢĲáĢ¬áĤĶ": 8043, "ĠáĢģáĢ¯áĤıáĢ½áĢħáĢ¹áĢ": 8044, "áĢľáĢ¯áĢŃáĤĶ": 8045, "áĢ®áĢ¸áĢľ": 8046, "à»Ģàºªàºµàº¡": 8047, "è®¾": 8048, "àºŃàºģà»ģàºļàºļ": 8049, "Ĭà¸µà¸§à¸´à¸": 8050, "áĢ®áĢ¸áĢħ": 8051, "urg": 8052, "Ġsin": 8053, "ĠáŀĤáŀİ": 8054, "áŀľáŀ¸áŀĬáŁģáŀ¢áŀ¼": 8055, "àºļà»įà»Īàº¡àºµ": 8056, "ĠáĢ»áĢķáĢĬáĢ¹áĢ±áĢĳáĢ¬áĢĦáĢ¹áĢħáĢ¯": 8057, "áĢĽáĢŃáĢ¯": 8058, "áŀĸáŀĵáŁĴáŀĴ": 8059, "à®²à¯įà®µ": 8060, "áŀĬáŁĨáŀİáŀ¾áŀļáŀĢ": 8061, "Ġè¿Ļ": 8062, "à»ĢàºĪàº»à»īàº²àº": 8063, "Ġmong": 8064, "áŀ¶áŀĽáŁĭáŀĳáŀ¶áŀıáŁĭ": 8065, "áŀŁáŁĴáŀĲáŀ·áŀı": 8066, "Ġtak": 8067, "Ġà®µà®¿à®°": 8068, "ĠáĢ¡áĢĦáĢº": 8069, "ªà¸°à¸": 8070, "Ġpen": 8071, "Ã¢u": 8072, "áŀıáŁĴáŀıáŀ·áŀĢáŀ¶áŀļáŀİáŁį": 8073, "Īà¸´à¸": 8074, "àºµàº§àº´àºĶ": 8075, "ľà¸´à¸": 8076, "pin": 8077, "áģ¾áĢĢáĢĲáĢļáĢ¹": 8078, "áĢŃáĢ¯áĢĦáĢ¹áĢĦáĢ¶": 8079, "ments": 8080, "áĢĨáĢŃáĢ¯áĢĽáĢĦáĢº": 8081, "áĢ¸áĢ»áĢĻ": 8082, "ĠáĢķáĢĽáĢŃáĢŀ": 8083, "nang": 8084, "áģ»": 8085, "áĢĻáĢ¹áĢĻ": 8086, "áŀ¶áŀļáŀ¸áŀĢ": 8087, "ĠáŀŁáŁĴáŀļáŀ¶áŀĶáŁĭ": 8088, "à¹Ģà¸¥à¹Īà¸Ļ": 8089, "áŁĴáŀļáŀłáŁĴáŀĺ": 8090, "áĢ¾áĢĦáĢºáĢ·": 8091, "Ġ\").": 8092, "àº²àºĬàº»àºĻàº": 8093, "ĠáĢħáĢ®áĢ¸áĢķáĢ¼áĢ¬áĢ¸áĢ": 8094, "ĠáĢ¡áĢ¬áĢ¸áĢ": 8095, "°à¹ģà¸Ļ": 8096, "áŀħáŀļ": 8097, "áĢĦáĢºáĢ¸áĢĨ": 8098, "àº§àº´": 8099, "ect": 8100, "à®¿à®Łà®®à¯į": 8101, "Ġnext": 8102, "áŀ¼áŀĬ": 8103, "ŃàºĻàº": 8104, "ĠáĢģáĢ¯áĤıáĢ½áĢħáĢ¹": 8105, "áĢķáĢŃáĢ¯áĢĦáĢº": 8106, "==": 8107, "ĠáŁ¡áŁ§": 8108, "ĠáŀŁáŁĴáŀĵáŀ¾": 8109, "ĠáŀŁáŁĴáŀĵáŀ¶áŀĢáŁĭ": 8110, "³à¸Ħà¸": 8111, "ĠáŀĴáŁĴáŀĦáŀĵáŁĭ": 8112, "ĠAug": 8113, "áŀļáŀ¢": 8114, "Ġ000": 8115, "áŀĺáŁĴáŀĸáŀ»áŀĩáŀ¶": 8116, "ĠáŀļáŀıáŁĭ": 8117, "à»ĦàºŁ": 8118, "Ġà®ļà®¿à®²": 8119, "áĢĶáĢ¹áĢĨ": 8120, "ĠáĢ¡áĢĳáĢŃ": 8121, "áŁĴáŀľáŁģ": 8122, "her": 8123, "ĠáĢĽáĢ½áĢ¬": 8124, "ea": 8125, "Ġ)áģĬ": 8126, "Ġibang": 8127, "áĢĬáĢºáĢ¸áĢ¡": 8128, "áŁģáŀŁáŀĶáŁĬáŀ»áŀĢ": 8129, "áŀļáŀłáŀ¼áŀı": 8130, "ĀĀĀĀ": 8131, "Ã¡nh": 8132, "áŀĺáŁĴáŀĦáŀĵáŁĭ": 8133, "ĠáĢķáĢĶáĢ¹áĢ¸": 8134, "ĠáĢĨáĤıáģµ": 8135, "áĢ±áĢĻáĢ¾áĢ¬": 8136, "áŀĳáŁħáŀĢáŀ¶áŀĵáŁĭ": 8137, "ĲáĢŃáĢ¯áĢĦáĢ¹áĢ¸": 8138, "áĢĲáĢŃáĢ¯áĢĦáĢº": 8139, "ģà¸²à¸¨": 8140, "àº§à»Ī": 8141, "çĻ»å½ķ": 8142, "è¯´": 8143, "áŀĢáŀ¼áŀļáŁīáŁģáŀģáŀ¶áŀĦ": 8144, "áŀ¿áŀĦ": 8145, "ĠáŀŁáŀłáŀĤáŀĺáŀĵáŁį": 8146, "Ġáŀıáŀ·áŀħ": 8147, "Ġà¹Ģà¸ŀà¸·à¹Īà¸Ńà¸": 8148, "ªà¸µ": 8149, "áĢ±áĢŀáĢ¬áĢ¹áĢľáĢĬáĢ¹áĢ¸": 8150, "ance": 8151, "ĠáĢĽáĢĽáĢ½áĢŃ": 8152, "ĠáĢĲáĢĢáĢ¹áĢ": 8153, "ĠáĢ±áĢĢáĢºáĢ¬áĢĢáĢ¹áĢ": 8154, "áĢĲáĢŃáĢ¯áĢĦáĢºáĢ¸áĢ": 8155, "àº·à»ĪàºĻà»Ĩ": 8156, "áŀŁáŀĺáŁĴáŀļáŀ½áŀĽ": 8157, "à¹ģà¸ľ": 8158, "áŀľáŀ·áŀĳáŁĴáŀĻáŀ¶áŀĽáŁĲáŀĻ": 8159, "áŁĴáŀļáŀ¶áŀĢáŁĭ": 8160, "áŀĶáŁĴáŀļáŀ¶áŀĢáŀĬ": 8161, "ell": 8162, "ĠáĢĻáĢŃáĢŀáĢ¬áĢ¸áĢħáĢ¯": 8163, "áŀĩáŀ¶áŀĶáŁĴáŀļáŀ": 8164, "à®°à¯įà®µ": 8165, "áº·c": 8166, "Ġpigment": 8167, "Ġmaging": 8168, "å¼ı": 8169, "áĢ±áĢĦáĢ¼": 8170, "ĠáĢĸáĢ¼áĢħáĢºáĢķáĢ«áĢĲáĢļáĢº": 8171, "ĠáĢĳáĢŃáĢ¯áĢĦáĢ¹áĢ¸": 8172, "ĠáĢĬáĢ®": 8173, "áŀ¼áŀĺáŁī": 8174, "ĠáĢ±áĢĳáĢ¬áĢĢáĢ¹áĢ": 8175, "áĢļáĢŃáĢ¯": 8176, "ķà¸²à¸¡": 8177, "Ġakan": 8178, "àº°àºĪ": 8179, "áĢĤáĢ»": 8180, "ord": 8181, "áŀ¡áŁģáŀĦ": 8182, "ģàº²àºĩ": 8183, "ĠâĢĺ": 8184, "Ġ2012": 8185, "Ġsak": 8186, "ĠáŀĶáŁĴáŀı": 8187, "ĠáŀĤáŀ»áŀİ": 8188, "áŁĥáŀİáŀ¸": 8189, "ªà¸ĩà¸": 8190, "Ġà®ªà®¿à®±": 8191, "áŀĶáŁĴáŀļáŀĨáŀ¶áŁĨáŀĦ": 8192, "áŀĵáŁĴáŀŁ": 8193, "èĢģ": 8194, "àº°à»Ģàºŀàº²àº°": 8195, "nak": 8196, "áŀĲáŁĴáŀĦáŁĥáŀĵáŁģáŁĩ": 8197, "åįķ": 8198, "ris": 8199, "Ġáŀĳáŀ¶áŀī": 8200, "ĠáĢ±áĢĴáģļáĢ±áĢ¡áĢ¬áĢĦáĢ¹áĢĨáĢĶáĢ¹áĢ¸": 8201, "áĢĢáģłáĢŀ": 8202, "áĢ±áĢ«áĢĢáĢº": 8203, "ER": 8204, "Ġfre": 8205, "ĠPara": 8206, "Ġáŀħáŀļáŀ¶áŀħáŀļáŀİáŁį": 8207, "ĠáŀĢáŀ¶áŀļáŀķ": 8208, "ulat": 8209, "çī¹": 8210, "áŁĴáŀľáŁĩ": 8211, "áŀŁáŀ»áŀģáŀĹáŀ¶áŀĸ": 8212, "ĠàºªàºĽàºĽ": 8213, "à»ģàºĻàº§": 8214, "áŀŁáŀĸ": 8215, "Ķà¸´à¸Ļà¸": 8216, "áŀķáŁĴáŀŁáŁģáŀĦáŁĹ": 8217, "à®¿à®©à¯įà®©": 8218, "áĢ¬áĢ¸áĢľáĢ¬": 8219, "àºµàºģàº": 8220, "áŀħáŀļáŀ¶áŀħáŀļáŀİáŁį": 8221, "áŀ¢áŀ¶áŀĩáŁĴáŀīáŀ¶áŀĴáŀ": 8222, "ĠáŀĽáŀ»áŁĩ": 8223, "lay": 8224, "áŀļáŁĢáŀĵ": 8225, "áŀĺáŀĢáŀĬáŀĽáŁĭ": 8226, "áĢŃáĢ¯áĢ¸áĢ¡": 8227, "áŀħáŀ»áŀĦáŀĢáŁĴáŀļáŁĦáŀĻ": 8228, "iko": 8229, "áĢĪ": 8230, "ĠáĢľáĢŃáĢ¯áĢ·": 8231, "áŀ·áŀļáŀ¸": 8232, "áŀĶáŀīáŁĴáŀħáŀĶáŁĭ": 8233, "ĠáĢĲáĢ¼áĢĦáĢ¹": 8234, "áĢŃáĢļ": 8235, "ĠáŀŁáŀ»áŀģáŀ¶": 8236, "Ġáŀĺáŀ½áŀĻáŀħáŁĨáŀĵáŀ½áŀĵ": 8237, "àº´àº¡": 8238, "Ġà®¨à¯ĩà®°": 8239, "Ġáŀĸáŀ¶áŀİáŀ·áŀĩáŁĴáŀĩáŀĢáŀĺáŁĴáŀĺ": 8240, "áĢŀáĢ±áĢ¬áĢº": 8241, "Ġáŀĳáŀ¶áŀĢáŁĭáŀĳáŀĦ": 8242, "Ġ-âĢĭ": 8243, "Ġen": 8244, "áŀķáŁĴáŀ¢áŀ¾áŀĽ": 8245, "Ħà¹Īà¸²à¸": 8246, "ĠNav": 8247, "áŀ¾áŀıáŀ¶áŀĺ": 8248, "áŀ¶áŀĢáŁı": 8249, "ľà¸¥": 8250, "ç¨ĭ": 8251, "ĠngÃły": 8252, "ĠáŀĵáŀĤ": 8253, "Ġáŀĩáŀ¶áŀĺáŀ½áŀĻáŀĵáŀ¹áŀĦ": 8254, "ļà¹īà¸²à¸Ļà¸": 8255, "Ġtan": 8256, "Ġáŀ¢áŀĤ": 8257, "àº²àºŀ": 8258, "ilan": 8259, "áŁģáŀĢáŁĴáŀģ": 8260, "áŀĺáŀ¶áŀŁ": 8261, "¢à¸Ńà¸": 8262, "áŀĤáŀİáŀĶáŀĢáŁĴáŀŁ": 8263, "áŀĢáŁĦáŁĩ": 8264, "¥àº»àºĩ": 8265, "è¥¿": 8266, "ĠáŀĽáŀĢáŁĴáŀģáŀİáŁĪ": 8267, "à¹Ģà¸ģà¸¡à¸": 8268, "à¸£à¸±à¸Ĳà¸": 8269, "áĢ¼áĢļáĢ¹": 8270, "ķáĢ¼áĢĬáĢº": 8271, "à®¾à®²à¯ģà®®à¯į": 8272, "ver": 8273, "ĠáŀģáŁĤáŀĺáŀĢáŀļáŀ¶": 8274, "áŀĴáŀł": 8275, "ĠáŀĮáŀ¸": 8276, "ĠáŀĩáŀĶáŁīáŀ»áŀĵ": 8277, "ne": 8278, "ĠáĢĲáĤĲ": 8279, "Ġhtm": 8280, "áĢĢáĢ¼áĢĬáĢ·áĢº": 8281, "Ġbaw": 8282, "áŀļáŀĤáŀ»áŀİ": 8283, "$(": 8284, "Ġàº«àº»àº§": 8285, "áŀĴáŁĴáŀĦ": 8286, "Ġepek": 8287, "à»Ĥàº¡": 8288, "à¹Ģà¸£à¸µà¸¢à¸": 8289, "èµ°": 8290, "ement": 8291, "áŀĬáŀ»áŀĽáŁĴáŀĽ": 8292, "áŀĩáŀ¶áŀĢáŁĭ": 8293, "á»±c": 8294, "Ġvi": 8295, "Ġsar": 8296, "ĤáĢº": 8297, "ĠáĢ»áĢķáĢĶáĢ¹áĢľáĢĬáĢ¹áĢ": 8298, "ĠáĢ±áĢĸáĢ¬áĢ¹áĢ»áĢķ": 8299, "AA": 8300, "ĠDec": 8301, "áĢĨáĢ¶áĢ¯áĢ¸áĢ": 8302, "áĢ±áĢ¬áĢĤáĢ«": 8303, "áŀĥáŀ»áŁĨ": 8304, "áŀĢáŁıáŀĶáŀ¶áŀĵ": 8305, "æīĭæľºçīĪ": 8306, "ä¸İ": 8307, "áŀĢáŀ¾áŀıáŀ¡áŀ¾áŀĦ": 8308, "áĢŁáĢŃáĢ¯": 8309, "ĠáŀĶáŁīáŀ»áŀĵáŁĴáŀĺáŀ¶áŀĵ": 8310, "àºĻàº±àºģàº": 8311, "Ġkal": 8312, "Ġáŀıáŀ¶": 8313, "áŀŁáŀ·áŀĢáŁĴáŀŁ": 8314, "±áĢĨáĢ¬áĢĦáĢ¹": 8315, "ĠáĢľáĢ¾": 8316, "áŀĢáŁĴáŀĶáŀ¶áŀĽ": 8317, "áŀ¶áŀĻáŀ¶áŀĺ": 8318, "à®¿à®ļà¯įà®ļ": 8319, "Ġaku": 8320, "eka": 8321, "§à¸´à¸Ĺà¸¢": 8322, "age": 8323, "ĠPro": 8324, "hon": 8325, "áŀ¶áŀĬáŁĥ": 8326, "Ġà®ĩà®¯": 8327, "ĠáĢģáĢĦáĢ¹áĢ": 8328, "ĠáĢĽáĢ½áĢŃáĢ±áĢĶ": 8329, "ĠáĢ±áĢĢáĢºáĢ¸áĢĩ": 8330, "áĤıáĢ½áĢ¶": 8331, "áĢ¸áĢľáĢ¯áĢķáĢ¹áĢ": 8332, "ĠáĢ±áĢĲáĢ¬áĢĦáĢ¹áĢ": 8333, "áĤĲáĢ½áĢŃ": 8334, "áĢľáĢ¯áĢķáĢ¹": 8335, "Ġáģ¾áĢĢáĢĬáĢ¹áĢ·": 8336, "ĠáĢĳáĢ¯áĢŃ": 8337, "ĠáĢĢáĢ°áĢĬáĢ®": 8338, "ĠáŀĶáŀ»áŀİáŁĴáŀĻ": 8339, "ĠáŀĬáŀĢ": 8340, "áŁĨáŀŁ": 8341, "áĢĽáĢĢáĢº": 8342, "è²": 8343, "æĶ¿": 8344, "áŁĦáŀĴáŀ·áŁį": 8345, "áŀĸáŀ¶áŀĵáŁĭ": 8346, "«àº»àº§": 8347, "à¹Ģà¸£à¸·à¹Īà¸Ńà¸ĩ": 8348, "áŀĴáŀłáŀıáŁĴáŀĲ": 8349, "áŀĬáŀ¾": 8350, "Ġà»ľà»īàº²": 8351, "Ġàºŀàº²àºļ": 8352, "à®¿à®Łà¯įà®Łà¯ģ": 8353, "Ġviá»ĩc": 8354, "áŀ¥áŀı": 8355, "Ġàºįàº±àºĩ": 8356, "ç³": 8357, "áŀŁáŁĴáŀľáŀ¶áŀĻ": 8358, "áŀ¶áŀļáŀĬ": 8359, "Ħà¸£à¸ĩà¸": 8360, "Ġà®ķà¯Ĥà®Ł": 8361, "AG": 8362, "Ġres": 8363, "àº°àºĸàº²àºĻàº": 8364, "ĠáĢĢáĢ»áĢ±áĢ¬áĢĦáĢºáĢ¸áĢ": 8365, "áŀ¶áŀĴ": 8366, "®à¸": 8367, "ĠáŀķáŁĴáŀĬáŀĽáŁĭ": 8368, "gal": 8369, "æĺİ": 8370, "ĠáŀĢáŀ¸áŀ¡áŀ¶": 8371, "ĠáĢ±áĢĽáĢ¬": 8372, "ĠáĢ¡áĢ±áĢĽáĢ¸áĢ": 8373, "áĢ¸áĢħáĢ®áĢ¸áĢ": 8374, "ĠáĢ¡áĢĢáĢ¼": 8375, "Ġáŀ¢áŀºáŀļáŁīáŀ»áŀĶ": 8376, "áĢĢáĢ¬áĢľ": 8377, "łà¸²à¸¢": 8378, "à¯ģà®³à¯į": 8379, "ĠáĢĴáĢ«áĢ±áĢķáĢĻáĢļáĢ¹áĢ·": 8380, "ĠáĢĲáĢĶáĢ¹áĢ": 8381, "ĠáĢĲáĢ±áĢ¬áĢĦáĢº": 8382, "áŀŁáŀ»": 8383, "áŀĺáŀ¶áŀıáŁĭ": 8384, "ilis": 8385, "áŀĸáŀ·áŀŁáŁģáŀŁ": 8386, "¸à»Īàº¡": 8387, "áŀħáŀĽáŀĵ": 8388, "áŀ¶áŀ¢áŁĴáŀĵáŀĢ": 8389, "à¹Ĭ": 8390, "åı£": 8391, "à¹ģà¸¥à¸°à¹Ģà¸": 8392, "à®µà®°": 8393, "Ġáŀĵáŀ¶áŀĻáŀĢáŀļáŀĬáŁĴáŀĭáŀĺáŀĵáŁĴáŀıáŁĴáŀļáŀ¸": 8394, "ĠáŀĬáŀ¾áŀļ": 8395, "ĠáŀģáŁģáŀıáŁĴáŀıáŀĢáŁĨáŀĸáŀĦáŁĭ": 8396, "ĠiP": 8397, "áŁ¢áŀĵáŀ¶áŀĢáŁĭ": 8398, "áŀıáŀ»áŀĽáŀ¶": 8399, "áŀ¶áŀķáŁĴáŀĳáŁĥ": 8400, "áŁĨáŀĶáŀ¶áŀĢ": 8401, "áĢĳáĢĢáĢ¹": 8402, "áĢŀáĢ¯": 8403, "ĠáŀŁáŁĴáŀĲáŀ¶áŀĶáŁĲáŀĵ": 8404, "anan": 8405, "uyÃªn": 8406, "ķà»Īàº²àºĩà»Ĩ": 8407, "à¹Ģà¸£à¸µà¸¢à¸Ļà¸": 8408, "ĠáŀĶáŀ¹áŀĦ": 8409, "ĠáŀħáŁĦáŀĽ": 8410, "áĢ¬áĢĽáĢĦáĢ¹áĢ¸": 8411, "ĠáĢ¡áĢŃáĢĻáĢº": 8412, "æĥħ": 8413, "ðŁ": 8414, "áŀŁáŀ»áŀľ": 8415, "áŀļáŀĬáŁĴáŀĭáŀĺáŀĵáŁĴáŀļáŁĴáŀıáŀ¸": 8416, "áŀĹáŀ¶áŀĤáŀ¸": 8417, "áŀĦáŁĴáŀļáŁĢáŀĵ": 8418, "ŀà¸£à¸°à¸": 8419, "ĳáŁĩ": 8420, "Ľà¸£à¸°à¹Ģà¸łà¸": 8421, "ĠáŀľáŁĲáŀĻ": 8422, "ĠáĢŀáĢ½": 8423, "áŁĴáŀľáŀ¶áŀĻ": 8424, "ĠáŀĬáŁĦáŁĩáŀŁáŁĴáŀļáŀ¶áŀĻ": 8425, "áŁĲáŀĵáŁĴáŀĳ": 8426, "à®²à®ķ": 8427, "nal": 8428, "áŀŁáŁĬáŀ¼": 8429, "áŀŁáŀ¸": 8430, "à»ĢàºĤàº»à»ī": 8431, "±à¸ĩà¸ģà¸¤à¸": 8432, "áŀĸáŁĴáŀļáŁĩáŀŁáŀ¸áŀłáŀĵáŀ»": 8433, "áŀĶáŀĵáŁĴáŀĲáŀĻ": 8434, "áŀĲáŁĴáŀĵáŀ¶áŁĨ": 8435, "áŀĩáŀ¶áŀĺáŀ½áŀĻáŀĵáŀ¹áŀĦ": 8436, "ĭĹ": 8437, "æĢİ": 8438, "Ġhtml": 8439, "áĢ®áĢĴáĢ®áĢļáĢ¬": 8440, "å¢": 8441, "Ġpada": 8442, "áŀĦáŁĴáŀłáŁĦáŁĩ": 8443, "Ġæĸĩ": 8444, "ĠáŀŁáŁĨáŀİáŀĦáŁĭ": 8445, "ķáĢ«áĢĲáĢļáĢº": 8446, "áĢ»áĢĸáĢĦáĢ·áĢ¹": 8447, "áĢĻáĢ½áĢĲáĢ¹áĢ": 8448, "áĢĻáĢºáĢ¸áĢĲ": 8449, "ĠáŀĢáŀĦáŀĳáŁĲáŀĸ": 8450, "à¸£à¸µà¹Ģà¸¡à¸µà¸¢": 8451, "Ĺà¸¢à¸": 8452, "àºľàº»àºĻàº": 8453, "à¹Īà¸Ń": 8454, "áŁĴáŀļáŀĢáŁĭ": 8455, "ive": 8456, "Ġnamin": 8457, "ļà¸Ĺà¸": 8458, "abi": 8459, "áŀľáŀ·áŀħáŁĴáŀĨáŀ·áŀĢáŀ¶": 8460, "Ĺà¸µà¹Īà¸Īà¸°à¸": 8461, "áŀĶáŀīáŁĴáŀĩáŀ¼áŀĵ": 8462, "Ã¡p": 8463, "pak": 8464, "áŀ·áŀĳáŁĴáŀĴáŀĹáŀ¶áŀĸ": 8465, "ıáŀ¸": 8466, "áĢĶáĢ¹áĢĳáĢĻáĢ¹áĢ¸": 8467, "áĢĳáĢ¬áĢ¸áĢĲáĢ¬": 8468, "áĢ¼áĢŃáĢĻáĢº": 8469, "àºļàº²àºį": 8470, "ç«ł": 8471, "áŁĴáŀļáŀ»áŁĩ": 8472, "áŁĴáŀīáŀ¾": 8473, "àºķàº»àº§": 8474, "áŁĦáŀļ": 8475, "±áĢĽáĢ¬áĢĢáĢ¹": 8476, "ĠáĢĺáĢĿ": 8477, "áŀłáŀ¶áŀļ": 8478, "Ġæĸĩç«ł": 8479, "Ġæĸĩç«łå¯": 8480, "Ġæĸĩç«łå¯¼": 8481, "Ġæĸĩç«łå¯¼èĪ": 8482, "Ġæĸĩç«łå¯¼èĪª": 8483, "Ġáŀļáŀ¶áŀĩáŀļáŀĬáŁĴáŀĭáŀ¶áŀĹáŀ·áŀĶáŀ¶áŀĽ": 8484, "ĠáŀĤáŀ¸áŀ¡": 8485, "ĠáĢĢáĢĻáĢ¹áĢĺáĢ¬": 8486, "Ġà®ªà®ķ": 8487, "æºĲ": 8488, "ķà¹Īà¸²à¸ĩà¸": 8489, "Ġáŀ¢áŀ¶áŀļáŀĺáŁĴáŀĺáŀİáŁį": 8490, "Ġeh": 8491, "àºĩàºĪ": 8492, "Ġmang": 8493, "àº¥àº²": 8494, "å¿«ä¸ī": 8495, "Ġæĸ°": 8496, "áŀĶáŀ¼": 8497, "áŀıáŁĴáŀıáŀ·áŀŁ": 8498, "åķĨ": 8499, "Ġkami": 8500, "ĠJan": 8501, "áŁĩáŀĤáŀĵáŁĭ": 8502, "áŀļáŀľáŀ¶áŀĦ": 8503, "eg": 8504, "æĹ¶å½©": 8505, "Ćć": 8506, "äº¤": 8507, "à»ĥàºªà»Ī": 8508, "áŀĴáŁĴáŀĵáŀ¼": 8509, "áŀĪáŁĴáŀĵáŁĩ": 8510, "ĠáŁ¡áŁłáŁł": 8511, "ĠáŀķáŀĽáŀ·áŀıáŀķáŀĽ": 8512, "ĠáŀĳáŁģáŀŁáŀħáŀļáŀİáŁį": 8513, "ĠHair": 8514, "ugan": 8515, "áĢĽáĢĦáĢ¹áĢ¸áĢŀ": 8516, "áĢģáĢ²áĢ·áĢķáĢ«áĢĲáĢļáĢº": 8517, "±áĢĶáĢ¬áĢ¹": 8518, "ĠáĢ±áĢĴáģļáĢ±áĢ¡áĢ¬áĢĦáĢ¹áĢĨáĢĶáĢ¹áĢ¸áĢħáĢ¯": 8519, "áĢĲáĢŃáĢ¯áĢĢáĢº": 8520, "ĠáŀĤáŁĴáŀļáŁĦáŁĩáŀĲáŁĴáŀĵáŀ¶áŀĢáŁĭ": 8521, "à»ģàºĶàºĩ": 8522, "ĠáŀģáŁĤáŀĺáŀ·áŀĲáŀ»áŀĵáŀ¶": 8523, "à®·": 8524, "áŀŁáŀ¼áŀĺ": 8525, "áŀıáŁĴáŀļáŀ¸": 8526, "ress": 8527, "áŀİáŁĴáŀĭ": 8528, "ŀà¸±à¸Ĵ": 8529, "Ġdapat": 8530, "ĥn": 8531, "éĽĨ": 8532, "ļà¸£à¸´à¸ģà¸²à¸£": 8533, "ĠåĮĹäº¬": 8534, "ĠáĢĲáĢĦáĢº": 8535, "çģ": 8536, "Ġà®ĩà®¤à¯ģ": 8537, "àºģà»Īàº½àº§àºģàº±àºļ": 8538, "ªà¸¡à¸±à¸": 8539, "áŀĢáŁĴáŀĵáŀ»áŀĦáŀŁáŁĴáŀļáŀ»áŀĢ": 8540, "ĠáŀŁáŀłáŀļáŀĬáŁĴáŀĭáŀ¢áŀ¶áŀĺáŁģáŀļáŀ·áŀĢ": 8541, "áĢĻáĢºáĢ¸áĢĽ": 8542, "dia": 8543, "unas": 8544, "ĠáŀŁáŀĸáŁĴáŀľ": 8545, "Ġban": 8546, "łà¸±à¸ĵà¸ĳ": 8547, "ĠáŀľáŁģáŀĽáŀ¶": 8548, "Ġáŀľáŀ¸áŀĬáŁģáŀ¢áŀ¼": 8549, "Ĭàºµ": 8550, "Ġáŀ¢áŀ¼": 8551, "à¸£à¹Īà¸§à¸¡à¸": 8552, "Ġ02": 8553, "áŀĳáŁĨáŀĵáŀ·áŀī": 8554, "áĢĻáĢŁáĢ¯áĢĲáĢ¹": 8555, "áĢ¸áĢĲáĢħáĢ¹áĢ": 8556, "áĢ±áĢ¬áĢºáĢĻ": 8557, "áŀ·áŀŁáŁĦáŀĴáŀĵ": 8558, "èµĽ": 8559, "àºĶàºĸàº°àºģàº´àºĶ": 8560, "áĢļáĢ·áĢ¹": 8561, "áĢĻáĢºáĢ¬áĢ¸áĢĢ": 8562, "ĠáĢĻáĢ½áĢĲáĢ¹áĢ": 8563, "áĢĶáĢ½": 8564, "Ĺàºµà»Īàºª": 8565, "ĩà¸´à¸Ļà¸Īà¸£à¸´à¸ĩ": 8566, "à¸´à¸ĩ": 8567, "ĠáŀĺáŁīáŁĤáŀıáŁĴáŀļ": 8568, "áĢģáĢ½áĢĦáĢ·áĢº": 8569, "ĠáŀķáŁĴáŀŁáŀĸáŁĴáŀľáŀķáŁĴáŀŁáŀ¶áŀĻ": 8570, "ĠáŀħáŁĨáŀİáŀ¶áŀĻ": 8571, "«à¹īà¸Ńà¸ĩà¸": 8572, "Ĭà¸²à¸ķà¸´": 8573, "Ġáŀ¯áŀĦ": 8574, "Ġáŀ¢áŀ¶áŀłáŀ¶áŀļ": 8575, "Ã²n": 8576, "Ġà®ķà®£": 8577, "Ġáģ¾áĢŀ": 8578, "áĢ¡áĢģáĢ»áĢŃáĢĶáĢº": 8579, "oun": 8580, "ĠâĢĭâĢĭâĢĭâĢĭâĢĭ": 8581, "Ĺà¹Įà¸": 8582, "ĠáŀŁáŀ¶áŀļáŀĸáŁĲáŀıáŁĮáŀĺáŀ¶áŀĵ": 8583, "ĠáŀĺáŁĴáŀŁ": 8584, "åĪ¶": 8585, "ĠáŀĢáŀĢáŁĴáŀĢáŀĬáŀ¶": 8586, "áŀĶáŁĴáŀļáŀĺáŀ¶áŀİ": 8587, "áŀĩáŀĵáŀļáŀĦáŀĤáŁĴáŀļáŁĦáŁĩ": 8588, "áŀ¸áŀĵ": 8589, "ķà¸¥": 8590, "Ĭà»Īàº§àºį": 8591, "Ġpas": 8592, "........": 8593, "ĠáĢľáĤĬáĢĲáĢ¹áĢ±áĢĲáĢ¬áĢ¹áĢ": 8594, "Ġ80": 8595, "ģáĢºáĢĢáĢ¹": 8596, "áĢŀáĢŃáĢĻáĢ¹áĢ¸": 8597, "áĢĻáĢ¹": 8598, "áĢ±áĢŀáĢ¬áĢ¹": 8599, "ĠáĢĦáĢº": 8600, "Â«": 8601, "ĠáŀħáŁģáŁĩ": 8602, "ĠáŀĤáŁĴáŀļ": 8603, "Ġà®ķà¯ģà®Ł": 8604, "ģàº±àºĻàº": 8605, "áŀľáŀ·áŀĩáŁĴáŀĩ": 8606, "Ħà¸³à¸": 8607, "dio": 8608, "Ġpum": 8609, "áŀ½áŀĵáŀ¶áŀĳáŀ¸": 8610, "ĠáŀĲáŀı": 8611, "å°Ĩ": 8612, "Ġà»ĢàºĬàº´à»Īàºĩ": 8613, "á»ı": 8614, "ye": 8615, "Ġ27": 8616, "áŀľáŁĲáŀĻ": 8617, "áŀļáŀŁáŁĭáŀĵáŁħ": 8618, "à¹Ģà¸Ħà¸£à¸Ķà¸´à¸ķ": 8619, "Ġ`": 8620, "±à¸ģà¸©à¸": 8621, "Ġbitamina": 8622, "Ġsina": 8623, "áŀ¢áŁģ": 8624, "Ġà®ħà®µà®°à¯į": 8625, "ĠáŀĺáŁīáŀ¶áŀĢ": 8626, "ĠáŀģáŁĤáŀıáŀ»áŀĽáŀ¶": 8627, "ĠáŀĢáŀĺáŁĴáŀĸáŀ»áŀĩ": 8628, "ĠáŀĢáŀ¾áŀıáŀ¡áŀ¾áŀĦ": 8629, "áŁ£áŁł": 8630, "áŀĺáŁĴáŀĽáŀ¶áŀĢáŁĭ": 8631, "ĠáŀľáŀĤáŁĴáŀĤ": 8632, "ĠáŀĶáŁĴáŀļáŀĺáŀ¼áŀĽ": 8633, "áŀĶáŀĦáŀĶáŁĴáŀ¢áŀ¼áŀĵ": 8634, "áŀĵáŀ¶áŀĻáŀĢáŀĬáŁĴáŀĭáŀ¶áŀĵ": 8635, "áŀĢáŁĴáŀĶ": 8636, "Ġàºªàº²àº¡àº²àºĶ": 8637, "ç²": 8638, "Ġad": 8639, "«à¸¥à¸²à¸¢à¸": 8640, "Ġnags": 8641, "áŀĢáŀĽ": 8642, "ĠâĢĭ!": 8643, "ĠáŁ¢áŁłáŁ¢áŁł": 8644, "ĠáŀŁáŀĺáŁĴáŀĹ": 8645, "ĠáŀĵáŁħáŀıáŁĤ": 8646, "àºĹà»Īàº²àºĻ": 8647, "ĠáŀĵáŁĦáŁĩáŀĳáŁģ": 8648, "ĠáŀĲáŁĴáŀĽáŁĥ": 8649, "éĢŁ": 8650, "à®±à¯įà®ķà¯ģ": 8651, "ĠáŀĬáŁĴáŀĭ": 8652, "àºĶàº¹": 8653, "áŀģáŁĴáŀĽáŀ½áŀĵáŀ¯áŀĦ": 8654, "angan": 8655, "áŀ¸áŀĻáŀĬáŁĴáŀĭáŀ¶áŀĵ": 8656, "ĠthÃłnh": 8657, "ĠáŀĶáŀīáŁĴáŀħáŀĶáŁĭ": 8658, "ĠáŀĶáŀĦáŁĴáŀĢáŀ¾áŀĵ": 8659, "Ġà¸£à¸²à¸¢à¸": 8660, "ĠáŀĲáŁĴáŀĺáŀ¸áŁĹ": 8661, "ĠèĢ": 8662, "Ġáŀĥáŀ¶áŀıáŁĭáŀģáŁĴáŀĽáŀ½áŀĵ": 8663, "áŁĨáŀķáŁĴáŀĽáŀ¶áŀī": 8664, "Ġkapag": 8665, "ļà¹Ģà¸": 8666, "áŀĴáŁĴáŀĽáŀ¶áŀĶáŁĭ": 8667, "áŀĬáŁĦáŀĻáŀŁáŀ¶áŀļáŀ": 8668, "Ġáŀĺáŀ»áŀģáŀļáŀĶ": 8669, "Ġáŀĳáŀ¸áŀķáŁĴáŀŁáŀ¶áŀļ": 8670, "Ġnatin": 8671, "ĠáŀĢáŁĨáŀĸáŀ¼áŀĽ": 8672, "ĠàºĪàºµàºĻ": 8673, "ªà¸´à¸Ĺà¸ĺ": 8674, "ĠáŀĴáŀ¶áŀĵ": 8675, "àº»àº¡àºļ": 8676, "ĠReply": 8677, "ull": 8678, "Ġsab": 8679, "Ġ}}": 8680, "áŀĦáŁĴáŀļáŀ¸áŀĢ": 8681, "Ġàº®à»Īàº§àº¡": 8682, "Ġàº¥àº±àºĶ": 8683, "Ġà®®à¯ģà®±": 8684, "àºģàº²àºĻàºª": 8685, "ĠáĢ±áĢĺ": 8686, "Ġ07": 8687, "áĢ¡áĢĢáĢ¼": 8688, "áŀ¶áŀļáŀĶáŀŁáŁĭ": 8689, "Ġà¸¨": 8690, "Ġkina": 8691, "æ¬¡": 8692, "Ġpháº£i": 8693, "ĠáŀĳáŁĨáŀĵáŀ¶áŀĢáŁĭáŀĳáŁĨáŀĵáŀĦ": 8694, "ĠáŀĬáŁĦáŀĻáŀŁáŀ¶áŀļáŀıáŁĤ": 8695, "àº°àº¡àº²àºĻ": 8696, "áĢŃáĢ°": 8697, "áĢ²áĢĲ": 8698, "áĢ±áĢĳáĢ¼": 8699, "áĢĽáĢŀáĢĬáĢ¹": 8700, "áĢļáĢ¹áĢĢ": 8701, "áĢĢáĢ¹áĢĻáĢ½áĢ¬": 8702, "áĢ±áĢ¸áĢħ": 8703, "Ġáŀĩáŀ»áŁĨáŀľáŀ·áŀī": 8704, "à®¾à®ª": 8705, "ĠàºĶàºµ": 8706, "à»īàº³": 8707, "à¹Ģà¸ģà¸´à¸Ķà¸": 8708, "Ġmemb": 8709, "áŀĶáŁĴáŀļáŀı": 8710, "áŀĳáŁĨáŀĵáŀ¶áŀĢáŁĭáŀĳáŁĨáŀĵáŀĦ": 8711, "alang": 8712, "áŀĤáŀ·áŀļáŀ¸": 8713, "áŀ¼áŀĽáŀļáŀ½áŀĺ": 8714, "Ġáŀľáŀ·áŀħáŁĴáŀĨáŀ·áŀĢáŀ¶": 8715, "à»īàº½àº¡": 8716, "Ġáŀªáŀĸáŀ»áŀĢ": 8717, "áŀĵáŀ¶áŀĤáŀı": 8718, "±áĢģáĢº": 8719, "ĠáĢĽáĢģáĢŃáĢ¯áĢĦáĢ¹áĢ": 8720, "ĠáĢŀáĢĦáĢ¹áĢ·": 8721, "ĠáĢķáĢĲáĢº": 8722, "áŀĢáŀ¶áŀļáŀĴáŁĴáŀľáŀ¾": 8723, "Ġà®®à®ķ": 8724, "éª": 8725, "áĤģ": 8726, "áĢĦáĢļáĢ¹áĢģáĢºáĢĦáĢ¹áĢ¸": 8727, "áĢ±áĢĢáĢºáĢ¬áĢ¹áĢ": 8728, "ĸáĢ¯áĢŃáĤĶ": 8729, "ĠáĢĻáĢ¬": 8730, "à»Ħàº¡à»ī": 8731, "ĠâĨ": 8732, "ĠáŀĸáŁĴáŀĻáŀ¶áŀĶáŀ¶áŀĽ": 8733, "Ġnot": 8734, "ĠInst": 8735, "áŁĴáŀļáŀĵ": 8736, "Ġà®®à®Łà¯įà®Ł": 8737, "ĠáĢĲáĢļáĢ¹": 8738, "áĢĶáĢ±áĢ¬áĢº": 8739, "áĢĲáĢĲáĢº": 8740, "unit": 8741, "áŀŁáŁģáŀľ": 8742, "Ńàºĩ": 8743, "Ĺà»Īàº½àº§": 8744, "¸à¹Īà¸¡à¸": 8745, "Ġhá»įc": 8746, "áŀĶáŁĴáŀļáŀĢáŀ¶áŀĵáŁĭ": 8747, "áĢ¶áĢ¯áĢ¸áĢ»áĢķáĢ³": 8748, "áĢĻáĢºáĢ¸áĢĨ": 8749, "pk10": 8750, "è¢": 8751, "áŀĢáŀ¶áŀļáŀļ": 8752, "ork": 8753, "ĭà¸·à¹īà¸Ń": 8754, "ĠáŀĽáŀ½áŀħ": 8755, "à¹ģà¸Ļà¸°": 8756, "Ġimp": 8757, "ĠáŀĩáŁĴáŀļ": 8758, "ļà¸²à¸ĩà¸": 8759, "Ġáŀ¢áŀĶáŁĭáŀļáŁĨ": 8760, "ĠáĢĽáĢĶáĢºáĢĢáĢ¯áĢĶáĢº": 8761, "ĠáĢĽáĢ²áĢ·": 8762, "áĢĳáĢ¶": 8763, "Ġà®İà®²à¯įà®²": 8764, "áŁĴáŀļáŀĳ": 8765, "áŁĴáŀĵáŀĦ": 8766, "áŁ¡áŁ¢": 8767, "áŀĺáŁĴáŀ¢": 8768, "áĢ±áĢĽáĤĬ": 8769, "áĢĻáĢĢ": 8770, "Ġpal": 8771, "áĢĦáĢ¹áĢ¸áĢĢ": 8772, "áĢĢáĢ¼áĢŀáĢĬáĢº": 8773, "áŀĩáŀ¶áŀĤ": 8774, "Ġàº£": 8775, "Ġà®ħà®²à¯įà®²": 8776, "Ġkahit": 8777, "áŀħáŀ¶áŀŁáŁĭ": 8778, "àºĽàº°": 8779, "Ġáŀļáŀłáŀ¼áŀıáŀĬáŀĽáŁĭ": 8780, "Ġáŀļáŀĺ": 8781, "àºĻà»īàº³": 8782, "ĠáŀĻáŁĦáŀĦáŀıáŀ¶áŀĺ": 8783, "áŁĴáŀīáŀ¶áŀĢáŁĭáŀķáŁĴáŀ¢áŀ¾áŀĽ": 8784, "áŀļáŀ¼áŀĶáŀĹáŀ¶áŀĸ": 8785, "áŀļáŁĢáŀĶ": 8786, "ĠáŀĲáŀľáŀ·áŀĢáŀ¶": 8787, "ªà¸Ńà¸ļà¸": 8788, "ĠLe": 8789, "áŀķáŁĴáŀĳáŁĥ": 8790, "áŀĶáŁīáŁĩáŀĸáŀ¶áŀĽáŁĭ": 8791, "±c": 8792, "okep": 8793, "Ġparaan": 8794, "áŀĳáŀ·áŀī": 8795, "Ġà¸¡à¸²": 8796, "ªà¸³à¸Ħà¸": 8797, "Ġà»ģàº¥à»īàº§": 8798, "áŀħáŀ¶áŀĺ": 8799, "áŀ»áŀıáŁĴáŀıáŀ·": 8800, "áŀ·áŀŁáŁĦáŀĴáŀĵáŁį": 8801, "Ġkepada": 8802, "±áĢľáĢ¸áĢ": 8803, "ĠáĢĿáĢ«": 8804, "àº°àºĻàº±": 8805, "çİ©": 8806, "áĢŀáĢ¬áĢĽ": 8807, "æĲ": 8808, "ĠáŀŁáŀ¶áŀĴáŀ¶áŀļáŀİáŁĪ": 8809, "Ġáŀĸáŀ¶áŀĵáŁĭ": 8810, "ģà»į": 8811, "ĠAugust": 8812, "áŀĸáŁĴáŀļáŀ¹": 8813, "±áĢ»áĢķ": 8814, "ruary": 8815, "ĠáĢĻáĢŁáĢ¬": 8816, "áĢ¶áĢĢáĢŃáĢĶáĢ¹áĢ¸": 8817, "¡áĢ¬áĢ¸": 8818, "qu": 8819, "çĪ": 8820, "ĭà¸µ": 8821, "pit": 8822, "áĢķáĢĲáĢ¹áĢŀ": 8823, "ĠáĢ»áĢĻáĢĶáĢ¹áĢĻáĢ¬áĢ·": 8824, "áĢŀáĢ¬áĢ¸áĢ": 8825, "áŀĶáŁĴáŀļáŀĢáŀ½áŀı": 8826, "ģáĢ²áĢ·áĢĲáĢ¬": 8827, "ĠáĢŀáĢĺáĢ¬áĢĿ": 8828, "ĠáŁ¥áŁł": 8829, "áŀŁáŀ¶áŀħáŁĭ": 8830, "áŀ¡áŁĤáŀĢ": 8831, "ĠáŀĢáŁĴáŀĵáŀ»áŀĦáŀĢáŀ¶áŀļ": 8832, "ĠáĢĨáĢŃáĢ¯áĢĲáĢ²áĢ·": 8833, "ĠáĢ¡áĢ±áĢ»áĢģáĢ¡áĢ±áĢĶ": 8834, "Ġurl": 8835, "áĢĻáĢ½áĢ¬áĢķáĢ«": 8836, "±áĢľáĢ¸áĢ±áĢĲáĢ¼": 8837, "áĢĢáģłáĤĴ": 8838, "áĢ¼áĢŃáĢ¯áĢ·": 8839, "Ġ!!": 8840, "áŁĴáŀĵáŁĥ": 8841, "áŀķáŁĤáŀĵ": 8842, "áĢ¸áĢĢáĢ¯áĢŃ": 8843, "áĢ±áĢŁáĢ¬": 8844, "ĠáĢ¡áĢĤáģ¤": 8845, "áĢŃáĢĻáĢ·áĢº": 8846, "Ľà¸¥à¸²à¸": 8847, "è´¹": 8848, "à¸£à¸ĸ": 8849, "áŀĶáŀ»áŀĤáŁĴáŀĤáŀĽ": 8850, "áŀ¸áŀŁ": 8851, "hah": 8852, "åĬ¿": 8853, "uc": 8854, "áĢĽáĢ½áĢ¬": 8855, "ĠáĢķáĢ¼áĢĦáĢº": 8856, "ĠáŀŁáŀĹáŀ¶": 8857, "Ł³": 8858, "ĠáŀĸáŁĲáŀıáŁĮáŀĺáŀ¶áŀĵáŀĩáŀ¶áŀıáŀ·": 8859, "ĠáŀĬáŁĨáŀİáŀ¾áŀļáŀĢ": 8860, "Ġà®ħà®µà®°": 8861, "«à¹ĩà¸Ļ": 8862, "àº·à»Ī": 8863, "Ġkita": 8864, "ĠáŀĨáŁĴáŀĵáŁĦáŀı": 8865, "ĠthÃ¬": 8866, "ĠáŀļáŀĦáŁĴáŀľáŀ¶áŀĵáŁĭ": 8867, "ĠáŀĹáŀ¶áŀĤáŀ¸": 8868, "ĠáŀĳáŁĨáŀłáŁĨ": 8869, "àº±àºĩàºģàº": 8870, "ģà¸§à¹Īà¸²à¸": 8871, "ĠNat": 8872, "à®µà®¿à®²à¯įà®²à¯Ī": 8873, "Ġáŀ±áŀĢáŀ¶áŀŁ": 8874, "Ġtaong": 8875, "Ġall": 8876, "Ġ05": 8877, "áŀŁáŀĦáŁĴáŀĢáŀ¶áŀıáŁĭ": 8878, "Ġáŀĩáŀ¿": 8879, "lu": 8880, "ĠFebruary": 8881, "áĢ¯áĢ¶áĢ¸áĢĻ": 8882, "áŁĴáŀļáŀ¹áŁĩ": 8883, "åĭ": 8884, "ĠáŀĩáŀĵáŀļáŀĦáŀĤáŁĴáŀļáŁĦáŁĩ": 8885, "áŀ¶áŀĺáŁĹ": 8886, "áŀ¶áŀĵáŀ¹áŀĦ": 8887, "áº¡o": 8888, "à»īàºŃàºĻ": 8889, "ĠçĻ": 8890, "ĠáŀĸáŁĴáŀļáŁĩáŀ¢áŀĦáŁĴáŀĤ": 8891, "áĤıáģ¶": 8892, "áĢºáĢ¬áĢ·": 8893, "ĠáĢķáĢĬáĢ¬áĢĽ": 8894, "Ġáŀĩáŀ¸áŀľ": 8895, "à®¿à®±à¯įà®ķà¯ģ": 8896, "áŀļáŀł": 8897, "ĠãĢĭ": 8898, "ĠáĢ¡áĢĸáĢ¼áĢ²áĤĶ": 8899, "áĢĨáĢŃáĢ¯áĢĦáĢºáĢĽáĢ¬": 8900, "áŀĴáŁĴáŀĽáŀ¶áŀĢáŁĭ": 8901, "Ħà¸·à¸Ń": 8902, "eta": 8903, "áŀĤáŀ¶áŁĨáŀĳ": 8904, "áŀĢáŀĵáŁĴáŀĽáŀĦ": 8905, "áŀĢáŀĢ": 8906, "unan": 8907, "áĢĨáĢ²": 8908, "æķĻ": 8909, "ĠáĢĳáĢŃáĢ¯áĤĶ": 8910, "áĢŀáĢľáĢ²": 8911, "áĢĻáĢ½áĢ¬áĢ±áĢĲáĢ¬áĢ·": 8912, "ĠáĢĲáĢħáĢ¹": 8913, "áĢĶáĢ±áĢŀ": 8914, "àº°àº¡àº²àºĬ": 8915, "ĠáŀķáŁĴáŀŁáŀ¶áŀļ": 8916, "ĠáŀĬáŀĬáŁĤáŀĽ": 8917, "Ġ26": 8918, "áŁĴáŀļáŀ¾áŀĶáŁĴáŀļáŀ¶áŀŁáŁĭ": 8919, "à»ĢàºĪàº»à»ī": 8920, "à¹Ĥà¸¥à¸ģ": 8921, "Ġmy": 8922, "ini": 8923, "áŀļáŀĬáŁĴáŀĭáŀĶáŀ¶áŀĽ": 8924, "áŀĳáŀ¸áŀıáŀ¶áŁĨáŀĦ": 8925, "àºĶàºģ": 8926, "áŀĲáŁĴáŀĺáŀ¸áŁĹ": 8927, "vious": 8928, "ĠáŀĢáŀ¶áŀļáŀĢ": 8929, "Ġà®ħà®³": 8930, "Ãºc": 8931, "àº²àºķ": 8932, "áŁĴáŀĻáŀ¼": 8933, "ser": 8934, "Ġkong": 8935, "Ġnoong": 8936, "áŀĶáŀīáŁĴáŀħáŀ¼áŀĽ": 8937, "¢àº¹à»Īà»ĥàºĻàº": 8938, "åºĹ": 8939, "¡à¸±à¸Ļà¸": 8940, "áŀħáŀ¶áŀĻ": 8941, "ĠáŀŁáŀ»áŀľáŀıáŁĴáŀĲ": 8942, "ĠáŀļáŁĢáŀĦ": 8943, "Ġáŀĵáŀ·áŀĦáŀ¢": 8944, "áĢģáĢŃáĢ¯áĢĢáĢº": 8945, "å²": 8946, "áŀŁáŀ¶áŀļáŀĸáŁĲáŀıáŁĮáŀĺáŀ¶áŀĵ": 8947, "áŀĹáŁģáŀĳ": 8948, "áº±ng": 8949, "áŀĶáŀ¢": 8950, "Ľàº°àºª": 8951, "à¤": 8952, "à®µà¯Ī": 8953, "áŀĬáŀ¼áŀĦ": 8954, "ĠáŀĬáŁĦáŀĻáŀĺáŀ¶áŀĵ": 8955, "Ĥà¹īà¸Ńà¸": 8956, "ĠáŀģáŁĤáŀĺáŀ¸": 8957, "áŀ»áŀĳáŁĴáŀĴáŀĵ": 8958, "ĠáŀŁáŀĦáŁĴáŀĥ": 8959, "áĢĢáĢŃáĢ¯áĢĦáĢº": 8960, "ĠáŀĹáŁĴáŀĽáŀ¾áŀĦ": 8961, "Ľàº°à»ĢàºĹàºĶàº": 8962, "ĠáŀģáŁĤáŀľáŀ·áŀħáŁĴáŀĨáŀ·áŀĢáŀ¶": 8963, "ĠáŀĢáŁĴáŀıáŀ¸": 8964, "emb": 8965, "áĢ¡áĢĸáĢ¼áĢ²áĤķ": 8966, "ĠáĢŀáĢ°áĤķ": 8967, "ĠáĢĵáĢ¬áĢĲáĢ¹áĢ": 8968, "ĠáĢĲáĢŃáĢ¯áĢĦáĢºáĢ¸áĢ": 8969, "áŀĽáŁĴáŀĶáŀ¸": 8970, "áģ¾áĢĢáĢĲáĢ¬": 8971, "áĢħáĢ¹áĢĻ": 8972, "áĢ¶áĢ¯áĢ¸áĢŀ": 8973, "ĳáĢ¼áĢĢáĢ¹áĢ": 8974, "ĠáĢĢáĢ»áĢ±áĢ¬áĢĢáĢº": 8975, "à¸²à¸¡": 8976, "¡à¸±à¸Ļ": 8977, "áŀĳáŀ¶áŁĨáŀĦáŀĸáŀ¸": 8978, "áĢ¡áĢĲáĢ½áĢĦáĢºáĢ¸": 8979, "Ġáŀ¢áŀ¶áŀĢáŀ¶áŀŁ": 8980, "èµ·": 8981, "Ħàº°àºĻàº°": 8982, "Ġà¸Ĥà¸Ńà¸ĩ": 8983, "Ġà»ĢàºĬàº´à»Īàºĩàº": 8984, "áŀĳáŀ»áŀĢáŁĴáŀģ": 8985, "ĠáŀĬáŁĦáŁĩ": 8986, "ĠáŀĨáŁĴáŀĽáŀ¾áŀĻáŀıáŀĶ": 8987, "áŀļáŀ¶áŀĩáŀĴáŀ¶áŀĵáŀ¸áŀĹáŁĴáŀĵáŁĨáŀĸáŁģáŀī": 8988, "áŀĹáŁĴáŀīáŁĢáŀľ": 8989, "ķà¸ģà¸": 8990, "Ġalisin": 8991, "áŀıáŀ¶áŁĨáŀĦáŀĸáŀ¸": 8992, "à®©à¯įà®ª": 8993, "Ġbabae": 8994, "yos": 8995, "hone": 8996, "ĠáŀļáŀĶáŀŁáŁĭáŀģáŁĴáŀĽáŀ½áŀĵ": 8997, "±áĢĶáĢĽáĢ¬": 8998, "xx": 8999, "ĲáĢ¯áĢŃáĤĶ": 9000, "ĢáĢ¬áĢ¸": 9001, "ĠáĢ±áĢĲáĢ¬áĢ·": 9002, "áĢģáĢºáĢŃáĢ³áĤķ": 9003, "áĢĢáĢŃáĢ¯áĢľáĢĬáĢ¹áĢ¸": 9004, "±áĢ»áĢĻáĢ¬áĢĢáĢ¹áĢ": 9005, "ĠáģĤáģĢáģģáģī": 9006, "ĠáĢĺáĢļáĢ¹áĢŀáĢ°": 9007, "áĢŀáĢ¼áĢ¬áĢ¸": 9008, "áĢľáĢ»áĢ¾áĢĦáĢº": 9009, "ĠáŀıáŁĴáŀļáŁĢáŀĺ": 9010, "ĠRead": 9011, "áŀĬáŀ¶áŀħáŁĭ": 9012, "iging": 9013, "é»": 9014, "áŀĩáŀ¶áŀĽ": 9015, "áŀģáŀ¶áŀĵ": 9016, "ĠàºĦàº·": 9017, "à»ĪàºŃàºį": 9018, "»¿": 9019, "pl": 9020, "Ġï»¿": 9021, "ĠáŁ¢áŁłáŁ¡áŁ¥": 9022, "áŀĺáŀ¼áŀĽáŀĬáŁĴáŀĭáŀ¶áŀĵ": 9023, "æľį": 9024, "áŀĹáŁĴáŀĽáŀº": 9025, "áĢĲáĢĶáĢ¹áĢ¸": 9026, "áĢ±áĢ¸áĢķ": 9027, "áŀ·áŀŁáŀ¸": 9028, "ĠáŀŁáŁĴáŀĵáŀĦ": 9029, "à¸£à¸´à¸¡à¸": 9030, "ĠáŀŁáŀĺáŁĴáŀıáŁģáŀħáŀıáŁģáŀĩáŁĦ": 9031, "ĠáŀŁáŀ¸áŀłáŀ¶": 9032, "ĠáŀĺáŀĢáŀĸáŀ¸": 9033, "à¹ĩà¸Ħ": 9034, "àº²àº¡àºµ": 9035, "Ĺà¸±à¸": 9036, "á»ĳng": 9037, "Ġ29": 9038, "áŀĶáŁĴáŀļáŀŁáŀ¶áŀŁáŀĵáŁį": 9039, "Ġsaya": 9040, "Ġè¯": 9041, "áŀĶáŀļ": 9042, "áĢ±áĢļáĢ¬áĢĢáĢ¹áĢ": 9043, "ĠáĢķáĢŃáĢ¯áĢĻáĢŃáĢ¯": 9044, "áŀıáŁĴáŀļáŀĦáŁĭ": 9045, "Ġà®Ĳ": 9046, "gamit": 9047, "áŀ¶áŀĲáŁĴáŀĺáŀ¸": 9048, "Ġorang": 9049, "ĠáŀŁáŀĢáŀĺáŁĴáŀĺ": 9050, "ĠáŀĺáŀĵáŁĴáŀĳáŀ¸áŀļ": 9051, "ĠáŀĸáŁĴáŀļáŁĩáŀŁáŀ¸áŀłáŀĵáŀ»": 9052, "ĠáŀĶáŀİáŁĴáŀĮáŀ·áŀı": 9053, "ĠáŀĲáŁĴáŀĦáŁĥáŀĵáŁģáŁĩ": 9054, "àº»àºļàº®àº»àº¡": 9055, "Ĺàº±àºļ": 9056, "ĠáŀģáŁĤáŀĢáŀīáŁĴáŀīáŀ¶": 9057, "áŁĴáŀĦáŀ¶áŀĻ": 9058, "áĢĿáĢĿ": 9059, "áĢ¬áĢ¸áĢĻáĢ¾áĢ¬": 9060, "Ĺà¸ĩà¸ļà¸Ńà¸¥": 9061, "à¸Ńà¸·à¹Īà¸Ļ": 9062, "áŀłáŁħ": 9063, "Ġàº«àº¼àº²àºį": 9064, "orn": 9065, "Ġyan": 9066, "Ġfung": 9067, "Ġdala": 9068, "à»įàº²àºĻàº§": 9069, "à»ĪàºŃàºĩàºĹà»Īàº½àº§": 9070, "ĠáĢ§áĢĽáĢ¬": 9071, "áĢ½áĢºáĢĦáĢ¹": 9072, "ĠáĢ±áĢģáĢº": 9073, "áĢħáĢĬáĢº": 9074, "Ġà®Ĩà®©à®¾à®²à¯į": 9075, "åħĭ": 9076, "áŀŁáŀĺáŀıáŁĴáŀĲáŀĹáŀ¶áŀĸ": 9077, "áŀĩáŀĵáŀŁáŀĦáŁĴáŀŁáŁĲáŀĻ": 9078, "ĠVO": 9079, "áŀľáŀı": 9080, "£p": 9081, "áĢ¬áĢ¸áĢĲáĢ½áĢĦáĢº": 9082, "Ġalam": 9083, "à¹Ģà¸Ķà¸": 9084, "áŀļáŀĶáŀŁáŁĭáŀĤáŀ¶áŀıáŁĭ": 9085, "Ġating": 9086, "ĺà¸¸à¸£à¸": 9087, "àºŃàºļàºĦ": 9088, "¸à¸¡à¸": 9089, "áŀıáŁĴáŀĲáŀ·áŀĹáŀ¶áŀĸ": 9090, "Ġti": 9091, "duk": 9092, "áŀĩáŁĴáŀĪ": 9093, "áŀ¶áŀļáŀĳ": 9094, "à®¾à®ªà¯įà®ª": 9095, "agi": 9096, "áŀ¶áŀĻáŀĺáŀ¶áŀĵáŀĩáŁĲáŀĻ": 9097, "ĠâĢĭ.âĢĭ": 9098, "ĠáŀŁáŁĨáŀİáŀ¶áŀĦ": 9099, "ĠáŀĺáŁīáŀºáŀĵ": 9100, "ĠáŀĵáŁħáŀıáŀ¶áŀĺ": 9101, "àºĻà»įàº²à»ĥàºĬà»ī": 9102, "àº²àºŃ": 9103, "Īà¸³": 9104, "Ġáŀħáŀ¶áŀĢáŁĭ": 9105, "ĠáŀĢáŀ¶áŀļáŀĬ": 9106, "ä¸ľ": 9107, "Ã´n": 9108, "áŁģáŀļáŀ¸": 9109, "Ġà®ĩà®²": 9110, "áŁ¢áŁłáŁ¢áŁł": 9111, "áŀĽáŀĢáŁĴáŀģáŀİáŁĪ": 9112, "àº±àºĶàºĪ": 9113, "Ġmereka": 9114, "Ġå¯": 9115, "áŀħáŁĴáŀĨ": 9116, "à¹ĭ": 9117, "áŀ¢áŀıáŁĭ": 9118, "à®µà®°à¯į": 9119, "ĠáŀĶáŁīáŀ¼áŀĽáŀ·áŀŁ": 9120, "¨à¸²à¸ªà¸": 9121, "ĠáŀĶáŀīáŁĴáŀħáŁģáŀī": 9122, "Ġnasa": 9123, "àº«àº¡": 9124, "«àº¼àº·": 9125, "ĤàºŃàºĩàºĹà»Īàº²àºĻ": 9126, "ĠáŀĤáŀ¼": 9127, "áŀ¶áŀļáŀħ": 9128, "Ĥáŀ¶áŀĽáŁĭ": 9129, "Ġà®¤à®°": 9130, "æĹ¶æĹ¶å½©": 9131, "è§Ĩ": 9132, "ĠáŀŁáŀĺáŀ¶áŀĤáŀĺ": 9133, "ĠáŀļáŀĶáŁĢáŀĶ": 9134, "Ġà»ģàºľ": 9135, "áĢ¬áĢ¸áĢĲáĢļáĢ¹": 9136, "ĠáĢ¡áĢ±áĢ»áĢģáĢģáĢ¶": 9137, "áĢĶáĢ±áĢĽáĢ¬": 9138, "ĠáŀĪáŀ¶áŀĵ": 9139, "à»īàº²àºŀàº°à»ĢàºĪàº»à»īàº²": 9140, "àºŀàº§àºģ": 9141, "ĠáŀĢáŁĴáŀļáŁĦáŀĻáŀĸáŀ¸": 9142, "ĠMore": 9143, "áŀĳáŁħáŀĽáŀ¾": 9144, "àº²àº¥àº°àº": 9145, "«à¸į": 9146, "åıĬ": 9147, "àº°à»ľ": 9148, "áŀĳáŀ»áŀĢáŀĬáŀ¶áŀĢáŁĭ": 9149, "Ġà®µà¯Īà®¤à¯įà®¤": 9150, "à¸£à¸²à¸¢": 9151, "áŀºáŀĺáŁīáŀĦáŁĭ": 9152, "Ġbahay": 9153, "Ġdo": 9154, "Ġfrom": 9155, "Ġwe": 9156, "wan": 9157, "áŀ¶áŀĢáŁĭáŀĳáŀ¶áŀī": 9158, "Ġà®®à®¿à®ķ": 9159, "Ġà¸ªà¸¡à¸±à¸Ħà¸£": 9160, "Ħà¸£à¸·à¹Īà¸Ńà¸ĩ": 9161, "æĴ": 9162, "itut": 9163, "ĠáŀŁáŁĴáŀļáŀ¶áŀľáŀĩáŁĴáŀļáŀ¶áŀľ": 9164, "ģà¹Ģà¸Ħà¸£à¸Ķà¸´à¸ķà¸Łà¸£à¸µ": 9165, "ŀà¸´à¹Īà¸¡à¸": 9166, "ĠáŀŁáŀĺáŁĲáŀĻ": 9167, "rawan": 9168, "áĢĶáĢ®áĢ¸áĢ": 9169, "ĠáŀĢáŀİáŁĴáŀıáŀ¶áŀĽ": 9170, "à¸Ńà¸²à¸Īà¸": 9171, "ĠNext": 9172, "áŀĽáŀ¿áŀĵ": 9173, "áĢħáĢ¹áĢħáĢĬáĢº": 9174, "á»ĭch": 9175, "çĽ´": 9176, "ĠHe": 9177, "áŀĺáŁīáŀºáŀĵ": 9178, "áŀĺáŀ·áŀĵáŀĶáŀ¶áŀĵ": 9179, "Ġgra": 9180, "àº§àºĶ": 9181, "ose": 9182, "áŀĶáŀħáŁĴáŀħáŀ»áŀĶáŁĴáŀĶáŀĵáŁĴáŀĵ": 9183, "áŀĬáŁĤáŀĵ": 9184, "áĢ¶áĢ¯áĢ¸áĢħ": 9185, "áĢĻáĢ¾áĢ¯áĢĢáĢŃáĢ¯": 9186, "áŀĢáŀ¶áŀļáŀĶáŁĴáŀļáŀĢáŀ½áŀı": 9187, "Ġface": 9188, "Ġbago": 9189, "ĠáŀłáŁģáŀıáŀ»áŀĢáŀ¶áŀļáŀİáŁį": 9190, "ĠáŀĶáŁīáŁĩáŀĸáŀ¶áŀĽáŁĭ": 9191, "Ġà»Ģ": 9192, "åĨħ": 9193, "ĠáŀĶáŁĨáŀĸáŁģáŀī": 9194, "àºģàºĩàº²àºĻ": 9195, "ĠáŀĳáŁĨáŀĵáŀ·áŀī": 9196, "àº±àºļàºªàº´àºĻàºĤàºŃàºĩàº¥àº±àºĶ": 9197, "®àº½àºĻ": 9198, "ĠáŀħáŁĴáŀļáŀĢ": 9199, "ĠáŀĢáŀ»áŀĺáŀ¶áŀļ": 9200, "Ġáŀ¢áŀĹáŀ·áŀľáŀĮáŁĴáŀįáŀĵáŁį": 9201, "áŀĸáŀ¶áŀĵ": 9202, "áŀİáŁĴáŀĮáŀ¶": 9203, "ick": 9204, "mo": 9205, "Ġà¸§à¸´à¸ĺà¸µ": 9206, "Ġà®¨à®¾à®Ł": 9207, "à¸µà¹īà¸": 9208, "''": 9209, "àº°àºŃàº»àºĩ": 9210, "Ġáŀļáŀ»áŀŁáŁĴáŀŁáŁĬáŀ¸": 9211, "ĠáŀĺáŁĴáŀıáŀĦ": 9212, "Ġàºļà»įàº¥àº´": 9213, "ĠáŀĶáŁĴáŀļáŀĩáŀ¶": 9214, "áŁģáŀĩáŁĴáŀļ": 9215, "áŀ·áŀĶáŀ¶áŀĢ": 9216, "Ġàºģàº§": 9217, "áĢħáĢ¬áĢ¸áĢľ": 9218, "àºŃàº²àºĶ": 9219, "atan": 9220, "łà¸²à¸©à¸²": 9221, "áŀ¶áŀĺáŀĸáŀĽ": 9222, "áĢĸáĢĢáĢº": 9223, "ĠáŀĶáŁĴáŀļáŀıáŀ·áŀĶáŀıáŁĴáŀıáŀ·": 9224, "åı·": 9225, "áĢ¶áĢķ": 9226, "ĠáŀĶáŀļáŀ·áŀŁáŁĴáŀĲáŀ¶áŀĵ": 9227, "ĠáŀĶáŀĳáŀĽáŁĴáŀĺáŀ¾áŀŁ": 9228, "ĠáŀĴáŁĴáŀľáŀ¾áŀ²áŁĴáŀĻ": 9229, "áŁĨáŀİáŁĦáŀĻ": 9230, "áŀŁáŀĺáŁĴáŀıáŁģáŀħ": 9231, "áŀŁáŀ·áŀĵ": 9232, "Ġrem": 9233, "Ġ2011": 9234, "ardia": 9235, "Ġkapa": 9236, "áŀĸáŁĴáŀļáŀĺáŀĸáŁĴáŀļáŁĢáŀĦ": 9237, "Ġà¸ľà¸¥à¸": 9238, "à¸µà¸¢à¸§à¸": 9239, "áŀ»áŀıáŁĴáŀıáŀ·áŀĴáŀĺáŁĮ": 9240, "®àº¹àºļ": 9241, "áŀ¢áŁģáŀŁ": 9242, "me": 9243, "Ġéĩ": 9244, "ĠáŀŁáŁĴáŀĲáŀ·áŀıáŀĵáŁħ": 9245, "imb": 9246, "ĠáŀŁáŀ»áŀľ": 9247, "ĠáŀľáŀĶáŁĴáŀĶáŀĴáŀĺáŁĮ": 9248, "áĢ±áĢľáĢ¬áĢĢáĢ¹": 9249, "áĢĮáĢ¬áĢĶ": 9250, "ĠáĢķáĢ¼áĢĬáĢºáĢŀáĢ°": 9251, "Ã¨": 9252, "áĢĲáĢŃáĢ¯áĢĢáĢ¹áĢ": 9253, "áĢ±áĢķáĢĻáĢļáĢ¹áĢ·": 9254, "ĠáĢ¡áĢĲáĢ°": 9255, "«àº¼àº§àºĩ": 9256, "ĠáŀļáŀĢáŁĴáŀŁáŀ¶": 9257, "ĠáĤĶ": 9258, "áĢģáĢ²áĢ·áĢŀáĢĬáĢ¹": 9259, "ķáĢ¯áĢ¶": 9260, "Ġà®ķà¯ģà®´": 9261, "æĦı": 9262, "ĠáĢĴáĢ®áĢĢ": 9263, "ĠáŀĶáŁĴáŀļáŀĩáŀ»áŁĨ": 9264, "Ĺàº¸àºģàº": 9265, "ĠáĢĢáĢŃáĢħáģ¥": 9266, "ĠáĢ±áĢ»áĢĻáĢ¬áĢĢáĢ¹áĢ": 9267, "ĠáĢ¡áĢŀáĢ¶": 9268, "ªà¹Īà¸ĩ": 9269, "Ġbaga": 9270, "ĠáŀĶáŁĨ": 9271, "Ġáŀ¢áŁĬáŀ¸áŀļáŁī": 9272, "áĢ¸áĢĻáĢºáĢ¬áĢ¸": 9273, "áĢŃáĢħáĢ¹áĢħ": 9274, "Ġweb": 9275, "Ġ03": 9276, "áŀĹáŀ·": 9277, "Ġà¹ģà¸¥": 9278, "áŀĢáŁĴáŀıáŀ¸": 9279, "áĢĽáĢĢáĢ¹áĢ": 9280, "áĢĸáĢ¼áĢħáĢºáĢķáĢ«áĢĲáĢļáĢº": 9281, "ĻáĢ»": 9282, "Ġà»ģàº«à»Īàºĩ": 9283, "Ġàºŀàº°": 9284, "àº·àºĻàº": 9285, "áŀĢáŀĺáŁĴáŀļáŀ·áŀı": 9286, "cl": 9287, "ľà¸¥à¸´à¸ķà¸": 9288, "±à¹īà¸Ļ": 9289, "Ġàºĩàº²àºĻ": 9290, "Æ¡i": 9291, "àºģàº§à»Īàº²": 9292, "à¯ģà®ķà®¿à®©à¯įà®±": 9293, "ĠáŀłáŁģáŀĦ": 9294, "ĠáŀļáŀĬ": 9295, "66": 9296, "æ¯Ķ": 9297, "à¹ĩà¸Ķà¸": 9298, "ĺà¸£à¸£à¸¡à¸": 9299, "Ġáŀĺáŀ¶áŀŁ": 9300, "ĠáŀĶáŁĴáŀļáŀĬ": 9301, "ĠáŀŁáŁģáŀļáŀ¸": 9302, "ĠáŀıáŁĴáŀļáŀ¶áŁĨ": 9303, "ĠáŀģáŁĤáŀĺáŀ¸áŀĵáŀ¶": 9304, "Ġro": 9305, "ĠáŀĢáŀ¶áŀŁ": 9306, "à»Ŀàº»àºĶ": 9307, "Ġmawalan": 9308, "Ġpanahon": 9309, "ĠPrevious": 9310, "áŀŁáŀļáŀ»áŀĶ": 9311, "áŀĴáŀ¶áŀıáŀ»": 9312, "à¸Ļà¸²à¸Ķ": 9313, "rou": 9314, "à»ģàºģà»ī": 9315, "cto": 9316, "ĠáŀĺáŁīáŀ¶": 9317, "ķáĢĦáĢ¹áĢ": 9318, "ĠáĢĲáĢķáĢ¹áĢĻáĢ±áĢĲáĢ¬áĢ¹áĢ": 9319, "ĠáĢ±áĢĴáĢ«áĢĢáĢ¹áĢĲáĢ¬": 9320, "áĢĶáĢ¹áĤķ": 9321, "áĢ±áĢĸáĢ¼": 9322, "ĠáŀĶáŀ¶áŀĢáŁĭ": 9323, "ĠáĢĻáĢŃáĢĺ": 9324, "ĠáĢ±áĢĲáĢ¬áĢĦáĢ¹áĢ¸": 9325, "áĢŀáĢħáĢº": 9326, "à»Ģàº«àº±àºĻ": 9327, "ĠáŀĴáŀĵáŀ¶áŀĤáŀ¶áŀļ": 9328, "ĠáŀĳáŁħáŀĽáŀ¾": 9329, "ļà¸¸": 9330, "ĠáŀĳáŁħáŀĢáŀ¶áŀĵáŁĭ": 9331, "Ġà®µà®¿à®³": 9332, "à¹ģà¸Ľà¸": 9333, "æĢİä¹Ī": 9334, "Ġå¥": 9335, "Ġsu": 9336, "áĢ±áĢĶáĢĲáĢ¬": 9337, "Ġonline": 9338, "áĢľáĢ»": 9339, "®à»Īàº²àºĩàºģàº²àºį": 9340, "ĠáŀĳáŀĵáŁĴáŀĽáŁģ": 9341, "iling": 9342, "Ġáŀĩáŀ¶áŀĵáŁĭ": 9343, "ĠáŀĢáŀ¶áŀļáŀĴáŁĴáŀľáŀ¾": 9344, "ç³»": 9345, "Ġàºģàº»": 9346, "àºĹàºµà»Īàº¡àºµ": 9347, "ĠáŀĢáŀ¼áŀļáŁīáŁģáŀģáŀ¶áŀĦ": 9348, "áŁĨáŀİáŀ¾áŀĵ": 9349, "áŀŁáŀĺáŁĴáŀĽáŀ¶áŀĶáŁĭ": 9350, "áŀļáŀĶáŀŁáŁĭáŀĻáŀ¾áŀĦ": 9351, "áŀĺáŁĴáŀĽáŁĦáŁĩ": 9352, "áŀĺáŀ·áŀĵáŀ¢áŀ¶áŀħ": 9353, "elah": 9354, "áĢ»áĢķáĢ®áĢ¸áĢ": 9355, "áĢ±áĢĢáĢ¬áĢĦáĢ¹áĢ": 9356, "áĢ¯áĢŃáĢ¸áĢĽ": 9357, "áĢ¯áĢŃáĢ¸áĢ": 9358, "ĠáĢĽáĢ¬áĢģ": 9359, "der": 9360, "ĠáĢ¡áĢĸáĢ¼áĢ²áĤķ": 9361, "áĢĶáĢ±áĢĲáĢ²áĢ·": 9362, "áĢ±áĢĶáĢ¬áĢĢáĢ¹áĢ": 9363, "áĢ¬áĢ¸áĢĻáĢ¾áĢ¯": 9364, "Ġpos": 9365, "Ġà¸Īà¸°à¸": 9366, "Ã¢m": 9367, "áŀħáŀ¹áŀĦ": 9368, "éĻ¢": 9369, "áŀĤáŁĴáŀļáŁĦáŁĩáŀĲáŁĴáŀĵáŀ¶áŀĢáŁĭ": 9370, "ĠáŀŁáŀ¶áŀĴáŀ¶áŀļáŀİ": 9371, "Ġáŀĺáŀ·áŀĲáŀ»áŀĵáŀ¶": 9372, "±à¸ĩà¸ģà¸¤à¸©": 9373, "áŀľáŀ·áŀĴáŀ¶áŀĵ": 9374, "áŀľáŁģ": 9375, "çĿĢ": 9376, "Ġbu": 9377, "à®Łà¯įà®Łà¯ģ": 9378, "áŀļáŀģ": 9379, "àºķà»Īàº²àºĩ": 9380, "Ġà¹ĥà¸«à¹īà¸": 9381, "áŀĺáŀ·áŀĵáŀĳáŀ¶áŀĵáŁĭ": 9382, "ĠáģģáģĨ": 9383, "áŀ·áŀľáŀıáŁĴáŀı": 9384, "à¹Ģà¸Ĥà¹īà¸²à¸": 9385, "à®Ļà¯įà®ķà®³à¯Ī": 9386, "áŀ¡áŀ¶áŀĻ": 9387, "oh": 9388, "áĢķáĢ¹áĢŀ": 9389, "áĢħáĢ¶áĢ¯": 9390, "áĢ±áĢ¸áĢģáĢ»": 9391, "ĠáŀĽáŀ·áŀģáŀ·áŀı": 9392, "àº²àºĪ": 9393, "T00": 9394, "ŀà¸Ļà¸±à¸Ļ": 9395, "à¸µà¸¢à¸§": 9396, "ĠáŀļáŀĶáŀ¶áŀĻáŀĢáŀ¶áŀļáŀİáŁį": 9397, "ĠáŀĬáŁĤáŀĵ": 9398, "Ġwr": 9399, "Ġmap": 9400, "àºªàº³": 9401, "áĢ¡áĢ±áĢ»áĢģ": 9402, "áĢĽáĢĲáĢļáĢ¹": 9403, "áĢĻáĢľáĢ²": 9404, "áĢĦáĢºáĢ¸áĢĢ": 9405, "ĠáŀĢáŀ¶áŀļáŀĤ": 9406, "ark": 9407, "Ġà¸£à¸±à¸ļà¸": 9408, "Ġ00Z": 9409, "ģà¸İ": 9410, "Ġà®ļà¯ĩà®°": 9411, "Ġï¼Ł": 9412, "ĠáŀĢáŀ¼áŀļáŁīáŁģ": 9413, "Ġilang": 9414, "Ġáŀ¢áŀĹáŀ·áŀľáŀĮáŁĴáŀį": 9415, "áĢģáĢºáĢħáĢ¹áĢ": 9416, "áĢ°áĢ¸áĢļ": 9417, "éĺ³": 9418, "ĠJanuary": 9419, "áŀĳáŀ¸áŁ¡": 9420, "áŀĦáŁĴáŀļáŁĴáŀĤ": 9421, "ģn": 9422, "ĠáŀĶáŁĴáŀļáŀĪáŀĺ": 9423, "ĠáŀĶáŀĬ": 9424, "¡áĢĽ": 9425, "ĠáŀĨáŁĴáŀĵáŀ¶áŁĨáŁ¢áŁłáŁ¡áŁ§": 9426, "ĠRes": 9427, "áŀŁáŀłáŀĶáŁĴáŀļáŀıáŀ·áŀĶáŀıáŁĴáŀıáŀ·": 9428, "áŀŁáŀĺáŁĲáŀĻ": 9429, "ĠáĢĽáĢ½áĢĦáĢ¹áĢ¸": 9430, "ĠáĢ¡áĢĢáĢ»": 9431, "??": 9432, "æ±Ł": 9433, "ç»ĵ": 9434, "ŀàº²àºį": 9435, "áŀĵáŀ·áŀĢ": 9436, "à®®à¯ģà®®à¯į": 9437, "áŀĩáŀ¶áŀĸ": 9438, "áĢŀáĢĲáĢĦáĢ¹áĢ¸": 9439, "±áĢĢáĢ¬áĢĢáĢ¹áĢķáĢ¼áĢ²": 9440, "Ġáģģáģī": 9441, "ļà¸£à¸´à¸©à¸±à¸Ĺ": 9442, "Ġà®ıà®±à¯įà®ª": 9443, "áŀħáŁĨáŀİáŁĦáŀĺ": 9444, "Ġáģģáģĩ": 9445, "Ķà¸§à¸": 9446, "Ľà»Īàº½àºĻ": 9447, "ech": 9448, "ĠáĢĸáĢ½": 9449, "ĠáŁ¢áŁ¢": 9450, "ĠáŀľáŀıáŁĴáŀĲ": 9451, "ç±": 9452, "Ġ.âĢĿ": 9453, "pina": 9454, "ĠáŀĺáŁĴáŀıáŀ¶áŀĻ": 9455, "Ġáŀĳáŀ·áŀľ": 9456, "ĠáŀģáŁĤáŀĴáŁĴáŀĵáŀ¼": 9457, "ĠÂ®": 9458, "áŀŁáŀ»áŁĨ": 9459, "à¸²à¸Ļà¹Ģà¸": 9460, "áŀļáŀıáŁĭ": 9461, "ĠáŀŁáŀĦáŁĴáŀŁáŁĲáŀĻ": 9462, "ĠáŀļáŁĨ": 9463, "áĤĪáĢŃ": 9464, "áĢĶáĢ¾áĢ¯áĢĶáĢº": 9465, "ĠáŀĢáŁĨáŀİ": 9466, "ĠInstitut": 9467, "áŀļáŁĦáŀĤ": 9468, "áŀĳáŁĴáŀĴáŀ·áŀĸáŀĽ": 9469, "Ġà®ªà¯ģà®¤": 9470, "à¹Īà¸Ńà¸ĩà¸": 9471, "áŀĳáŀ¾áŀĶ": 9472, "Ġà»ĤàºŃ": 9473, "à»ĤàºĹ": 9474, "à¹ģà¸Ī": 9475, "áŀ¼áŀıáŁĴáŀļ": 9476, "áŀ·áŀĵáŁĴáŀĵáŀĵáŁĲáŀĻ": 9477, "tas": 9478, "orld": 9479, "ich": 9480, "Ĵáŀ¶áŀıáŀ»": 9481, "ªà¸³": 9482, "à®¨à¯įà®¤à¯ģ": 9483, "ĠáŁĸâĢĭ": 9484, "ĠáŀŁáŁĴáŀĦ": 9485, "ĠáŀĢáŀ¾áŀıáŀłáŁģáŀıáŀ»": 9486, "Ġáŀ¯áŀĢáŀŁáŀ¶áŀļ": 9487, "»áĢĸáĢħáĢ¹áĢŀáĢĬáĢ¹": 9488, "ĠáĢ¡áĢŃáĢķáĢ¹áĢ": 9489, "áĢĦáĢ¹áĢ±áĢ»áĢķ": 9490, "áĢļáĢ¹áĢľáĢ¯áĢŃáĤĶ": 9491, "áĢĻáĢ»áĢ¬áĢ¸áĢ": 9492, "ĠApp": 9493, "áŁģáŀŁáŀ¶áŀĳ": 9494, "áŀļáŁĨáŀĽáŁĤáŀĢ": 9495, "áŀķáŀĽáŀ·áŀıáŀķáŀĽ": 9496, "áŀĵáŀ»áŀľáŀıáŁĴáŀı": 9497, "è¨": 9498, "áŀĳáŁĴáŀĴáŀŁ": 9499, "áŀİáŀ¼": 9500, "Ġbut": 9501, "áŀĩáŀ¶áŀļáŀ": 9502, "Ġhal": 9503, "à¯įà®¨à¯įà®¤à¯ģ": 9504, "áŀħáŀĺáŁĴáŀļáŀ¾áŀĵ": 9505, "áŀĢáŁĨáŀĸáŀ¼áŀĽ": 9506, "à¹Ģà¸£à¸´": 9507, "ħn": 9508, "ĠáŀĶáŀİáŁĴáŀĬáŀ¶áŀĽ": 9509, "ĠáŀĶáŀĦáŁĴáŀĤ": 9510, "ĠáŀĢáŁĤáŀľ": 9511, "Ġáŀ¢áŁĨáŀİáŀ¶áŀħ": 9512, "àºĹàº±àºĩ": 9513, "æ»": 9514, "Ġáŀ¢áŀ¶áŀİ": 9515, "áŁĲáŀİáŁĴáŀĮ": 9516, "áŀĩáŀ¿": 9517, "Ġà®ķà®µ": 9518, "de": 9519, "áŀĢáŁĴáŀļáŀ¶áŀĺ": 9520, "ctober": 9521, "...": 9522, "ĠáŀļáŀĲ": 9523, "Ġà¹Ģà¸£à¸²à¸": 9524, "áĢ³áĢ¶": 9525, "ĠáĢħáĢĢáĢº": 9526, "Ġà»ĥà»Ŀà»Ī": 9527, "ĠàºĹàº°": 9528, "àº½àº§": 9529, "iá»ģn": 9530, "Ġhangga": 9531, "Ĺà¸²à¸ĩà¹Ģà¸": 9532, "Ġć": 9533, "èį": 9534, "ĠáŀĸáŀĦáŁĴáŀļáŀ¹áŀĦ": 9535, "Ġáŀıáŀ»áŀĽáŀ¶": 9536, "áĢĢáĢ»áĢ±áĢ¬áĢº": 9537, "ĠáŀĢáŀ¶áŁĨ": 9538, "ĠOctober": 9539, "áŀŁáŀĺáŁĴáŀĶáŀıáŁĴáŀıáŀ·": 9540, "à¯ģà®Ļà¯įà®ķ": 9541, "áŀĸáŁĦáŁĩ": 9542, "áŀĶáŀ¶áŀĵáŀĴáŁĴáŀľáŀ¾": 9543, "éĩı": 9544, "áĢĢáĢ¹áĢĨáĢ¶": 9545, "Ġáģ¿áĢĦáĢŃáĢĻáĢ¹áĢ¸áĢģáĢºáĢĻáĢ¹áĢ¸": 9546, "ĠáĢĽáĢ¼áĢ¬": 9547, "ĠáĢĺáĢ¬áĢĻáĢ½": 9548, "ĠáĢĸáĢĻáĢ¹áĢ¸áĢĨ": 9549, "ĠáĢ¦áĢ¸": 9550, "ĠáĢ¡áĢģáĢ¯áĢľáĢŃáĢ¯": 9551, "ĠáĢ¡áĢĸáĢ½áĢ²áĢ·": 9552, "Ġàºļàº±àºĻ": 9553, "àºĻà»Ħ": 9554, "áŀ¶áŀĺáŀ·áŀĵ": 9555, "·à¸Ļ": 9556, "Ġà®®à¯ĩà®²": 9557, "iá»ĥm": 9558, "àº¸àºļàº±àºĻ": 9559, "ept": 9560, "VI": 9561, "ĪáŀĶáŁĭ": 9562, "ĠáŀļáŀĶáŀŁáŁĭáŀĽáŁĦáŀĢ": 9563, "áĢģáĢ¶áĢ³": 9564, "ľáĢ¬áĢ¸": 9565, "ĠáĢĲáĢĢáĢļáĢ¹áĢ": 9566, "Ġblog": 9567, "áĤĲáĢ¯áĢķáĢ¹áĢ": 9568, "áĢĲáĢ¶": 9569, "ĠáŀĸáŀĵáŁĴáŀĴáŀ": 9570, "ĠáĢķáĢ»": 9571, "ĠáŀĲáŁĴáŀĵáŀ¶áŁĨ": 9572, "karoon": 9573, "à¹ģà¸¡à¸": 9574, "¥à¸·à¸Ńà¸Ķà¸": 9575, "ĠáŀıáŁĴáŀĶáŀ¼áŀĦ": 9576, "§à¸±à¸Ļà¸Ļà¸µà¹ī": 9577, "Ġ//": 9578, "áŀĶáŀ¶áŀļáŀ¶áŁĨáŀĦ": 9579, "ĠáĢĢáĢ¯áĢĶáĢº": 9580, "àº¸àºĶàºĹ": 9581, "ªà¸´à¹Īà¸ĩà¸": 9582, "Ġbo": 9583, "áŀıáŀ·áŀľáŀ·áŀĴáŀ¸": 9584, "å¸Ī": 9585, "áŀ¶áŀĢáŁĴáŀļáŀĢáŁĭ": 9586, "àº¡àº°àº": 9587, "áŀ¢áŀ¶áŀĻáŀ»": 9588, "Ġáŀľáŀ·áŀĴáŀ¶áŀĵ": 9589, "ĠáŀĶáŁĴáŀļáŀŁáŀ¶áŀŁáŀĵáŁį": 9590, "çī©": 9591, "Ġáŀĵáŀ¶áŀļáŀ¸": 9592, "ĠáŀĤáŁĦáŀļáŀĸ": 9593, "ĠAnd": 9594, "áŁĴáŀĺáŀ»áŁĨ": 9595, "áŁĴáŀıáŀĽáŁĭ": 9596, "Ĥàº¶à»īàºĻ": 9597, "áĢŃáĢĲáĢ¹áĢĨ": 9598, "áĢĢáĢ¹áĢĶ": 9599, "áĢľáĢĬáĢ¹áĢ": 9600, "áĢģáĢºáĢĢáĢ¹": 9601, "ĠáĢĻáĢŃáĢ¯áĢ¸áĢ": 9602, "áģĢáģĢáģĢ": 9603, "áŀŁáŀĦáŁĴáŀĤáŁĴáŀļáŁĦáŁĩ": 9604, "áŀŁáŁĴáŀıáŀ¸áŀĸáŀ¸": 9605, "áŀļáŀĢáŀĥáŀ¾áŀī": 9606, "áĢĲáĢĬáĢ¹áĢ¸áĢĢ": 9607, "»áĢĻáĢĦáĢ¹áĢ": 9608, "ĠáĢĲáĢ½áĢĦáĢº": 9609, "Ġika": 9610, "amil": 9611, "à¯Īà®®": 9612, "áŀĶáŀļáŀĳáŁģáŀŁ": 9613, "áŀĵáŀ·áŀĻáŀĺ": 9614, "áŀĵáŀ¶áŀŁ": 9615, "ĠàºĬàº¶à»Īàºĩ": 9616, "áŀħáŁĨáŀİáŀ¼áŀĽ": 9617, "Ġà¹Ħà¸Ķà¹īà¸": 9618, "à¯Īà®ķà¯įà®ķà¯ģ": 9619, "áĢĻáĢ¬áģ»": 9620, "ĨáĢĽáĢ¬": 9621, "ĠáĢķáĢ¼áĢ²": 9622, "ĠáĢĴáĢ«áĢ±áĢķáĢĻáĢ²áĢ·": 9623, "áĢħáĢ¯áĢ¶": 9624, "áŀ½áŀīáŀĬ": 9625, "áŀ¶áŀĳáŁħ": 9626, "Ġàºģàº´": 9627, "Ġà¸Ńà¸±à¸": 9628, "ĠBuh": 9629, "ĠAN": 9630, "ES": 9631, "ĠáŀıáŁĴáŀļáŀ¡áŀĶáŁĭ": 9632, "ilala": 9633, "à®Łà¯įà®ļ": 9634, "ĠáŀĤáŁĴáŀļáŀ¶áŀĵáŁĭáŀıáŁĤ": 9635, "áĢ¬áĢ¸áĢĽáĢ½áĢŃ": 9636, "ĽáĢķáĢ¹áĢ": 9637, "ĠáĢĶáĢ¬áĢ¸áĢľ": 9638, "¡à¸·à¸Ńà¸ĸà¸·à¸Ń": 9639, "55": 9640, "à¹ģà¸ŀà¸": 9641, "ĠÄĳi": 9642, "ĠáŀĢáŀĺáŁĴáŀŁáŀ¶áŀĵáŁĴáŀı": 9643, "ĠáŀĢáŁĨáŀł": 9644, "ĠáĢ±áĢľáĢ·áĢľáĢ¬": 9645, "áĢĳáĢĢáĢº": 9646, "à®µà®°à¯įà®ķà®³": 9647, "ĠáŀĢáŀ»áŀĺáŁĴáŀĹáŁĪ": 9648, "Ġ2010": 9649, "áŁģáŀĩ": 9650, "áŀĽáŀ·áŀħ": 9651, "å¤ĩ": 9652, "àºĻàº²": 9653, "áŀĶáŀĦáŁĴáŀĤ": 9654, "Ġjuga": 9655, "ago": 9656, "Ġwas": 9657, "Ġ']": 9658, "ªà¸¹à¸ĩà¸": 9659, "áŀıáŁĴáŀļáŀ¼": 9660, "áŀħáŁģáŁĩ": 9661, "áŀĢáŀ¶áŀļáŀ·áŀĻáŀ¶áŀĽáŁĲáŀĻ": 9662, "åİ»": 9663, "áŀ·áŀĹáŀ¶áŀĢ": 9664, "áĢ¦áĢ¸": 9665, "áŀ¶áŀĺáŀ¸": 9666, "à»ĥà»Ŀà»Ī": 9667, "áŀ¡áŀ¶áŀĵ": 9668, "áĢ®áĢ¸áĢĲáĢ±áĢ¬áĢ·": 9669, "ĺáĢ¯áĢĽ": 9670, "ĠáĢĹáĢ¯áĢĴáģ¶": 9671, "áģļáĢº": 9672, "áĢĶáĢ¹áĢĶ": 9673, "áĢĲáĢģáĢ¯": 9674, "ħáĢ¥áĢ¹áĢ": 9675, "ĠáĢ»áĢĸáĢħáĢ¹áĢ±áĢĶ": 9676, "áģ¿áĢĸáĢħáĢ¹áĢ": 9677, "áĢĨáĢŃáĢ¯áĢĽáĢĦáĢ¹": 9678, "ĲáĢ²áĢ·áĢ¡áĢģáĢ«": 9679, "ĠáĢ¡áĢ±áĢĻáĢĽáĢŃáĢĢáĢĶáĢ¹": 9680, "ĠáĢľáĢŃáĢ¯áĢ¡áĢķáĢ¹áĢ": 9681, "ĠáĢľáĢ°áĢĻáĤĪ": 9682, "ĠáĢĻáĢ¾áĢ¬": 9683, "ģáĢĦáĢ¹áĢ": 9684, "ĠáģĤáģħ": 9685, "áĢĻáĢ¼áĢ±áĢ¬áĢĢáĢº": 9686, "ĠCom": 9687, "à®ļà¯į": 9688, "à»Ģàº¡àº·à»ĪàºŃ": 9689, "erb": 9690, "ĨáŁĴáŀĽ": 9691, "ļà¸Ļà¸±à¸": 9692, "Ġà¸Ĥà¸Ńà¸ĩà¸": 9693, "ĠáŀĽáŁĴáŀĶáŀ¸": 9694, "áĢĲáĢķáĢº": 9695, "áŀħáŁĨáŀİáŁĤáŀĢ": 9696, "«à¸Ļà¸±à¸ĩà¸": 9697, "áŀħáŀ·áŀıáŁĴáŀıáŀĳáŀ»áŀĢáŀĬáŀ¶áŀĢáŁĭ": 9698, "áŀĤáŁĴáŀļáŀ½áŀŁáŀ¶áŀļ": 9699, "àºĻàº±àºļ": 9700, "ĠPang": 9701, "Ã¾": 9702, "ĠáŀŁáŀ»áŀľáŀıáŁĴáŀĲáŀ·áŀĹáŀ¶áŀĸ": 9703, "àºķà»įà»Īàº": 9704, "Ġï¼ģ": 9705, "ĠáŀļáŀĶáŀĶ": 9706, "ĠáŀĹáŀ¼áŀĺ": 9707, "Ġ28": 9708, "Łà¸¸à¸ķà¸ļà¸Ńà¸¥à¸": 9709, "§à¹ĩà¸ļà¹Ħà¸ĭà¸": 9710, "Ġè®": 9711, "ĠáŀĶáŁĨáŀĶ": 9712, "ĠáŀĲáŁĴáŀĺ": 9713, "áĢ¸áĢĽáĢ½": 9714, "áĢ´áĢ¸áĢ": 9715, "ĠáĢĳáĢ°áĢ¸áĢ": 9716, "à¯Ĭà®°": 9717, "lot": 9718, "à¹īà¸Ńà¸Ļà¸": 9719, "Ã¡y": 9720, "au": 9721, "áĢĨáĢ¯": 9722, "ĠSA": 9723, "ays": 9724, "Ġáŀħáŀ¶áŀŁáŁĭ": 9725, "áĢ¼áĢĶáĢ¹áĤĶ": 9726, "ĠáĢĳáĢ²": 9727, "ĠáĢĲáĢĽáĢ¬áĢ¸áĢħ": 9728, "áŁĴáŀļáŀłáŀŁáŁĴáŀĶ": 9729, "áŀŁáŀ·áŀĢáŀļ": 9730, "áŀĶáŀıáŀ¸": 9731, "áŀĩáŁĦáŀĤáŀĩáŁĲáŀĻ": 9732, "àºĬàº²àºį": 9733, "ĠáĢ¡áĢ¯áĢķáĢ¹áĢ": 9734, "ĠNov": 9735, "áĢ¼áĢĶáĢ¹áĢľ": 9736, "áĢ»áĢķáĢĦáĢ¹áĢ": 9737, "ĠáĢŁáĢ¯áĢĲáĢ¹áĢ": 9738, "ĠáĢ±áĢĶáĢ¬áĢĢáĢ¹": 9739, "ĠáĢ¡áĢĻáĢºáĢ³áĢŃáĢ¸áĢŀ": 9740, "ģáĢ»áĢĢáĢº": 9741, "áŀĤáŁĨáŀĵáŀ·áŀı": 9742, "áŀ·áŀĹáŀ¶áŀĢáŁĴáŀŁáŀ¶": 9743, "Ġà¸ģà¸¥": 9744, "áŀ·áŀĹáŀ¶áŀĢáŁĴáŀŁ": 9745, "ĠáŁ¢áŁ¤": 9746, "ĠáŀŁáŀĵáŁĴáŀĵ": 9747, "àº²àºģàº²àºĻàº": 9748, "ĠáŀĤáŁĨ": 9749, "ąć": 9750, "çĽ®": 9751, "ANG": 9752, "Ġgan": 9753, "áŁĴáŀļáŀĶáŁĭáŀĤáŁĴáŀļáŀĦ": 9754, "áŀĹáŁĴáŀĩáŀ¶áŀĶáŁĭ": 9755, "áĢŀáĢĦáĢ¹áĢ·": 9756, "±áĢĨáĢ¬áĢĢáĢ¹áĢ": 9757, "ĠáĢĶáĢ¾áĢĦáĢ·áĢº": 9758, "¨à¸²à¸ªà¸ķà¸£": 9759, "ibig": 9760, "àº±àºģàºĻà»īàºŃàºį": 9761, "áŀĵáŁĴáŀĻáŀ¶": 9762, "áŀĳáŁĦáŁĩ": 9763, "Ġà®ħà®µà®°à¯įà®ķà®³": 9764, "eat": 9765, "Ġtulad": 9766, "Ġbr": 9767, "Ġakong": 9768, "syon": 9769, "áŀĳáŀ·áŀŁ": 9770, "áŀħáŀ¶áŀĶáŁĭáŀķáŁĴáŀıáŀ¾áŀĺ": 9771, "Ĥàº¶à»īàºĻàº": 9772, "áŀģáŁĴáŀŁáŁĤ": 9773, "à®®à¯įà®®": 9774, "ªà¸°à¹Ģà¸": 9775, "Ġà¸ģà¹ĩà¸": 9776, "æĹĹ": 9777, "ien": 9778, "Ġáŀłáŀ¶áŀĦ": 9779, "ĠãĢĲ": 9780, "18": 9781, "Ġà®®à®¾à®¤": 9782, "åĽ¢": 9783, "áŁĨáŀĬáŀ¶áŀĶáŁĭ": 9784, "otel": 9785, "['": 9786, "à¹Ģà¸Ńà¸": 9787, "à»Ĥàº«àºį": 9788, "é¤": 9789, "áŀŁáŁĴáŀŁáŀĵáŀ¶": 9790, "ĠE1": 9791, "áĤĪáĢķáĢ¹áĢĽáĢ½": 9792, "áģĢáĢĦáĢ¹áĢ¸": 9793, "áĢĲáĢĢáĢ¹áĢ": 9794, "ŀáĢŃáĢ¯áĤĶ": 9795, "ĽáĢĦáĢ¹áĢ¸": 9796, "ĸáĢŃáĢ¯áĢ·": 9797, "ĠáĢĲáĢħáĢ¹áĢ±áĢļáĢ¬áĢĢáĢ¹áĢ": 9798, "áĢĨáĢ±áĢ¸áĢ": 9799, "áŀŁáŁĴáŀŁáŀ¶áŀł": 9800, "àºµàº§àº´àºĶàº": 9801, "çĥ": 9802, "Ġà¸Ŀà¸²à¸ģ": 9803, "Ķà¸µà¸Ĺà¸µà¹Īà¸ªà¸¸à¸Ķ": 9804, "ĠnÆ°á»Ľc": 9805, "Ġà®ħà®ªà¯įà®ª": 9806, "áĢ¬áĢ¸áĢ±áĢĶ": 9807, "±áĢŀáĢ¸áĢ": 9808, "ĠáĢ¡áĢ¬áĢ¸": 9809, "¥à¸¥": 9810, "áŀŁáŀĺáŁĴáŀĬ": 9811, "áŀĹáŁĴáŀĵáŀ¶áŀĢáŁĭáŀĦ": 9812, "áĢĳáĢŃáĢ¯áĢĦáĢ¹áĢ": 9813, "áĢĲáĢ±áĢ¬áĢĦáĢº": 9814, "Ġà®īà®±": 9815, "Ġtina": 9816, "áŀĵáŁĴáŀĽáŀº": 9817, "®à»Īàº§àº¡àº¡àº·": 9818, "Ľàº°àºģàºŃàºļ": 9819, "áĢĦáĢ¹áĢĲáĢĶáĢ¹áĢ¸": 9820, "ĠáĢĩáĢ°": 9821, "ĠáĢ¡áĢĻáĤĪ": 9822, "áĢķáĢ½": 9823, "áŀĩáŀ¶áŀ": 9824, "áŀ¶áŀĽáŁĴáŀĽ": 9825, "ªàº³": 9826, "ŀà¸¢à¸²à¸": 9827, "áĢ±áĢĽáĢŃáĢĢ": 9828, "çĻ¾å®¶": 9829, "å·¥ä½ľ": 9830, "áŀ¢áŀ¶áŀĩáŁĴáŀīáŀ¶áŀĴáŀļáŀ": 9831, "ĠáŀŁáŁĴáŀĲáŀ¶áŀĵáŀĹáŀ¶áŀĸ": 9832, "Ġnya": 9833, "uhan": 9834, "Ġà®¤à¯ĭ": 9835, "ĠáŀŁáŀĺáŀıáŁĴáŀĲáŀĹáŀ¶áŀĸ": 9836, "·à¹Īà¸Ńà¸Ļ": 9837, "ĠáŀļáŀĬáŀ¼áŀľ": 9838, "é¢ĺ": 9839, "áĢ¡áĢĸáĢ¼áĢ²áĤĶ": 9840, "áĢ¡áĢ¬": 9841, "ĠáŀĻáŁĦáŀĴáŀ¶": 9842, "ĠáŀĬáŀ¶áŀħáŁĭ": 9843, "ĳáĢ²áĢĢ": 9844, "¹à¹īà¸": 9845, "AS": 9846, "ty": 9847, "anc": 9848, "áĢģáĢ¼áĢ¬áĢ¸áĢ": 9849, "à®²à®¿à®²à¯į": 9850, "Ġáŀ§áŀıáŁĴáŀıáŀĺ": 9851, "ĠIto": 9852, "áŁĬáŀ¼": 9853, "Ġàºªàº´à»Īàºĩ": 9854, "áŀļáŀ¶áŀĩáŀļáŀĬáŁĴáŀĭáŀ¶áŀĹáŀ·áŀĶáŀ¶áŀĽ": 9855, "áŀĹáŁĴáŀĵáŁĤáŀĢ": 9856, "ģà¸³à¸¥à¸±à¸ĩà¸": 9857, "Ġèµ": 9858, "ricult": 9859, "ike": 9860, "ĠáŀľáŁģ": 9861, "áĢĻáĢ½áĢĶáĢ¹áĢ": 9862, "áĢķáĢ®": 9863, "áº¯t": 9864, "àºµàºļ": 9865, "Ġáŀĵáŀ·áŀĦáŀĺáŀ¶áŀĵ": 9866, "áĢħáĢķáĢº": 9867, "è§£": 9868, "Ġkaysa": 9869, "ĠáŀĤáŀĦáŁĭ": 9870, "áŀıáŁĴáŀĬáŀĺ": 9871, "áŀĦáŁĴáŀĤáŀĽ": 9872, "áŀĢáŀĺáŁĴáŀĸáŀŁáŁĭ": 9873, "áŀĢáŀŁáŀ·áŀĢáŀĺáŁĴáŀĺ": 9874, "ĶáŁĴáŀļáŀ": 9875, "ĠáŀŁáŁĴáŀľáŀ¶áŀĻ": 9876, "ĠáŀĶáŁĴáŀļáŀĸáŀĵáŁĴáŀĴ": 9877, "ĠáŀĴáŀ¸": 9878, "áŀĶáŁĨáŀĶ": 9879, "½àº¡": 9880, "Ġà®īà®¯": 9881, "ĢáĢŃáĢ¯áĢĦáĢ¹áĢ": 9882, "áĢķáĢ±áĢĻáĢļáĢ·áĢº": 9883, "áŀ»áŀļáŀŁ": 9884, "¥àº±àºĶàºĸàº°àº¡àº»àºĻàºķàºµ": 9885, "áĢģáĢ½áĢ²": 9886, "Ġáŀ¥áŀ¡áŀ¼áŀľ": 9887, "à»ĥàºĻàºģàº²àºĻ": 9888, "«à¸¥à¸±à¸ĩ": 9889, "áŁģáŀłáŁį": 9890, "áŀŁáŀĺáŁĴáŀĹ": 9891, "áŀĤáŀ·áŀıáŀĲáŁĴáŀĽáŁĥ": 9892, "áŀ±": 9893, "ĠáŀŁáŀ¶": 9894, "ĠáŀĶáŁĤáŀĢ": 9895, "Ġà¸Ńà¹Īà¸²à¸Ļ": 9896, "Ġà¸ľ": 9897, "ļà¸£": 9898, "åŀ": 9899, "Ġdownload": 9900, "Ġbin": 9901, "áĢ±áĢģáĢ»": 9902, "Ġinf": 9903, "ĠHomeáŀĸáŁĲáŀıáŁĮáŀĺáŀ¶áŀĵ": 9904, "áŁĴáŀĻáŀĽáŁĭ": 9905, "Ĭà¸Ļ": 9906, "Ġà®ļà®¨à¯įà®¤": 9907, "áĢ¡áĢģáĢ¼": 9908, "Ġpeng": 9909, "àºģàº»": 9910, "Ġlunas": 9911, "áŀļáŀ·áŀı": 9912, "Ĺà¸³à¹ĥà¸«à¹īà¸": 9913, "ĠAs": 9914, "uyá»ĩ": 9915, "onym": 9916, "ĠâĢ¢": 9917, "áŀļáŀļáŀ": 9918, "Ġbang": 9919, "ĠáĢ¡áĢģáĢ«": 9920, "áĢľáĢ¬áĢĽ": 9921, "åįģ": 9922, "à®Ļà¯įà®ķà®³à®¿à®²à¯į": 9923, "àº²àºļà»įà»Ī": 9924, "áŀıáŁĴáŀĲáŀĺáŁĴáŀĹ": 9925, "Ġáŀļáŀ¸áŀĢ": 9926, "ys": 9927, "áĢģáĢĦáĢ¹": 9928, "ĠáĢ¡áĢ±áĢĢáĢ¬áĢĦáĢ¹áĢ¸": 9929, "áģ¾áĢĢáĢĬáĢ·áĢ¹áĢ": 9930, "áĢ»áĢĻáĢĦáĢ¹áĢ·": 9931, "ĠáĢĸáĢŃ": 9932, "Ġáŀĺáŀ¸áŀĵáŀ¶": 9933, "ŀàº£àº°à»Ģàº": 9934, "ĤàºŃàºĩàºŀàº§àºģ": 9935, "ĠáŀĶáŀ»áŀĤáŁĴáŀĤáŀĽáŀ·áŀĢ": 9936, "ural": 9937, "ĠáŀıáŀĺáŁĴáŀļáŀ¼áŀľ": 9938, "¢à¸¡": 9939, "ĠáĢĢáĢ¯áĢľ": 9940, "áĢĭáĢ¹áĢ": 9941, "áĢĤáĢ¹áĢĤ": 9942, "ase": 9943, "ŀà¸§à¸": 9944, "ĠáŀĤáŁĴáŀļáŀ¿áŀĦáŀīáŁĢáŀĵ": 9945, "áŀĸáŁĲ": 9946, "áŀĸáŀİáŁĮ": 9947, "Ġà»ģàºģ": 9948, "áĢ±áĢ¸áĢĢáĢŃáĢ¯": 9949, "æīĢ": 9950, "Ġàºŀàº²àºį": 9951, "áŀĶáŀ¶áŀıáŁĭáŀĬáŁĨáŀĶáŀĦ": 9952, "áŀĵáŀ¶áŀĵ": 9953, "AY": 9954, "onymous": 9955, "Ġina": 9956, "áŀĢáŀ¶áŀļáŀĻ": 9957, "áº¡t": 9958, "áĢ¯áĢŃáĢ¸": 9959, "ĠáĢ¡áĢģáĢ»áĢŃáĢĶáĢº": 9960, "áŀ»áŀĢáŁĴáŀļ": 9961, "ĠàºĤà»įà»ī": 9962, "Ġtayo": 9963, "áŀ·áŀĹáŁĲáŀĻ": 9964, "Ġbokep": 9965, "Ġkala": 9966, "à®µà®°à¯įà®ķà®³à¯į": 9967, "à»ĢàºĻàº·à»īàºŃ": 9968, "ĠáŀĶáŁĴáŀļáŀĸáŁĴáŀļáŀ¹áŀıáŁĴáŀı": 9969, "ĠáŀĢáŁĴáŀļáŁħáŀĸáŀ¸": 9970, "à»ĢàºĻàºµàºĻàº": 9971, "ĠáŀĢáŀ¶áŀļáŀļáŀ": 9972, "¸à¸ģà¸": 9973, "ĠáŀĢáŀ¶": 9974, "áŁĦáŀĶáŀĽáŁĭ": 9975, "áĢĻáĢ¹áĢ¸áĢŀáĢ¬": 9976, "±áĢĲáĢ¬áĢĦáĢ¹": 9977, "ĩáĢ¬áĢ¹áĢ": 9978, "ĨáĢ¯áĢ¶áĢ¸áĢ": 9979, "Ġà®ķà®¿à®Ł": 9980, "áŀľáŁģáŀĽáŀ¶áŀĺáŁīáŁĦáŀĦ": 9981, "áŀĺáŁĴáŀıáŀ¶áŀĻ": 9982, "à¸£à¸¹à¸Ľ": 9983, "áŀĬáŀ¶áŀĵ": 9984, "àºķàº²àº¡": 9985, "ĠáŀŁáŀĸ": 9986, "ĠáŀĶáŁĴáŀļáŁģáŀĦ": 9987, "ĠáŀıáŁĤáŀĦáŀıáŁĤ": 9988, "ckles": 9989, "ote": 9990, "ĠáĢĻáĢºáĢ¬áĢ¸": 9991, "ĠáĢĢáĢ¼áģ½áĢĶáĢ¹áĢ±áĢĲáĢ¬áĢ¹áĢ": 9992, "áĢĽáĢ½áĢŃáĢĲáĢ²áĢ·": 9993, "áĢĴáĢ¹áĢ": 9994, "áĢ¡áĢĲáĢŃáĢ¯áĢĦáĢ¹áĢ¸": 9995, "áĢ¡áĢĲáĢ¼áĢĢáĢ¹áĢ": 9996, "±áĢķáĢ¸áĢķáĢ«": 9997, "áĢŀáĢħáĢ¹áĢ": 9998, "áĢ±áĢŀáĢ¸áĢĲáĢļáĢ¹": 9999, "áĢ±áĢĽáĢ¬áĢĦáĢ¹áĢ": 10000, "áĤĢáĢĢáĢ®áĢ¸áĢĢ": 10001, "ĠáĢĢáĢºáĢ±áĢĶáĢ¬áĢ¹áĢĲáĢŃáĢ¯áĤĶ": 10002, "áĢĻáĢļáĢ¹áĢ": 10003, "ĹáĢºáĢ¬": 10004, "ĠáĢľáĢ¶áĢ¯": 10005, "ĠáĢĴáĢ¯áĢĢáģ¡": 10006, "ĠáĢħáĢĬáĢ¹áĢ¸": 10007, "áģº": 10008, "áĢł": 10009, "arap": 10010, "à®¿à®¯à®¿à®©à¯į": 10011, "ĠáŀĢáŁĴáŀļáŀ»áŀĺáŀĶáŁĴáŀļáŀ¹áŀĢáŁĴáŀŁ": 10012, "áŀľáŀ·áŀłáŀ¶áŀļ": 10013, "áŀĴáŁĴáŀĻáŀĺ": 10014, "áŀĬáŀĢ": 10015, "»áĢķáĢ®áĢ¸áĢ": 10016, "ĠáģĭâĢĿ": 10017, "áŀĩáŀ½áŀĽ": 10018, "áĢĶáĢ¹áĤĢáĢĢáĢ®áĢ¸áĢĮáĢ¬áĢĶ": 10019, "áĢĶáĢĬáĢº": 10020, "Ġà¸ªà¹Īà¸§": 10021, "áŀ·áŀĺ": 10022, "áŀ¶áŀĽáŁĴáŀĽáŀºáŀĺáŁīáŀĦáŁĭ": 10023, "ç¼": 10024, "Ġgamit": 10025, "Ġà¹ģà¸ķà¹Ī": 10026, "»áŀĦ": 10027, "áĢħáĢ½": 10028, "ire": 10029, "ĠáŀĹáŀ¶áŀĤáŀļáŀĻ": 10030, "Ġtiáº¿": 10031, "pe": 10032, "±à¸Ķà¸": 10033, "ĠáŀĶáŀĦáŀĶáŁĴáŀ¢áŀ¼áŀĵ": 10034, "Ġart": 10035, "áŁĦáŀĦáŀħáŀĢáŁĴáŀļ": 10036, "áŀŁáŁĴáŀıáŁĤáŀĦ": 10037, "Ġag": 10038, "æ·": 10039, "àº´àºļ": 10040, "áŀŁáŀĲ": 10041, "áŀŁáŀ¼áŀľ": 10042, "Ġà®ªà¯ĩà®ļ": 10043, "ģáĢ²áĤĶ": 10044, "ĠáĢŀáĢ°áĢĲáĢ¯áĢŃáĤĶ": 10045, "ĠáĢĴáĢ±áĢ«áĢº": 10046, "ŀà¸¹à¸": 10047, "áĢ±áĢľáĢ¸áĢĢáĢŃáĢ¯": 10048, "ĠáĢ¡áĢģáĢºáĢŃáĢĶáĢ¹áĢ": 10049, "áĢĶáĢ±áĢĽ": 10050, "Ġdia": 10051, "ĭĹä¸ĩ": 10052, "åĲĹ": 10053, "áŀĽáŁĨáŀĵáŁħ": 10054, "æĸ¯": 10055, "gan": 10056, "áŀĹáŁĴáŀĵáŁĨ": 10057, "áĢıáĢ¹": 10058, "áĢ¡áĢľáĢ¯áĢķáĢ¹áĢ": 10059, "áĢľáĢ¬áĢĲáĢ²áĢ·": 10060, "áĢĻáĢĽáĢ¾áĢŃ": 10061, "à¯Ĥà®°": 10062, "¢à¸´à¸ĩà¸Ľà¸¥à¸²": 10063, "«à¸Ļà¸¶à¹Īà¸ĩ": 10064, "áŀĴáŁĴáŀĦáŀļ": 10065, "àº±àºĶàºŀ": 10066, "unod": 10067, "àº±àº¡": 10068, "áŀĤáŁĴáŀļáŀĶáŁĭáŀĤáŁĴáŀļáŀĦ": 10069, "áŀ¶áŀĬáŁĨáŀĶáŀ¼áŀĦ": 10070, "à®¿à®¯à¯ĩ": 10071, "áŀ¢áŀ¶áŀľáŀ»áŀĴáŀłáŀıáŁĴáŀĲ": 10072, "·áŀĵáŀ¸": 10073, "ĠáŀĶáŀĦáŁĴáŀĢáŁĴáŀļáŀ¶áŀĶ": 10074, "ĠáŀĢáŁĤáŀĶáŁĴáŀļáŁĤ": 10075, "ĠáŀĢáŀŁáŀ¶áŀĦ": 10076, "ĠiPhone": 10077, "áŁĤáŀĳ": 10078, "áŀĳáŀ¶áŁĨáŀĦáŀĵáŁģáŁĩ": 10079, "àºªàº±àºĶ": 10080, "áĢĬáĢ¹áĢ¡": 10081, "±áĢĦáĢ¼": 10082, "ķáĢ«áĢĲáĢ®": 10083, "ĠáĢĲáĢŃáĢ¯áĢ·": 10084, "lat": 10085, "Ġpak": 10086, "Ľà¸ı": 10087, "tu": 10088, "áŀ·áŀĽáŀĺáŀ·áŀī": 10089, "áŀ·áŀĵáŁĴáŀĳáŀ»": 10090, "ĠáĢĢáĢ¶": 10091, "áĢĶáĢ±áĢĲ": 10092, "áĢĲáģ±áĢ¬": 10093, "áĢĲáĢ²áĤķ": 10094, "áĢ°áĢ¸áĢľ": 10095, "Ġsec": 10096, "iy": 10097, "ŀàº±àºĶàºĹàº°àºĻàº²": 10098, "Ġà®ªà¯ĭà®²": 10099, "ĠáŀĸáŁĦáŀĽ": 10100, "ĠáĢĦáĢ«áĢ·": 10101, "áĢĶáĢ±áĢ¬áĢĢáĢº": 10102, "ģàº±àºĻ": 10103, "ĠáŀıáŁĴáŀļáŀĦáŁĭ": 10104, "ĠáŀĬáŁĨáŀİáŀ¾áŀļáŀĢáŀ¶áŀļ": 10105, "ĠtÃ´i": 10106, "à¹īà¸²à¸¢à¸": 10107, "ĠáŀĪáŁĴáŀĺáŀ½áŀī": 10108, "Ġáŀ¢áŀĦáŁĭáŀĤáŁĴáŀĽáŁģáŀŁ": 10109, "áĢĲáĢ¯áĢŃáĢĦáĢ¹áĢ¸": 10110, "áĢĤáģ¢áĢŃáĢ³": 10111, "áĢĢáĢŃáĢ¯áĢļáĢ¹áĢ": 10112, "áĢĢáĢ¹áĢĳ": 10113, "áĢ±áĢķáĢ«áĢĲáĢļáĢº": 10114, "ĠáĢķáĢ¯áĢĴ": 10115, "áĢĿáĢĲáĢ®": 10116, "áĢĺáĢ¬áĢľ": 10117, "áŁģáŀĬáŁĴáŀĭ": 10118, "áŀŁáŁĴáŀŁáŀ¸": 10119, "áŀŁáŁĨáŀİáŀ¶áŀĢáŁĭ": 10120, "àºĬàº§àºĩ": 10121, "ĪàºµàºĻ": 10122, "áŀķáŁĴáŀĬáŀ¾áŀĺ": 10123, "Ġà»ľàº¶à»Īàºĩ": 10124, "»áĢķáĢĬáĢ¹áĢĶáĢļáĢ¹áĢ": 10125, "±áĢŀáĢ¬áĢĢáĢ¹áĢ": 10126, "ĴáĢ®": 10127, "ĠÂ¡Â": 10128, "ÌĢ": 10129, "áº©m": 10130, "ĲáĢĲáĢ¹áĢ": 10131, "ĠáĢĢáĢ¯áĢĻáģ¸áĢıáĢ®": 10132, "ĠáĢ»áĢĻáĢĶáĢ¹áĢĻáĢ¬áĤıáĢ¯áĢŃáĢĦáĢ¹áĢĦáĢ¶": 10133, "ĠáĢ»áĢķáĢĬáĢ¹áĢĲáĢ¼áĢĦáĢ¹áĢ¸": 10134, "ĠáĢ¡áĢŃ": 10135, "áĢļáĢºáĢľáĢŃáĢ¯áĢ·": 10136, "áĢ½áĢ±áĢ¸áĢĶáĢ½áĢ±áĢ¸áĢ": 10137, "Ġmaaari": 10138, "áŀĩáŀĶáŁīáŀ»áŀĵ": 10139, "áŀĤáŀ»áŀİáŀĹáŀ¶áŀĸ": 10140, "áĢ±áĢļáĢ¬": 10141, "áŀ¶áŀķáŁĴáŀĽáŀ¼áŀľ": 10142, "Ġà»ĢàºĤàº»àº²": 10143, "Ġàºķàº·à»ī": 10144, "Ġà®ĩà®±": 10145, "ĭà¸·à¹īà¸Ńà¸": 10146, "à»Ģà»ľàºµ": 10147, "ĠáŀĬáŀ¹áŀĦáŀĲáŀ¶": 10148, "ĠáŀħáŀĦ": 10149, "áŁĸ": 10150, "áŀľáŁģáŀĽáŀ¶": 10151, "Ġhanggang": 10152, "Ġà¸Ĭà¸±": 10153, "áº¥n": 10154, "áŀĻáŀ»áŀľáŀĩáŀĵ": 10155, "áŀķáŁĴáŀŁáŁģáŀĦáŀĳáŁĢáŀı": 10156, "ĻáĢ¾áĢ¬": 10157, "ĠáĢĳáĢŃáĢ¯áĢ·": 10158, "ŀà¸±à¸ģà¸": 10159, "Ġå½©": 10160, "èµĮ": 10161, "à»Ģàº«àº¼àº·àºŃ": 10162, "Ġæľī": 10163, "ªà¸²à¸£à¸": 10164, "áŀĩáŀ·áŁĩ": 10165, "áĢĻáĢ®áĢ¸": 10166, "ĠáĢŀáĢĦáĢ¹áĢ": 10167, "áĢŀáĢĬáĢºáĢ·": 10168, "à¯Īà®¯à®¾à®ķ": 10169, "ĠáĢľáĢ¯áĢķáĢ¹": 10170, "ĠáĢ¡áĢĻáĢº": 10171, "áŀħáŀĽáŀĵáŀĳáŁĴáŀļáŀĸáŁĴáŀĻ": 10172, "ĠáŀĺáŁģáŀĬáŀ¹áŀĢáŀĵáŀ¶áŁĨ": 10173, "áĢĻáĢ¼áĢĶáĢº": 10174, "àº·à»Īàº": 10175, "Ġanak": 10176, "ĠáŀĸáŁĴáŀļáŁĩâĢĮ": 10177, "ĠáŀĶáŁĴáŀ¢áŀ¼áŀĵ": 10178, "ĠáŀīáŁī": 10179, "ĠáŀĩáŁĨáŀĵáŀ½áŀĻ": 10180, "áŁĭáŀħáŀ¶áŁĨ": 10181, "ĠLang": 10182, "ahusay": 10183, "áŀŁáŁĴáŀŁáŀ¶áŀłáŀĢáŀĺáŁĴáŀĺ": 10184, "50": 10185, "à¹Ģà¸ģà¸µà¹Īà¸¢à¸§à¸": 10186, "Ġgusto": 10187, "áŀŁáŁĴáŀĵáŀĦ": 10188, "áĢĶáĢºáĢ·": 10189, "áŀŁáŀĹ": 10190, "ie": 10191, "Ġnab": 10192, "áŀĵáŁħáŀıáŁĤ": 10193, "æĢ»": 10194, "áŀĢáŀī": 10195, "áŀ½áŀļáŀŁ": 10196, "áŀ¼áŀľáŀ¸áŀĬ": 10197, "Ġmatapos": 10198, "áŀ»áŁĩáŀĶáŀİáŁĴáŀıáŀ¶áŀĽ": 10199, "áŀ¶áŀļáŀĩáŀ¶áŀıáŀ·": 10200, "àºªà»īàº²àºĩ": 10201, "Ġà¹Ģà¸ª": 10202, "áŀ¶áŀļáŀİ": 10203, "á»Ļc": 10204, "æµģ": 10205, "Ġà¹Ģà¸ŀà¸£à¸²à¸°à¸": 10206, "áŀ¢áŀĵáŀ»áŀīáŁĴáŀīáŀ¶áŀı": 10207, "à¸Ńà¸µà¸¢à¸": 10208, "ĠáĢ¡áĢĻáĢŃ": 10209, "áĢļáĢ¹áĢħáĢ¬áĢ¸áĢľáĢ½": 10210, "áĢĳáĢ¼áĢĶáĢ¹áĢ¸": 10211, "áĢ¶áĢ¯áĢ¸áĢ¡": 10212, "áĢ¡áĢ¯áĢķáĢº": 10213, "Ġà®®à®±": 10214, "áŀ¡áŀ¾áŀĦáŀľáŀ·áŀī": 10215, "łà¸¹à¸": 10216, "alis": 10217, "Ġà»Ĥàº¥": 10218, "ĠâĢĭâĢĿ": 10219, "àºŀàº°àºį": 10220, "ĠáŁ¢áŁ¡": 10221, "ĠáŀŁáŁĨáŀ¡áŁģáŀĦ": 10222, "Ġar": 10223, "à¹īà¸²à¸ĩà¸": 10224, "Ġà®ļà®°": 10225, "Ġloans": 10226, "áĢĲáģ³": 10227, "áĢĢáĢ¹áĢķ": 10228, "¡áĢħáĢŃáĢ¯áĢ¸áĢĽ": 10229, "Ġcomments": 10230, "áĤıáĢ½áĢŃ": 10231, "áĢħáĢĻáĢ¹áĢ¸": 10232, "áĢ¬áĢ¸áĢĲáĢ¬": 10233, "áĢ«áĢĲáĢ¹áĢ": 10234, "áģ¤áĢ¬": 10235, "áĢĽáĢķáĢ«": 10236, "ĠáŀĶáŁĴáŀļáŀ¡": 10237, "ĠåĨ": 10238, "ĠáŀĢáŀŁáŀ·áŀĢáŀĺáŁĴáŀĺ": 10239, "áŁĨáŀĸáŀ¹áŀĦ": 10240, "±áĢķáĢ¸áĢĽ": 10241, "ľáĢķáĢ¹áĢ": 10242, "ĠâĢ¦áģĭ": 10243, "ĠáĢŀáĢĬáĢº": 10244, "àºĻàº¶à»Īàºĩ": 10245, "à¹Ģà¸Ī": 10246, "àºģàº±àºĻàº": 10247, "hing": 10248, "áŀŁáŁģáŀļáŀ¸": 10249, "ï¿½ï¿½ï¿½ï¿½": 10250, "ç¦": 10251, "áŀĶáŁĴáŀļáŀłáŁĤáŀĽ": 10252, "à®¿à®°à¯ģà®¨à¯įà®¤à¯ģ": 10253, "99": 10254, "Ħà¹Īà¸²": 10255, "Ġadalah": 10256, "Ĥà»Īàº²àº§": 10257, "Ġtab": 10258, "Ġedad": 10259, "áŀĢáŀ¶áŀļáŀģ": 10260, "Ġàºĸà»īàº²àº": 10261, "unta": 10262, "Ġå·": 10263, "ĠáŀŁáŀ»áŀľáŀİáŁĴáŀİ": 10264, "ĠáŀŁáŁĴáŀ¢áŀ¶áŀı": 10265, "ªà¸ļà¸": 10266, "ĠáŀĦáŀ¶áŀĻ": 10267, "ĠáŀĢáŀ¶áŀļáŀĳ": 10268, "Ġáŀ¢áŀ¶áŀľáŀ»": 10269, "áŀľáŀ·áŀĵáŀ·áŀĻáŁĦáŀĤ": 10270, "áŀĳáŁĴáŀľ": 10271, "Ġàºķàº»àº§": 10272, "áŀĩáŀ¶áŀĳ": 10273, "iss": 10274, "æķ°": 10275, "Ġsal": 10276, "Ĺà¸´à¸": 10277, "à»Ģàº®àº±àºĶàº§àº½": 10278, "Ġquan": 10279, "ĠáĢĻáĢŁáĢ¯áĢĲáĢº": 10280, "áŀ§áŀŁáŀĹáŀ¶": 10281, "ĠáŁ¢áŁ£": 10282, "ĠáŀŁáŀ¶áŀĦáŀŁáŀĦáŁĭ": 10283, "ĠáŀļáŀŁáŁĴáŀĺáŀ¸": 10284, "ĠáŀĶáŀ¾áŀıáŀ¶áŀĺ": 10285, "Ġáŀħáŀĺ": 10286, "ĠáĢĹáĢ®": 10287, "áŁĴáŀļáŀ½áŀĻ": 10288, "ove": 10289, "inis": 10290, "àºĹàºµà»Īàºªàº¸àºĶ": 10291, "Ġkanya": 10292, "uring": 10293, "áŁĲáŀİáŁĴáŀİ": 10294, "ĠáĢ¡áĢ±áĢķáģļ": 10295, "áĢķáĢ±áĢ«áĢ·": 10296, "utin": 10297, "à¹Ħà¸¡à¹ī": 10298, "Ġsana": 10299, "áŀĶáŁĴáŀļáŁĤáŀĦ": 10300, "áŀĳáŁĢáŀıáŀĲáŀ¶": 10301, "áĢħáĢ±": 10302, "Ġbay": 10303, "áŀīáŁĴáŀīáŀ¶áŀİ": 10304, "áŀīáŁĴáŀħáŀĶáŁĭ": 10305, "Ġ']['": 10306, "à¹Īà¸Ńà¸¢": 10307, "áŀ¢áŀĵáŁĴáŀı": 10308, "imula": 10309, "áĢ¬áĢ¸áĢĲáĢħáĢ¹áĢ": 10310, "¥áĢķ": 10311, "ĠáŁ¢áŁ¦": 10312, "ĠáŀŁáŀłáŀĹáŀ¶áŀĸ": 10313, "Ġà®İà®©à¯į": 10314, "ĠáŀĶáŁĴáŀļáŁĤ": 10315, "ĠáĢĻáĢĶ": 10316, "ĠáĢĳáĢŃáĢĶáĢ¹áĢ¸": 10317, "ĠáĢĲáĢĬáĢº": 10318, "Ġà®Ĩà®°": 10319, "Ħà¸²à¸ªà¸´à¹Ĥà¸Ļ": 10320, "à¹Ģà¸Ńà¸µà¸¢à¸": 10321, "ĠáŀĳáŀĵáŁĴáŀĳ": 10322, "áŀłáŁĴáŀŁ": 10323, "à»ģàº®àºĩ": 10324, "«à¸¥à¸±à¸ģà¸": 10325, "ĠéĢ": 10326, "áŀĸáŁĴáŀĻáŀ¶áŀĶáŀ¶áŀĽ": 10327, "áŀĶáŁīáŀ»áŀĵáŁĴáŀıáŁĤ": 10328, "tib": 10329, "áŀ¢áŀīáŁĴáŀĩáŀ¾áŀī": 10330, "ģà¸²à¸¨à¸": 10331, "ĠáŀŁáŀĶáŁĴáŀıáŀ¶áŀłáŁį": 10332, "à»ĢàºŃàº»àº²": 10333, "à®ľ": 10334, "ĠáŀĶáŀ¼": 10335, "Ġáŀĳáŀ¸áŁ¢": 10336, "Ġáŀĩáŀ¶áŀŁ": 10337, "áĤĲáĢ¯áĢ¶": 10338, "áĢķáĢºáĢĻáĢĲáĢ±áĢ¬áĢº": 10339, "è®°": 10340, "áĢ·áĢ²": 10341, "áĢ¡áĢ»áĢĸáĢħáĢ¹": 10342, "ĠáĢ±áĢĳáĢ¬áĢĦáĢ¹áĢ": 10343, "áĢŀáĢĬáĢ¹áĢŁáĢ¯": 10344, "urance": 10345, "ĠáĢľáĢ»áĢ¾": 10346, "Ġáŀ¢áŁĨáŀĸáŀ¶áŀľáŀĵáŀ¶áŀľ": 10347, "ĠInter": 10348, "ĠAr": 10349, "áŁĴáŀļáŀ»áŀĽ": 10350, "áŁĤáŀļáŀĢáŁĴáŀļáŀłáŀĺ": 10351, "áŀļáŀĶáŁĢáŀĶ": 10352, "áŀĬáŀĳáŁĥ": 10353, "àºĶàº±à»Īàºĩàºģà»Īàº²àº§": 10354, "ĠáĢ¡áĢĲáĢ½áĢĢáĢº": 10355, "áĢĬáĢ¹áĢĽ": 10356, "áĢľáĢŃáĢ¯áĢĢáĢ¹": 10357, "áĢľáĢ¯áĢ¶áĢ¸": 10358, "æĭĽ": 10359, "å¸ĥ": 10360, "áŀ¼áŀĻ": 10361, "Ĺà¸£": 10362, "dl": 10363, "Ġáŀĺáŀ¶áŀıáŁĭ": 10364, "Ġáŀ¢áŀĤáŀ¶áŀļ": 10365, "à®¿à®ķà¯įà®ķà¯ģ": 10366, "áŁĴáŀĵáŁĦáŁĩ": 10367, "áŀłáŀ·áŀļáŀīáŁĴáŀīáŀľáŀıáŁĴáŀĲáŀ»": 10368, "áĢĳáĢ½áĢĢáĢº": 10369, "áŀĺáŁīáŁĤáŀıáŁĴáŀļ": 10370, "Ġvideo": 10371, "Ġtrans": 10372, "áŀĺáŀ·áŀĵáŀĺáŀ¶áŀĵ": 10373, "limming": 10374, "Ġpinag": 10375, "ĠáŀŁáŁĴáŀĽáŀ¶áŀĢ": 10376, "ĠáŀŁáŁĴáŀļáŀŁáŁĭ": 10377, "ĠáŀŁáŁĢáŀľáŀĹáŁħ": 10378, "¢à¸´": 10379, "ĠáŀļáŁĨáŀĽáŁĦáŀĹ": 10380, "Ġàºļàº±àºĻàº": 10381, "ĠáŀĺáŀĩáŁĴáŀĪáŀĺáŀİáŁĴáŀĮáŀĽ": 10382, "à»įà»īàº¡àº¹àºĻàº": 10383, "Ġáŀħáŀ·áŀīáŁĴáŀħáŀ¹áŀĺ": 10384, "Ġáŀ¢áŀĵáŀ»áŀīáŁĴáŀīáŀ¶áŀı": 10385, "áĢĲáĢºáĢľ": 10386, "à¯ĩà®¯": 10387, "ç§ĳ": 10388, "àºªàº²àº¡àº²àºĶ": 10389, "áŀŁáŀ·áŀĢáŁĴáŀŁáŀ¶": 10390, "ĺà¸´à¸": 10391, "áŀŁáŁĴáŀļáŀŁáŁĭ": 10392, "ĠMan": 10393, "áŀĺáŀĵáŁĴáŀĳáŀ¸áŀļáŀĸáŁģáŀĳáŁĴáŀĻ": 10394, "áŀĶáŀļáŀ·áŀŁáŁĴáŀĲáŀ¶áŀĵ": 10395, "áŀģáŀ¶áŀĦáŀĺáŀ»áŀģ": 10396, "AM": 10397, "ĠAnonymous": 10398, "uri": 10399, "áŀ·áŀĵáŁĲáŀĻ": 10400, "áĢ±áĢľáĢ¬áĢĦáĢ¹áĢ¸": 10401, "áĢ¯áĢŀ": 10402, "Ġáŀłáŀ»áŀĦ": 10403, "ĠáŀĢáŁĴáŀĽáŀ¹áŀĶ": 10404, "ĠáĢĲáĢ¬áĢĿáĢĶáĢ¹áĢ": 10405, "áĢĨáĢĦáĢ¹áĢ¸": 10406, "áĢ¡áĢĸáĢ¼áĢħáĢº": 10407, "áº«n": 10408, "áŁģáŁĩáŀĬáŀ¼áŀĦ": 10409, "áŀłáŀ¶áŀıáŁĭ": 10410, "Ľà¸£à¸°à¹Ģà¸Ĺà¸¨à¸": 10411, "áŀŁáŁĴáŀĦ": 10412, "Ļà¯įà®ķà®³à¯į": 10413, "Ľà»īàºŃàºĩàº": 10414, "Ùİ": 10415, "Ġboleh": 10416, "áŀľáŀĤáŁĴáŀĤ": 10417, "çĽ¸": 10418, "áŀĸáŀ¸áŀĵ": 10419, "áŀĶáŀİáŁĴáŀıáŀ¶áŀī": 10420, "Ġrec": 10421, "Ġfreckles": 10422, "aa": 10423, "Ġout": 10424, "its": 10425, "Ġmada": 10426, "áŀĶáŀ¶áŀīáŁĭ": 10427, "Ġà»ĥàºĪ": 10428, "áŀĴáŁĴáŀľáŀ¾áŀ±áŁĴáŀĻ": 10429, "Ġàº®àº¹àºļ": 10430, "ĠáĢķáĢĽ": 10431, "ĤàºŃàºļ": 10432, "áŀĬáŁĦáŁĩáŀŁáŁĴáŀļáŀ¶áŀĻ": 10433, "áŀĩáŀ»áŀĽ": 10434, "áŀ·áŁį": 10435, "áŀ¢áŁĨáŀİáŀ¶áŀħ": 10436, "Ġ2013": 10437, "áĢĦáĢºáĢ¸áĢĳ": 10438, "áŀ¢áŀıáŁĴáŀĲ": 10439, "Ġáŀļáŀ½áŀĺáŀĺáŀ¶áŀĵ": 10440, "ĠàºĻàº²": 10441, "ĠàºĪàº²àºģàº": 10442, "à¯įà®ļà¯įà®ļ": 10443, "ĠáŀĹáŀ¶áŀŁáŀ¶": 10444, "Ġloob": 10445, "áĢ±áĢ¬áĢºáĢķáĢ¼": 10446, "çĸ": 10447, "Ġsáº£n": 10448, "à»Ģàº¡àº·àºŃàºĩàº": 10449, "ķà¸²": 10450, "ĠáŀĪáŀĶáŁĭ": 10451, "¥à¸¢à¸": 10452, "áŁĴáŀĽáŀ¶": 10453, "ĠáĢĶáĢĬáĢº": 10454, "áŁĲáŀŁ": 10455, "Ġmar": 10456, "ªà¸¥à¹ĩà¸Ńà¸ķà¸": 10457, "ļà¸Ļ": 10458, "Ġà®®à¯ģà®©à¯įà®©": 10459, "áŀŁáŀĺáŀ¶áŀĩáŀ·áŀĢ": 10460, "áŀŁáŁĴáŀ¢": 10461, "Ġhá»£p": 10462, "áŀĺáŀ½áŀĻáŁĹ": 10463, "àºģàº»àºĶà»Ŀàº²àºį": 10464, "Ġtub": 10465, "áģ¿áĢĸáĢŃáĢ³": 10466, "áĢŀáĢ½áĢļáĢº": 10467, "Ġä¸Ĭ": 10468, "áŀĶáŀĦáŁĴáŀĢáŀ¾áŀĵ": 10469, "å¼Ģå¥ĸ": 10470, "ĠçĭĹä¸ĩ": 10471, "ĠåŃ": 10472, "áŀģáŁĴáŀĺáŁħ": 10473, "Ĭà¹Īà¸§à¸¢à¸": 10474, "áŀĢáŀ¶áŀĶáŁĭ": 10475, "ĠàºĻàºŃ": 10476, "áŀ¾áŀŁáŀ»áŁĨ": 10477, "à¹īà¸³": 10478, "éĢī": 10479, "áŀ¢áŀ¶áŀĢáŀ¶áŀŁ": 10480, "ĠPer": 10481, "áĢŀáĢĬáĢ·áĢ¹": 10482, "áĢĽáĢ®áĢľ": 10483, "Ġàº«àº²": 10484, "ĶáĢ¾áĢĦáĢºáĢ·": 10485, "ĠáĢĽáĢ¯áĢķáĢ¹áĢ": 10486, "ĠáĢ±áĢĿ": 10487, "áĢŀáĢĦáĢ·áĢº": 10488, "Ġà®ªà¯Ĩà®°": 10489, "Ġdam": 10490, "àºĽàºµ": 10491, "Ĳáŀ¶": 10492, "¹à¸Ļà¸": 10493, "ĠáŀŁáŁħ": 10494, "ĠáŀļáŀŁáŁĢáŀĽ": 10495, "Ġáŀļáŀ¸áŀ¯": 10496, "ĠáŀĶáŁģáŀĢáŁĴáŀģ": 10497, "ĠáŀĩáŁĦ": 10498, "ĠáŀĤáŀ¹áŀĺ": 10499, "ĠáŀĢáŀ¹áŀĺ": 10500, "ĠáŀĢáŀ¶áŀĶáŁĭ": 10501, "Ġnas": 10502, "ĠAgricult": 10503, "áŀĳáŀ¹áŀĢáŀħáŀ·áŀıáŁĴáŀı": 10504, "áĢ±áĢĽáĢŃáĢĢáĢĶáĢº": 10505, "ĠchÃŃnh": 10506, "Ġà¸Īà¸²à¸ģà¸": 10507, "ä»Ģ": 10508, "áŀĬáŁĤáŀĽáŀ¢áŁĴáŀĵáŀĢ": 10509, "Ĥà¸²": 10510, "àºĬàº§àºĩàº": 10511, "àº¸à»Īàº¡": 10512, "bl": 10513, "º«": 10514, "áŀĩáŀĺáŁĴáŀĦáŀº": 10515, "áŀ¶áŀĺáŀĳáŀ¶áŀļ": 10516, "áĢ±áĢģáĢ«áĢĦáĢ¹áĢ¸": 10517, "±áĢ»áĢģ": 10518, "ĠáģĤáģģ": 10519, "Ġbuw": 10520,
[...]
